/* Copyright 2020 The TensorFlow Authors. All Rights Reserved.

Licensed under the Apache License, Version 2.0 (the "License");
you may not use this file except in compliance with the License.
You may obtain a copy of the License at

    http://www.apache.org/licenses/LICENSE-2.0

Unless required by applicable law or agreed to in writing, software
distributed under the License is distributed on an "AS IS" BASIS,
WITHOUT WARRANTIES OR CONDITIONS OF ANY KIND, either express or implied.
See the License for the specific language governing permissions and
limitations under the License.
==============================================================================*/

// Automatically created from a TensorFlow Lite flatbuffer using the command:
// xxd -i model.tflite > model.cc

// This is a standard TensorFlow Lite model file that has been converted into a
// C data array, so it can be easily compiled into a binary for devices that
// don't have a file system.

// See train/README.md for a full description of the creation process.

#include "tensorflow/lite/micro/examples/hello_world/model.h"

// Keep model aligned to 8 bytes to guarantee aligned 64-bit accesses.
const int g_model_len = 7308;
alignas(8) const unsigned char g_model[] = {
  0x08, 0x00, 0x00, 0x00, 0x54, 0x46, 0x4c, 0x33, 0x36, 0xec, 0xff, 0xff,
  0x03, 0x00, 0x00, 0x00, 0x1c, 0x1c, 0x00, 0x00, 0xb4, 0x13, 0x00, 0x00,
  0x9c, 0x13, 0x00, 0x00, 0x04, 0x00, 0x00, 0x00, 0x15, 0x00, 0x00, 0x00,
  0x8c, 0x13, 0x00, 0x00, 0x84, 0x13, 0x00, 0x00, 0x64, 0x13, 0x00, 0x00,
  0x34, 0x13, 0x00, 0x00, 0x1c, 0x13, 0x00, 0x00, 0x0c, 0x12, 0x00, 0x00,
  0xfc, 0x10, 0x00, 0x00, 0xec, 0x08, 0x00, 0x00, 0xdc, 0x00, 0x00, 0x00,
  0xac, 0x00, 0x00, 0x00, 0x7c, 0x00, 0x00, 0x00, 0x4c, 0x00, 0x00, 0x00,
  0x44, 0x00, 0x00, 0x00, 0x3c, 0x00, 0x00, 0x00, 0x34, 0x00, 0x00, 0x00,
  0x2c, 0x00, 0x00, 0x00, 0x24, 0x00, 0x00, 0x00, 0x1c, 0x00, 0x00, 0x00,
  0x14, 0x00, 0x00, 0x00, 0x0c, 0x00, 0x00, 0x00, 0x04, 0x00, 0x00, 0x00,
  0x6c, 0xe4, 0xff, 0xff, 0x70, 0xe4, 0xff, 0xff, 0x74, 0xe4, 0xff, 0xff,
  0x78, 0xe4, 0xff, 0xff, 0x7c, 0xe4, 0xff, 0xff, 0x80, 0xe4, 0xff, 0xff,
  0x84, 0xe4, 0xff, 0xff, 0x88, 0xe4, 0xff, 0xff, 0x8c, 0xe4, 0xff, 0xff,
  0x56, 0xec, 0xff, 0xff, 0x04, 0x00, 0x00, 0x00, 0x20, 0x00, 0x00, 0x00,
  0x36, 0x95, 0xd8, 0x3d, 0xfd, 0x84, 0x3f, 0x3d, 0xf6, 0x62, 0x24, 0x3d,
  0x9f, 0x22, 0xd0, 0x3c, 0x00, 0x6b, 0xd7, 0x3c, 0x59, 0x9e, 0xe9, 0x3c,
  0x09, 0x5d, 0xa7, 0x3c, 0x2e, 0xfd, 0x87, 0xbc, 0x82, 0xec, 0xff, 0xff,
  0x04, 0x00, 0x00, 0x00, 0x20, 0x00, 0x00, 0x00, 0x3a, 0xba, 0xb5, 0xbc,
  0xee, 0xa6, 0x69, 0xbc, 0xb1, 0xa4, 0x8b, 0x3d, 0x30, 0x9a, 0x10, 0xbd,
  0x25, 0x37, 0x82, 0xbb, 0xf2, 0x19, 0x87, 0xbd, 0x19, 0x68, 0x12, 0xbd,
  0x14, 0x23, 0x48, 0xbc, 0xae, 0xec, 0xff, 0xff, 0x04, 0x00, 0x00, 0x00,
  0x20, 0x00, 0x00, 0x00, 0x83, 0x25, 0xce, 0xbc, 0xb5, 0xd5, 0xb0, 0x3c,
  0x7c, 0x15, 0x05, 0xbd, 0xba, 0xfb, 0xb8, 0xba, 0xb5, 0xe7, 0xb8, 0xbd,
  0x48, 0xd5, 0x05, 0xbd, 0xde, 0xfa, 0xc8, 0xbc, 0xbf, 0x6c, 0xca, 0xbc,
  0xda, 0xec, 0xff, 0xff, 0x04, 0x00, 0x00, 0x00, 0x00, 0x08, 0x00, 0x00,
  0xc1, 0xf4, 0xc1, 0x3d, 0xdf, 0x2f, 0x13, 0xbe, 0x7f, 0x67, 0x3b, 0x3d,
  0xdc, 0x78, 0x19, 0x3e, 0xbb, 0xf5, 0x05, 0xbd, 0xf9, 0xb9, 0x34, 0x3e,
  0xbb, 0xc3, 0x7c, 0xbd, 0xbb, 0x5f, 0x53, 0xbd, 0x13, 0x15, 0x52, 0x3e,
  0x17, 0x17, 0x40, 0xbe, 0x54, 0xe5, 0x6f, 0xbe, 0x62, 0xdf, 0x96, 0xbd,
  0xc8, 0xf2, 0xb5, 0xbd, 0x71, 0xf5, 0x82, 0x3d, 0x51, 0x8a, 0x81, 0xbe,
  0x62, 0x00, 0xce, 0xbc, 0x0d, 0x4f, 0x9c, 0xbe, 0x99, 0x65, 0x01, 0xbe,
  0x47, 0xa3, 0xfb, 0x3d, 0x44, 0xc1, 0x43, 0xbe, 0xb6, 0x83, 0x0a, 0xbe,
  0xc0, 0x96, 0xd3, 0xbd, 0x2e, 0x94, 0x3d, 0xbd, 0xca, 0x8f, 0x4c, 0xbe,
  0xc9, 0x7e, 0xda, 0x3b, 0xbb, 0xa9, 0x15, 0xbe, 0xfd, 0x72, 0x9b, 0xbb,
  0xb7, 0x9b, 0x01, 0xbe, 0x72, 0x86, 0x12, 0x3e, 0x09, 0x30, 0x93, 0xbe,
  0xe9, 0xf1, 0x42, 0xbd, 0x51, 0xfb, 0x7c, 0xbd, 0x75, 0xce, 0x99, 0xbe,
  0xf9, 0x43, 0x0a, 0xbe, 0x7d, 0xc6, 0x1f, 0x3d, 0xbe, 0xdb, 0x47, 0x3d,
  0x0e, 0x98, 0x69, 0xbc, 0x21, 0x4c, 0x22, 0xbe, 0xf0, 0xae, 0x21, 0xbd,
  0xfd, 0x35, 0xeb, 0xbd, 0x74, 0xb5, 0x97, 0xbe, 0xae, 0xee, 0xfb, 0x3c,
  0x55, 0x18, 0x95, 0x3c, 0x28, 0x6d, 0x4b, 0x3d, 0x42, 0xbe, 0x55, 0xbd,
  0x75, 0xdf, 0x10, 0xbd, 0x17, 0x06, 0x93, 0xbd, 0x27, 0x05, 0x13, 0x3e,
  0xee, 0xc8, 0xa6, 0xbd, 0x8f, 0xf3, 0xb5, 0x3c, 0x89, 0x39, 0x42, 0x3e,
  0x66, 0x08, 0xbe, 0x3d, 0xc4, 0x40, 0x1f, 0x3e, 0x46, 0x92, 0x29, 0xbe,
  0x18, 0xa9, 0x6b, 0xbe, 0xc0, 0xd0, 0x25, 0x3d, 0xe2, 0xb5, 0x93, 0xbe,
  0xcd, 0xdd, 0x3a, 0xbc, 0xc5, 0x3b, 0x3b, 0x3e, 0x9c, 0xf3, 0x00, 0x3c,
  0x6a, 0x64, 0x22, 0xbe, 0xfa, 0x70, 0x26, 0xbe, 0x4f, 0x66, 0x7a, 0xbd,
  0xd2, 0xb7, 0x81, 0x3d, 0xff, 0x17, 0x74, 0x3e, 0x83, 0x28, 0x2d, 0x3e,
  0x8a, 0xf9, 0x4a, 0x3e, 0xbf, 0x86, 0x26, 0xbe, 0x36, 0x0d, 0x17, 0x3d,
  0xa9, 0xde, 0x2b, 0xbd, 0x24, 0xbe, 0x50, 0xbe, 0x23, 0x6b, 0x9d, 0x3d,
  0x08, 0x3d, 0x1f, 0xbe, 0xc4, 0x83, 0xf7, 0xbc, 0x16, 0xe0, 0x85, 0x3e,
  0x2d, 0xe3, 0x51, 0x3d, 0x7d, 0x4e, 0xb2, 0xbe, 0x6d, 0x3d, 0x48, 0xbe,
  0x3d, 0x6f, 0xa5, 0xbd, 0x4e, 0x11, 0x2b, 0x3e, 0xc6, 0xed, 0x01, 0xbd,
  0xf4, 0xf6, 0xac, 0xbb, 0x80, 0x56, 0xc3, 0x3d, 0xef, 0x7a, 0x60, 0xbd,
  0x6e, 0xba, 0x4c, 0xbd, 0xac, 0x1b, 0x59, 0x3d, 0x4e, 0x76, 0x8e, 0xbe,
  0x39, 0x1a, 0xa5, 0x3e, 0x31, 0xa3, 0x5e, 0x3e, 0x9a, 0xfa, 0x52, 0x3e,
  0xf0, 0x62, 0xf5, 0x3d, 0xe6, 0xc2, 0x7c, 0xbd, 0x31, 0x63, 0x85, 0xbe,
  0xfa, 0x4b, 0x46, 0x3e, 0x14, 0x9d, 0x89, 0xbd, 0x8a, 0x5b, 0x0e, 0x3e,
  0x90, 0x5a, 0x17, 0x3d, 0xdf, 0xa3, 0x9f, 0xbd, 0xee, 0x0c, 0x36, 0xbc,
  0xb2, 0xb4, 0x09, 0xbd, 0x6d, 0x73, 0x14, 0xbe, 0xc8, 0xde, 0x61, 0xbd,
  0x69, 0xd2, 0x03, 0x3d, 0x58, 0x75, 0xc7, 0xbd, 0x98, 0xe0, 0x01, 0x3e,
  0x0c, 0xb0, 0x48, 0xbe, 0x63, 0xb4, 0xb2, 0xbe, 0x94, 0x2c, 0xaf, 0xbe,
  0x25, 0x41, 0xab, 0xbc, 0x6f, 0x23, 0x9d, 0x3c, 0x92, 0x27, 0x1e, 0xbe,
  0xe0, 0x02, 0x0e, 0x3e, 0xf1, 0x25, 0x3b, 0xbe, 0x0b, 0xb2, 0x88, 0xbd,
  0x0b, 0x76, 0x02, 0x3e, 0xe0, 0xa1, 0x9f, 0x3c, 0x0f, 0x8f, 0x79, 0xbe,
  0x96, 0x22, 0xbd, 0x3d, 0xf4, 0x83, 0x49, 0xbd, 0xf4, 0x0b, 0x8d, 0x3d,
  0x56, 0x98, 0x5e, 0xbe, 0x0e, 0x46, 0xe2, 0xbd, 0x63, 0xbc, 0x20, 0x3e,
  0x33, 0x7a, 0x33, 0x3d, 0xb4, 0x69, 0x15, 0xbe, 0xe4, 0xcf, 0xf0, 0xbd,
  0xc4, 0x62, 0x2c, 0x3e, 0x1f, 0x1e, 0x34, 0xbb, 0xa5, 0xcd, 0xf1, 0xbd,
  0x87, 0xeb, 0x36, 0x3e, 0xa8, 0x51, 0x1f, 0xbe, 0x83, 0xfb, 0xf5, 0x3d,
  0xb7, 0x8a, 0x12, 0xbe, 0x84, 0x61, 0xe8, 0x3d, 0xff, 0xd4, 0x1d, 0x3d,
  0xc7, 0x87, 0xc0, 0xbd, 0x35, 0xc5, 0x13, 0xbd, 0x92, 0x50, 0xf3, 0x3d,
  0x32, 0x66, 0x98, 0x3d, 0x16, 0x29, 0x66, 0x3d, 0xca, 0xbf, 0x29, 0xbd,
  0xa3, 0x46, 0x5f, 0xbe, 0xea, 0xfb, 0x08, 0x3d, 0x90, 0xd9, 0x20, 0x3e,
  0x6c, 0xb7, 0x33, 0xbe, 0x6b, 0x7a, 0xc5, 0xbd, 0x90, 0xc2, 0xbd, 0xbd,
  0x2a, 0x0e, 0x62, 0x3d, 0x2a, 0x59, 0x59, 0xbd, 0x80, 0xb3, 0xeb, 0xbb,
  0xdf, 0x4e, 0x9d, 0x3d, 0x71, 0x42, 0xd9, 0x3c, 0x6a, 0x18, 0x0d, 0x3e,
  0xbd, 0xdd, 0x35, 0x3e, 0x5a, 0x22, 0x9a, 0xbd, 0x8f, 0x4e, 0xc8, 0x3d,
  0x24, 0x4d, 0x21, 0xbe, 0x59, 0x5c, 0x97, 0x3d, 0x16, 0xf1, 0xc0, 0x3b,
  0x15, 0xe5, 0x73, 0x3d, 0x43, 0x19, 0xa4, 0xbd, 0x93, 0x0a, 0x94, 0xbd,
  0xa6, 0x0e, 0x38, 0x3b, 0x7d, 0xed, 0xd4, 0xbd, 0x43, 0x43, 0xdc, 0xbc,
  0x42, 0xd7, 0xd7, 0x3d, 0x8a, 0x89, 0x0f, 0x3c, 0xbc, 0x53, 0x05, 0x3e,
  0x18, 0x1e, 0x45, 0x3e, 0xbc, 0x80, 0x8e, 0xbd, 0x15, 0x03, 0xbb, 0x3d,
  0x61, 0x7f, 0x46, 0x3e, 0x13, 0x7f, 0x94, 0xbd, 0x23, 0x4a, 0x67, 0xbd,
  0x96, 0x8b, 0x4c, 0x3e, 0x39, 0xee, 0xee, 0x3c, 0xe1, 0x05, 0x28, 0x3e,
  0x42, 0xd7, 0xa7, 0x3d, 0x8d, 0x14, 0x1d, 0x3e, 0xfd, 0xbe, 0xcf, 0xbd,
  0xff, 0x6e, 0x09, 0x3e, 0x04, 0xeb, 0x33, 0x3d, 0xae, 0x4d, 0x68, 0xbe,
  0x39, 0x59, 0x5d, 0x3e, 0x6d, 0x44, 0x8f, 0xbd, 0x4c, 0xf4, 0xcc, 0x3c,
  0x72, 0x60, 0x12, 0x3e, 0x20, 0x1c, 0x0c, 0xbe, 0x4c, 0xc7, 0xd7, 0x3d,
  0x8a, 0xbf, 0xea, 0xbd, 0xf4, 0x8d, 0x8f, 0x3d, 0x2e, 0x4b, 0x23, 0xbe,
  0x6c, 0xc5, 0x41, 0x3d, 0xcc, 0xc2, 0xda, 0x3d, 0xb0, 0xe2, 0xc4, 0xbd,
  0x53, 0xee, 0xfd, 0x3d, 0x65, 0x43, 0x2d, 0x3e, 0x11, 0xdb, 0x07, 0xbe,
  0x7c, 0x7f, 0x11, 0x3e, 0xcc, 0x2f, 0x5a, 0xbd, 0x28, 0x2a, 0x68, 0xbe,
  0x98, 0x30, 0x94, 0xbd, 0xd7, 0xe4, 0x98, 0x3d, 0xab, 0x75, 0xa1, 0x3c,
  0xfc, 0x56, 0xd2, 0xbe, 0x0c, 0x2b, 0x3e, 0xbe, 0xc0, 0x19, 0xdd, 0x3d,
  0x30, 0x7f, 0xd9, 0xbd, 0xcb, 0x49, 0x0b, 0xbe, 0x7b, 0xe7, 0xaa, 0xbd,
  0xf7, 0x66, 0x46, 0xbe, 0x4f, 0x8a, 0x88, 0x3d, 0xe1, 0x5c, 0x48, 0x3d,
  0x87, 0xe2, 0x90, 0x3e, 0x5a, 0xa6, 0x60, 0x3b, 0xb9, 0x70, 0x88, 0xbe,
  0x92, 0xe6, 0x26, 0xbd, 0xda, 0xb7, 0x2a, 0x3e, 0x4e, 0x3d, 0xfc, 0x3a,
  0x09, 0x2c, 0x39, 0x3e, 0x9b, 0xc0, 0x28, 0xbd, 0x48, 0x22, 0x96, 0x3e,
  0xde, 0x65, 0x7f, 0x3d, 0xfa, 0x5c, 0x42, 0xbe, 0x45, 0x19, 0x25, 0x3e,
  0x8a, 0xbc, 0x70, 0xbe, 0xea, 0xee, 0x4b, 0xbd, 0x0b, 0xfb, 0x1a, 0x3e,
  0x7f, 0xb7, 0x64, 0xbd, 0x61, 0xdf, 0x0e, 0x3d, 0x7a, 0x74, 0x6c, 0xbd,
  0x35, 0x91, 0x39, 0xbe, 0x92, 0xec, 0xa2, 0xbd, 0x73, 0xea, 0x2b, 0xbe,
  0x24, 0x65, 0x94, 0xbc, 0x1e, 0x74, 0xc5, 0xbc, 0x98, 0x8a, 0x63, 0xbc,
  0x9e, 0x15, 0x2d, 0xbe, 0x74, 0x0a, 0x04, 0xbe, 0xff, 0xee, 0xd8, 0xbd,
  0x53, 0xe6, 0x0a, 0x3e, 0xc4, 0x8f, 0x99, 0x3d, 0x8e, 0x30, 0x7e, 0xbe,
  0xf2, 0xcf, 0x9c, 0x3c, 0x94, 0x89, 0x42, 0xbd, 0xa6, 0x51, 0x80, 0xbe,
  0x62, 0x17, 0x45, 0xbe, 0xe5, 0x81, 0x33, 0xbe, 0x71, 0xe1, 0x48, 0x3e,
  0x84, 0x80, 0x3f, 0x3e, 0xe6, 0x12, 0x0c, 0x3e, 0x44, 0xa0, 0x2a, 0xbc,
  0xde, 0x18, 0x0b, 0x3d, 0x5e, 0xb6, 0xe5, 0xbc, 0xe5, 0x51, 0x23, 0xbe,
  0x34, 0xd5, 0x5d, 0x3e, 0x04, 0xf0, 0xe2, 0xbd, 0x88, 0xcc, 0x38, 0xbe,
  0xe5, 0x69, 0x19, 0x3e, 0x73, 0x3b, 0x5e, 0xbd, 0x4b, 0xeb, 0x44, 0x3e,
  0xeb, 0xb2, 0x13, 0x3c, 0x85, 0x27, 0x31, 0x3e, 0xcc, 0x1f, 0xdf, 0x3d,
  0x1b, 0x3b, 0x75, 0xbd, 0xa5, 0x89, 0x27, 0xbc, 0x50, 0x80, 0x67, 0x3c,
  0x8a, 0x20, 0x89, 0xbd, 0xeb, 0x5e, 0x21, 0xbe, 0xb9, 0x95, 0x4b, 0x3e,
  0xf9, 0x4c, 0x14, 0x3e, 0xcd, 0xfc, 0x20, 0x3e, 0xf4, 0xb1, 0xa0, 0x3d,
  0x8d, 0x13, 0x8e, 0xbd, 0x2c, 0xf0, 0x67, 0xbd, 0x52, 0xb3, 0x84, 0xbd,
  0x2e, 0xec, 0x81, 0xbe, 0x5c, 0x86, 0x7b, 0x3d, 0xa9, 0xfa, 0x81, 0x3e,
  0x43, 0x78, 0x55, 0xbd, 0x97, 0xc2, 0x85, 0xbc, 0xdd, 0x67, 0x80, 0xbd,
  0xe9, 0x12, 0x2c, 0xbe, 0x2f, 0xd6, 0x2d, 0xbe, 0x50, 0x74, 0x9f, 0x3e,
  0x4e, 0xd6, 0xef, 0x3b, 0x5e, 0xf4, 0xe6, 0x3b, 0x95, 0xb4, 0x0c, 0x3d,
  0xcd, 0x21, 0x46, 0x3d, 0x1c, 0xfc, 0x91, 0x3c, 0x1c, 0x1b, 0x13, 0x3b,
  0x4f, 0x02, 0xed, 0x3d, 0x92, 0x70, 0xf4, 0x3d, 0xc6, 0x3a, 0x8c, 0xbd,
  0xb0, 0xe9, 0x21, 0x3e, 0x90, 0x3e, 0xef, 0x3d, 0x88, 0xe1, 0x23, 0x3e,
  0x97, 0xed, 0x7b, 0x3d, 0x3f, 0x19, 0x1c, 0x3d, 0x12, 0x0f, 0xdf, 0xbd,
  0x58, 0x76, 0x34, 0x3e, 0x48, 0xe2, 0x1e, 0x3e, 0x6c, 0xc7, 0x31, 0xbe,
  0xe1, 0x29, 0x08, 0x3e, 0x22, 0xe3, 0x56, 0xbe, 0x1e, 0x18, 0x84, 0xbe,
  0x90, 0x33, 0xba, 0xbd, 0xf8, 0x87, 0x11, 0x3e, 0x36, 0x55, 0xd0, 0x3d,
  0xff, 0xe8, 0x8e, 0x3c, 0xbc, 0x42, 0x50, 0xbe, 0xe4, 0x62, 0x96, 0xbd,
  0xac, 0x30, 0x8d, 0xb9, 0x8d, 0x0a, 0x99, 0x3c, 0x81, 0xc0, 0x81, 0x3d,
  0xbb, 0xa6, 0x00, 0xbe, 0x6d, 0xd1, 0x5a, 0xbc, 0x96, 0x46, 0x15, 0xbe,
  0x85, 0x58, 0x5f, 0xbe, 0x09, 0x30, 0x4d, 0xbe, 0x78, 0x60, 0xbb, 0xbd,
  0xe7, 0xd8, 0x8e, 0xbd, 0xa9, 0x60, 0xe4, 0x3d, 0x02, 0x0b, 0x35, 0xbe,
  0x8b, 0x71, 0x4f, 0xbe, 0xd3, 0x4a, 0x55, 0x3d, 0xfc, 0xa7, 0x36, 0x3e,
  0x54, 0x6b, 0xf7, 0xbb, 0xc2, 0xb2, 0x4e, 0x3e, 0x4c, 0x24, 0xaf, 0xbd,
  0x06, 0x4c, 0xc9, 0xbb, 0xf6, 0x9b, 0x2b, 0x3e, 0xb2, 0x44, 0xaf, 0x3c,
  0xad, 0x4c, 0x61, 0x3d, 0xbe, 0x2c, 0x4f, 0xbe, 0xb9, 0xcc, 0x5d, 0x3e,
  0xb5, 0x11, 0x18, 0xbe, 0xbe, 0x80, 0x1e, 0xbe, 0x78, 0x42, 0xa7, 0x3c,
  0xf5, 0xa9, 0x87, 0xbe, 0xd1, 0x07, 0x31, 0x3a, 0xd1, 0xd9, 0x94, 0xbd,
  0xd0, 0x01, 0x03, 0x3d, 0xb7, 0x9e, 0xa4, 0x3e, 0xb2, 0x43, 0xb3, 0xbd,
  0x33, 0x12, 0x1b, 0xbe, 0x9c, 0x94, 0xd4, 0xbb, 0x54, 0x04, 0x7f, 0x3e,
  0xb4, 0x55, 0x05, 0x3e, 0x5c, 0x3b, 0x27, 0xbe, 0x5a, 0xcc, 0xb5, 0xbd,
  0xa4, 0x75, 0x01, 0xbe, 0x33, 0x01, 0x28, 0x3d, 0xe5, 0xf7, 0x25, 0xbe,
  0x4a, 0x7e, 0xc3, 0x3c, 0x6a, 0x76, 0x47, 0xbe, 0x97, 0xfe, 0x18, 0x3e,
  0x95, 0xd6, 0xbb, 0x3d, 0x66, 0xad, 0xdf, 0xbd, 0x41, 0x0a, 0xa4, 0xbe,
  0x2d, 0x30, 0x88, 0xbd, 0x9b, 0x5a, 0xb3, 0xbd, 0xc2, 0x41, 0xce, 0xbd,
  0x61, 0xd6, 0x7b, 0xbe, 0x01, 0xdf, 0x40, 0x3e, 0xa1, 0x67, 0x3a, 0x3e,
  0xbf, 0x53, 0x0e, 0xbc, 0xb3, 0xee, 0xe9, 0xbd, 0x4e, 0xd8, 0x5f, 0x3d,
  0xd3, 0x18, 0x5f, 0xbd, 0x69, 0x5d, 0x57, 0xbd, 0xa4, 0xdf, 0xc4, 0xbc,
  0xc4, 0xf5, 0x83, 0x3c, 0x79, 0x70, 0xbe, 0x3d, 0x21, 0xb4, 0x6c, 0x3e,
  0x02, 0x2d, 0x87, 0xbb, 0x80, 0xbe, 0xa1, 0x3c, 0x96, 0x49, 0x49, 0x3d,
  0x18, 0xbe, 0x92, 0x3d, 0x17, 0x83, 0x32, 0x3e, 0x0d, 0x84, 0xb7, 0xbd,
  0xb4, 0x24, 0xdf, 0x3d, 0x5e, 0x54, 0x2a, 0xbe, 0x93, 0x8d, 0x38, 0xbd,
  0x6b, 0x73, 0x14, 0x3c, 0xe4, 0xb7, 0x64, 0xbd, 0xe8, 0xe6, 0xd3, 0xbd,
  0x73, 0xc9, 0xe0, 0xbd, 0xa3, 0xaf, 0x17, 0xbe, 0xe6, 0x86, 0xc4, 0x3b,
  0xa0, 0xaa, 0xb8, 0xbb, 0x4c, 0x55, 0x39, 0x3d, 0x85, 0x41, 0xc4, 0x3d,
  0x0e, 0xe3, 0xc9, 0x3d, 0xd9, 0x3d, 0xdf, 0xbd, 0x0b, 0x15, 0x2d, 0xbe,
  0xd7, 0x42, 0x8a, 0x3e, 0xa7, 0x86, 0x4b, 0x3d, 0x4d, 0x84, 0x58, 0xbe,
  0xe0, 0xcb, 0x25, 0xbe, 0x16, 0x98, 0x8f, 0x3d, 0x14, 0x65, 0x12, 0xbc,
  0x98, 0x9b, 0x61, 0xbd, 0xb5, 0xd9, 0x07, 0x3a, 0xf8, 0x24, 0xc3, 0xbd,
  0x92, 0x1a, 0x2d, 0xbd, 0x6d, 0x3d, 0x74, 0xbd, 0x7c, 0x7f, 0xd2, 0xbd,
  0xfa, 0x3c, 0xbe, 0x3d, 0x0f, 0x2a, 0x1f, 0xbe, 0x6a, 0xe1, 0x28, 0x3e,
  0x0e, 0x75, 0xdc, 0xbc, 0xce, 0xee, 0xa1, 0xbd, 0xa6, 0xd9, 0x39, 0x3e,
  0x60, 0x91, 0xc9, 0x3d, 0x77, 0x98, 0xd1, 0xbd, 0x0f, 0xf0, 0xa0, 0xbd,
  0x7e, 0x38, 0x6b, 0x3e, 0x67, 0x5c, 0xba, 0xbd, 0x4c, 0x07, 0x06, 0x3e,
  0x16, 0x05, 0xe2, 0x3d, 0x19, 0x87, 0x10, 0xbe, 0x1f, 0x8c, 0xd6, 0x3d,
  0xc8, 0xae, 0x22, 0xbe, 0x65, 0x12, 0x92, 0x3d, 0x37, 0xb9, 0xcd, 0xbd,
  0xd3, 0x5a, 0xbf, 0xbd, 0xb6, 0x1d, 0x97, 0xbd, 0x6e, 0xda, 0x95, 0xbd,
  0x16, 0xca, 0xb9, 0x3d, 0x72, 0xfb, 0xa4, 0xbd, 0xe2, 0xc5, 0x7c, 0x3c,
  0xdd, 0x6d, 0xa7, 0x3d, 0x79, 0x74, 0x15, 0xbe, 0xe9, 0x69, 0x0a, 0xbe,
  0x7f, 0x4f, 0xa8, 0x3d, 0xc8, 0xcd, 0x15, 0x3e, 0xfa, 0xfd, 0x00, 0xbe,
  0x11, 0x1b, 0x1c, 0xbd, 0x31, 0xa0, 0xfe, 0xbd, 0x6a, 0xe7, 0xa7, 0x3d,
  0x5a, 0x5e, 0x05, 0xbe, 0x4c, 0x44, 0x1d, 0x3e, 0xe1, 0xad, 0x08, 0x3e,
  0xaa, 0x7b, 0x14, 0x3d, 0xda, 0x45, 0xce, 0xbd, 0x5f, 0xf9, 0x1c, 0xbe,
  0x73, 0x3a, 0x42, 0xbc, 0xd4, 0x0c, 0x1e, 0xbe, 0x9f, 0x52, 0xba, 0x3d,
  0x38, 0x55, 0x8b, 0x3c, 0xd5, 0xa7, 0x2e, 0x3e, 0x4f, 0x27, 0x63, 0x3d,
  0xd0, 0x86, 0xcf, 0x3d, 0xf3, 0xba, 0x1e, 0xbe, 0x54, 0x25, 0x4e, 0xbe,
  0x90, 0x43, 0xe1, 0xbc, 0xce, 0xb6, 0x1b, 0xbe, 0x79, 0xcd, 0x04, 0x3e,
  0xfe, 0x50, 0xbd, 0x3c, 0x56, 0xf0, 0xf3, 0xbd, 0xc9, 0x4f, 0xe2, 0xbd,
  0x21, 0x9e, 0x38, 0x3d, 0x26, 0x1c, 0xda, 0x3d, 0x56, 0xae, 0x2e, 0x3d,
  0x82, 0x6f, 0x27, 0xbc, 0x2f, 0x20, 0x2c, 0xbe, 0x7d, 0xef, 0x2c, 0xbe,
  0xc3, 0x89, 0x7a, 0x3e, 0x7e, 0xc4, 0x43, 0x3e, 0x41, 0x88, 0x0a, 0xbe,
  0xb2, 0x80, 0x83, 0x3d, 0x70, 0xf0, 0x82, 0xbc, 0xdf, 0x1e, 0x90, 0xbc,
  0x99, 0x5a, 0x7e, 0x3d, 0x5b, 0xc8, 0xc8, 0xbb, 0xc2, 0xeb, 0x6b, 0x3b,
  0x91, 0x33, 0xda, 0x3d, 0x36, 0x60, 0x40, 0x3e, 0xb7, 0xdf, 0xcb, 0x3d,
  0xf5, 0x6e, 0xe6, 0x3c, 0xd4, 0x05, 0x12, 0xbe, 0x1e, 0xb5, 0x83, 0xbd,
  0xf3, 0xc2, 0x21, 0xbe, 0xc1, 0x35, 0xdb, 0xbd, 0xe8, 0x8b, 0x59, 0x3d,
  0x9c, 0x92, 0x76, 0xbe, 0xc6, 0x16, 0xc7, 0x3c, 0x84, 0xcd, 0x1a, 0x3e,
  0xc7, 0x99, 0x55, 0xbd, 0x01, 0xe8, 0x13, 0x3d, 0x66, 0xc6, 0x94, 0xbe,
  0x2a, 0x9c, 0xa9, 0xbe, 0xa1, 0xf0, 0x60, 0x3d, 0xb8, 0x09, 0xa4, 0xbd,
  0xfe, 0xe4, 0xac, 0x3d, 0x84, 0xe3, 0x17, 0x3d, 0x3e, 0x6b, 0xdc, 0x3d,
  0xf7, 0xa8, 0xb9, 0x3c, 0x1e, 0xac, 0x02, 0x3c, 0x64, 0x6d, 0xa0, 0xbd,
  0xa7, 0xc2, 0x13, 0x3c, 0x65, 0x78, 0xb5, 0x3d, 0xba, 0x4b, 0x3f, 0x3e,
  0x41, 0xb0, 0x83, 0xbd, 0x79, 0xd3, 0x40, 0xbe, 0x8d, 0x80, 0x25, 0xbe,
  0xd0, 0x50, 0xc0, 0x3d, 0x1e, 0x6f, 0x96, 0x3c, 0xce, 0x3b, 0x8e, 0x39,
  0x07, 0x0c, 0xef, 0x3d, 0xbd, 0x5f, 0x28, 0x3e, 0xe6, 0xf4, 0xff, 0xff,
  0x04, 0x00, 0x00, 0x00, 0x00, 0x08, 0x00, 0x00, 0xb0, 0x81, 0x0b, 0x3e,
  0x58, 0x2c, 0x23, 0x3e, 0xed, 0x19, 0x50, 0xbe, 0x92, 0x2d, 0xcb, 0x3d,
  0xbd, 0xbb, 0x25, 0x3e, 0xe5, 0x42, 0x27, 0xbe, 0xd2, 0x36, 0x50, 0xbd,
  0x74, 0x52, 0x54, 0xbd, 0x97, 0x1c, 0x21, 0xbe, 0xdf, 0x10, 0xd2, 0xbd,
  0xbb, 0x2c, 0x1f, 0xbd, 0x3d, 0x7e, 0xd0, 0xbd, 0x33, 0xc3, 0x33, 0x3e,
  0xff, 0x00, 0x81, 0xbe, 0x7e, 0xa9, 0xde, 0x3d, 0xad, 0x27, 0xd0, 0xbd,
  0x43, 0xcb, 0x7e, 0xbd, 0x88, 0xcc, 0xe3, 0xbc, 0xa5, 0x67, 0x66, 0x3c,
  0x07, 0x7c, 0x14, 0x3d, 0x15, 0x9f, 0x24, 0x3d, 0xd5, 0x79, 0x8f, 0x3d,
  0x07, 0x77, 0x7e, 0xbe, 0xff, 0x0c, 0x77, 0x3d, 0x65, 0x5a, 0x2a, 0x3e,
  0x3b, 0x3c, 0x80, 0xbd, 0x61, 0x2e, 0x00, 0xbe, 0xe4, 0xbd, 0x35, 0x3d,
  0x09, 0x6d, 0x91, 0xbd, 0xe1, 0x3a, 0xee, 0x3d, 0xe6, 0x9d, 0xb5, 0xbd,
  0xdc, 0x33, 0x58, 0xbe, 0x17, 0x76, 0xb1, 0xbd, 0xfb, 0xec, 0x92, 0x3d,
  0x89, 0x29, 0x33, 0x3e, 0x65, 0x89, 0x37, 0xbd, 0x2c, 0xc7, 0x0d, 0x3e,
  0x7f, 0xc8, 0x80, 0x3d, 0xe2, 0x49, 0x30, 0xbe, 0xcb, 0x7c, 0x78, 0xbd,
  0x0d, 0xbb, 0x49, 0xbd, 0x64, 0xe5, 0x44, 0xbe, 0xc9, 0x9f, 0x11, 0x3d,
  0xf0, 0xab, 0x03, 0xbe, 0xe2, 0xfe, 0x12, 0xbd, 0xac, 0xa3, 0xf1, 0x3c,
  0x48, 0x3b, 0x9a, 0xbd, 0xaf, 0x04, 0x6a, 0x3e, 0x31, 0xcf, 0xd8, 0x3c,
  0xbf, 0xba, 0x8f, 0x3d, 0xb7, 0xba, 0xc2, 0x3c, 0x7e, 0x84, 0x9b, 0xbc,
  0xa2, 0x0e, 0x45, 0xbe, 0x9d, 0x1b, 0x3e, 0xbe, 0xf9, 0x71, 0x3f, 0x3e,
  0xc0, 0x7c, 0x34, 0x3e, 0x87, 0x5b, 0xb2, 0x3c, 0xbd, 0xc4, 0x05, 0xbe,
  0xe6, 0xed, 0x8d, 0xbe, 0x61, 0x3a, 0x2f, 0xbe, 0xeb, 0x2c, 0x37, 0xbd,
  0x2b, 0x5e, 0x3e, 0xbe, 0x2b, 0xee, 0x40, 0x3d, 0xfd, 0xd9, 0x28, 0xbe,
  0x4f, 0x40, 0x89, 0xbe, 0x19, 0x71, 0xa4, 0x3d, 0x17, 0xb9, 0xdc, 0xbd,
  0x45, 0x8a, 0x64, 0x3c, 0x5c, 0xa0, 0xe3, 0x3d, 0xfe, 0x2b, 0xbd, 0x3d,
  0x85, 0x71, 0x41, 0x3e, 0x3f, 0xe3, 0xea, 0xbd, 0x09, 0xb9, 0x11, 0x3e,
  0x19, 0x25, 0x54, 0xbe, 0x2f, 0xd0, 0x21, 0x3b, 0x65, 0x42, 0xfa, 0xbd,
  0x13, 0x61, 0xff, 0x3d, 0x94, 0xe6, 0xba, 0xbd, 0x4a, 0x76, 0x0e, 0xbe,
  0x20, 0x86, 0x1c, 0x3e, 0xbc, 0xb8, 0xc1, 0x3d, 0x13, 0x58, 0x1b, 0x3d,
  0x30, 0x34, 0x90, 0xbd, 0x82, 0xb0, 0x30, 0xbe, 0x49, 0xf6, 0x1b, 0xbe,
  0xd4, 0xde, 0x5d, 0x3d, 0xb4, 0x60, 0x08, 0xbe, 0x44, 0xe8, 0xd2, 0xbd,
  0x0d, 0x90, 0xc4, 0x3d, 0xb4, 0x8e, 0x03, 0xbd, 0x55, 0x1c, 0xf1, 0xbc,
  0x7d, 0x78, 0x8b, 0xbd, 0x6b, 0x92, 0xb2, 0x3d, 0x5c, 0x54, 0x46, 0xbe,
  0x18, 0x0b, 0x79, 0x3e, 0xc4, 0xac, 0xb8, 0xbc, 0x97, 0x10, 0x86, 0x3d,
  0x7a, 0xe3, 0x6b, 0x3d, 0x2d, 0xe8, 0xaa, 0xbd, 0xe9, 0xe8, 0x58, 0xbd,
  0xd9, 0xb8, 0xb0, 0xbd, 0x4e, 0x18, 0xd5, 0x3d, 0xeb, 0x31, 0xdf, 0xb9,
  0x6e, 0x17, 0x6a, 0x3d, 0xd4, 0xca, 0xd2, 0x3d, 0x07, 0x49, 0x43, 0x3e,
  0xee, 0xf5, 0xc8, 0x3d, 0xf1, 0x1d, 0xc8, 0xbd, 0x16, 0x53, 0x61, 0xbd,
  0x0e, 0xa7, 0x49, 0xbd, 0xa2, 0x44, 0xa4, 0x3d, 0xa7, 0xd2, 0x0f, 0x3e,
  0xd7, 0x7a, 0x83, 0x3c, 0x5e, 0x81, 0x35, 0x3c, 0xab, 0x3e, 0x04, 0x3e,
  0x5e, 0xd4, 0x38, 0xbe, 0xbc, 0x55, 0x9b, 0xbc, 0x72, 0xde, 0xf1, 0xbd,
  0x49, 0xcb, 0x65, 0xbe, 0x36, 0xca, 0xec, 0x3d, 0x3b, 0xc1, 0x9f, 0x3d,
  0xde, 0xc4, 0x2f, 0xbd, 0xd9, 0x9f, 0x03, 0x3e, 0x66, 0xab, 0x3f, 0xbe,
  0x39, 0x4c, 0xab, 0x3c, 0x94, 0xdf, 0xbe, 0x3d, 0x94, 0xdd, 0x42, 0xbe,
  0xa3, 0xf0, 0x49, 0xbe, 0xe0, 0xf5, 0xc2, 0x3d, 0xea, 0x0e, 0x01, 0x3e,
  0xa3, 0xba, 0x25, 0xbe, 0xff, 0x80, 0x89, 0xbd, 0xe5, 0xd7, 0x8c, 0x3c,
  0xe2, 0x14, 0x61, 0x3e, 0xdf, 0x21, 0xe1, 0x3d, 0x98, 0xd4, 0xce, 0xbb,
  0x5b, 0xf1, 0x62, 0xbe, 0xc7, 0xc0, 0xc4, 0x3d, 0xeb, 0x62, 0x66, 0xbe,
  0x2c, 0x7f, 0x9f, 0xbd, 0x9e, 0x43, 0x06, 0xbe, 0xe2, 0xb2, 0x29, 0xbe,
  0x2d, 0x21, 0x33, 0xbc, 0x51, 0xbd, 0x4a, 0xbd, 0x52, 0x70, 0x18, 0xbe,
  0xed, 0x52, 0xb8, 0x3d, 0xd7, 0x7f, 0xb8, 0x3d, 0x7f, 0x7c, 0x9e, 0x3d,
  0xe4, 0xfb, 0xaf, 0x3c, 0x78, 0xc0, 0x71, 0xbd, 0x89, 0xb1, 0xe9, 0x3d,
  0x5c, 0x04, 0x00, 0xbe, 0x9c, 0xc7, 0x51, 0xbe, 0xc9, 0xc9, 0x43, 0xbe,
  0x4d, 0x31, 0x03, 0xbe, 0x46, 0xce, 0x35, 0xbd, 0x71, 0xb6, 0x44, 0xbe,
  0xbc, 0xeb, 0x90, 0xbc, 0xff, 0xb3, 0x0a, 0x3e, 0x26, 0x63, 0x81, 0xbd,
  0xa6, 0xae, 0xa2, 0x3d, 0x9b, 0x8f, 0x0e, 0x3e, 0x0a, 0x07, 0x38, 0xbe,
  0xf1, 0x30, 0xb3, 0x3d, 0xc4, 0x73, 0x93, 0xbd, 0x84, 0xf4, 0x44, 0x3e,
  0x80, 0x5f, 0x2a, 0xbe, 0x7a, 0x3c, 0xde, 0x3d, 0xf3, 0xa5, 0x69, 0x3c,
  0x02, 0xfa, 0xb6, 0xbc, 0xc2, 0xff, 0x6b, 0xbd, 0x30, 0x86, 0xb5, 0xbd,
  0x24, 0x5e, 0xf1, 0x3d, 0xdf, 0x2a, 0x19, 0xbe, 0x2f, 0x8a, 0xce, 0x3d,
  0x28, 0x5a, 0xec, 0x3d, 0xc2, 0x2f, 0x33, 0xbe, 0x6c, 0x24, 0x12, 0xbe,
  0x10, 0x31, 0xbe, 0x3d, 0xf0, 0x21, 0x5c, 0xbe, 0x44, 0xd3, 0x92, 0x3d,
  0x29, 0xe2, 0x39, 0x3d, 0xfe, 0x8a, 0x3b, 0x3c, 0x81, 0x1d, 0x9d, 0xbd,
  0xc1, 0xce, 0x8c, 0xbd, 0x40, 0x57, 0x80, 0xbe, 0xd2, 0x69, 0x52, 0x3d,
  0xbd, 0x27, 0x8c, 0x3d, 0x02, 0x95, 0x12, 0x3d, 0x9f, 0xf5, 0x0b, 0x3e,
  0xd6, 0x97, 0x3e, 0xbd, 0x4d, 0xf4, 0x16, 0xbe, 0x05, 0x30, 0x68, 0xbd,
  0xe8, 0x9c, 0x52, 0xbe, 0xb5, 0x5c, 0x16, 0x3e, 0x80, 0xa9, 0x27, 0x3d,
  0x06, 0xc7, 0x08, 0xbe, 0xfe, 0x79, 0x3e, 0xbe, 0x85, 0xcf, 0x4d, 0xbe,
  0x8f, 0xac, 0xe6, 0xbd, 0xd9, 0xbc, 0xa5, 0xbc, 0xe7, 0x68, 0x4f, 0xbe,
  0x09, 0xe1, 0xae, 0xbc, 0x15, 0xfd, 0x55, 0x3d, 0xd4, 0xd1, 0x20, 0x3e,
  0xf5, 0xa3, 0x5e, 0xbc, 0x56, 0x04, 0x15, 0xbe, 0xa0, 0x1c, 0xcb, 0xbd,
  0x48, 0x07, 0x0b, 0xbe, 0x23, 0xa6, 0xb1, 0xbd, 0xc3, 0x98, 0x2f, 0x3e,
  0xfe, 0xd3, 0x29, 0x3d, 0xc9, 0xe0, 0xa4, 0xbd, 0xdf, 0xe5, 0x1c, 0xbe,
  0xc0, 0x42, 0x7a, 0xbe, 0xec, 0xce, 0x3c, 0xbe, 0x07, 0x94, 0x29, 0x3e,
  0x3e, 0x90, 0x46, 0xbe, 0xab, 0x2a, 0x2f, 0xbe, 0x68, 0x86, 0xf7, 0xbc,
  0x5f, 0xd9, 0x3d, 0x3e, 0x72, 0x23, 0x06, 0x3e, 0x6d, 0xab, 0x38, 0x3e,
  0x20, 0x1d, 0x21, 0x3e, 0xef, 0x3f, 0x80, 0xbd, 0x32, 0x8c, 0xd2, 0xbd,
  0x94, 0x09, 0x89, 0x3d, 0xda, 0x4e, 0x17, 0x3b, 0x4f, 0x11, 0x16, 0x3e,
  0xaa, 0x73, 0xba, 0xbd, 0xee, 0xf0, 0x25, 0x3e, 0x2e, 0x06, 0x0f, 0x3e,
  0xf9, 0x06, 0x94, 0x3d, 0x79, 0xb8, 0x6f, 0xbd, 0x00, 0xfb, 0x3d, 0x3e,
  0xc5, 0x88, 0xe3, 0x3d, 0xee, 0xa6, 0x24, 0x3e, 0x5f, 0x68, 0x16, 0xbe,
  0x11, 0xec, 0xb1, 0xbd, 0x4f, 0x4a, 0x88, 0x3d, 0xde, 0x91, 0x1a, 0x3e,
  0x76, 0xb8, 0xdf, 0x3d, 0x1c, 0x66, 0x30, 0x3d, 0xc6, 0xd3, 0x27, 0x3e,
  0xe0, 0xcc, 0x02, 0xbe, 0xd9, 0xa0, 0x6a, 0xbd, 0x21, 0x4f, 0x61, 0xbd,
  0xee, 0xad, 0x4b, 0x3e, 0x1c, 0xbe, 0x0e, 0x3e, 0x26, 0x70, 0x0c, 0x3e,
  0x8c, 0x48, 0x8e, 0x3d, 0xeb, 0x13, 0x4f, 0x3c, 0x5a, 0x30, 0x90, 0x3d,
  0x19, 0x02, 0x09, 0xbe, 0x41, 0x52, 0xec, 0x3b, 0x57, 0xd4, 0xb3, 0x3d,
  0x28, 0x4e, 0xfc, 0xbd, 0xce, 0x55, 0xa8, 0x3e, 0x53, 0xe8, 0x1c, 0x3d,
  0xdb, 0x30, 0xc5, 0x3d, 0xb2, 0x93, 0x56, 0x3e, 0xfe, 0xd7, 0x8c, 0x3d,
  0x36, 0x06, 0xae, 0x3e, 0x85, 0x4e, 0x00, 0x3e, 0xb6, 0x71, 0x77, 0x3d,
  0x59, 0xe4, 0x1b, 0xbd, 0xd6, 0x09, 0x3a, 0xbe, 0xdc, 0x33, 0x9e, 0xbd,
  0x0a, 0x09, 0x4c, 0x3e, 0x7f, 0x2b, 0xc7, 0x3d, 0xf6, 0x70, 0x9e, 0xbd,
  0x08, 0x02, 0x47, 0xbe, 0x77, 0x9d, 0x43, 0xbe, 0xd0, 0xbd, 0x53, 0x3d,
  0x27, 0x66, 0xe4, 0xbd, 0x23, 0xd0, 0xcf, 0x3d, 0x1a, 0xb8, 0x76, 0xbd,
  0x49, 0xc8, 0x3e, 0xbd, 0x4c, 0x21, 0x62, 0x3e, 0x62, 0xb6, 0x1c, 0xbe,
  0xd3, 0xd5, 0x21, 0x3d, 0x56, 0x0f, 0xdd, 0x3d, 0xce, 0xd9, 0xbe, 0x3d,
  0x0b, 0x0f, 0x04, 0x3e, 0x73, 0x56, 0x6b, 0x3e, 0x54, 0x77, 0x1b, 0x3c,
  0x12, 0x3f, 0x52, 0xbe, 0x6d, 0x6d, 0x4e, 0x3e, 0x7e, 0xba, 0x90, 0xbe,
  0x45, 0xed, 0x06, 0x3e, 0x7f, 0x99, 0x23, 0x3e, 0x97, 0x2d, 0x2d, 0x3e,
  0xd1, 0x3f, 0x37, 0x3d, 0x68, 0x3d, 0x10, 0x3d, 0xcf, 0xfa, 0x4a, 0x3e,
  0x6b, 0x0f, 0xbb, 0xbd, 0xec, 0x05, 0x2f, 0xbe, 0x56, 0x93, 0x4b, 0x3e,
  0x85, 0x43, 0xc4, 0x3d, 0x30, 0x89, 0x11, 0x3e, 0xcb, 0x8a, 0xa0, 0x3d,
  0x21, 0x61, 0x52, 0x3e, 0x77, 0x40, 0x69, 0x3e, 0xaa, 0xb7, 0xcb, 0xbd,
  0xe2, 0xfa, 0x32, 0xbd, 0xfe, 0x0d, 0x71, 0x3e, 0x6b, 0x3e, 0xd5, 0x3a,
  0x68, 0xf9, 0x1f, 0xbe, 0xc8, 0x96, 0xe7, 0xba, 0xd2, 0xc8, 0x96, 0x3d,
  0x60, 0x7f, 0x02, 0xbe, 0x0d, 0x8e, 0xc5, 0x3d, 0xd6, 0xfd, 0x71, 0xbc,
  0x61, 0x6b, 0x33, 0xbe, 0xd9, 0x57, 0xc5, 0x3d, 0xf6, 0x1d, 0x3d, 0xbe,
  0x4c, 0x80, 0x1c, 0x3d, 0xf0, 0x2c, 0x9d, 0x3d, 0x3a, 0xf8, 0x10, 0x3e,
  0x7f, 0x2a, 0x28, 0xbd, 0x31, 0x5b, 0x0d, 0x3d, 0xa7, 0x85, 0x3d, 0x3d,
  0xee, 0xa1, 0xe2, 0xbc, 0xc6, 0x54, 0x94, 0xbd, 0x80, 0xfb, 0xa5, 0x3d,
  0x58, 0x92, 0x8c, 0xbd, 0x91, 0x4a, 0x12, 0x3e, 0x60, 0xcc, 0xf4, 0xbd,
  0x86, 0xb0, 0xb5, 0xbb, 0x29, 0x48, 0x72, 0x3e, 0x9c, 0xe9, 0x61, 0xbe,
  0x97, 0x4a, 0x87, 0xbd, 0xaa, 0xc4, 0x2a, 0x3e, 0x80, 0x3c, 0xf5, 0x3d,
  0x94, 0x9b, 0x0d, 0x3e, 0x93, 0x7a, 0x06, 0xbe, 0x4b, 0xa1, 0x82, 0xbd,
  0x65, 0x4b, 0x08, 0xbe, 0x06, 0x73, 0xc9, 0x3d, 0x11, 0xa0, 0xfb, 0x3c,
  0x12, 0x49, 0x1a, 0x3d, 0x47, 0xb9, 0x93, 0x3d, 0xae, 0xb5, 0x19, 0xbd,
  0xaf, 0xb6, 0x53, 0x3e, 0xe8, 0xe9, 0x77, 0xbd, 0xc9, 0x2a, 0xca, 0x3b,
  0x6b, 0xb5, 0x38, 0x3e, 0x95, 0x28, 0x8c, 0x3b, 0x95, 0xf0, 0x5b, 0x3d,
  0x72, 0x62, 0x6d, 0x3e, 0xa4, 0x9b, 0xb5, 0xbc, 0x2e, 0xea, 0x90, 0x3d,
  0xfc, 0x08, 0x13, 0x3e, 0x52, 0xf7, 0xee, 0xbc, 0x9b, 0xdd, 0x34, 0x3e,
  0xc4, 0xcb, 0x9e, 0xbc, 0x66, 0x33, 0xff, 0x3c, 0x2a, 0xd0, 0x6b, 0x3e,
  0x54, 0xc3, 0xd4, 0x3d, 0x09, 0xa2, 0xb1, 0xbb, 0xde, 0x5e, 0xf0, 0x3d,
  0x9b, 0xae, 0x31, 0x3e, 0xda, 0xc6, 0x07, 0xbe, 0x57, 0x7f, 0x4e, 0x3e,
  0xca, 0xc1, 0xc5, 0x3d, 0xad, 0x51, 0x68, 0x3e, 0x9d, 0xb2, 0x65, 0x3e,
  0x19, 0x5a, 0xa5, 0xbc, 0x68, 0x7c, 0xa7, 0x3d, 0x34, 0xee, 0x7e, 0x3e,
  0xd3, 0xca, 0x15, 0x3e, 0xcf, 0x3b, 0xa8, 0x3d, 0x55, 0x9a, 0x3e, 0x3e,
  0x6c, 0x7a, 0x07, 0x3e, 0x0c, 0x65, 0x2d, 0x3e, 0x50, 0xe5, 0x3f, 0x3e,
  0x0e, 0xbd, 0x9e, 0xbd, 0x77, 0x38, 0x56, 0xbe, 0xb4, 0xf7, 0xf8, 0xbd,
  0xf8, 0x70, 0xa2, 0xbd, 0xce, 0x93, 0xd5, 0x3c, 0xbe, 0x49, 0x05, 0xbd,
  0x14, 0xe4, 0xad, 0x3b, 0x29, 0xb9, 0xbd, 0xbd, 0x8e, 0xfb, 0x6f, 0xbd,
  0x0b, 0x8d, 0x3e, 0x3e, 0x21, 0x86, 0xb0, 0xbd, 0xf9, 0x81, 0x4a, 0xbe,
  0xf8, 0x30, 0x1f, 0xbd, 0xa0, 0x76, 0x90, 0x3c, 0x9c, 0xea, 0xa3, 0x3d,
  0x37, 0xe9, 0x21, 0xbe, 0x35, 0x5e, 0x0a, 0x3e, 0x62, 0x92, 0x51, 0x3d,
  0x4e, 0x42, 0x58, 0x3a, 0xe9, 0xac, 0x1f, 0xbd, 0x95, 0xde, 0x4d, 0x3c,
  0xd3, 0x50, 0x06, 0xbc, 0x74, 0xec, 0xaf, 0xbc, 0xf2, 0x96, 0x05, 0xbe,
  0xc1, 0x08, 0x1a, 0x3d, 0x26, 0xff, 0x2f, 0x3e, 0xd0, 0x37, 0xc3, 0xbd,
  0x53, 0x42, 0x1f, 0x3d, 0xa8, 0x83, 0x6e, 0xbd, 0x32, 0x5e, 0xdc, 0x3d,
  0x23, 0xd9, 0xbd, 0xbc, 0x24, 0x22, 0x6b, 0x3e, 0xbb, 0x98, 0xd9, 0x3c,
  0xf7, 0x6b, 0x2e, 0xbe, 0xc3, 0x08, 0x30, 0xbd, 0x13, 0xc0, 0xdb, 0x3d,
  0x07, 0x18, 0xe6, 0x3b, 0xaf, 0x13, 0x16, 0xbc, 0xb3, 0xcc, 0x2d, 0xbe,
  0x3a, 0x95, 0x84, 0xbe, 0x2d, 0x21, 0x43, 0xbe, 0xc1, 0xe1, 0x07, 0xbd,
  0x3f, 0x2c, 0x50, 0xbe, 0x32, 0x3c, 0xce, 0xbd, 0x18, 0x46, 0x43, 0x3e,
  0x0b, 0x1c, 0x96, 0xbd, 0x21, 0x90, 0x8f, 0x3c, 0xd1, 0x6d, 0x5e, 0x3e,
  0x1b, 0x55, 0x03, 0xbe, 0x53, 0x35, 0x1b, 0xbe, 0x27, 0x20, 0x29, 0xbe,
  0xb4, 0x4b, 0x94, 0xbd, 0xfa, 0x60, 0xff, 0xbd, 0x54, 0x9b, 0x3c, 0x3e,
  0x73, 0x28, 0x1e, 0x3e, 0xfc, 0xaf, 0x1b, 0x3e, 0x46, 0x2e, 0x41, 0x3d,
  0xb5, 0xb2, 0x70, 0x3b, 0x6a, 0x31, 0x56, 0xbc, 0x82, 0xd5, 0x34, 0xbd,
  0x64, 0x2e, 0x6c, 0x3d, 0x0e, 0x7e, 0xc9, 0x3d, 0x03, 0x33, 0xa6, 0x3d,
  0x6d, 0x5a, 0x0c, 0xbe, 0x83, 0x94, 0x17, 0x3a, 0xd0, 0x72, 0x49, 0xbd,
  0x8c, 0xfb, 0x16, 0xbe, 0xe2, 0xff, 0x8c, 0xbe, 0xac, 0x9c, 0xc8, 0x3d,
  0x27, 0x68, 0x3e, 0x3e, 0x95, 0x8b, 0x58, 0xbe, 0xc3, 0xa2, 0xea, 0x3d,
  0x11, 0x62, 0xbf, 0x3d, 0xa8, 0x0b, 0x80, 0x3d, 0xb0, 0xec, 0x78, 0x3e,
  0x6d, 0xc4, 0x8e, 0x3e, 0x8f, 0x7c, 0x5d, 0x3e, 0xaa, 0xe9, 0xfe, 0x3d,
  0xd5, 0x0d, 0x8f, 0xbd, 0x53, 0xd9, 0xac, 0x3d, 0x1a, 0x6d, 0x43, 0x3e,
  0x68, 0x3b, 0x8c, 0x3d, 0x38, 0xe3, 0xf7, 0x3d, 0x82, 0xe7, 0xce, 0x3d,
  0x7f, 0x41, 0x23, 0xbe, 0xee, 0x24, 0xa6, 0xbd, 0x5e, 0x15, 0xc7, 0x3d,
  0x74, 0x9f, 0x83, 0x3c, 0x26, 0x95, 0xc7, 0x3c, 0x0b, 0xa7, 0x12, 0xbd,
  0x82, 0x58, 0xb6, 0x3d, 0x12, 0x3e, 0x83, 0x3d, 0xc0, 0x24, 0x44, 0x3e,
  0xd2, 0x22, 0x56, 0xbe, 0xed, 0x98, 0x87, 0xbd, 0x0a, 0x82, 0x05, 0x3e,
  0x84, 0xb9, 0xf3, 0x3c, 0x76, 0x87, 0xfa, 0x3d, 0x2f, 0xe2, 0x18, 0x3e,
  0xb6, 0xbf, 0x3c, 0xbe, 0xa0, 0xd4, 0x5a, 0x3e, 0x47, 0x99, 0x22, 0x3e,
  0xd2, 0x79, 0x59, 0xbe, 0x1b, 0xbe, 0xf4, 0xbd, 0x60, 0x50, 0x42, 0xbc,
  0x67, 0x2a, 0x40, 0xbe, 0x6c, 0x0f, 0xdc, 0x3d, 0x49, 0xd9, 0xf8, 0xbd,
  0x70, 0x23, 0x23, 0xbe, 0x14, 0x35, 0xf2, 0xbd, 0xf6, 0xe2, 0x16, 0xbe,
  0xf3, 0x0e, 0xec, 0x3d, 0x92, 0x5c, 0x8e, 0x3d, 0xd6, 0xea, 0x1a, 0xbe,
  0x53, 0xe3, 0x50, 0x3e, 0x9c, 0x7b, 0x79, 0xbc, 0x99, 0xbb, 0x4e, 0xbe,
  0x36, 0x6b, 0x30, 0xbe, 0x3f, 0x33, 0xc9, 0xbd, 0x62, 0xda, 0x0e, 0xbe,
  0x9b, 0xb4, 0x4a, 0xbe, 0xb2, 0x5f, 0xe8, 0x3d, 0xe9, 0xed, 0x90, 0x3d,
  0xec, 0x5d, 0x80, 0x3c, 0x5b, 0x19, 0x20, 0x3e, 0x12, 0x9a, 0x4f, 0xbd,
  0x7f, 0x87, 0x7c, 0x3e, 0x1a, 0xad, 0x0c, 0xbe, 0x72, 0x26, 0x0c, 0xbe,
  0x3b, 0x7f, 0x26, 0xbe, 0x03, 0x6d, 0x01, 0xbe, 0x12, 0x17, 0x94, 0xbd,
  0x08, 0x9c, 0xc6, 0xbd, 0x02, 0xfe, 0x06, 0x3e, 0x3d, 0xf6, 0x42, 0xbd,
  0xfc, 0xce, 0x11, 0xbe, 0xf2, 0xfc, 0xff, 0xff, 0x04, 0x00, 0x00, 0x00,
  0x00, 0x01, 0x00, 0x00, 0xfd, 0xda, 0x16, 0xbe, 0xfb, 0x02, 0x78, 0xbd,
  0xa3, 0x46, 0xa9, 0xbd, 0xb3, 0x2a, 0x77, 0x3e, 0x7d, 0xc2, 0x99, 0xbd,
  0x96, 0x32, 0x10, 0x3e, 0xa4, 0xd4, 0x19, 0x3e, 0x80, 0xa2, 0x24, 0xbe,
  0xdd, 0x08, 0xa4, 0x3e, 0xc8, 0x9d, 0x21, 0xbe, 0x5f, 0x9b, 0xe7, 0x3d,
  0xf6, 0x31, 0xb8, 0xbd, 0x5f, 0x47, 0xc3, 0xbc, 0xc8, 0x55, 0x09, 0xbe,
  0x69, 0x6e, 0x16, 0xbe, 0x76, 0x89, 0x47, 0xbd, 0x50, 0x3d, 0xda, 0x3d,
  0xb3, 0xec, 0x48, 0x3e, 0x4b, 0xbf, 0x90, 0xbe, 0x26, 0x20, 0xc9, 0x3d,
  0x47, 0x6d, 0x05, 0xbe, 0x14, 0xaf, 0xa3, 0x3d, 0xc0, 0xd7, 0xce, 0x3d,
  0x2f, 0x5b, 0x3e, 0x3c, 0x2e, 0xd8, 0x3a, 0x3e, 0x20, 0x13, 0x46, 0xbe,
  0x51, 0xd6, 0x3f, 0x3e, 0xff, 0x95, 0xc7, 0xbd, 0x99, 0xe9, 0x6e, 0xbe,
  0x35, 0xcc, 0x98, 0x3d, 0x92, 0x4d, 0x3b, 0x3e, 0xe8, 0x01, 0xc1, 0x3d,
  0x0b, 0x05, 0x13, 0xbe, 0x22, 0xc2, 0x5b, 0xbd, 0x08, 0xe1, 0xc4, 0x3d,
  0x45, 0xb7, 0x3d, 0xbe, 0xf9, 0x97, 0x25, 0xbe, 0x28, 0x67, 0xa3, 0xbd,
  0xb5, 0x49, 0x0b, 0x3e, 0xdd, 0xd0, 0x30, 0xbc, 0x9e, 0x9c, 0xff, 0xbd,
  0xbd, 0xb0, 0x30, 0xbe, 0x7a, 0x5b, 0x3d, 0x3c, 0xc7, 0xf5, 0x88, 0x3e,
  0xc5, 0x17, 0x41, 0x3e, 0xbf, 0x2d, 0x94, 0xbe, 0xd2, 0xc1, 0xf8, 0xbc,
  0x9b, 0x88, 0x60, 0x3e, 0x84, 0xec, 0x20, 0xbc, 0xdd, 0x19, 0x06, 0xbd,
  0xb5, 0xdf, 0xad, 0x3d, 0x05, 0x47, 0x12, 0xbc, 0xbb, 0x21, 0xb8, 0xbd,
  0x65, 0x9a, 0x81, 0xbd, 0xd3, 0x38, 0x51, 0xbe, 0x54, 0xb5, 0xb7, 0x3e,
  0x58, 0x22, 0x27, 0x3e, 0x04, 0xe2, 0x90, 0x3e, 0x0a, 0x07, 0x9e, 0x3e,
  0x19, 0xa7, 0xce, 0x3d, 0x7e, 0x3d, 0x60, 0xbe, 0xfd, 0xc9, 0x54, 0xbe,
  0x65, 0x46, 0xf7, 0xbd, 0xd8, 0x89, 0x76, 0xbe, 0xfe, 0xfd, 0xff, 0xff,
  0x04, 0x00, 0x00, 0x00, 0x00, 0x01, 0x00, 0x00, 0x99, 0x6e, 0x07, 0xbf,
  0x82, 0xc1, 0xbe, 0x3e, 0x02, 0x9a, 0xeb, 0xbd, 0x30, 0x71, 0xcc, 0xbe,
  0xb5, 0x1a, 0x3f, 0xbd, 0x78, 0xc5, 0x90, 0xbd, 0xbb, 0x6d, 0x92, 0x3e,
  0x65, 0x8c, 0x09, 0x3f, 0x8d, 0x83, 0xa8, 0xbe, 0x09, 0x6e, 0x83, 0xbb,
  0x1c, 0x7d, 0x0c, 0xbf, 0x98, 0xea, 0xec, 0x3e, 0x06, 0x26, 0x9d, 0xbe,
  0x54, 0x0d, 0x89, 0x3e, 0x61, 0x7a, 0x97, 0xbe, 0xea, 0x2a, 0x0a, 0x3f,
  0x4d, 0x4b, 0x35, 0xbe, 0x44, 0x18, 0xd5, 0x3d, 0xa3, 0x9e, 0x05, 0x3e,
  0x8e, 0x10, 0x0b, 0x3f, 0x66, 0x5f, 0x31, 0x3e, 0x06, 0xa8, 0x82, 0x3e,
  0xe7, 0xce, 0x7d, 0x3e, 0x25, 0xff, 0x0c, 0x3f, 0x16, 0x21, 0x7f, 0x3e,
  0x42, 0x17, 0x0e, 0xbf, 0x7f, 0xcd, 0x26, 0x3e, 0x26, 0xec, 0xba, 0xbe,
  0xf7, 0x0a, 0x91, 0x3e, 0x9d, 0x3a, 0xc7, 0xbe, 0x0c, 0x95, 0xf5, 0x3e,
  0x84, 0xc2, 0xd9, 0xbe, 0x9f, 0x59, 0x92, 0xbe, 0xb8, 0xff, 0xb2, 0x3e,
  0x23, 0x3c, 0xd6, 0xbe, 0xf9, 0xd8, 0xed, 0xbe, 0x7f, 0x81, 0xf8, 0x3e,
  0x3d, 0xa7, 0x4a, 0xbf, 0xb9, 0xb7, 0xe9, 0xbe, 0xf2, 0x13, 0xe8, 0x3e,
  0xa4, 0x27, 0x90, 0xbe, 0x95, 0x48, 0x2c, 0xbe, 0xf4, 0x68, 0xe3, 0xbe,
  0xe7, 0x8f, 0x76, 0x3e, 0x86, 0xaf, 0x76, 0x3e, 0x6f, 0xf0, 0x12, 0x3f,
  0xac, 0x8e, 0x8b, 0xbe, 0x03, 0x67, 0x7a, 0x3e, 0x87, 0x20, 0x1a, 0xbf,
  0xd0, 0x5d, 0xa8, 0x3d, 0x7e, 0x1b, 0xf1, 0x3e, 0xed, 0x69, 0x34, 0x3e,
  0x8c, 0xa7, 0x81, 0xbd, 0x99, 0x66, 0x20, 0xbf, 0xa4, 0x5c, 0x30, 0x3e,
  0x4a, 0xdb, 0xa3, 0x3d, 0x58, 0x9f, 0x03, 0x3f, 0x86, 0x7c, 0x40, 0x3e,
  0xa6, 0x08, 0xb5, 0x3e, 0x50, 0x48, 0xf3, 0xbc, 0x63, 0x9e, 0x7f, 0x3e,
  0x7a, 0xd0, 0xca, 0xbd, 0x86, 0x65, 0xe2, 0x3e, 0x3f, 0x26, 0x04, 0x3e,
  0x0a, 0xff, 0xff, 0xff, 0x04, 0x00, 0x00, 0x00, 0x08, 0x00, 0x00, 0x00,
  0x01, 0x00, 0x00, 0x00, 0x08, 0x00, 0x00, 0x00, 0x1e, 0xff, 0xff, 0xff,
  0x04, 0x00, 0x00, 0x00, 0x20, 0x00, 0x00, 0x00, 0x8f, 0x53, 0x10, 0xbd,
  0xeb, 0xe5, 0xe0, 0xbb, 0x9f, 0x3a, 0x67, 0x3c, 0x7b, 0x1b, 0xd5, 0xbd,
  0x9f, 0x98, 0x0c, 0xbd, 0x89, 0xef, 0x8d, 0x3c, 0xd6, 0xf9, 0x2e, 0x3c,
  0x1a, 0x19, 0x57, 0x3e, 0x4a, 0xff, 0xff, 0xff, 0x04, 0x00, 0x00, 0x00,
  0x10, 0x00, 0x00, 0x00, 0x01, 0x00, 0x00, 0x00, 0x01, 0x00, 0x00, 0x00,
  0x00, 0x08, 0x00, 0x00, 0x01, 0x00, 0x00, 0x00, 0xa0, 0xf7, 0xff, 0xff,
  0xa4, 0xf7, 0xff, 0xff, 0x0f, 0x00, 0x00, 0x00, 0x4d, 0x4c, 0x49, 0x52,
  0x20, 0x43, 0x6f, 0x6e, 0x76, 0x65, 0x72, 0x74, 0x65, 0x64, 0x2e, 0x00,
  0x01, 0x00, 0x00, 0x00, 0x14, 0x00, 0x00, 0x00, 0x00, 0x00, 0x0e, 0x00,
  0x18, 0x00, 0x04, 0x00, 0x08, 0x00, 0x0c, 0x00, 0x10, 0x00, 0x14, 0x00,
  0x0e, 0x00, 0x00, 0x00, 0x8c, 0x02, 0x00, 0x00, 0x80, 0x02, 0x00, 0x00,
  0x74, 0x02, 0x00, 0x00, 0x14, 0x00, 0x00, 0x00, 0x04, 0x00, 0x00, 0x00,
  0x04, 0x00, 0x00, 0x00, 0x6d, 0x61, 0x69, 0x6e, 0x00, 0x00, 0x00, 0x00,
  0x09, 0x00, 0x00, 0x00, 0x38, 0x02, 0x00, 0x00, 0xdc, 0x01, 0x00, 0x00,
  0x78, 0x01, 0x00, 0x00, 0x34, 0x01, 0x00, 0x00, 0xe0, 0x00, 0x00, 0x00,
  0x9c, 0x00, 0x00, 0x00, 0x78, 0x00, 0x00, 0x00, 0x40, 0x00, 0x00, 0x00,
  0x04, 0x00, 0x00, 0x00, 0x52, 0xfe, 0xff, 0xff, 0x00, 0x00, 0x00, 0x09,
  0x04, 0x00, 0x00, 0x00, 0x24, 0x00, 0x00, 0x00, 0x18, 0x00, 0x00, 0x00,
  0x0c, 0x00, 0x00, 0x00, 0x00, 0x00, 0x06, 0x00, 0x08, 0x00, 0x04, 0x00,
  0x06, 0x00, 0x00, 0x00, 0x00, 0x00, 0x80, 0x3f, 0x01, 0x00, 0x00, 0x00,
  0x13, 0x00, 0x00, 0x00, 0x01, 0x00, 0x00, 0x00, 0x12, 0x00, 0x00, 0x00,
  0x2a, 0xff, 0xff, 0xff, 0x00, 0x00, 0x00, 0x08, 0x03, 0x00, 0x00, 0x00,
  0x18, 0x00, 0x00, 0x00, 0x0c, 0x00, 0x00, 0x00, 0x04, 0x00, 0x00, 0x00,
  0x70, 0xf8, 0xff, 0xff, 0x01, 0x00, 0x00, 0x00, 0x12, 0x00, 0x00, 0x00,
  0x03, 0x00, 0x00, 0x00, 0x11, 0x00, 0x00, 0x00, 0x04, 0x00, 0x00, 0x00,
  0x02, 0x00, 0x00, 0x00, 0x62, 0xfe, 0xff, 0xff, 0x10, 0x00, 0x00, 0x00,
  0x04, 0x00, 0x00, 0x00, 0x01, 0x00, 0x00, 0x00, 0x11, 0x00, 0x00, 0x00,
  0x02, 0x00, 0x00, 0x00, 0x10, 0x00, 0x00, 0x00, 0x03, 0x00, 0x00, 0x00,
  0x7e, 0xff, 0xff, 0xff, 0x00, 0x00, 0x00, 0x01, 0x01, 0x00, 0x00, 0x00,
  0x24, 0x00, 0x00, 0x00, 0x18, 0x00, 0x00, 0x00, 0x04, 0x00, 0x00, 0x00,
  0xce, 0xfe, 0xff, 0xff, 0x00, 0x00, 0x00, 0x01, 0x08, 0x00, 0x00, 0x00,
  0x01, 0x00, 0x00, 0x00, 0x01, 0x00, 0x00, 0x00, 0x10, 0x00, 0x00, 0x00,
  0x03, 0x00, 0x00, 0x00, 0x0f, 0x00, 0x00, 0x00, 0x07, 0x00, 0x00, 0x00,
  0x0a, 0x00, 0x00, 0x00, 0xbe, 0xff, 0xff, 0xff, 0x00, 0x00, 0x00, 0x05,
  0x02, 0x00, 0x00, 0x00, 0x2c, 0x00, 0x00, 0x00, 0x20, 0x00, 0x00, 0x00,
  0x04, 0x00, 0x00, 0x00, 0x6e, 0xff, 0xff, 0xff, 0x00, 0x00, 0x00, 0x01,
  0x02, 0x00, 0x00, 0x00, 0x01, 0x00, 0x00, 0x00, 0x02, 0x00, 0x00, 0x00,
  0x01, 0x00, 0x00, 0x00, 0x01, 0x00, 0x00, 0x00, 0x0f, 0x00, 0x00, 0x00,
  0x01, 0x00, 0x00, 0x00, 0x0e, 0x00, 0x00, 0x00, 0x00, 0x00, 0x0e, 0x00,
  0x18, 0x00, 0x08, 0x00, 0x0c, 0x00, 0x10, 0x00, 0x07, 0x00, 0x14, 0x00,
  0x0e, 0x00, 0x00, 0x00, 0x00, 0x00, 0x00, 0x01, 0x01, 0x00, 0x00, 0x00,
  0x24, 0x00, 0x00, 0x00, 0x18, 0x00, 0x00, 0x00, 0x04, 0x00, 0x00, 0x00,
  0x5e, 0xff, 0xff, 0xff, 0x00, 0x00, 0x00, 0x01, 0x08, 0x00, 0x00, 0x00,
  0x01, 0x00, 0x00, 0x00, 0x01, 0x00, 0x00, 0x00, 0x0e, 0x00, 0x00, 0x00,
  0x03, 0x00, 0x00, 0x00, 0x0d, 0x00, 0x00, 0x00, 0x06, 0x00, 0x00, 0x00,
  0x09, 0x00, 0x00, 0x00, 0xae, 0xff, 0xff, 0xff, 0x00, 0x00, 0x00, 0x05,
  0x02, 0x00, 0x00, 0x00, 0x3c, 0x00, 0x00, 0x00, 0x30, 0x00, 0x00, 0x00,
  0x14, 0x00, 0x00, 0x00, 0x00, 0x00, 0x0e, 0x00, 0x18, 0x00, 0x07, 0x00,
  0x08, 0x00, 0x0c, 0x00, 0x10, 0x00, 0x14, 0x00, 0x0e, 0x00, 0x00, 0x00,
  0x00, 0x00, 0x00, 0x01, 0x02, 0x00, 0x00, 0x00, 0x01, 0x00, 0x00, 0x00,
  0x02, 0x00, 0x00, 0x00, 0x01, 0x00, 0x00, 0x00, 0x01, 0x00, 0x00, 0x00,
  0x0d, 0x00, 0x00, 0x00, 0x01, 0x00, 0x00, 0x00, 0x0c, 0x00, 0x00, 0x00,
  0x00, 0x00, 0x0e, 0x00, 0x1a, 0x00, 0x08, 0x00, 0x0c, 0x00, 0x10, 0x00,
  0x07, 0x00, 0x14, 0x00, 0x0e, 0x00, 0x00, 0x00, 0x00, 0x00, 0x00, 0x01,
  0x01, 0x00, 0x00, 0x00, 0x30, 0x00, 0x00, 0x00, 0x24, 0x00, 0x00, 0x00,
  0x10, 0x00, 0x00, 0x00, 0x00, 0x00, 0x0a, 0x00, 0x10, 0x00, 0x07, 0x00,
  0x08, 0x00, 0x0c, 0x00, 0x0a, 0x00, 0x00, 0x00, 0x00, 0x00, 0x00, 0x01,
  0x08, 0x00, 0x00, 0x00, 0x01, 0x00, 0x00, 0x00, 0x01, 0x00, 0x00, 0x00,
  0x0c, 0x00, 0x00, 0x00, 0x03, 0x00, 0x00, 0x00, 0x0b, 0x00, 0x00, 0x00,
  0x05, 0x00, 0x00, 0x00, 0x08, 0x00, 0x00, 0x00, 0x00, 0x00, 0x0a, 0x00,
  0x0c, 0x00, 0x00, 0x00, 0x04, 0x00, 0x08, 0x00, 0x0a, 0x00, 0x00, 0x00,
  0x10, 0x00, 0x00, 0x00, 0x04, 0x00, 0x00, 0x00, 0x01, 0x00, 0x00, 0x00,
  0x0b, 0x00, 0x00, 0x00, 0x02, 0x00, 0x00, 0x00, 0x00, 0x00, 0x00, 0x00,
  0x01, 0x00, 0x00, 0x00, 0x01, 0x00, 0x00, 0x00, 0x13, 0x00, 0x00, 0x00,
  0x01, 0x00, 0x00, 0x00, 0x00, 0x00, 0x00, 0x00, 0x14, 0x00, 0x00, 0x00,
  0x84, 0x05, 0x00, 0x00, 0x24, 0x05, 0x00, 0x00, 0xc4, 0x04, 0x00, 0x00,
  0x74, 0x04, 0x00, 0x00, 0x30, 0x04, 0x00, 0x00, 0xe0, 0x03, 0x00, 0x00,
  0x90, 0x03, 0x00, 0x00, 0x40, 0x03, 0x00, 0x00, 0x08, 0x03, 0x00, 0x00,
  0xd0, 0x02, 0x00, 0x00, 0x98, 0x02, 0x00, 0x00, 0x48, 0x02, 0x00, 0x00,
  0x08, 0x02, 0x00, 0x00, 0xb0, 0x01, 0x00, 0x00, 0x6c, 0x01, 0x00, 0x00,
  0x14, 0x01, 0x00, 0x00, 0xd0, 0x00, 0x00, 0x00, 0x84, 0x00, 0x00, 0x00,
  0x3c, 0x00, 0x00, 0x00, 0x04, 0x00, 0x00, 0x00, 0xda, 0xfa, 0xff, 0xff,
  0x24, 0x00, 0x00, 0x00, 0x14, 0x00, 0x00, 0x00, 0x0c, 0x00, 0x00, 0x00,
  0x04, 0x00, 0x00, 0x00, 0xcc, 0xfa, 0xff, 0xff, 0x08, 0x00, 0x00, 0x00,
  0x49, 0x64, 0x65, 0x6e, 0x74, 0x69, 0x74, 0x79, 0x00, 0x00, 0x00, 0x00,
  0x02, 0x00, 0x00, 0x00, 0x01, 0x00, 0x00, 0x00, 0x08, 0x00, 0x00, 0x00,
  0x0e, 0xfb, 0xff, 0xff, 0x34, 0x00, 0x00, 0x00, 0x13, 0x00, 0x00, 0x00,
  0x0c, 0x00, 0x00, 0x00, 0x04, 0x00, 0x00, 0x00, 0x00, 0xfb, 0xff, 0xff,
  0x18, 0x00, 0x00, 0x00, 0x73, 0x65, 0x71, 0x75, 0x65, 0x6e, 0x74, 0x69,
  0x61, 0x6c, 0x2f, 0x64, 0x65, 0x6e, 0x73, 0x65, 0x2f, 0x42, 0x69, 0x61,
  0x73, 0x41, 0x64, 0x64, 0x00, 0x00, 0x00, 0x00, 0x02, 0x00, 0x00, 0x00,
  0x01, 0x00, 0x00, 0x00, 0x08, 0x00, 0x00, 0x00, 0x52, 0xfb, 0xff, 0xff,
  0x38, 0x00, 0x00, 0x00, 0x12, 0x00, 0x00, 0x00, 0x0c, 0x00, 0x00, 0x00,
  0x04, 0x00, 0x00, 0x00, 0x44, 0xfb, 0xff, 0xff, 0x1c, 0x00, 0x00, 0x00,
  0x73, 0x65, 0x71, 0x75, 0x65, 0x6e, 0x74, 0x69, 0x61, 0x6c, 0x2f, 0x72,
  0x65, 0x73, 0x68, 0x61, 0x70, 0x65, 0x5f, 0x31, 0x2f, 0x52, 0x65, 0x73,
  0x68, 0x61, 0x70, 0x65, 0x00, 0x00, 0x00, 0x00, 0x02, 0x00, 0x00, 0x00,
  0x01, 0x00, 0x00, 0x00, 0x08, 0x00, 0x00, 0x00, 0x9a, 0xfb, 0xff, 0xff,
  0x28, 0x00, 0x00, 0x00, 0x11, 0x00, 0x00, 0x00, 0x0c, 0x00, 0x00, 0x00,
  0x04, 0x00, 0x00, 0x00, 0x8c, 0xfb, 0xff, 0xff, 0x0c, 0x00, 0x00, 0x00,
  0x74, 0x66, 0x6c, 0x2e, 0x63, 0x6f, 0x6e, 0x76, 0x5f, 0x32, 0x64, 0x32,
  0x00, 0x00, 0x00, 0x00, 0x04, 0x00, 0x00, 0x00, 0x01, 0x00, 0x00, 0x00,
  0x01, 0x00, 0x00, 0x00, 0x01, 0x00, 0x00, 0x00, 0x08, 0x00, 0x00, 0x00,
  0xda, 0xfb, 0xff, 0xff, 0x3c, 0x00, 0x00, 0x00, 0x10, 0x00, 0x00, 0x00,
  0x0c, 0x00, 0x00, 0x00, 0x04, 0x00, 0x00, 0x00, 0xcc, 0xfb, 0xff, 0xff,
  0x22, 0x00, 0x00, 0x00, 0x73, 0x65, 0x71, 0x75, 0x65, 0x6e, 0x74, 0x69,
  0x61, 0x6c, 0x2f, 0x6d, 0x61, 0x78, 0x5f, 0x70, 0x6f, 0x6f, 0x6c, 0x69,
  0x6e, 0x67, 0x32, 0x64, 0x5f, 0x31, 0x2f, 0x4d, 0x61, 0x78, 0x50, 0x6f,
  0x6f, 0x6c, 0x00, 0x00, 0x04, 0x00, 0x00, 0x00, 0x01, 0x00, 0x00, 0x00,
  0x01, 0x00, 0x00, 0x00, 0x08, 0x00, 0x00, 0x00, 0x08, 0x00, 0x00, 0x00,
  0x2e, 0xfc, 0xff, 0xff, 0x28, 0x00, 0x00, 0x00, 0x0f, 0x00, 0x00, 0x00,
  0x0c, 0x00, 0x00, 0x00, 0x04, 0x00, 0x00, 0x00, 0x20, 0xfc, 0xff, 0xff,
  0x0c, 0x00, 0x00, 0x00, 0x74, 0x66, 0x6c, 0x2e, 0x63, 0x6f, 0x6e, 0x76,
  0x5f, 0x32, 0x64, 0x31, 0x00, 0x00, 0x00, 0x00, 0x04, 0x00, 0x00, 0x00,
  0x01, 0x00, 0x00, 0x00, 0x01, 0x00, 0x00, 0x00, 0x10, 0x00, 0x00, 0x00,
  0x08, 0x00, 0x00, 0x00, 0x6e, 0xfc, 0xff, 0xff, 0x3c, 0x00, 0x00, 0x00,
  0x0e, 0x00, 0x00, 0x00, 0x0c, 0x00, 0x00, 0x00, 0x04, 0x00, 0x00, 0x00,
  0x60, 0xfc, 0xff, 0xff, 0x20, 0x00, 0x00, 0x00, 0x73, 0x65, 0x71, 0x75,
  0x65, 0x6e, 0x74, 0x69, 0x61, 0x6c, 0x2f, 0x6d, 0x61, 0x78, 0x5f, 0x70,
  0x6f, 0x6f, 0x6c, 0x69, 0x6e, 0x67, 0x32, 0x64, 0x2f, 0x4d, 0x61, 0x78,
  0x50, 0x6f, 0x6f, 0x6c, 0x00, 0x00, 0x00, 0x00, 0x04, 0x00, 0x00, 0x00,
  0x01, 0x00, 0x00, 0x00, 0x01, 0x00, 0x00, 0x00, 0x80, 0x00, 0x00, 0x00,
  0x08, 0x00, 0x00, 0x00, 0xc2, 0xfc, 0xff, 0xff, 0x24, 0x00, 0x00, 0x00,
  0x0d, 0x00, 0x00, 0x00, 0x0c, 0x00, 0x00, 0x00, 0x04, 0x00, 0x00, 0x00,
  0xb4, 0xfc, 0xff, 0xff, 0x0b, 0x00, 0x00, 0x00, 0x74, 0x66, 0x6c, 0x2e,
  0x63, 0x6f, 0x6e, 0x76, 0x5f, 0x32, 0x64, 0x00, 0x04, 0x00, 0x00, 0x00,
  0x01, 0x00, 0x00, 0x00, 0x01, 0x00, 0x00, 0x00, 0x00, 0x01, 0x00, 0x00,
  0x08, 0x00, 0x00, 0x00, 0xfe, 0xfc, 0xff, 0xff, 0x34, 0x00, 0x00, 0x00,
  0x0c, 0x00, 0x00, 0x00, 0x0c, 0x00, 0x00, 0x00, 0x04, 0x00, 0x00, 0x00,
  0xf0, 0xfc, 0xff, 0xff, 0x1a, 0x00, 0x00, 0x00, 0x73, 0x65, 0x71, 0x75,
  0x65, 0x6e, 0x74, 0x69, 0x61, 0x6c, 0x2f, 0x72, 0x65, 0x73, 0x68, 0x61,
  0x70, 0x65, 0x2f, 0x52, 0x65, 0x73, 0x68, 0x61, 0x70, 0x65, 0x00, 0x00,
  0x04, 0x00, 0x00, 0x00, 0x01, 0x00, 0x00, 0x00, 0x01, 0x00, 0x00, 0x00,
  0x00, 0x08, 0x00, 0x00, 0x01, 0x00, 0x00, 0x00, 0x4a, 0xfd, 0xff, 0xff,
  0x28, 0x00, 0x00, 0x00, 0x0b, 0x00, 0x00, 0x00, 0x0c, 0x00, 0x00, 0x00,
  0x04, 0x00, 0x00, 0x00, 0x3c, 0xfd, 0xff, 0xff, 0x0d, 0x00, 0x00, 0x00,
  0x73, 0x74, 0x64, 0x2e, 0x63, 0x6f, 0x6e, 0x73, 0x74, 0x61, 0x6e, 0x74,
  0x32, 0x00, 0x00, 0x00, 0x01, 0x00, 0x00, 0x00, 0x08, 0x00, 0x00, 0x00,
  0x7e, 0xfd, 0xff, 0xff, 0x28, 0x00, 0x00, 0x00, 0x0a, 0x00, 0x00, 0x00,
  0x0c, 0x00, 0x00, 0x00, 0x04, 0x00, 0x00, 0x00, 0x70, 0xfd, 0xff, 0xff,
  0x0d, 0x00, 0x00, 0x00, 0x73, 0x74, 0x64, 0x2e, 0x63, 0x6f, 0x6e, 0x73,
  0x74, 0x61, 0x6e, 0x74, 0x31, 0x00, 0x00, 0x00, 0x01, 0x00, 0x00, 0x00,
  0x08, 0x00, 0x00, 0x00, 0xb2, 0xfd, 0xff, 0xff, 0x28, 0x00, 0x00, 0x00,
  0x09, 0x00, 0x00, 0x00, 0x0c, 0x00, 0x00, 0x00, 0x04, 0x00, 0x00, 0x00,
  0xa4, 0xfd, 0xff, 0xff, 0x0c, 0x00, 0x00, 0x00, 0x73, 0x74, 0x64, 0x2e,
  0x63, 0x6f, 0x6e, 0x73, 0x74, 0x61, 0x6e, 0x74, 0x00, 0x00, 0x00, 0x00,
  0x01, 0x00, 0x00, 0x00, 0x08, 0x00, 0x00, 0x00, 0xe6, 0xfd, 0xff, 0xff,
  0x34, 0x00, 0x00, 0x00, 0x08, 0x00, 0x00, 0x00, 0x0c, 0x00, 0x00, 0x00,
  0x04, 0x00, 0x00, 0x00, 0xd8, 0xfd, 0xff, 0xff, 0x1a, 0x00, 0x00, 0x00,
  0x73, 0x65, 0x71, 0x75, 0x65, 0x6e, 0x74, 0x69, 0x61, 0x6c, 0x2f, 0x63,
  0x6f, 0x6e, 0x76, 0x32, 0x64, 0x5f, 0x32, 0x2f, 0x43, 0x6f, 0x6e, 0x76,
  0x32, 0x44, 0x00, 0x00, 0x04, 0x00, 0x00, 0x00, 0x08, 0x00, 0x00, 0x00,
  0x01, 0x00, 0x00, 0x00, 0x08, 0x00, 0x00, 0x00, 0x08, 0x00, 0x00, 0x00,
  0x32, 0xfe, 0xff, 0xff, 0x34, 0x00, 0x00, 0x00, 0x07, 0x00, 0x00, 0x00,
  0x0c, 0x00, 0x00, 0x00, 0x04, 0x00, 0x00, 0x00, 0x24, 0xfe, 0xff, 0xff,
  0x1a, 0x00, 0x00, 0x00, 0x73, 0x65, 0x71, 0x75, 0x65, 0x6e, 0x74, 0x69,
  0x61, 0x6c, 0x2f, 0x63, 0x6f, 0x6e, 0x76, 0x32, 0x64, 0x5f, 0x31, 0x2f,
  0x43, 0x6f, 0x6e, 0x76, 0x32, 0x44, 0x00, 0x00, 0x04, 0x00, 0x00, 0x00,
  0x08, 0x00, 0x00, 0x00, 0x01, 0x00, 0x00, 0x00, 0x08, 0x00, 0x00, 0x00,
  0x08, 0x00, 0x00, 0x00, 0x7e, 0xfe, 0xff, 0xff, 0x34, 0x00, 0x00, 0x00,
  0x06, 0x00, 0x00, 0x00, 0x0c, 0x00, 0x00, 0x00, 0x04, 0x00, 0x00, 0x00,
  0x70, 0xfe, 0xff, 0xff, 0x18, 0x00, 0x00, 0x00, 0x73, 0x65, 0x71, 0x75,
  0x65, 0x6e, 0x74, 0x69, 0x61, 0x6c, 0x2f, 0x63, 0x6f, 0x6e, 0x76, 0x32,
  0x64, 0x2f, 0x43, 0x6f, 0x6e, 0x76, 0x32, 0x44, 0x00, 0x00, 0x00, 0x00,
  0x04, 0x00, 0x00, 0x00, 0x08, 0x00, 0x00, 0x00, 0x01, 0x00, 0x00, 0x00,
  0x08, 0x00, 0x00, 0x00, 0x01, 0x00, 0x00, 0x00, 0xca, 0xfe, 0xff, 0xff,
  0x30, 0x00, 0x00, 0x00, 0x05, 0x00, 0x00, 0x00, 0x0c, 0x00, 0x00, 0x00,
  0x04, 0x00, 0x00, 0x00, 0xbc, 0xfe, 0xff, 0xff, 0x17, 0x00, 0x00, 0x00,
  0x73, 0x65, 0x71, 0x75, 0x65, 0x6e, 0x74, 0x69, 0x61, 0x6c, 0x2f, 0x64,
  0x65, 0x6e, 0x73, 0x65, 0x2f, 0x4d, 0x61, 0x74, 0x4d, 0x75, 0x6c, 0x00,
  0x02, 0x00, 0x00, 0x00, 0x08, 0x00, 0x00, 0x00, 0x08, 0x00, 0x00, 0x00,
  0x66, 0xff, 0xff, 0xff, 0x00, 0x00, 0x00, 0x02, 0x3c, 0x00, 0x00, 0x00,
  0x04, 0x00, 0x00, 0x00, 0x0c, 0x00, 0x00, 0x00, 0x04, 0x00, 0x00, 0x00,
  0x00, 0xff, 0xff, 0xff, 0x22, 0x00, 0x00, 0x00, 0x73, 0x65, 0x71, 0x75,
  0x65, 0x6e, 0x74, 0x69, 0x61, 0x6c, 0x2f, 0x72, 0x65, 0x73, 0x68, 0x61,
  0x70, 0x65, 0x5f, 0x31, 0x2f, 0x52, 0x65, 0x73, 0x68, 0x61, 0x70, 0x65,
  0x2f, 0x73, 0x68, 0x61, 0x70, 0x65, 0x00, 0x00, 0x01, 0x00, 0x00, 0x00,
  0x02, 0x00, 0x00, 0x00, 0x56, 0xff, 0xff, 0xff, 0x40, 0x00, 0x00, 0x00,
  0x03, 0x00, 0x00, 0x00, 0x0c, 0x00, 0x00, 0x00, 0x04, 0x00, 0x00, 0x00,
  0x48, 0xff, 0xff, 0xff, 0x27, 0x00, 0x00, 0x00, 0x73, 0x65, 0x71, 0x75,
  0x65, 0x6e, 0x74, 0x69, 0x61, 0x6c, 0x2f, 0x64, 0x65, 0x6e, 0x73, 0x65,
  0x2f, 0x42, 0x69, 0x61, 0x73, 0x41, 0x64, 0x64, 0x2f, 0x52, 0x65, 0x61,
  0x64, 0x56, 0x61, 0x72, 0x69, 0x61, 0x62, 0x6c, 0x65, 0x4f, 0x70, 0x00,
  0x01, 0x00, 0x00, 0x00, 0x08, 0x00, 0x00, 0x00, 0x00, 0x00, 0x0e, 0x00,
  0x18, 0x00, 0x08, 0x00, 0x07, 0x00, 0x0c, 0x00, 0x10, 0x00, 0x14, 0x00,
  0x0e, 0x00, 0x00, 0x00, 0x00, 0x00, 0x00, 0x02, 0x3c, 0x00, 0x00, 0x00,
  0x02, 0x00, 0x00, 0x00, 0x0c, 0x00, 0x00, 0x00, 0x04, 0x00, 0x00, 0x00,
  0xa8, 0xff, 0xff, 0xff, 0x20, 0x00, 0x00, 0x00, 0x73, 0x65, 0x71, 0x75,
  0x65, 0x6e, 0x74, 0x69, 0x61, 0x6c, 0x2f, 0x72, 0x65, 0x73, 0x68, 0x61,
  0x70, 0x65, 0x2f, 0x52, 0x65, 0x73, 0x68, 0x61, 0x70, 0x65, 0x2f, 0x73,
  0x68, 0x61, 0x70, 0x65, 0x00, 0x00, 0x00, 0x00, 0x01, 0x00, 0x00, 0x00,
  0x04, 0x00, 0x00, 0x00, 0x00, 0x00, 0x0e, 0x00, 0x14, 0x00, 0x04, 0x00,
  0x00, 0x00, 0x08, 0x00, 0x0c, 0x00, 0x10, 0x00, 0x0e, 0x00, 0x00, 0x00,
  0x24, 0x00, 0x00, 0x00, 0x01, 0x00, 0x00, 0x00, 0x10, 0x00, 0x00, 0x00,
  0x08, 0x00, 0x00, 0x00, 0x04, 0x00, 0x04, 0x00, 0x04, 0x00, 0x00, 0x00,
  0x07, 0x00, 0x00, 0x00, 0x69, 0x6e, 0x70, 0x75, 0x74, 0x5f, 0x31, 0x00,
  0x02, 0x00, 0x00, 0x00, 0x01, 0x00, 0x00, 0x00, 0x00, 0x08, 0x00, 0x00,
  0x05, 0x00, 0x00, 0x00, 0x54, 0x00, 0x00, 0x00, 0x3c, 0x00, 0x00, 0x00,
  0x28, 0x00, 0x00, 0x00, 0x10, 0x00, 0x00, 0x00, 0x04, 0x00, 0x00, 0x00,
  0xc6, 0xff, 0xff, 0xff, 0x00, 0x00, 0x00, 0x19, 0xe6, 0xff, 0xff, 0xff,
  0x00, 0x00, 0x00, 0x09, 0x03, 0x00, 0x00, 0x00, 0x00, 0x00, 0x06, 0x00,
  0x06, 0x00, 0x05, 0x00, 0x06, 0x00, 0x00, 0x00, 0x00, 0x11, 0x0a, 0x00,
  0x0e, 0x00, 0x07, 0x00, 0x00, 0x00, 0x08, 0x00, 0x0a, 0x00, 0x00, 0x00,
  0x00, 0x00, 0x00, 0x03, 0x02, 0x00, 0x00, 0x00, 0x00, 0x00, 0x06, 0x00,
  0x08, 0x00, 0x07, 0x00, 0x06, 0x00, 0x00, 0x00, 0x00, 0x00, 0x00, 0x16
};
