/* Copyright 2020 The TensorFlow Authors. All Rights Reserved.

Licensed under the Apache License, Version 2.0 (the "License");
you may not use this file except in compliance with the License.
You may obtain a copy of the License at

    http://www.apache.org/licenses/LICENSE-2.0

Unless required by applicable law or agreed to in writing, software
distributed under the License is distributed on an "AS IS" BASIS,
WITHOUT WARRANTIES OR CONDITIONS OF ANY KIND, either express or implied.
See the License for the specific language governing permissions and
limitations under the License.
==============================================================================*/

// Automatically created from a TensorFlow Lite flatbuffer using the command:
// xxd -i model.tflite > model.cc

// This is a standard TensorFlow Lite model file that has been converted into a
// C data array, so it can be easily compiled into a binary for devices that
// don't have a file system.

// See train/README.md for a full description of the creation process.

#include "tensorflow/lite/micro/examples/hello_world/model.h"

// Keep model aligned to 8 bytes to guarantee aligned 64-bit accesses.
const int g_model_len = 8900;
alignas(8) const unsigned char g_model[] = {
  0x08, 0x00, 0x00, 0x00, 0x54, 0x46, 0x4c, 0x33, 0x56, 0xed, 0xff, 0xff,
  0x03, 0x00, 0x00, 0x00, 0xc4, 0x21, 0x00, 0x00, 0x94, 0x12, 0x00, 0x00,
  0x7c, 0x12, 0x00, 0x00, 0x04, 0x00, 0x00, 0x00, 0x16, 0x00, 0x00, 0x00,
  0x6c, 0x12, 0x00, 0x00, 0x64, 0x12, 0x00, 0x00, 0x44, 0x12, 0x00, 0x00,
  0x0c, 0x12, 0x00, 0x00, 0xfc, 0x10, 0x00, 0x00, 0xcc, 0x10, 0x00, 0x00,
  0xbc, 0x08, 0x00, 0x00, 0x8c, 0x08, 0x00, 0x00, 0x7c, 0x00, 0x00, 0x00,
  0x64, 0x00, 0x00, 0x00, 0x5c, 0x00, 0x00, 0x00, 0x54, 0x00, 0x00, 0x00,
  0x4c, 0x00, 0x00, 0x00, 0x44, 0x00, 0x00, 0x00, 0x3c, 0x00, 0x00, 0x00,
  0x34, 0x00, 0x00, 0x00, 0x2c, 0x00, 0x00, 0x00, 0x24, 0x00, 0x00, 0x00,
  0x1c, 0x00, 0x00, 0x00, 0x14, 0x00, 0x00, 0x00, 0x0c, 0x00, 0x00, 0x00,
  0x04, 0x00, 0x00, 0x00, 0xc8, 0xde, 0xff, 0xff, 0xcc, 0xde, 0xff, 0xff,
  0xd0, 0xde, 0xff, 0xff, 0xd4, 0xde, 0xff, 0xff, 0xd8, 0xde, 0xff, 0xff,
  0xdc, 0xde, 0xff, 0xff, 0xe0, 0xde, 0xff, 0xff, 0xe4, 0xde, 0xff, 0xff,
  0xe8, 0xde, 0xff, 0xff, 0xec, 0xde, 0xff, 0xff, 0xf0, 0xde, 0xff, 0xff,
  0xf4, 0xde, 0xff, 0xff, 0x42, 0xee, 0xff, 0xff, 0x04, 0x00, 0x00, 0x00,
  0x08, 0x00, 0x00, 0x00, 0x01, 0x00, 0x00, 0x00, 0x40, 0x00, 0x00, 0x00,
  0x56, 0xee, 0xff, 0xff, 0x04, 0x00, 0x00, 0x00, 0x00, 0x08, 0x00, 0x00,
  0x0e, 0x4a, 0x12, 0x3d, 0xe1, 0x8c, 0x3f, 0x3e, 0xc0, 0x15, 0x60, 0x3e,
  0xd7, 0xfc, 0xfa, 0x3d, 0xe8, 0xe3, 0x2a, 0xbe, 0xf9, 0x2a, 0x0d, 0xbe,
  0x25, 0x29, 0x13, 0xbe, 0x43, 0x8a, 0x6a, 0xbe, 0x07, 0xe2, 0x1e, 0x3e,
  0x87, 0x75, 0x01, 0xbd, 0x86, 0xd9, 0x20, 0x3d, 0x52, 0x6c, 0x5a, 0x3e,
  0x5f, 0x11, 0x82, 0xbe, 0x82, 0xf1, 0x1f, 0x3e, 0x87, 0xea, 0x5f, 0xbe,
  0xad, 0x8d, 0xee, 0xbc, 0x52, 0x88, 0xf3, 0xbc, 0x0b, 0x36, 0xa1, 0xbd,
  0xdc, 0x6a, 0x23, 0x3e, 0x95, 0x77, 0x7a, 0x3d, 0x8d, 0xc5, 0xb1, 0xbd,
  0xd7, 0x45, 0x0b, 0x3e, 0x5f, 0xd1, 0x84, 0x3e, 0xb5, 0x4c, 0x33, 0x3d,
  0x9e, 0x7e, 0xe6, 0xbb, 0x39, 0xb8, 0xd7, 0x3d, 0x8d, 0x81, 0xa4, 0x3d,
  0xaa, 0x8c, 0x0f, 0xbe, 0x4d, 0x90, 0x86, 0x3e, 0x66, 0xf3, 0x18, 0x3d,
  0x7c, 0xae, 0x81, 0x3c, 0x83, 0x80, 0x9f, 0x3c, 0xe3, 0x36, 0x8d, 0xbd,
  0xce, 0x3f, 0xa0, 0xbe, 0x7f, 0x0f, 0x8f, 0xbc, 0x87, 0x0c, 0xda, 0xbd,
  0xa2, 0x17, 0x4c, 0xbe, 0xc3, 0xfa, 0x43, 0x3e, 0xb0, 0x56, 0x65, 0x3e,
  0xdf, 0xb5, 0x8c, 0xbe, 0xf0, 0xec, 0x35, 0x3e, 0xe6, 0xb5, 0xb8, 0xbd,
  0x65, 0xad, 0x7b, 0xbe, 0x40, 0x46, 0x21, 0x3e, 0x82, 0xc4, 0x87, 0x3e,
  0x5d, 0xa5, 0xd3, 0x3d, 0xcc, 0xee, 0x0c, 0x3c, 0xe3, 0xdf, 0x5c, 0x3e,
  0xeb, 0x1f, 0x8a, 0xbd, 0x70, 0xf1, 0x32, 0xbe, 0x3d, 0x47, 0x3c, 0x3c,
  0xc6, 0x70, 0x14, 0x3c, 0x18, 0x39, 0x47, 0xbe, 0x38, 0xc0, 0x03, 0x3b,
  0x44, 0x5d, 0x8e, 0x3e, 0x68, 0x50, 0x57, 0xbe, 0x61, 0xcf, 0xb5, 0xbc,
  0x70, 0x67, 0xe3, 0xbc, 0xad, 0x11, 0x26, 0xbe, 0x15, 0xd8, 0x11, 0x3e,
  0x43, 0x6b, 0x23, 0x3e, 0x28, 0x16, 0x15, 0x3d, 0xf3, 0xf0, 0xcb, 0xbc,
  0x9c, 0x1b, 0x37, 0x3d, 0xb6, 0x8b, 0x38, 0x3d, 0x12, 0xb2, 0x5e, 0x3e,
  0x28, 0xf0, 0x97, 0xbe, 0x39, 0x63, 0xf0, 0xbd, 0xa8, 0x3d, 0x91, 0x3e,
  0xd4, 0x1c, 0x80, 0x3c, 0x56, 0x99, 0x38, 0xbe, 0x70, 0x48, 0xcd, 0xbd,
  0x43, 0x8d, 0xd6, 0xbd, 0x88, 0xd9, 0x25, 0xbd, 0x99, 0xa0, 0x25, 0xbe,
  0x3b, 0x24, 0x55, 0xbc, 0x4d, 0x2a, 0x87, 0xbd, 0x24, 0xb4, 0x68, 0x3d,
  0xbe, 0xca, 0x56, 0x3a, 0xdb, 0xc5, 0xc0, 0xbd, 0x37, 0x99, 0xcb, 0x3d,
  0x81, 0x3a, 0x30, 0x3e, 0x5e, 0xf2, 0x46, 0x3d, 0xf2, 0x2d, 0xa5, 0x3d,
  0x0d, 0x8d, 0xbe, 0x3d, 0x3a, 0x3a, 0x7b, 0x3e, 0x9f, 0x2f, 0x10, 0xbd,
  0x97, 0x60, 0x4e, 0xbd, 0x26, 0xda, 0x0f, 0xbd, 0x4d, 0xb1, 0x73, 0xbe,
  0x9f, 0xfd, 0xea, 0x3d, 0x25, 0xb4, 0x11, 0x3e, 0x5b, 0x09, 0x8a, 0xbe,
  0x74, 0xbc, 0xf0, 0x3c, 0x8a, 0xc1, 0x52, 0x3e, 0x9b, 0x2f, 0x25, 0xbe,
  0xb1, 0x55, 0x33, 0x3e, 0xfa, 0x0b, 0xe8, 0xbd, 0x54, 0x78, 0x49, 0xbe,
  0x54, 0xc8, 0x9a, 0x3e, 0x2c, 0x2f, 0xed, 0x3d, 0x70, 0x7b, 0x69, 0x3d,
  0xe6, 0x0e, 0x2b, 0x3e, 0x08, 0x0e, 0x3a, 0xbd, 0xb4, 0x10, 0xf4, 0x3d,
  0xcf, 0x44, 0x54, 0x3d, 0xcc, 0xf2, 0x3a, 0xbe, 0x9f, 0x60, 0x80, 0x3e,
  0x0f, 0x41, 0xbe, 0xbd, 0x0f, 0xf6, 0x9c, 0x3e, 0x91, 0x60, 0x98, 0x3b,
  0x1c, 0x0b, 0x71, 0x3d, 0xef, 0xbd, 0x36, 0xbd, 0xf9, 0x48, 0xb0, 0x3d,
  0xe4, 0xbd, 0xac, 0x3e, 0xb2, 0x89, 0x20, 0xbe, 0x54, 0xa2, 0xe0, 0x3d,
  0x49, 0x22, 0x51, 0xbe, 0x01, 0x53, 0xb9, 0x3d, 0x2a, 0x55, 0x87, 0xbe,
  0xe0, 0xd7, 0x63, 0x3e, 0x35, 0x36, 0x9d, 0xbd, 0xe9, 0x7a, 0x67, 0xbd,
  0xf2, 0x30, 0x30, 0xbc, 0x38, 0xaf, 0xa1, 0xbd, 0xc5, 0x85, 0x76, 0x3e,
  0x60, 0x39, 0x19, 0x3e, 0x8b, 0x4e, 0x47, 0x3e, 0xac, 0xc8, 0x99, 0xbd,
  0x5f, 0x28, 0xf2, 0x3d, 0xda, 0x83, 0xb1, 0xbd, 0xda, 0xd8, 0xd3, 0xbc,
  0x81, 0x88, 0xc7, 0xbd, 0xa3, 0x1d, 0x13, 0x3e, 0xff, 0xf0, 0x14, 0xbe,
  0x55, 0x83, 0x75, 0xbe, 0x26, 0x2d, 0x02, 0xbe, 0xd5, 0x31, 0xa2, 0x3e,
  0x20, 0x53, 0x8b, 0xbe, 0x77, 0xba, 0x4c, 0xbe, 0x54, 0xe8, 0x41, 0xbe,
  0xe8, 0x8b, 0x07, 0xbe, 0x59, 0xdf, 0x36, 0x3e, 0x64, 0x7b, 0x40, 0xbc,
  0xd2, 0x3e, 0x84, 0xbe, 0x43, 0x1a, 0x52, 0x3e, 0xa4, 0x5b, 0xaf, 0xbe,
  0x37, 0x96, 0xc8, 0xbd, 0xba, 0x16, 0x6f, 0xbd, 0x13, 0x47, 0x05, 0x3e,
  0x30, 0x8a, 0x20, 0xbd, 0x13, 0x12, 0xf8, 0x3d, 0x19, 0x2c, 0x45, 0x3e,
  0x91, 0xd6, 0x71, 0x3e, 0x57, 0x5e, 0xa1, 0x3d, 0x7d, 0xe2, 0x90, 0x3d,
  0xb7, 0xea, 0xaa, 0xbd, 0x16, 0xd5, 0x41, 0xbe, 0x40, 0x95, 0x69, 0x3e,
  0x34, 0x3e, 0xa4, 0xbd, 0xd4, 0x26, 0x8c, 0xbe, 0xcf, 0xac, 0x1e, 0x3e,
  0x9d, 0x7c, 0xa4, 0xbe, 0x0c, 0x0c, 0x4c, 0xbe, 0x07, 0xd4, 0x9f, 0xbd,
  0xbe, 0xce, 0x52, 0xbd, 0x30, 0x8c, 0xf5, 0xbd, 0x5a, 0x5c, 0x47, 0xbc,
  0xca, 0x18, 0x5b, 0x3e, 0x25, 0x10, 0x92, 0xbd, 0x2f, 0xd9, 0x50, 0x3e,
  0x58, 0x11, 0x35, 0xbe, 0xfd, 0x3a, 0xa3, 0x3d, 0xb9, 0x56, 0x80, 0xbe,
  0x7c, 0x3f, 0x2c, 0xbb, 0x4a, 0x7a, 0x2a, 0xbe, 0x95, 0xdf, 0x1d, 0xbe,
  0x0e, 0xf3, 0x29, 0x3e, 0xf5, 0x34, 0x8e, 0x3e, 0xde, 0x89, 0x48, 0x3e,
  0xd7, 0x2a, 0xdf, 0xbd, 0xd7, 0x3f, 0x0d, 0x3e, 0xa5, 0x2b, 0x91, 0xbc,
  0x05, 0xc2, 0x44, 0xbd, 0x71, 0x23, 0x3d, 0x3e, 0x67, 0x2b, 0xad, 0xbd,
  0xab, 0x25, 0xc1, 0xbd, 0x0a, 0x2e, 0x65, 0x3d, 0x5b, 0x53, 0x6d, 0x3b,
  0x74, 0xd4, 0x44, 0xbe, 0xb9, 0x6b, 0x10, 0x3e, 0x23, 0xbf, 0x89, 0x3e,
  0xdf, 0xb0, 0xd1, 0x3d, 0xf2, 0xb2, 0x87, 0x3e, 0x38, 0x1f, 0x89, 0xbd,
  0xf2, 0x50, 0x17, 0x3e, 0xd2, 0x8d, 0x31, 0x3c, 0x0d, 0x96, 0x6b, 0x3e,
  0xb6, 0x6a, 0x93, 0xbe, 0x03, 0x7a, 0xcf, 0xbe, 0x95, 0x0d, 0x42, 0x3e,
  0xdb, 0x4f, 0x97, 0x3e, 0xc2, 0x89, 0x88, 0xbc, 0x08, 0x8b, 0xf0, 0x3d,
  0xad, 0x5d, 0x25, 0x3e, 0x4c, 0x6f, 0x85, 0x3e, 0xa6, 0x78, 0x7b, 0xbe,
  0x70, 0xd7, 0xea, 0x3c, 0x14, 0xca, 0xc7, 0xbd, 0xa2, 0x38, 0x37, 0x3e,
  0xa1, 0x75, 0x82, 0x3d, 0x68, 0x75, 0x07, 0x3e, 0x6c, 0x72, 0x81, 0xbd,
  0x8b, 0x83, 0x6b, 0x3e, 0x7b, 0x81, 0x8c, 0x3c, 0xd8, 0x49, 0x5a, 0xbe,
  0x53, 0xe8, 0x96, 0x3d, 0xad, 0x97, 0xa0, 0xbe, 0x29, 0x3b, 0x9b, 0x3e,
  0x09, 0x87, 0x74, 0xbe, 0x11, 0x3a, 0x8d, 0xbd, 0xf2, 0x73, 0xf8, 0xbc,
  0x0f, 0x7f, 0x94, 0xbc, 0xd3, 0x33, 0x51, 0xbc, 0xa0, 0xf4, 0x24, 0x3e,
  0xe6, 0x9f, 0x97, 0x3d, 0x91, 0x9f, 0x19, 0x3e, 0x1d, 0x3c, 0x2d, 0x3e,
  0x34, 0x7f, 0x92, 0x3d, 0xba, 0xec, 0x6b, 0x3e, 0x1c, 0x23, 0x06, 0x3e,
  0xd3, 0xf8, 0x2b, 0x3d, 0x39, 0x4f, 0x29, 0x3e, 0xea, 0xec, 0x21, 0xbe,
  0x5e, 0x07, 0xbc, 0xbe, 0x48, 0x0d, 0x0f, 0x3e, 0x0c, 0xca, 0xdb, 0x3e,
  0x7d, 0xda, 0x4f, 0x3e, 0xb9, 0x80, 0x87, 0xbe, 0x82, 0x5d, 0x8b, 0xbe,
  0x4b, 0x29, 0x87, 0x3e, 0xd0, 0xc1, 0x2f, 0xbd, 0xfc, 0x3e, 0xe6, 0x3b,
  0xea, 0x90, 0x8c, 0x3e, 0x63, 0x87, 0x90, 0xbd, 0x34, 0x14, 0x7b, 0x3d,
  0xc3, 0xd1, 0x82, 0x3e, 0x98, 0x0d, 0xd0, 0x3d, 0x5e, 0x3c, 0x80, 0x3c,
  0xa2, 0x01, 0x1e, 0xbe, 0xe5, 0x67, 0x85, 0x3e, 0x64, 0xb3, 0xa2, 0x3c,
  0x22, 0x7d, 0xfe, 0xbd, 0x8c, 0xca, 0xba, 0x3d, 0xdd, 0x6f, 0x13, 0x3e,
  0x03, 0x6b, 0x11, 0xbd, 0x71, 0x1b, 0x8b, 0xbb, 0x9e, 0x99, 0x1d, 0xbe,
  0x9e, 0x7d, 0x70, 0xbd, 0xe2, 0x13, 0xad, 0x3e, 0x9f, 0xd9, 0xa7, 0x3c,
  0xc1, 0x7d, 0xb1, 0xbd, 0xf6, 0xd3, 0xb4, 0xbd, 0x2a, 0x5e, 0xfa, 0xbe,
  0x02, 0xa9, 0x9b, 0x3d, 0xf4, 0x4b, 0x86, 0x3e, 0x6f, 0xb1, 0x8a, 0xbd,
  0x6e, 0x61, 0xad, 0xbc, 0xc2, 0xbc, 0x86, 0x3b, 0x55, 0x69, 0x8c, 0x3e,
  0x1e, 0x3e, 0x13, 0xbe, 0xe2, 0x84, 0x48, 0xbd, 0x2d, 0x52, 0xf2, 0x3d,
  0xb5, 0x40, 0xa0, 0xbd, 0xb7, 0x8d, 0x68, 0x3e, 0x04, 0xfb, 0x18, 0x3b,
  0x78, 0xdf, 0xa9, 0xbe, 0x06, 0x02, 0xb0, 0x3d, 0x2c, 0x05, 0x9c, 0xbb,
  0xd0, 0x78, 0xfe, 0xbd, 0x61, 0x97, 0xe3, 0xbd, 0xdb, 0xa4, 0x90, 0xbe,
  0xfa, 0x3f, 0x7b, 0xbe, 0xdb, 0x45, 0xe8, 0xbc, 0x2e, 0x9d, 0x0f, 0x3e,
  0xfd, 0x92, 0xd5, 0xbd, 0x16, 0xcd, 0x89, 0xbe, 0xff, 0x4a, 0xdc, 0xbd,
  0x10, 0x6f, 0xee, 0xbd, 0x77, 0x69, 0x14, 0xbe, 0x57, 0x84, 0x70, 0xbe,
  0xce, 0x74, 0x68, 0xbe, 0x63, 0x05, 0x69, 0x3e, 0x95, 0x39, 0x27, 0x3d,
  0x8f, 0x6c, 0x1c, 0x3e, 0x76, 0x4c, 0xa9, 0xbe, 0x32, 0x8f, 0x26, 0xbe,
  0xc7, 0x3d, 0x62, 0x3d, 0xd5, 0x52, 0xa8, 0x3c, 0x68, 0xfd, 0x28, 0xbd,
  0x61, 0x05, 0xbd, 0x3e, 0x9f, 0x27, 0xfa, 0x3d, 0xe0, 0x87, 0xcd, 0xbd,
  0xfc, 0x6a, 0x4d, 0x3c, 0x96, 0x6f, 0x0d, 0x3e, 0x6c, 0x0b, 0x9c, 0xbd,
  0xf0, 0xab, 0xbc, 0xbd, 0xf9, 0x5e, 0xe1, 0xbd, 0x51, 0x63, 0xc4, 0x3e,
  0x57, 0x64, 0x87, 0xbe, 0xad, 0x6c, 0x55, 0x3e, 0xf5, 0xb6, 0xe0, 0xbb,
  0x5c, 0xee, 0x50, 0xbe, 0x13, 0x69, 0xa9, 0x3e, 0x03, 0x79, 0x9d, 0x3c,
  0x74, 0x1d, 0x33, 0xbe, 0x20, 0x5c, 0x20, 0x3e, 0x06, 0xaa, 0x74, 0xbe,
  0xfb, 0xfd, 0x48, 0x3e, 0x27, 0xc8, 0x1f, 0x3e, 0x14, 0xc9, 0x19, 0xbe,
  0xa0, 0x3b, 0x46, 0xbe, 0x3c, 0x35, 0xb3, 0xbe, 0xd3, 0x84, 0x42, 0xbe,
  0x4d, 0x63, 0x51, 0x3e, 0xf4, 0xdf, 0x6f, 0xbe, 0xe0, 0x89, 0xb9, 0xbd,
  0x7b, 0x79, 0xd2, 0xbd, 0x00, 0x27, 0x69, 0x3e, 0xd1, 0xf6, 0xe8, 0xbd,
  0x01, 0x1b, 0xb1, 0xbd, 0x66, 0x80, 0x09, 0xbe, 0xab, 0x57, 0x85, 0xbc,
  0xb9, 0x43, 0x87, 0xbe, 0x7c, 0x17, 0xfb, 0x3d, 0x71, 0xe2, 0x33, 0x3e,
  0xe5, 0xc8, 0x5b, 0x3e, 0x95, 0x12, 0x2e, 0xbe, 0x28, 0x44, 0xf5, 0x3d,
  0xd0, 0xf8, 0x00, 0x3d, 0xe2, 0x02, 0x44, 0x3d, 0x3c, 0x68, 0x0f, 0xbd,
  0x8a, 0x02, 0xa5, 0x3d, 0x0d, 0xca, 0x58, 0xbe, 0x0a, 0xf6, 0xe2, 0xbd,
  0x6d, 0xd7, 0x4f, 0xbd, 0x94, 0xd0, 0x72, 0x3e, 0x9f, 0x6b, 0x90, 0x3e,
  0x7c, 0x68, 0x47, 0x3e, 0x02, 0x6a, 0x31, 0x3e, 0x7e, 0x82, 0x21, 0x3e,
  0x98, 0xb5, 0x09, 0xbe, 0x65, 0xce, 0x80, 0xbe, 0xd5, 0xbb, 0x75, 0xbe,
  0x64, 0xc8, 0x00, 0xbe, 0xd2, 0x5f, 0x46, 0x3e, 0x44, 0x59, 0x01, 0xbd,
  0x8f, 0xbf, 0x45, 0xbc, 0x3a, 0xe8, 0x40, 0x3e, 0xf0, 0xa3, 0xe3, 0xbc,
  0x7e, 0x35, 0x79, 0xbe, 0x3b, 0x7a, 0x37, 0x3e, 0x9a, 0xd1, 0x1d, 0xbc,
  0xbd, 0x6b, 0x95, 0xbe, 0x78, 0x2e, 0x38, 0xbe, 0xfb, 0x65, 0x36, 0x3e,
  0x1c, 0x1b, 0x30, 0xbe, 0x53, 0xe1, 0xbe, 0xbe, 0x0e, 0x75, 0x42, 0x3e,
  0x56, 0x7a, 0x7d, 0xbe, 0xba, 0x91, 0x13, 0xbe, 0x30, 0xaf, 0x65, 0x3e,
  0xb1, 0x7e, 0x7e, 0x3e, 0x0d, 0x17, 0x6c, 0x3e, 0x73, 0xb5, 0x63, 0xbe,
  0x25, 0x7c, 0xe2, 0xbd, 0x45, 0xae, 0x88, 0x3e, 0x1c, 0x9a, 0x93, 0x3d,
  0xe9, 0x9a, 0x11, 0xbe, 0x70, 0x5a, 0x2b, 0x3e, 0x51, 0x4e, 0x86, 0xbd,
  0x97, 0x18, 0x66, 0xbe, 0xe9, 0xf5, 0xa7, 0x3e, 0xaa, 0x6f, 0x7a, 0x3d,
  0xe7, 0x54, 0x45, 0x3e, 0xc2, 0xc4, 0x8c, 0x3e, 0x49, 0x0c, 0x05, 0xbe,
  0x36, 0xcc, 0x62, 0xbe, 0xc4, 0x74, 0x1d, 0x3d, 0xa3, 0x91, 0xa5, 0xbd,
  0x42, 0x69, 0xaf, 0x3d, 0x92, 0x4c, 0x71, 0x3d, 0x9e, 0x5b, 0x79, 0x3e,
  0xd1, 0x0f, 0x59, 0xbe, 0xd2, 0xca, 0x7a, 0x3e, 0x16, 0xf3, 0x33, 0x3e,
  0x7f, 0x32, 0xac, 0x3d, 0xa7, 0x4d, 0x4f, 0xbe, 0xc2, 0xa9, 0xce, 0x3d,
  0xd6, 0x55, 0xa2, 0x3d, 0x33, 0x7b, 0x21, 0x3e, 0x82, 0x8b, 0xcf, 0xbc,
  0x4b, 0xf1, 0xfc, 0xbd, 0x05, 0x74, 0x8b, 0xbe, 0xc5, 0xc3, 0x80, 0xbe,
  0x83, 0xff, 0x60, 0xbe, 0xbb, 0x09, 0x14, 0xbe, 0x55, 0x93, 0xa0, 0x3e,
  0x3c, 0x76, 0x04, 0xbe, 0x32, 0x00, 0x89, 0xbe, 0xf1, 0xd2, 0x25, 0xbe,
  0x24, 0x24, 0x99, 0x3d, 0x51, 0xe7, 0x35, 0x3e, 0x4d, 0x38, 0xd9, 0x3b,
  0xd4, 0xd4, 0x27, 0xbe, 0x22, 0x49, 0x74, 0xbe, 0xf5, 0x47, 0x6d, 0x3e,
  0xf7, 0x8a, 0xa3, 0x3c, 0x0d, 0xe7, 0xa0, 0xbc, 0xc5, 0x2a, 0x37, 0x3e,
  0x59, 0x7a, 0x27, 0xbe, 0x59, 0xa3, 0x61, 0xbe, 0x8d, 0x77, 0x76, 0xbe,
  0x57, 0xed, 0x87, 0x3d, 0x38, 0xbb, 0xea, 0xbd, 0xd0, 0x36, 0x9f, 0xbe,
  0x69, 0x1d, 0xa3, 0x3e, 0xc3, 0x13, 0x2a, 0x3e, 0xd6, 0x4b, 0x4c, 0xbe,
  0x4e, 0x50, 0x4a, 0xbe, 0x28, 0x22, 0x26, 0x3e, 0xb6, 0x63, 0x0e, 0x3d,
  0x5d, 0xdc, 0x4c, 0x3e, 0xe7, 0x44, 0x03, 0xbe, 0x77, 0xe7, 0x24, 0xbd,
  0x7b, 0xd1, 0xa5, 0xbd, 0x9e, 0x4a, 0x53, 0x3e, 0x40, 0x46, 0x71, 0xbc,
  0x99, 0x61, 0xa5, 0x3d, 0x6b, 0x9b, 0x06, 0x3e, 0x61, 0x34, 0x7f, 0xbe,
  0x34, 0xe2, 0x7a, 0x3b, 0xcf, 0x3c, 0x94, 0x3d, 0xda, 0x7a, 0xf0, 0xbc,
  0x19, 0x95, 0xc7, 0xbd, 0x47, 0xc4, 0x74, 0x3d, 0xc9, 0x25, 0x6e, 0x3e,
  0xe4, 0x53, 0x74, 0xbe, 0xe9, 0x50, 0x30, 0x3e, 0x29, 0xc0, 0x43, 0xbe,
  0xed, 0x11, 0x05, 0x3e, 0xbe, 0xb3, 0x45, 0xbe, 0xd1, 0xab, 0x59, 0xbe,
  0xd1, 0xf4, 0x3f, 0xbe, 0x0c, 0xdd, 0x32, 0xbe, 0x29, 0xf0, 0x20, 0x3e,
  0xb7, 0x77, 0x0b, 0xbe, 0x3d, 0xeb, 0xc5, 0x3d, 0xd9, 0xc9, 0x9a, 0xbd,
  0x3f, 0x2f, 0x86, 0xbe, 0x99, 0xb9, 0x0c, 0xbc, 0xb1, 0x66, 0x73, 0x3e,
  0x21, 0xb4, 0x6f, 0x3e, 0xc3, 0x17, 0x4f, 0x3e, 0xc0, 0x1a, 0xfe, 0xbd,
  0xfd, 0x2c, 0x04, 0xbd, 0x44, 0xa5, 0x5c, 0x3e, 0x97, 0x3d, 0x14, 0x3d,
  0xcf, 0x69, 0x17, 0xbe, 0x33, 0xdf, 0x0b, 0x3e, 0xcd, 0xd6, 0xe5, 0xbd,
  0x88, 0x01, 0x3b, 0xbe, 0xf6, 0x02, 0x85, 0xbe, 0x67, 0xfb, 0x2f, 0x3e,
  0xb7, 0x6d, 0x0c, 0x3d, 0x24, 0x55, 0x7a, 0x3e, 0x19, 0xf4, 0xf4, 0xbd,
  0xcd, 0x95, 0x09, 0xbe, 0x9a, 0x7e, 0x2d, 0x3e, 0x15, 0x1f, 0x67, 0xbe,
  0xbb, 0xc9, 0x6f, 0xbe, 0x0b, 0x69, 0x80, 0x3d, 0xad, 0xe9, 0x80, 0x3e,
  0x19, 0x4f, 0x8c, 0xbb, 0x40, 0x01, 0x7d, 0xbe, 0x35, 0xa8, 0x4c, 0x3e,
  0x61, 0xac, 0x51, 0xbe, 0x46, 0x13, 0x0c, 0x3e, 0xe8, 0x3d, 0x83, 0xbd,
  0x16, 0x0d, 0x0e, 0x3e, 0x7e, 0x9a, 0xf1, 0x3d, 0x2f, 0xa1, 0x44, 0xbe,
  0xe4, 0xd3, 0x64, 0x3a, 0xd9, 0x6b, 0x14, 0x3e, 0x6a, 0x90, 0x2c, 0xbd,
  0xed, 0xe9, 0xf3, 0xbd, 0x94, 0x9d, 0xf9, 0xbb, 0xb8, 0xe2, 0x98, 0xbd,
  0x04, 0x7e, 0x25, 0x3e, 0x15, 0x39, 0xaa, 0x3d, 0x34, 0x02, 0xb8, 0xbc,
  0xff, 0x2d, 0x78, 0x3e, 0xe7, 0x6c, 0x66, 0x3d, 0x32, 0xd2, 0x6d, 0xbb,
  0x44, 0xd5, 0x62, 0x3e, 0xb1, 0xd3, 0x81, 0x3e, 0x7e, 0x14, 0x37, 0x3d,
  0x5a, 0xfe, 0xb3, 0xbd, 0x72, 0x28, 0x33, 0x3e, 0x6a, 0xf5, 0x58, 0xbe,
  0x4f, 0xe7, 0x3d, 0xbe, 0xf9, 0x0f, 0x7c, 0x3d, 0x62, 0xf6, 0xff, 0xff,
  0x04, 0x00, 0x00, 0x00, 0x20, 0x00, 0x00, 0x00, 0xc6, 0x36, 0x0c, 0x3c,
  0x6b, 0xad, 0x95, 0x3d, 0x08, 0xcb, 0x31, 0x3b, 0x47, 0xb3, 0x01, 0x3c,
  0x87, 0xf5, 0x73, 0xbd, 0xa1, 0x89, 0x38, 0xbc, 0x73, 0x3e, 0x24, 0x3c,
  0xa0, 0x6c, 0x6d, 0x3d, 0x8e, 0xf6, 0xff, 0xff, 0x04, 0x00, 0x00, 0x00,
  0x00, 0x08, 0x00, 0x00, 0xb0, 0xad, 0xae, 0xbd, 0xc7, 0x2c, 0x28, 0x3e,
  0x99, 0x84, 0xcb, 0x3d, 0x0c, 0x1a, 0x4f, 0x3d, 0xd8, 0x6b, 0x5f, 0x3e,
  0xa1, 0x61, 0x89, 0x3d, 0x25, 0xbf, 0xb4, 0xbd, 0xfc, 0x6f, 0x5b, 0x3e,
  0x3a, 0x80, 0x2f, 0x3c, 0x99, 0x3b, 0x46, 0xbe, 0x84, 0x44, 0x83, 0xbd,
  0xd5, 0x0c, 0x34, 0xbe, 0x95, 0xe0, 0x30, 0xbe, 0x57, 0x3e, 0x80, 0x3d,
  0xbe, 0x4f, 0x6a, 0xbc, 0xd2, 0x6b, 0x03, 0x3e, 0xbe, 0x63, 0x3d, 0x3c,
  0x3c, 0xf8, 0x77, 0x3d, 0x1e, 0x82, 0xf2, 0x3c, 0x5a, 0xeb, 0x34, 0x3e,
  0xa7, 0x31, 0x5d, 0x3c, 0x8f, 0xaf, 0x8e, 0x3e, 0x6d, 0x2e, 0xc5, 0x3d,
  0x18, 0x85, 0x2e, 0x3d, 0x87, 0x16, 0x4e, 0xbd, 0xea, 0xa5, 0xde, 0xbd,
  0xb3, 0xdd, 0x17, 0x3e, 0x62, 0x7d, 0xf6, 0xbd, 0x75, 0x4a, 0xac, 0x3d,
  0xc7, 0xb7, 0x3d, 0x3d, 0xd5, 0xb9, 0x35, 0x3e, 0xa7, 0x09, 0xbf, 0x3d,
  0x18, 0x5c, 0xb8, 0xbd, 0xb9, 0x57, 0x5d, 0x3d, 0x31, 0x0c, 0x3f, 0x3d,
  0xda, 0x16, 0x91, 0xbd, 0x40, 0xd7, 0x18, 0xbe, 0x8b, 0xeb, 0xd0, 0x3b,
  0x8e, 0x68, 0xfe, 0x3d, 0xcb, 0xf7, 0x03, 0xbe, 0xef, 0xf0, 0x5e, 0x3d,
  0x10, 0x3a, 0x45, 0xbd, 0x97, 0xa5, 0x16, 0x3d, 0x50, 0xba, 0x45, 0xbd,
  0xd6, 0xc1, 0xdd, 0x3d, 0x7a, 0x3b, 0x24, 0x3e, 0xac, 0xcc, 0x44, 0x3e,
  0x60, 0x3d, 0x01, 0x3e, 0x99, 0xeb, 0x41, 0x3e, 0xbc, 0x99, 0x9e, 0x3d,
  0x83, 0x3b, 0x43, 0xbd, 0x6a, 0x5a, 0x8b, 0x3d, 0x4c, 0xcf, 0xa2, 0x3d,
  0x8e, 0xb8, 0x59, 0x3d, 0x2d, 0x6c, 0xe4, 0xbd, 0xc2, 0xc2, 0x0a, 0x3d,
  0x93, 0xab, 0xff, 0x3d, 0xe6, 0x02, 0x45, 0x3e, 0x19, 0xdc, 0x06, 0x3e,
  0xce, 0xed, 0x3e, 0xbd, 0x3d, 0x75, 0xfc, 0x3d, 0x27, 0x9a, 0x23, 0xbe,
  0x0d, 0x2f, 0x27, 0x3e, 0xc6, 0x2d, 0xb8, 0x3d, 0x76, 0x9b, 0xf7, 0xbd,
  0x82, 0x77, 0x2e, 0xbe, 0x8c, 0x97, 0x57, 0x3d, 0xcb, 0x5d, 0xf5, 0x3d,
  0x0d, 0x47, 0xca, 0x3d, 0x20, 0xd4, 0x0f, 0x3e, 0x56, 0x33, 0x08, 0xbe,
  0x50, 0xfb, 0x0f, 0xbe, 0x4b, 0xe5, 0x03, 0xbe, 0xf2, 0xe1, 0x2a, 0xbe,
  0xf9, 0x9c, 0x23, 0xbe, 0xa6, 0x4b, 0x7b, 0x3c, 0x87, 0x9e, 0x31, 0xbe,
  0x8e, 0x8c, 0x01, 0x3e, 0x9d, 0x69, 0xc2, 0x3d, 0x63, 0xd0, 0xef, 0x3d,
  0x23, 0x72, 0x8a, 0x3c, 0x05, 0x39, 0x66, 0x3d, 0x9d, 0x6d, 0xca, 0xbc,
  0x48, 0xf4, 0x7d, 0xbe, 0x3f, 0xe5, 0xfa, 0x3d, 0xbd, 0x01, 0x98, 0x3d,
  0xf1, 0x2e, 0xf9, 0x3d, 0xff, 0xfb, 0xcf, 0xbd, 0x5f, 0x71, 0x19, 0xbe,
  0x85, 0xa3, 0x0d, 0x3e, 0x45, 0xd6, 0xe6, 0xbd, 0xe5, 0xa4, 0x54, 0xbc,
  0xe4, 0x48, 0xef, 0xbd, 0x5b, 0x56, 0xb4, 0x3c, 0xe4, 0x1b, 0xb9, 0x3c,
  0xda, 0x49, 0x46, 0xbc, 0x7b, 0x46, 0x47, 0x3e, 0x21, 0x95, 0x42, 0x3e,
  0x49, 0x66, 0x2a, 0xbc, 0x02, 0x7e, 0xed, 0xbd, 0x62, 0x89, 0x38, 0xbe,
  0x02, 0x6f, 0x3d, 0x3e, 0x53, 0x33, 0x10, 0x3e, 0xb0, 0xf5, 0x22, 0x3e,
  0xbf, 0xbb, 0x13, 0x3e, 0xb4, 0x60, 0xf2, 0xbd, 0xab, 0x05, 0x34, 0x3e,
  0x0c, 0xdc, 0xa9, 0xbc, 0xe8, 0x59, 0x5f, 0xba, 0xef, 0xee, 0x27, 0x3e,
  0xf1, 0x12, 0x01, 0xbd, 0xe7, 0x3a, 0x6e, 0xbe, 0xdc, 0x66, 0xea, 0x3d,
  0x16, 0xff, 0x18, 0xbe, 0x52, 0xa3, 0xf6, 0x3d, 0x51, 0xf2, 0x64, 0xbd,
  0xed, 0xeb, 0xb1, 0x3d, 0xf4, 0x8c, 0x86, 0x3e, 0x8a, 0xe2, 0xce, 0x3d,
  0x07, 0xee, 0x2b, 0xbe, 0xed, 0xb4, 0x31, 0x3e, 0x2e, 0x09, 0x9e, 0xbd,
  0x3d, 0x56, 0xad, 0x3d, 0x8f, 0x6b, 0xec, 0x39, 0x8f, 0x83, 0xe3, 0x3d,
  0x30, 0xec, 0xaa, 0x3d, 0xe0, 0xaf, 0x3a, 0xbd, 0xab, 0x87, 0x6c, 0x3a,
  0x7e, 0x76, 0x0d, 0xbd, 0xca, 0x7f, 0x35, 0xbe, 0xd5, 0xcc, 0x34, 0xbd,
  0x74, 0x46, 0xc8, 0x3d, 0xfa, 0xcf, 0x9e, 0xbd, 0xa2, 0xb8, 0x19, 0xbe,
  0xaa, 0x8f, 0xaf, 0xbd, 0xc8, 0xb6, 0xd3, 0x3d, 0x79, 0xac, 0xaa, 0xbd,
  0x8e, 0x30, 0x68, 0xbe, 0x07, 0x2f, 0x0b, 0x3e, 0xbf, 0x4e, 0x47, 0xbe,
  0x4c, 0x50, 0x30, 0x3d, 0x6e, 0xbe, 0x11, 0x3e, 0x15, 0x2e, 0xab, 0x3d,
  0xd6, 0xe9, 0xd4, 0xbc, 0x06, 0x55, 0x07, 0x3d, 0x31, 0x46, 0x1a, 0x3e,
  0x98, 0xbf, 0xc1, 0x3d, 0x5c, 0xb4, 0xb5, 0xbd, 0x5f, 0xd8, 0x3d, 0xbe,
  0x87, 0xf5, 0x2f, 0x3c, 0x24, 0x13, 0x01, 0xbe, 0xe5, 0xc8, 0x5b, 0xbe,
  0xe3, 0x27, 0xb7, 0x3d, 0x8a, 0x41, 0x7d, 0x3d, 0x07, 0x2a, 0xce, 0x3d,
  0x48, 0x01, 0x78, 0xbe, 0xdf, 0x9d, 0xff, 0x3c, 0x37, 0x8d, 0x1f, 0xbc,
  0xc5, 0x50, 0x99, 0xbc, 0x6c, 0x7a, 0x9e, 0xbd, 0xeb, 0xab, 0x90, 0x3d,
  0x84, 0xb1, 0x03, 0xbb, 0x54, 0x0e, 0x63, 0xbe, 0xb1, 0x2d, 0xf8, 0x3a,
  0xc4, 0x17, 0xcd, 0x3d, 0xf3, 0xfb, 0x4d, 0xbe, 0xed, 0x0a, 0x48, 0xbe,
  0x65, 0x91, 0x0e, 0x3d, 0xf7, 0x6c, 0xc5, 0x3d, 0x39, 0x86, 0xd5, 0xbd,
  0x15, 0x3f, 0xaf, 0xbd, 0xda, 0x50, 0xbc, 0xbd, 0x45, 0xfb, 0x3f, 0xbe,
  0x4e, 0xbe, 0x03, 0xbe, 0x6b, 0x70, 0x4a, 0xbe, 0x44, 0xcd, 0xf3, 0x3d,
  0x50, 0x1c, 0xaf, 0x3d, 0x3e, 0x8a, 0x14, 0xbe, 0x00, 0x26, 0x92, 0x3d,
  0xd5, 0xe3, 0x2d, 0x3e, 0x7a, 0xf6, 0x30, 0x3e, 0xb1, 0x43, 0x38, 0x3d,
  0xbd, 0xa9, 0x29, 0xbe, 0x7c, 0xa9, 0xfe, 0x3d, 0xde, 0x58, 0x46, 0xbe,
  0x79, 0xd5, 0xd4, 0xb9, 0x0c, 0x35, 0xcd, 0xbd, 0x45, 0xe3, 0x0d, 0xbc,
  0x10, 0xfa, 0xcf, 0xbd, 0x22, 0xcd, 0xb0, 0x3c, 0x3d, 0x22, 0x63, 0x3d,
  0x1e, 0x76, 0x0b, 0x3e, 0x92, 0x0d, 0x60, 0x3d, 0x51, 0x74, 0x00, 0xbe,
  0xb7, 0x8a, 0x85, 0x3d, 0x75, 0x1a, 0xb5, 0xbd, 0x5f, 0xe0, 0x68, 0xbd,
  0xd0, 0xeb, 0xd7, 0xbc, 0xf2, 0x17, 0x37, 0xbe, 0xc1, 0x7e, 0x35, 0x3e,
  0xc3, 0xdc, 0x4a, 0xbe, 0x3e, 0xe8, 0xd5, 0x3b, 0x79, 0xde, 0xac, 0x3d,
  0x23, 0x32, 0x3e, 0x3e, 0x82, 0x20, 0x10, 0xbe, 0xc1, 0x1a, 0xa5, 0x3d,
  0x46, 0xe2, 0xbe, 0xbd, 0xf4, 0x99, 0xb6, 0xbd, 0x02, 0x84, 0xef, 0xbd,
  0xfe, 0x5e, 0x80, 0xbd, 0xd7, 0x39, 0xd8, 0x3d, 0xa9, 0x29, 0x26, 0x3e,
  0xc5, 0x85, 0x20, 0x3d, 0xe4, 0xd6, 0x11, 0xbe, 0x74, 0xf3, 0x31, 0x3e,
  0x46, 0xd7, 0x06, 0x3e, 0xaa, 0x79, 0x3c, 0xbb, 0x8e, 0xa7, 0xae, 0x3d,
  0x41, 0x68, 0x2c, 0x3d, 0x83, 0xdf, 0xe3, 0x3d, 0x62, 0x82, 0x0e, 0x3e,
  0x0d, 0xea, 0x66, 0x3e, 0x2a, 0x30, 0x42, 0xbc, 0x46, 0xbe, 0x50, 0xbd,
  0xe8, 0xf3, 0x92, 0xbc, 0x77, 0xb3, 0xf2, 0xbd, 0x76, 0x44, 0xdb, 0x3c,
  0xce, 0xb0, 0x72, 0xbd, 0x22, 0x82, 0x33, 0xbc, 0x09, 0x8d, 0x34, 0xbe,
  0x0c, 0xe6, 0x2f, 0x3e, 0xab, 0xed, 0x31, 0x3d, 0x3e, 0x3b, 0x2b, 0xbe,
  0x1f, 0x0b, 0x31, 0xbe, 0x4f, 0x89, 0x0a, 0x3e, 0x9c, 0x83, 0xe7, 0x3a,
  0x1e, 0x19, 0xb1, 0x3d, 0xa1, 0x93, 0xaf, 0x3d, 0x99, 0xed, 0x27, 0x3e,
  0x9b, 0xeb, 0xd3, 0x3b, 0xfd, 0x59, 0x05, 0xbe, 0xd7, 0xb4, 0x48, 0x3e,
  0x5b, 0xa6, 0x08, 0x3e, 0xda, 0x89, 0x71, 0xbe, 0xa7, 0x3b, 0xc0, 0x3d,
  0x44, 0xbe, 0x1c, 0xbe, 0xaf, 0x4e, 0xbb, 0xbd, 0xf3, 0x14, 0x67, 0x3d,
  0x5b, 0xcc, 0x56, 0xbd, 0x94, 0x94, 0xe8, 0xbb, 0x69, 0x31, 0x38, 0xbe,
  0x3d, 0x76, 0x3f, 0x3e, 0xb2, 0x73, 0x2e, 0x3e, 0x4d, 0xdb, 0x05, 0x3e,
  0x0f, 0x99, 0x07, 0xbe, 0x89, 0x8f, 0xa2, 0xbc, 0xcf, 0x5c, 0x0e, 0x3e,
  0xbc, 0x3e, 0x88, 0xbd, 0xf8, 0x13, 0xc2, 0xbd, 0x43, 0x81, 0xec, 0x3d,
  0x8c, 0xf8, 0x5a, 0x3d, 0x59, 0x7e, 0x58, 0xbe, 0xf7, 0x24, 0x42, 0xbe,
  0x14, 0x98, 0xf6, 0xbd, 0xfd, 0xaf, 0xe9, 0x3d, 0x4a, 0xc8, 0x54, 0xbd,
  0x5d, 0x10, 0xbd, 0x3d, 0x00, 0xf7, 0xd2, 0x3c, 0x70, 0x47, 0x1a, 0xbe,
  0x73, 0x34, 0xfa, 0x3d, 0xad, 0x29, 0x0f, 0xbe, 0xb0, 0x12, 0x99, 0xbd,
  0x46, 0x91, 0x14, 0x3c, 0x00, 0x2b, 0x61, 0x3e, 0xbe, 0x4f, 0x62, 0xbd,
  0x62, 0x6d, 0x33, 0x3e, 0xee, 0x27, 0xc6, 0x3d, 0xa3, 0xee, 0x48, 0xbe,
  0x8c, 0x2a, 0x02, 0xbe, 0x7d, 0xc3, 0xc5, 0x3c, 0xf4, 0x92, 0x0d, 0xbe,
  0x3e, 0x99, 0x19, 0x3e, 0xae, 0x5e, 0x81, 0xbd, 0x88, 0x6d, 0x91, 0x3d,
  0xee, 0x2d, 0x83, 0xbc, 0xb9, 0x10, 0x97, 0x3d, 0x99, 0xeb, 0x9b, 0xbd,
  0x44, 0x08, 0x1e, 0xbe, 0x5c, 0xb8, 0x1b, 0x3e, 0xfe, 0x08, 0xa6, 0xbb,
  0x9b, 0x23, 0x06, 0x3e, 0x2d, 0xd3, 0x26, 0xbe, 0x36, 0x79, 0x79, 0xbe,
  0xdd, 0x0d, 0x3a, 0x3e, 0x72, 0xcc, 0xd2, 0x3d, 0x83, 0xbf, 0x21, 0xbe,
  0x71, 0x28, 0x9b, 0x3d, 0x9d, 0x16, 0x48, 0xbe, 0xe9, 0xd5, 0x2c, 0x3e,
  0x36, 0xe6, 0x32, 0xbe, 0xe6, 0xca, 0x8f, 0xbc, 0xd1, 0x36, 0xbc, 0x3d,
  0x0c, 0xde, 0x05, 0xbe, 0xa0, 0xf7, 0x53, 0xbe, 0x63, 0xcb, 0x3a, 0xbe,
  0xe5, 0xc6, 0xfb, 0xbb, 0x15, 0x68, 0x50, 0xbc, 0x3d, 0x13, 0x0d, 0x3e,
  0x7f, 0x65, 0xb6, 0xbd, 0xdb, 0xab, 0x07, 0x3d, 0x74, 0x04, 0xe2, 0xbd,
  0x79, 0xfe, 0xf7, 0x3d, 0xf9, 0x23, 0x0d, 0xbc, 0x2c, 0xf8, 0x5b, 0x3e,
  0x3a, 0xd4, 0x29, 0xbe, 0x3f, 0x79, 0xa7, 0xbd, 0xfd, 0xab, 0xd3, 0x3d,
  0x87, 0x32, 0x96, 0x3d, 0x8e, 0x63, 0x29, 0x3e, 0x2a, 0xea, 0x88, 0xbd,
  0xd7, 0x17, 0xcd, 0x3c, 0x54, 0xd5, 0xca, 0xbc, 0xeb, 0x50, 0x7e, 0xbd,
  0xce, 0x54, 0x06, 0xbe, 0x53, 0xe2, 0x8a, 0x3d, 0xdc, 0x72, 0x01, 0xbe,
  0x89, 0x3f, 0xd3, 0x3b, 0xdb, 0x80, 0xc5, 0x3d, 0xbd, 0xd2, 0x0b, 0xbe,
  0x0e, 0xa7, 0x25, 0x3e, 0x97, 0x21, 0xf7, 0xbb, 0x44, 0xf2, 0xba, 0xbd,
  0x3a, 0x29, 0x58, 0x3e, 0xdd, 0x1e, 0xca, 0xbc, 0xd0, 0x99, 0x91, 0x3c,
  0x64, 0x5c, 0x77, 0x3c, 0xc5, 0x48, 0x32, 0x3e, 0x1c, 0xe1, 0x80, 0x3d,
  0xc9, 0xa3, 0x5e, 0xbe, 0x4b, 0x47, 0xc4, 0xbd, 0x06, 0x39, 0x57, 0x3e,
  0x9b, 0x4e, 0x9d, 0xbd, 0x21, 0xe9, 0x9c, 0xbb, 0x27, 0x96, 0x6a, 0x3d,
  0x98, 0xb2, 0x87, 0x3d, 0xbb, 0x26, 0x99, 0xbc, 0xe1, 0x7d, 0xbb, 0xbc,
  0xd5, 0x53, 0x79, 0x3d, 0x4e, 0x15, 0x60, 0x3e, 0x62, 0x14, 0x0a, 0x3d,
  0x12, 0x3b, 0x17, 0xbe, 0xca, 0x22, 0x3c, 0xbd, 0xc2, 0x0d, 0x3c, 0xbe,
  0xd3, 0x5e, 0x29, 0x3e, 0x30, 0xa6, 0xfb, 0x3d, 0x2d, 0xbb, 0x18, 0xbe,
  0x21, 0xfe, 0x24, 0x3e, 0xec, 0x5b, 0x78, 0xbd, 0x0f, 0x1c, 0xaf, 0xbd,
  0x07, 0xc7, 0x0e, 0x3e, 0xf7, 0x1e, 0x41, 0x3e, 0x71, 0x1d, 0x5a, 0x3a,
  0x84, 0xfb, 0x51, 0x3e, 0xa4, 0x00, 0x13, 0x3d, 0x45, 0x65, 0xa4, 0xbd,
  0x1a, 0x3c, 0x0a, 0x3e, 0x90, 0xc8, 0x28, 0xbd, 0x6e, 0x40, 0xed, 0xbc,
  0x4c, 0xf0, 0x41, 0x3e, 0xdb, 0x9d, 0xd6, 0xbd, 0x07, 0x94, 0x0c, 0x3e,
  0xf6, 0xe9, 0xe4, 0x3d, 0x69, 0x03, 0xcd, 0x3d, 0x55, 0x92, 0xe9, 0x3c,
  0xf6, 0x05, 0x2c, 0x3e, 0x57, 0x62, 0xb9, 0xbd, 0xf6, 0x45, 0xd7, 0xbd,
  0x78, 0x75, 0x0f, 0xbd, 0x00, 0xe4, 0x01, 0x3e, 0x2b, 0x4c, 0xf3, 0x3c,
  0x24, 0x16, 0x3b, 0x3e, 0x06, 0x5f, 0xaf, 0xbc, 0x6e, 0x2b, 0x02, 0xbe,
  0x47, 0xd1, 0xb7, 0x3d, 0x44, 0xa7, 0x99, 0xbd, 0x72, 0x02, 0xdb, 0x3d,
  0x36, 0x0c, 0x81, 0x3c, 0x53, 0x80, 0xa5, 0x3e, 0x1d, 0x9e, 0xe8, 0x3c,
  0x86, 0x34, 0xb3, 0xbc, 0xc9, 0xdc, 0x26, 0x3e, 0xcb, 0xca, 0x5b, 0xbe,
  0x9e, 0xd8, 0xbf, 0xbd, 0xf0, 0xda, 0x15, 0xbe, 0x4b, 0x9c, 0xb4, 0x3d,
  0xdd, 0x64, 0xef, 0xbd, 0x1a, 0xbb, 0x63, 0xbd, 0x3f, 0xc7, 0x87, 0xbd,
  0x7e, 0xf9, 0xd5, 0xbc, 0x89, 0x30, 0xc2, 0x3c, 0x78, 0x07, 0x46, 0xbe,
  0x9a, 0x35, 0x23, 0x3c, 0xa0, 0xfb, 0xd7, 0xbd, 0x75, 0x9f, 0xfc, 0xbd,
  0xeb, 0xed, 0x56, 0xbe, 0x83, 0x3e, 0x69, 0x3d, 0xd9, 0x5c, 0xca, 0xbd,
  0x23, 0x76, 0xdc, 0xbd, 0xf0, 0x64, 0xd8, 0x3d, 0xf3, 0xe8, 0x27, 0xbe,
  0xbb, 0xc1, 0xac, 0x3d, 0x66, 0x23, 0x61, 0x3e, 0x06, 0xd5, 0x38, 0x3e,
  0x57, 0xcd, 0xdb, 0xbc, 0x70, 0x2c, 0x3f, 0xbe, 0xab, 0xf8, 0xc4, 0xbc,
  0x96, 0x71, 0xb7, 0xbd, 0x3e, 0x0d, 0x18, 0xbe, 0xb0, 0xc1, 0x1e, 0x3e,
  0x60, 0xc7, 0x23, 0x3c, 0x00, 0xdb, 0x81, 0xbd, 0xb0, 0xbe, 0x99, 0xbd,
  0xd2, 0xea, 0x3d, 0xbe, 0x88, 0x02, 0x08, 0xbe, 0x24, 0xda, 0xcf, 0xbd,
  0x6d, 0x7d, 0xbb, 0xbc, 0x13, 0xc0, 0x8e, 0x3d, 0x66, 0xa4, 0x04, 0x3e,
  0xb8, 0xb3, 0x1b, 0xbe, 0xe6, 0x99, 0x2b, 0xbe, 0xbd, 0x5d, 0x36, 0xbe,
  0xf4, 0x66, 0x44, 0x3d, 0x1a, 0xa0, 0x02, 0xbc, 0xee, 0xb3, 0x2b, 0xbe,
  0x23, 0x53, 0x3a, 0x3d, 0x8f, 0x25, 0x87, 0xbb, 0xf2, 0x4e, 0x0b, 0x3e,
  0x5e, 0x4a, 0x25, 0x3c, 0x8b, 0x90, 0xfd, 0xbd, 0x64, 0x5e, 0x15, 0x3e,
  0xbe, 0x87, 0x0f, 0x3d, 0x06, 0x37, 0x49, 0x3e, 0xd4, 0x2d, 0x24, 0x3e,
  0x0b, 0x64, 0xf2, 0xbd, 0x24, 0x1c, 0xcb, 0x3c, 0x01, 0x1d, 0x63, 0xbe,
  0x62, 0x98, 0xfe, 0xbc, 0x42, 0x76, 0x13, 0x3e, 0xb0, 0xf3, 0x54, 0x3d,
  0xcb, 0x2a, 0x19, 0x3e, 0xef, 0xbf, 0x32, 0x3d, 0xdb, 0xc8, 0x13, 0x3e,
  0x9f, 0x4f, 0xb4, 0x3d, 0x4c, 0xe0, 0x05, 0x3d, 0xea, 0xdb, 0x83, 0xbd,
  0x65, 0x9d, 0xb8, 0x3c, 0x72, 0xfd, 0x3b, 0xbe, 0xf2, 0xe7, 0xd3, 0xbd,
  0x9f, 0xb7, 0x4f, 0xbd, 0x91, 0x39, 0x12, 0xbc, 0xc0, 0x53, 0x4e, 0x3d,
  0x42, 0x30, 0x27, 0xbe, 0x21, 0x21, 0xe4, 0xbc, 0xdf, 0x57, 0x08, 0x3e,
  0x4e, 0x6d, 0xb8, 0xbb, 0x2c, 0x83, 0x3b, 0x3e, 0x7e, 0x91, 0x16, 0xbd,
  0x0e, 0xe9, 0xdc, 0x3d, 0x6f, 0x91, 0xe2, 0xbd, 0x7b, 0x6d, 0xbe, 0x3d,
  0x54, 0xba, 0x17, 0x3e, 0x70, 0xd5, 0x42, 0x3c, 0x45, 0x91, 0x1f, 0x3d,
  0x58, 0x71, 0x64, 0xbd, 0x3f, 0xa9, 0x24, 0xbe, 0xed, 0x6d, 0x5b, 0x3e,
  0xcd, 0xf4, 0xe2, 0x3d, 0x43, 0x34, 0x88, 0xbe, 0x3b, 0xc7, 0x14, 0x3e,
  0x8e, 0x1d, 0x64, 0xbc, 0x69, 0xc4, 0x23, 0x3d, 0x65, 0x41, 0x06, 0xbe,
  0x35, 0xad, 0xcd, 0x3d, 0xa4, 0x7f, 0x36, 0xbe, 0x9d, 0x1a, 0xb1, 0xbc,
  0xdb, 0x0f, 0xf8, 0xbd, 0x5c, 0xe0, 0x1a, 0x3e, 0x97, 0xe2, 0xe9, 0x3d,
  0x92, 0xb8, 0xbe, 0xbc, 0x86, 0x68, 0x91, 0xbd, 0x02, 0x0b, 0x9c, 0xb9,
  0x9e, 0x73, 0x57, 0xbd, 0xe6, 0x48, 0x1e, 0xbd, 0xbd, 0x47, 0x26, 0x3e,
  0xdd, 0x3d, 0x59, 0x3e, 0xa0, 0x4c, 0x30, 0xbe, 0xdc, 0xe9, 0xcd, 0x3d,
  0xdc, 0x66, 0xdd, 0xbc, 0xd7, 0xe7, 0x09, 0x3c, 0x43, 0x72, 0xdb, 0xbd,
  0x58, 0xe3, 0x8c, 0x3e, 0x53, 0xe9, 0x59, 0xbe, 0x8c, 0x65, 0x8e, 0xbe,
  0x8b, 0x6e, 0x66, 0xbe, 0x8f, 0x6d, 0x70, 0xbd, 0x32, 0xf6, 0x19, 0x3e,
  0x12, 0x04, 0x58, 0x3e, 0x28, 0xe9, 0xa5, 0x3d, 0xea, 0xf8, 0x51, 0xbd,
  0x60, 0x1d, 0xa1, 0x3d, 0x40, 0xdd, 0x6a, 0x3c, 0x5b, 0x41, 0x0b, 0xbe,
  0x9a, 0xfe, 0xff, 0xff, 0x04, 0x00, 0x00, 0x00, 0x20, 0x00, 0x00, 0x00,
  0x18, 0xe9, 0xfc, 0x39, 0xf3, 0x39, 0x58, 0x3c, 0xbe, 0xf8, 0x59, 0xbc,
  0x5b, 0x52, 0xce, 0xbb, 0x5d, 0xf1, 0x66, 0x3b, 0xc4, 0x07, 0x23, 0xbc,
  0x9b, 0x4c, 0x0f, 0xbc, 0x12, 0xa5, 0x01, 0x3c, 0xc6, 0xfe, 0xff, 0xff,
  0x04, 0x00, 0x00, 0x00, 0x00, 0x01, 0x00, 0x00, 0xb4, 0xa4, 0x0e, 0x3e,
  0xe2, 0xae, 0x59, 0xbe, 0x24, 0x85, 0xb0, 0xbd, 0x84, 0x60, 0x7d, 0x3e,
  0xa8, 0x2c, 0x2e, 0xbe, 0xaf, 0x8a, 0x1f, 0x3e, 0x87, 0x83, 0x46, 0xbe,
  0x7f, 0x9b, 0xb8, 0xbd, 0xb6, 0x8e, 0x7d, 0x3e, 0xcc, 0x20, 0x01, 0xbd,
  0x01, 0xbd, 0xe6, 0x3d, 0xbb, 0xf3, 0x3c, 0x3e, 0x6f, 0xad, 0x50, 0x3e,
  0x11, 0x19, 0x08, 0xbe, 0xa0, 0xd6, 0x65, 0x3c, 0xb0, 0x60, 0x5d, 0x3b,
  0x91, 0x30, 0xb3, 0xbc, 0xf7, 0x78, 0x47, 0xbd, 0x14, 0xef, 0xd3, 0x3d,
  0x38, 0x2b, 0xc5, 0xbc, 0x16, 0xab, 0x81, 0x3d, 0xf1, 0x79, 0x91, 0x3e,
  0xdd, 0xa8, 0x11, 0xbe, 0xc5, 0x22, 0x5e, 0xbe, 0xda, 0x26, 0x3f, 0x3d,
  0x8a, 0xea, 0x44, 0x3e, 0x11, 0xcf, 0x2e, 0x3d, 0x47, 0x86, 0x30, 0xbe,
  0x65, 0xf5, 0x5e, 0x3d, 0x4f, 0x49, 0x4d, 0xbe, 0xc7, 0xbe, 0x50, 0x3e,
  0x6a, 0xbd, 0x6f, 0xbe, 0x87, 0x64, 0x32, 0xbe, 0x29, 0xe7, 0x52, 0x3e,
  0xf7, 0x4e, 0x4e, 0xbe, 0x41, 0x75, 0xee, 0xbd, 0xcd, 0xfa, 0xa9, 0x3d,
  0x4f, 0x41, 0x8f, 0xbe, 0x10, 0xe6, 0xd3, 0x3d, 0xf9, 0xa2, 0x14, 0x3e,
  0x10, 0xc3, 0x77, 0x3d, 0x0f, 0x2a, 0xbc, 0x3d, 0x66, 0x47, 0xc2, 0xbd,
  0x71, 0xb7, 0x01, 0x3e, 0x95, 0x76, 0x02, 0xbc, 0xd1, 0x2f, 0x64, 0x3e,
  0x75, 0x25, 0xbc, 0x3d, 0xad, 0x2d, 0x70, 0x3e, 0x6c, 0x26, 0x3c, 0x3d,
  0x2b, 0x6c, 0x17, 0xbe, 0xdb, 0x99, 0x6f, 0x3e, 0xc0, 0x46, 0x8d, 0xbe,
  0xe2, 0x8f, 0xc2, 0x3d, 0x97, 0x79, 0x80, 0xbe, 0xda, 0x50, 0xeb, 0x3d,
  0x69, 0x7f, 0x12, 0x3d, 0x4e, 0xca, 0x5b, 0xbe, 0xff, 0xa5, 0x74, 0x3e,
  0x7f, 0x95, 0x29, 0x3e, 0x2a, 0xb7, 0xe7, 0x3c, 0x52, 0x21, 0x72, 0xbc,
  0x42, 0x52, 0x3c, 0xbe, 0xce, 0x66, 0xe6, 0x3b, 0xf7, 0x6c, 0x51, 0xbe,
  0xd2, 0xff, 0xff, 0xff, 0x04, 0x00, 0x00, 0x00, 0x20, 0x00, 0x00, 0x00,
  0xef, 0xd4, 0xad, 0x3b, 0x38, 0x8f, 0x1d, 0xbc, 0x22, 0x15, 0xcd, 0xba,
  0x45, 0x2a, 0xab, 0xbb, 0x45, 0xdd, 0x1b, 0xbc, 0xe7, 0x1c, 0x54, 0xbc,
  0x44, 0x99, 0xe0, 0xbb, 0xb4, 0xc9, 0xeb, 0x3c, 0x00, 0x00, 0x06, 0x00,
  0x08, 0x00, 0x04, 0x00, 0x06, 0x00, 0x00, 0x00, 0x04, 0x00, 0x00, 0x00,
  0x10, 0x00, 0x00, 0x00, 0x01, 0x00, 0x00, 0x00, 0x01, 0x00, 0x00, 0x00,
  0x00, 0x08, 0x00, 0x00, 0x01, 0x00, 0x00, 0x00, 0xd8, 0xf0, 0xff, 0xff,
  0xdc, 0xf0, 0xff, 0xff, 0x0f, 0x00, 0x00, 0x00, 0x4d, 0x4c, 0x49, 0x52,
  0x20, 0x43, 0x6f, 0x6e, 0x76, 0x65, 0x72, 0x74, 0x65, 0x64, 0x2e, 0x00,
  0x01, 0x00, 0x00, 0x00, 0x14, 0x00, 0x00, 0x00, 0x00, 0x00, 0x0e, 0x00,
  0x18, 0x00, 0x04, 0x00, 0x08, 0x00, 0x0c, 0x00, 0x10, 0x00, 0x14, 0x00,
  0x0e, 0x00, 0x00, 0x00, 0x30, 0x08, 0x00, 0x00, 0x24, 0x08, 0x00, 0x00,
  0x18, 0x08, 0x00, 0x00, 0x14, 0x00, 0x00, 0x00, 0x04, 0x00, 0x00, 0x00,
  0x04, 0x00, 0x00, 0x00, 0x6d, 0x61, 0x69, 0x6e, 0x00, 0x00, 0x00, 0x00,
  0x0c, 0x00, 0x00, 0x00, 0x78, 0x07, 0x00, 0x00, 0x68, 0x06, 0x00, 0x00,
  0xc4, 0x05, 0x00, 0x00, 0xf4, 0x04, 0x00, 0x00, 0xf4, 0x03, 0x00, 0x00,
  0x60, 0x03, 0x00, 0x00, 0x90, 0x02, 0x00, 0x00, 0x08, 0x02, 0x00, 0x00,
  0x6c, 0x01, 0x00, 0x00, 0xdc, 0x00, 0x00, 0x00, 0x68, 0x00, 0x00, 0x00,
  0x04, 0x00, 0x00, 0x00, 0xd4, 0xf9, 0xff, 0xff, 0x06, 0x00, 0x00, 0x00,
  0x50, 0x00, 0x00, 0x00, 0x44, 0x00, 0x00, 0x00, 0x04, 0x00, 0x00, 0x00,
  0x35, 0x00, 0x00, 0x00, 0x08, 0x49, 0x64, 0x65, 0x6e, 0x74, 0x69, 0x74,
  0x79, 0x00, 0x21, 0x12, 0x08, 0x49, 0x64, 0x65, 0x6e, 0x74, 0x69, 0x74,
  0x79, 0x1a, 0x00, 0x2a, 0x07, 0x0a, 0x01, 0x54, 0x12, 0x02, 0x30, 0x01,
  0x32, 0x0a, 0x0a, 0x08, 0x49, 0x64, 0x65, 0x6e, 0x74, 0x69, 0x74, 0x79,
  0x00, 0x02, 0x2d, 0x24, 0x14, 0x14, 0x04, 0x28, 0x01, 0x00, 0x00, 0x00,
  0x01, 0x00, 0x00, 0x00, 0x14, 0x00, 0x00, 0x00, 0x01, 0x00, 0x00, 0x00,
  0x13, 0x00, 0x00, 0x00, 0x34, 0xfa, 0xff, 0xff, 0x05, 0x00, 0x00, 0x00,
  0x60, 0x00, 0x00, 0x00, 0x54, 0x00, 0x00, 0x00, 0x04, 0x00, 0x00, 0x00,
  0x47, 0x00, 0x00, 0x00, 0x07, 0x53, 0x6f, 0x66, 0x74, 0x6d, 0x61, 0x78,
  0x00, 0x34, 0x12, 0x07, 0x53, 0x6f, 0x66, 0x74, 0x6d, 0x61, 0x78, 0x1a,
  0x00, 0x2a, 0x07, 0x0a, 0x01, 0x54, 0x12, 0x02, 0x30, 0x01, 0x32, 0x1e,
  0x0a, 0x1c, 0x73, 0x65, 0x71, 0x75, 0x65, 0x6e, 0x74, 0x69, 0x61, 0x6c,
  0x5f, 0x31, 0x2f, 0x64, 0x65, 0x6e, 0x73, 0x65, 0x5f, 0x31, 0x2f, 0x53,
  0x6f, 0x66, 0x74, 0x6d, 0x61, 0x78, 0x00, 0x02, 0x3f, 0x37, 0x14, 0x14,
  0x04, 0x28, 0x01, 0x00, 0x01, 0x00, 0x00, 0x00, 0x13, 0x00, 0x00, 0x00,
  0x01, 0x00, 0x00, 0x00, 0x12, 0x00, 0x00, 0x00, 0xa4, 0xfa, 0xff, 0xff,
  0x02, 0x00, 0x00, 0x00, 0x78, 0x00, 0x00, 0x00, 0x6c, 0x00, 0x00, 0x00,
  0x04, 0x00, 0x00, 0x00, 0x60, 0x00, 0x00, 0x00, 0x07, 0x42, 0x69, 0x61,
  0x73, 0x41, 0x64, 0x64, 0x00, 0x4d, 0x12, 0x07, 0x42, 0x69, 0x61, 0x73,
  0x41, 0x64, 0x64, 0x1a, 0x00, 0x1a, 0x00, 0x2a, 0x15, 0x0a, 0x0b, 0x64,
  0x61, 0x74, 0x61, 0x5f, 0x66, 0x6f, 0x72, 0x6d, 0x61, 0x74, 0x12, 0x06,
  0x12, 0x04, 0x4e, 0x48, 0x57, 0x43, 0x2a, 0x07, 0x0a, 0x01, 0x54, 0x12,
  0x02, 0x30, 0x01, 0x32, 0x1e, 0x0a, 0x1c, 0x73, 0x65, 0x71, 0x75, 0x65,
  0x6e, 0x74, 0x69, 0x61, 0x6c, 0x5f, 0x31, 0x2f, 0x64, 0x65, 0x6e, 0x73,
  0x65, 0x5f, 0x31, 0x2f, 0x42, 0x69, 0x61, 0x73, 0x41, 0x64, 0x64, 0x00,
  0x02, 0x58, 0x50, 0x14, 0x14, 0x04, 0x28, 0x01, 0x01, 0x00, 0x00, 0x00,
  0x12, 0x00, 0x00, 0x00, 0x02, 0x00, 0x00, 0x00, 0x11, 0x00, 0x00, 0x00,
  0x06, 0x00, 0x00, 0x00, 0x30, 0xfb, 0xff, 0xff, 0x04, 0x00, 0x00, 0x00,
  0x84, 0x00, 0x00, 0x00, 0x78, 0x00, 0x00, 0x00, 0x04, 0x00, 0x00, 0x00,
  0x6c, 0x00, 0x00, 0x00, 0x06, 0x4d, 0x61, 0x74, 0x4d, 0x75, 0x6c, 0x00,
  0x5a, 0x12, 0x06, 0x4d, 0x61, 0x74, 0x4d, 0x75, 0x6c, 0x1a, 0x00, 0x1a,
  0x00, 0x2a, 0x11, 0x0a, 0x0b, 0x74, 0x72, 0x61, 0x6e, 0x73, 0x70, 0x6f,
  0x73, 0x65, 0x5f, 0x61, 0x12, 0x02, 0x28, 0x00, 0x2a, 0x11, 0x0a, 0x0b,
  0x74, 0x72, 0x61, 0x6e, 0x73, 0x70, 0x6f, 0x73, 0x65, 0x5f, 0x62, 0x12,
  0x02, 0x28, 0x00, 0x2a, 0x07, 0x0a, 0x01, 0x54, 0x12, 0x02, 0x30, 0x01,
  0x32, 0x1d, 0x0a, 0x1b, 0x73, 0x65, 0x71, 0x75, 0x65, 0x6e, 0x74, 0x69,
  0x61, 0x6c, 0x5f, 0x31, 0x2f, 0x64, 0x65, 0x6e, 0x73, 0x65, 0x5f, 0x31,
  0x2f, 0x4d, 0x61, 0x74, 0x4d, 0x75, 0x6c, 0x00, 0x02, 0x64, 0x5d, 0x14,
  0x14, 0x04, 0x28, 0x01, 0x01, 0x00, 0x00, 0x00, 0x11, 0x00, 0x00, 0x00,
  0x02, 0x00, 0x00, 0x00, 0x10, 0x00, 0x00, 0x00, 0x07, 0x00, 0x00, 0x00,
  0xbc, 0xfa, 0xff, 0xff, 0x74, 0x00, 0x00, 0x00, 0x68, 0x00, 0x00, 0x00,
  0x04, 0x00, 0x00, 0x00, 0x59, 0x00, 0x00, 0x00, 0x07, 0x52, 0x65, 0x73,
  0x68, 0x61, 0x70, 0x65, 0x00, 0x46, 0x12, 0x07, 0x52, 0x65, 0x73, 0x68,
  0x61, 0x70, 0x65, 0x1a, 0x00, 0x1a, 0x00, 0x2a, 0x07, 0x0a, 0x01, 0x54,
  0x12, 0x02, 0x30, 0x01, 0x2a, 0x0c, 0x0a, 0x06, 0x54, 0x73, 0x68, 0x61,
  0x70, 0x65, 0x12, 0x02, 0x30, 0x03, 0x32, 0x20, 0x0a, 0x1e, 0x73, 0x65,
  0x71, 0x75, 0x65, 0x6e, 0x74, 0x69, 0x61, 0x6c, 0x5f, 0x31, 0x2f, 0x72,
  0x65, 0x73, 0x68, 0x61, 0x70, 0x65, 0x5f, 0x33, 0x2f, 0x52, 0x65, 0x73,
  0x68, 0x61, 0x70, 0x65, 0x00, 0x02, 0x51, 0x49, 0x14, 0x14, 0x04, 0x28,
  0x01, 0x00, 0x00, 0x00, 0x01, 0x00, 0x00, 0x00, 0x10, 0x00, 0x00, 0x00,
  0x02, 0x00, 0x00, 0x00, 0x0f, 0x00, 0x00, 0x00, 0x08, 0x00, 0x00, 0x00,
  0x4c, 0xfc, 0xff, 0xff, 0x03, 0x00, 0x00, 0x00, 0xbc, 0x00, 0x00, 0x00,
  0xb0, 0x00, 0x00, 0x00, 0x04, 0x00, 0x00, 0x00, 0xa2, 0x00, 0x00, 0x00,
  0x07, 0x4d, 0x61, 0x78, 0x50, 0x6f, 0x6f, 0x6c, 0x00, 0x8f, 0x12, 0x07,
  0x4d, 0x61, 0x78, 0x50, 0x6f, 0x6f, 0x6c, 0x1a, 0x00, 0x2a, 0x13, 0x0a,
  0x07, 0x73, 0x74, 0x72, 0x69, 0x64, 0x65, 0x73, 0x12, 0x08, 0x0a, 0x06,
  0x1a, 0x04, 0x01, 0x01, 0x02, 0x01, 0x2a, 0x15, 0x0a, 0x0b, 0x64, 0x61,
  0x74, 0x61, 0x5f, 0x66, 0x6f, 0x72, 0x6d, 0x61, 0x74, 0x12, 0x06, 0x12,
  0x04, 0x4e, 0x48, 0x57, 0x43, 0x2a, 0x11, 0x0a, 0x05, 0x6b, 0x73, 0x69,
  0x7a, 0x65, 0x12, 0x08, 0x0a, 0x06, 0x1a, 0x04, 0x01, 0x01, 0x02, 0x01,
  0x2a, 0x12, 0x0a, 0x07, 0x70, 0x61, 0x64, 0x64, 0x69, 0x6e, 0x67, 0x12,
  0x07, 0x12, 0x05, 0x56, 0x41, 0x4c, 0x49, 0x44, 0x2a, 0x07, 0x0a, 0x01,
  0x54, 0x12, 0x02, 0x30, 0x01, 0x32, 0x26, 0x0a, 0x24, 0x73, 0x65, 0x71,
  0x75, 0x65, 0x6e, 0x74, 0x69, 0x61, 0x6c, 0x5f, 0x31, 0x2f, 0x6d, 0x61,
  0x78, 0x5f, 0x70, 0x6f, 0x6f, 0x6c, 0x69, 0x6e, 0x67, 0x32, 0x64, 0x5f,
  0x33, 0x2f, 0x4d, 0x61, 0x78, 0x50, 0x6f, 0x6f, 0x6c, 0x00, 0x02, 0x9a,
  0x92, 0x14, 0x14, 0x04, 0x28, 0x01, 0x00, 0x00, 0x01, 0x00, 0x00, 0x00,
  0x0f, 0x00, 0x00, 0x00, 0x01, 0x00, 0x00, 0x00, 0x0e, 0x00, 0x00, 0x00,
  0x18, 0xfd, 0xff, 0xff, 0x02, 0x00, 0x00, 0x00, 0x7c, 0x00, 0x00, 0x00,
  0x70, 0x00, 0x00, 0x00, 0x04, 0x00, 0x00, 0x00, 0x61, 0x00, 0x00, 0x00,
  0x07, 0x42, 0x69, 0x61, 0x73, 0x41, 0x64, 0x64, 0x00, 0x4e, 0x12, 0x07,
  0x42, 0x69, 0x61, 0x73, 0x41, 0x64, 0x64, 0x1a, 0x00, 0x1a, 0x00, 0x2a,
  0x07, 0x0a, 0x01, 0x54, 0x12, 0x02, 0x30, 0x01, 0x2a, 0x15, 0x0a, 0x0b,
  0x64, 0x61, 0x74, 0x61, 0x5f, 0x66, 0x6f, 0x72, 0x6d, 0x61, 0x74, 0x12,
  0x06, 0x12, 0x04, 0x4e, 0x48, 0x57, 0x43, 0x32, 0x1f, 0x0a, 0x1d, 0x73,
  0x65, 0x71, 0x75, 0x65, 0x6e, 0x74, 0x69, 0x61, 0x6c, 0x5f, 0x31, 0x2f,
  0x63, 0x6f, 0x6e, 0x76, 0x32, 0x64, 0x5f, 0x33, 0x2f, 0x42, 0x69, 0x61,
  0x73, 0x41, 0x64, 0x64, 0x00, 0x02, 0x59, 0x51, 0x14, 0x14, 0x04, 0x28,
  0x01, 0x00, 0x00, 0x00, 0x01, 0x00, 0x00, 0x00, 0x0e, 0x00, 0x00, 0x00,
  0x02, 0x00, 0x00, 0x00, 0x0d, 0x00, 0x00, 0x00, 0x04, 0x00, 0x00, 0x00,
  0xa8, 0xfd, 0xff, 0xff, 0x01, 0x00, 0x00, 0x00, 0xe8, 0x00, 0x00, 0x00,
  0xdc, 0x00, 0x00, 0x00, 0x04, 0x00, 0x00, 0x00, 0xcf, 0x00, 0x00, 0x00,
  0x06, 0x43, 0x6f, 0x6e, 0x76, 0x32, 0x44, 0x00, 0xbd, 0x12, 0x06, 0x43,
  0x6f, 0x6e, 0x76, 0x32, 0x44, 0x1a, 0x00, 0x1a, 0x00, 0x2a, 0x15, 0x0a,
  0x0b, 0x64, 0x61, 0x74, 0x61, 0x5f, 0x66, 0x6f, 0x72, 0x6d, 0x61, 0x74,
  0x12, 0x06, 0x12, 0x04, 0x4e, 0x48, 0x57, 0x43, 0x2a, 0x13, 0x0a, 0x07,
  0x73, 0x74, 0x72, 0x69, 0x64, 0x65, 0x73, 0x12, 0x08, 0x0a, 0x06, 0x1a,
  0x04, 0x01, 0x01, 0x08, 0x01, 0x2a, 0x16, 0x0a, 0x10, 0x75, 0x73, 0x65,
  0x5f, 0x63, 0x75, 0x64, 0x6e, 0x6e, 0x5f, 0x6f, 0x6e, 0x5f, 0x67, 0x70,
  0x75, 0x12, 0x02, 0x28, 0x01, 0x2a, 0x17, 0x0a, 0x11, 0x65, 0x78, 0x70,
  0x6c, 0x69, 0x63, 0x69, 0x74, 0x5f, 0x70, 0x61, 0x64, 0x64, 0x69, 0x6e,
  0x67, 0x73, 0x12, 0x02, 0x0a, 0x00, 0x2a, 0x12, 0x0a, 0x07, 0x70, 0x61,
  0x64, 0x64, 0x69, 0x6e, 0x67, 0x12, 0x07, 0x12, 0x05, 0x56, 0x41, 0x4c,
  0x49, 0x44, 0x2a, 0x15, 0x0a, 0x09, 0x64, 0x69, 0x6c, 0x61, 0x74, 0x69,
  0x6f, 0x6e, 0x73, 0x12, 0x08, 0x0a, 0x06, 0x1a, 0x04, 0x01, 0x01, 0x01,
  0x01, 0x2a, 0x07, 0x0a, 0x01, 0x54, 0x12, 0x02, 0x30, 0x01, 0x32, 0x1e,
  0x0a, 0x1c, 0x73, 0x65, 0x71, 0x75, 0x65, 0x6e, 0x74, 0x69, 0x61, 0x6c,
  0x5f, 0x31, 0x2f, 0x63, 0x6f, 0x6e, 0x76, 0x32, 0x64, 0x5f, 0x33, 0x2f,
  0x43, 0x6f, 0x6e, 0x76, 0x32, 0x44, 0x00, 0x02, 0xc7, 0xc0, 0x14, 0x14,
  0x04, 0x28, 0x01, 0x00, 0x01, 0x00, 0x00, 0x00, 0x0d, 0x00, 0x00, 0x00,
  0x02, 0x00, 0x00, 0x00, 0x0c, 0x00, 0x00, 0x00, 0x05, 0x00, 0x00, 0x00,
  0xa4, 0xfe, 0xff, 0xff, 0x03, 0x00, 0x00, 0x00, 0xbc, 0x00, 0x00, 0x00,
  0xb0, 0x00, 0x00, 0x00, 0x04, 0x00, 0x00, 0x00, 0xa2, 0x00, 0x00, 0x00,
  0x07, 0x4d, 0x61, 0x78, 0x50, 0x6f, 0x6f, 0x6c, 0x00, 0x8f, 0x12, 0x07,
  0x4d, 0x61, 0x78, 0x50, 0x6f, 0x6f, 0x6c, 0x1a, 0x00, 0x2a, 0x13, 0x0a,
  0x07, 0x73, 0x74, 0x72, 0x69, 0x64, 0x65, 0x73, 0x12, 0x08, 0x0a, 0x06,
  0x1a, 0x04, 0x01, 0x01, 0x02, 0x01, 0x2a, 0x15, 0x0a, 0x0b, 0x64, 0x61,
  0x74, 0x61, 0x5f, 0x66, 0x6f, 0x72, 0x6d, 0x61, 0x74, 0x12, 0x06, 0x12,
  0x04, 0x4e, 0x48, 0x57, 0x43, 0x2a, 0x11, 0x0a, 0x05, 0x6b, 0x73, 0x69,
  0x7a, 0x65, 0x12, 0x08, 0x0a, 0x06, 0x1a, 0x04, 0x01, 0x01, 0x02, 0x01,
  0x2a, 0x12, 0x0a, 0x07, 0x70, 0x61, 0x64, 0x64, 0x69, 0x6e, 0x67, 0x12,
  0x07, 0x12, 0x05, 0x56, 0x41, 0x4c, 0x49, 0x44, 0x2a, 0x07, 0x0a, 0x01,
  0x54, 0x12, 0x02, 0x30, 0x01, 0x32, 0x26, 0x0a, 0x24, 0x73, 0x65, 0x71,
  0x75, 0x65, 0x6e, 0x74, 0x69, 0x61, 0x6c, 0x5f, 0x31, 0x2f, 0x6d, 0x61,
  0x78, 0x5f, 0x70, 0x6f, 0x6f, 0x6c, 0x69, 0x6e, 0x67, 0x32, 0x64, 0x5f,
  0x32, 0x2f, 0x4d, 0x61, 0x78, 0x50, 0x6f, 0x6f, 0x6c, 0x00, 0x02, 0x9a,
  0x92, 0x14, 0x14, 0x04, 0x28, 0x01, 0x00, 0x00, 0x01, 0x00, 0x00, 0x00,
  0x0c, 0x00, 0x00, 0x00, 0x01, 0x00, 0x00, 0x00, 0x0b, 0x00, 0x00, 0x00,
  0x70, 0xff, 0xff, 0xff, 0x02, 0x00, 0x00, 0x00, 0x7c, 0x00, 0x00, 0x00,
  0x70, 0x00, 0x00, 0x00, 0x04, 0x00, 0x00, 0x00, 0x61, 0x00, 0x00, 0x00,
  0x07, 0x42, 0x69, 0x61, 0x73, 0x41, 0x64, 0x64, 0x00, 0x4e, 0x12, 0x07,
  0x42, 0x69, 0x61, 0x73, 0x41, 0x64, 0x64, 0x1a, 0x00, 0x1a, 0x00, 0x2a,
  0x07, 0x0a, 0x01, 0x54, 0x12, 0x02, 0x30, 0x01, 0x2a, 0x15, 0x0a, 0x0b,
  0x64, 0x61, 0x74, 0x61, 0x5f, 0x66, 0x6f, 0x72, 0x6d, 0x61, 0x74, 0x12,
  0x06, 0x12, 0x04, 0x4e, 0x48, 0x57, 0x43, 0x32, 0x1f, 0x0a, 0x1d, 0x73,
  0x65, 0x71, 0x75, 0x65, 0x6e, 0x74, 0x69, 0x61, 0x6c, 0x5f, 0x31, 0x2f,
  0x63, 0x6f, 0x6e, 0x76, 0x32, 0x64, 0x5f, 0x32, 0x2f, 0x42, 0x69, 0x61,
  0x73, 0x41, 0x64, 0x64, 0x00, 0x02, 0x59, 0x51, 0x14, 0x14, 0x04, 0x28,
  0x01, 0x00, 0x00, 0x00, 0x01, 0x00, 0x00, 0x00, 0x0b, 0x00, 0x00, 0x00,
  0x02, 0x00, 0x00, 0x00, 0x0a, 0x00, 0x00, 0x00, 0x02, 0x00, 0x00, 0x00,
  0x10, 0x00, 0x14, 0x00, 0x04, 0x00, 0x08, 0x00, 0x0c, 0x00, 0x00, 0x00,
  0x00, 0x00, 0x10, 0x00, 0x10, 0x00, 0x00, 0x00, 0x01, 0x00, 0x00, 0x00,
  0xe8, 0x00, 0x00, 0x00, 0xdc, 0x00, 0x00, 0x00, 0x04, 0x00, 0x00, 0x00,
  0xcf, 0x00, 0x00, 0x00, 0x06, 0x43, 0x6f, 0x6e, 0x76, 0x32, 0x44, 0x00,
  0xbd, 0x12, 0x06, 0x43, 0x6f, 0x6e, 0x76, 0x32, 0x44, 0x1a, 0x00, 0x1a,
  0x00, 0x2a, 0x15, 0x0a, 0x09, 0x64, 0x69, 0x6c, 0x61, 0x74, 0x69, 0x6f,
  0x6e, 0x73, 0x12, 0x08, 0x0a, 0x06, 0x1a, 0x04, 0x01, 0x01, 0x01, 0x01,
  0x2a, 0x07, 0x0a, 0x01, 0x54, 0x12, 0x02, 0x30, 0x01, 0x2a, 0x15, 0x0a,
  0x0b, 0x64, 0x61, 0x74, 0x61, 0x5f, 0x66, 0x6f, 0x72, 0x6d, 0x61, 0x74,
  0x12, 0x06, 0x12, 0x04, 0x4e, 0x48, 0x57, 0x43, 0x2a, 0x13, 0x0a, 0x07,
  0x73, 0x74, 0x72, 0x69, 0x64, 0x65, 0x73, 0x12, 0x08, 0x0a, 0x06, 0x1a,
  0x04, 0x01, 0x01, 0x08, 0x01, 0x2a, 0x16, 0x0a, 0x10, 0x75, 0x73, 0x65,
  0x5f, 0x63, 0x75, 0x64, 0x6e, 0x6e, 0x5f, 0x6f, 0x6e, 0x5f, 0x67, 0x70,
  0x75, 0x12, 0x02, 0x28, 0x01, 0x2a, 0x17, 0x0a, 0x11, 0x65, 0x78, 0x70,
  0x6c, 0x69, 0x63, 0x69, 0x74, 0x5f, 0x70, 0x61, 0x64, 0x64, 0x69, 0x6e,
  0x67, 0x73, 0x12, 0x02, 0x0a, 0x00, 0x2a, 0x12, 0x0a, 0x07, 0x70, 0x61,
  0x64, 0x64, 0x69, 0x6e, 0x67, 0x12, 0x07, 0x12, 0x05, 0x56, 0x41, 0x4c,
  0x49, 0x44, 0x32, 0x1e, 0x0a, 0x1c, 0x73, 0x65, 0x71, 0x75, 0x65, 0x6e,
  0x74, 0x69, 0x61, 0x6c, 0x5f, 0x31, 0x2f, 0x63, 0x6f, 0x6e, 0x76, 0x32,
  0x64, 0x5f, 0x32, 0x2f, 0x43, 0x6f, 0x6e, 0x76, 0x32, 0x44, 0x00, 0x02,
  0xc7, 0xc0, 0x14, 0x14, 0x04, 0x28, 0x01, 0x00, 0x01, 0x00, 0x00, 0x00,
  0x0a, 0x00, 0x00, 0x00, 0x02, 0x00, 0x00, 0x00, 0x09, 0x00, 0x00, 0x00,
  0x03, 0x00, 0x00, 0x00, 0x10, 0x00, 0x10, 0x00, 0x00, 0x00, 0x04, 0x00,
  0x08, 0x00, 0x00, 0x00, 0x00, 0x00, 0x0c, 0x00, 0x10, 0x00, 0x00, 0x00,
  0x74, 0x00, 0x00, 0x00, 0x68, 0x00, 0x00, 0x00, 0x04, 0x00, 0x00, 0x00,
  0x59, 0x00, 0x00, 0x00, 0x07, 0x52, 0x65, 0x73, 0x68, 0x61, 0x70, 0x65,
  0x00, 0x46, 0x12, 0x07, 0x52, 0x65, 0x73, 0x68, 0x61, 0x70, 0x65, 0x1a,
  0x00, 0x1a, 0x00, 0x2a, 0x07, 0x0a, 0x01, 0x54, 0x12, 0x02, 0x30, 0x01,
  0x2a, 0x0c, 0x0a, 0x06, 0x54, 0x73, 0x68, 0x61, 0x70, 0x65, 0x12, 0x02,
  0x30, 0x03, 0x32, 0x20, 0x0a, 0x1e, 0x73, 0x65, 0x71, 0x75, 0x65, 0x6e,
  0x74, 0x69, 0x61, 0x6c, 0x5f, 0x31, 0x2f, 0x72, 0x65, 0x73, 0x68, 0x61,
  0x70, 0x65, 0x5f, 0x32, 0x2f, 0x52, 0x65, 0x73, 0x68, 0x61, 0x70, 0x65,
  0x00, 0x02, 0x51, 0x49, 0x14, 0x14, 0x04, 0x28, 0x01, 0x00, 0x00, 0x00,
  0x01, 0x00, 0x00, 0x00, 0x09, 0x00, 0x00, 0x00, 0x02, 0x00, 0x00, 0x00,
  0x00, 0x00, 0x00, 0x00, 0x01, 0x00, 0x00, 0x00, 0x01, 0x00, 0x00, 0x00,
  0x14, 0x00, 0x00, 0x00, 0x01, 0x00, 0x00, 0x00, 0x00, 0x00, 0x00, 0x00,
  0x15, 0x00, 0x00, 0x00, 0xa8, 0x06, 0x00, 0x00, 0x44, 0x06, 0x00, 0x00,
  0xdc, 0x05, 0x00, 0x00, 0x7c, 0x05, 0x00, 0x00, 0x24, 0x05, 0x00, 0x00,
  0xc4, 0x04, 0x00, 0x00, 0x70, 0x04, 0x00, 0x00, 0x18, 0x04, 0x00, 0x00,
  0xc4, 0x03, 0x00, 0x00, 0x70, 0x03, 0x00, 0x00, 0x1c, 0x03, 0x00, 0x00,
  0xc8, 0x02, 0x00, 0x00, 0x6c, 0x02, 0x00, 0x00, 0x18, 0x02, 0x00, 0x00,
  0xc4, 0x01, 0x00, 0x00, 0x68, 0x01, 0x00, 0x00, 0x1c, 0x01, 0x00, 0x00,
  0xd4, 0x00, 0x00, 0x00, 0x88, 0x00, 0x00, 0x00, 0x3c, 0x00, 0x00, 0x00,
  0x04, 0x00, 0x00, 0x00, 0xba, 0xf9, 0xff, 0xff, 0x24, 0x00, 0x00, 0x00,
  0x15, 0x00, 0x00, 0x00, 0x0c, 0x00, 0x00, 0x00, 0x04, 0x00, 0x00, 0x00,
  0xac, 0xf9, 0xff, 0xff, 0x08, 0x00, 0x00, 0x00, 0x49, 0x64, 0x65, 0x6e,
  0x74, 0x69, 0x74, 0x79, 0x00, 0x00, 0x00, 0x00, 0x02, 0x00, 0x00, 0x00,
  0x01, 0x00, 0x00, 0x00, 0x08, 0x00, 0x00, 0x00, 0xee, 0xf9, 0xff, 0xff,
  0x38, 0x00, 0x00, 0x00, 0x14, 0x00, 0x00, 0x00, 0x0c, 0x00, 0x00, 0x00,
  0x04, 0x00, 0x00, 0x00, 0xe0, 0xf9, 0xff, 0xff, 0x1c, 0x00, 0x00, 0x00,
  0x73, 0x65, 0x71, 0x75, 0x65, 0x6e, 0x74, 0x69, 0x61, 0x6c, 0x5f, 0x31,
  0x2f, 0x64, 0x65, 0x6e, 0x73, 0x65, 0x5f, 0x31, 0x2f, 0x53, 0x6f, 0x66,
  0x74, 0x6d, 0x61, 0x78, 0x00, 0x00, 0x00, 0x00, 0x02, 0x00, 0x00, 0x00,
  0x01, 0x00, 0x00, 0x00, 0x08, 0x00, 0x00, 0x00, 0x36, 0xfa, 0xff, 0xff,
  0x38, 0x00, 0x00, 0x00, 0x13, 0x00, 0x00, 0x00, 0x0c, 0x00, 0x00, 0x00,
  0x04, 0x00, 0x00, 0x00, 0x28, 0xfa, 0xff, 0xff, 0x1c, 0x00, 0x00, 0x00,
  0x73, 0x65, 0x71, 0x75, 0x65, 0x6e, 0x74, 0x69, 0x61, 0x6c, 0x5f, 0x31,
  0x2f, 0x64, 0x65, 0x6e, 0x73, 0x65, 0x5f, 0x31, 0x2f, 0x42, 0x69, 0x61,
  0x73, 0x41, 0x64, 0x64, 0x00, 0x00, 0x00, 0x00, 0x02, 0x00, 0x00, 0x00,
  0x01, 0x00, 0x00, 0x00, 0x08, 0x00, 0x00, 0x00, 0x7e, 0xfa, 0xff, 0xff,
  0x34, 0x00, 0x00, 0x00, 0x12, 0x00, 0x00, 0x00, 0x0c, 0x00, 0x00, 0x00,
  0x04, 0x00, 0x00, 0x00, 0x70, 0xfa, 0xff, 0xff, 0x1b, 0x00, 0x00, 0x00,
  0x73, 0x65, 0x71, 0x75, 0x65, 0x6e, 0x74, 0x69, 0x61, 0x6c, 0x5f, 0x31,
  0x2f, 0x64, 0x65, 0x6e, 0x73, 0x65, 0x5f, 0x31, 0x2f, 0x4d, 0x61, 0x74,
  0x4d, 0x75, 0x6c, 0x00, 0x02, 0x00, 0x00, 0x00, 0x01, 0x00, 0x00, 0x00,
  0x08, 0x00, 0x00, 0x00, 0xc2, 0xfa, 0xff, 0xff, 0x38, 0x00, 0x00, 0x00,
  0x11, 0x00, 0x00, 0x00, 0x0c, 0x00, 0x00, 0x00, 0x04, 0x00, 0x00, 0x00,
  0xb4, 0xfa, 0xff, 0xff, 0x1e, 0x00, 0x00, 0x00, 0x73, 0x65, 0x71, 0x75,
  0x65, 0x6e, 0x74, 0x69, 0x61, 0x6c, 0x5f, 0x31, 0x2f, 0x72, 0x65, 0x73,
  0x68, 0x61, 0x70, 0x65, 0x5f, 0x33, 0x2f, 0x52, 0x65, 0x73, 0x68, 0x61,
  0x70, 0x65, 0x00, 0x00, 0x02, 0x00, 0x00, 0x00, 0x01, 0x00, 0x00, 0x00,
  0x40, 0x00, 0x00, 0x00, 0x0a, 0xfb, 0xff, 0xff, 0x40, 0x00, 0x00, 0x00,
  0x10, 0x00, 0x00, 0x00, 0x0c, 0x00, 0x00, 0x00, 0x04, 0x00, 0x00, 0x00,
  0xfc, 0xfa, 0xff, 0xff, 0x24, 0x00, 0x00, 0x00, 0x73, 0x65, 0x71, 0x75,
  0x65, 0x6e, 0x74, 0x69, 0x61, 0x6c, 0x5f, 0x31, 0x2f, 0x6d, 0x61, 0x78,
  0x5f, 0x70, 0x6f, 0x6f, 0x6c, 0x69, 0x6e, 0x67, 0x32, 0x64, 0x5f, 0x33,
  0x2f, 0x4d, 0x61, 0x78, 0x50, 0x6f, 0x6f, 0x6c, 0x00, 0x00, 0x00, 0x00,
  0x04, 0x00, 0x00, 0x00, 0x01, 0x00, 0x00, 0x00, 0x01, 0x00, 0x00, 0x00,
  0x08, 0x00, 0x00, 0x00, 0x08, 0x00, 0x00, 0x00, 0x62, 0xfb, 0xff, 0xff,
  0x38, 0x00, 0x00, 0x00, 0x0f, 0x00, 0x00, 0x00, 0x0c, 0x00, 0x00, 0x00,
  0x04, 0x00, 0x00, 0x00, 0x54, 0xfb, 0xff, 0xff, 0x1d, 0x00, 0x00, 0x00,
  0x73, 0x65, 0x71, 0x75, 0x65, 0x6e, 0x74, 0x69, 0x61, 0x6c, 0x5f, 0x31,
  0x2f, 0x63, 0x6f, 0x6e, 0x76, 0x32, 0x64, 0x5f, 0x33, 0x2f, 0x42, 0x69,
  0x61, 0x73, 0x41, 0x64, 0x64, 0x00, 0x00, 0x00, 0x04, 0x00, 0x00, 0x00,
  0x01, 0x00, 0x00, 0x00, 0x01, 0x00, 0x00, 0x00, 0x10, 0x00, 0x00, 0x00,
  0x08, 0x00, 0x00, 0x00, 0xb2, 0xfb, 0xff, 0xff, 0x38, 0x00, 0x00, 0x00,
  0x0e, 0x00, 0x00, 0x00, 0x0c, 0x00, 0x00, 0x00, 0x04, 0x00, 0x00, 0x00,
  0xa4, 0xfb, 0xff, 0xff, 0x1c, 0x00, 0x00, 0x00, 0x73, 0x65, 0x71, 0x75,
  0x65, 0x6e, 0x74, 0x69, 0x61, 0x6c, 0x5f, 0x31, 0x2f, 0x63, 0x6f, 0x6e,
  0x76, 0x32, 0x64, 0x5f, 0x33, 0x2f, 0x43, 0x6f, 0x6e, 0x76, 0x32, 0x44,
  0x00, 0x00, 0x00, 0x00, 0x04, 0x00, 0x00, 0x00, 0x01, 0x00, 0x00, 0x00,
  0x01, 0x00, 0x00, 0x00, 0x10, 0x00, 0x00, 0x00, 0x08, 0x00, 0x00, 0x00,
  0x02, 0xfc, 0xff, 0xff, 0x40, 0x00, 0x00, 0x00, 0x0d, 0x00, 0x00, 0x00,
  0x0c, 0x00, 0x00, 0x00, 0x04, 0x00, 0x00, 0x00, 0xf4, 0xfb, 0xff, 0xff,
  0x24, 0x00, 0x00, 0x00, 0x73, 0x65, 0x71, 0x75, 0x65, 0x6e, 0x74, 0x69,
  0x61, 0x6c, 0x5f, 0x31, 0x2f, 0x6d, 0x61, 0x78, 0x5f, 0x70, 0x6f, 0x6f,
  0x6c, 0x69, 0x6e, 0x67, 0x32, 0x64, 0x5f, 0x32, 0x2f, 0x4d, 0x61, 0x78,
  0x50, 0x6f, 0x6f, 0x6c, 0x00, 0x00, 0x00, 0x00, 0x04, 0x00, 0x00, 0x00,
  0x01, 0x00, 0x00, 0x00, 0x01, 0x00, 0x00, 0x00, 0x80, 0x00, 0x00, 0x00,
  0x08, 0x00, 0x00, 0x00, 0x5a, 0xfc, 0xff, 0xff, 0x38, 0x00, 0x00, 0x00,
  0x0c, 0x00, 0x00, 0x00, 0x0c, 0x00, 0x00, 0x00, 0x04, 0x00, 0x00, 0x00,
  0x4c, 0xfc, 0xff, 0xff, 0x1d, 0x00, 0x00, 0x00, 0x73, 0x65, 0x71, 0x75,
  0x65, 0x6e, 0x74, 0x69, 0x61, 0x6c, 0x5f, 0x31, 0x2f, 0x63, 0x6f, 0x6e,
  0x76, 0x32, 0x64, 0x5f, 0x32, 0x2f, 0x42, 0x69, 0x61, 0x73, 0x41, 0x64,
  0x64, 0x00, 0x00, 0x00, 0x04, 0x00, 0x00, 0x00, 0x01, 0x00, 0x00, 0x00,
  0x01, 0x00, 0x00, 0x00, 0x00, 0x01, 0x00, 0x00, 0x08, 0x00, 0x00, 0x00,
  0xaa, 0xfc, 0xff, 0xff, 0x38, 0x00, 0x00, 0x00, 0x0b, 0x00, 0x00, 0x00,
  0x0c, 0x00, 0x00, 0x00, 0x04, 0x00, 0x00, 0x00, 0x9c, 0xfc, 0xff, 0xff,
  0x1c, 0x00, 0x00, 0x00, 0x73, 0x65, 0x71, 0x75, 0x65, 0x6e, 0x74, 0x69,
  0x61, 0x6c, 0x5f, 0x31, 0x2f, 0x63, 0x6f, 0x6e, 0x76, 0x32, 0x64, 0x5f,
  0x32, 0x2f, 0x43, 0x6f, 0x6e, 0x76, 0x32, 0x44, 0x00, 0x00, 0x00, 0x00,
  0x04, 0x00, 0x00, 0x00, 0x01, 0x00, 0x00, 0x00, 0x01, 0x00, 0x00, 0x00,
  0x00, 0x01, 0x00, 0x00, 0x08, 0x00, 0x00, 0x00, 0xfa, 0xfc, 0xff, 0xff,
  0x38, 0x00, 0x00, 0x00, 0x0a, 0x00, 0x00, 0x00, 0x0c, 0x00, 0x00, 0x00,
  0x04, 0x00, 0x00, 0x00, 0xec, 0xfc, 0xff, 0xff, 0x1e, 0x00, 0x00, 0x00,
  0x73, 0x65, 0x71, 0x75, 0x65, 0x6e, 0x74, 0x69, 0x61, 0x6c, 0x5f, 0x31,
  0x2f, 0x72, 0x65, 0x73, 0x68, 0x61, 0x70, 0x65, 0x5f, 0x32, 0x2f, 0x52,
  0x65, 0x73, 0x68, 0x61, 0x70, 0x65, 0x00, 0x00, 0x04, 0x00, 0x00, 0x00,
  0x01, 0x00, 0x00, 0x00, 0x01, 0x00, 0x00, 0x00, 0x00, 0x08, 0x00, 0x00,
  0x01, 0x00, 0x00, 0x00, 0xaa, 0xfd, 0xff, 0xff, 0x00, 0x00, 0x00, 0x02,
  0x40, 0x00, 0x00, 0x00, 0x09, 0x00, 0x00, 0x00, 0x0c, 0x00, 0x00, 0x00,
  0x04, 0x00, 0x00, 0x00, 0x40, 0xfd, 0xff, 0xff, 0x24, 0x00, 0x00, 0x00,
  0x73, 0x65, 0x71, 0x75, 0x65, 0x6e, 0x74, 0x69, 0x61, 0x6c, 0x5f, 0x31,
  0x2f, 0x72, 0x65, 0x73, 0x68, 0x61, 0x70, 0x65, 0x5f, 0x33, 0x2f, 0x52,
  0x65, 0x73, 0x68, 0x61, 0x70, 0x65, 0x2f, 0x73, 0x68, 0x61, 0x70, 0x65,
  0x00, 0x00, 0x00, 0x00, 0x01, 0x00, 0x00, 0x00, 0x02, 0x00, 0x00, 0x00,
  0x9a, 0xfd, 0xff, 0xff, 0x44, 0x00, 0x00, 0x00, 0x08, 0x00, 0x00, 0x00,
  0x0c, 0x00, 0x00, 0x00, 0x04, 0x00, 0x00, 0x00, 0x8c, 0xfd, 0xff, 0xff,
  0x2a, 0x00, 0x00, 0x00, 0x73, 0x65, 0x71, 0x75, 0x65, 0x6e, 0x74, 0x69,
  0x61, 0x6c, 0x5f, 0x31, 0x2f, 0x64, 0x65, 0x6e, 0x73, 0x65, 0x5f, 0x31,
  0x2f, 0x4d, 0x61, 0x74, 0x4d, 0x75, 0x6c, 0x2f, 0x52, 0x65, 0x61, 0x64,
  0x56, 0x61, 0x72, 0x69, 0x61, 0x62, 0x6c, 0x65, 0x4f, 0x70, 0x00, 0x00,
  0x02, 0x00, 0x00, 0x00, 0x40, 0x00, 0x00, 0x00, 0x08, 0x00, 0x00, 0x00,
  0xee, 0xfd, 0xff, 0xff, 0x44, 0x00, 0x00, 0x00, 0x07, 0x00, 0x00, 0x00,
  0x0c, 0x00, 0x00, 0x00, 0x04, 0x00, 0x00, 0x00, 0xe0, 0xfd, 0xff, 0xff,
  0x2b, 0x00, 0x00, 0x00, 0x73, 0x65, 0x71, 0x75, 0x65, 0x6e, 0x74, 0x69,
  0x61, 0x6c, 0x5f, 0x31, 0x2f, 0x64, 0x65, 0x6e, 0x73, 0x65, 0x5f, 0x31,
  0x2f, 0x42, 0x69, 0x61, 0x73, 0x41, 0x64, 0x64, 0x2f, 0x52, 0x65, 0x61,
  0x64, 0x56, 0x61, 0x72, 0x69, 0x61, 0x62, 0x6c, 0x65, 0x4f, 0x70, 0x00,
  0x01, 0x00, 0x00, 0x00, 0x08, 0x00, 0x00, 0x00, 0x3e, 0xfe, 0xff, 0xff,
  0x44, 0x00, 0x00, 0x00, 0x06, 0x00, 0x00, 0x00, 0x0c, 0x00, 0x00, 0x00,
  0x04, 0x00, 0x00, 0x00, 0x30, 0xfe, 0xff, 0xff, 0x2b, 0x00, 0x00, 0x00,
  0x73, 0x65, 0x71, 0x75, 0x65, 0x6e, 0x74, 0x69, 0x61, 0x6c, 0x5f, 0x31,
  0x2f, 0x63, 0x6f, 0x6e, 0x76, 0x32, 0x64, 0x5f, 0x33, 0x2f, 0x43, 0x6f,
  0x6e, 0x76, 0x32, 0x44, 0x2f, 0x52, 0x65, 0x61, 0x64, 0x56, 0x61, 0x72,
  0x69, 0x61, 0x62, 0x6c, 0x65, 0x4f, 0x70, 0x00, 0x04, 0x00, 0x00, 0x00,
  0x01, 0x00, 0x00, 0x00, 0x08, 0x00, 0x00, 0x00, 0x08, 0x00, 0x00, 0x00,
  0x08, 0x00, 0x00, 0x00, 0x9a, 0xfe, 0xff, 0xff, 0x48, 0x00, 0x00, 0x00,
  0x05, 0x00, 0x00, 0x00, 0x0c, 0x00, 0x00, 0x00, 0x04, 0x00, 0x00, 0x00,
  0x8c, 0xfe, 0xff, 0xff, 0x2c, 0x00, 0x00, 0x00, 0x73, 0x65, 0x71, 0x75,
  0x65, 0x6e, 0x74, 0x69, 0x61, 0x6c, 0x5f, 0x31, 0x2f, 0x63, 0x6f, 0x6e,
  0x76, 0x32, 0x64, 0x5f, 0x33, 0x2f, 0x42, 0x69, 0x61, 0x73, 0x41, 0x64,
  0x64, 0x2f, 0x52, 0x65, 0x61, 0x64, 0x56, 0x61, 0x72, 0x69, 0x61, 0x62,
  0x6c, 0x65, 0x4f, 0x70, 0x00, 0x00, 0x00, 0x00, 0x01, 0x00, 0x00, 0x00,
  0x08, 0x00, 0x00, 0x00, 0xee, 0xfe, 0xff, 0xff, 0x44, 0x00, 0x00, 0x00,
  0x04, 0x00, 0x00, 0x00, 0x0c, 0x00, 0x00, 0x00, 0x04, 0x00, 0x00, 0x00,
  0xe0, 0xfe, 0xff, 0xff, 0x2b, 0x00, 0x00, 0x00, 0x73, 0x65, 0x71, 0x75,
  0x65, 0x6e, 0x74, 0x69, 0x61, 0x6c, 0x5f, 0x31, 0x2f, 0x63, 0x6f, 0x6e,
  0x76, 0x32, 0x64, 0x5f, 0x32, 0x2f, 0x43, 0x6f, 0x6e, 0x76, 0x32, 0x44,
  0x2f, 0x52, 0x65, 0x61, 0x64, 0x56, 0x61, 0x72, 0x69, 0x61, 0x62, 0x6c,
  0x65, 0x4f, 0x70, 0x00, 0x04, 0x00, 0x00, 0x00, 0x01, 0x00, 0x00, 0x00,
  0x08, 0x00, 0x00, 0x00, 0x01, 0x00, 0x00, 0x00, 0x08, 0x00, 0x00, 0x00,
  0x4a, 0xff, 0xff, 0xff, 0x48, 0x00, 0x00, 0x00, 0x03, 0x00, 0x00, 0x00,
  0x0c, 0x00, 0x00, 0x00, 0x04, 0x00, 0x00, 0x00, 0x3c, 0xff, 0xff, 0xff,
  0x2c, 0x00, 0x00, 0x00, 0x73, 0x65, 0x71, 0x75, 0x65, 0x6e, 0x74, 0x69,
  0x61, 0x6c, 0x5f, 0x31, 0x2f, 0x63, 0x6f, 0x6e, 0x76, 0x32, 0x64, 0x5f,
  0x32, 0x2f, 0x42, 0x69, 0x61, 0x73, 0x41, 0x64, 0x64, 0x2f, 0x52, 0x65,
  0x61, 0x64, 0x56, 0x61, 0x72, 0x69, 0x61, 0x62, 0x6c, 0x65, 0x4f, 0x70,
  0x00, 0x00, 0x00, 0x00, 0x01, 0x00, 0x00, 0x00, 0x08, 0x00, 0x00, 0x00,
  0x00, 0x00, 0x0e, 0x00, 0x18, 0x00, 0x08, 0x00, 0x07, 0x00, 0x0c, 0x00,
  0x10, 0x00, 0x14, 0x00, 0x0e, 0x00, 0x00, 0x00, 0x00, 0x00, 0x00, 0x02,
  0x40, 0x00, 0x00, 0x00, 0x02, 0x00, 0x00, 0x00, 0x0c, 0x00, 0x00, 0x00,
  0x04, 0x00, 0x00, 0x00, 0xa4, 0xff, 0xff, 0xff, 0x24, 0x00, 0x00, 0x00,
  0x73, 0x65, 0x71, 0x75, 0x65, 0x6e, 0x74, 0x69, 0x61, 0x6c, 0x5f, 0x31,
  0x2f, 0x72, 0x65, 0x73, 0x68, 0x61, 0x70, 0x65, 0x5f, 0x32, 0x2f, 0x52,
  0x65, 0x73, 0x68, 0x61, 0x70, 0x65, 0x2f, 0x73, 0x68, 0x61, 0x70, 0x65,
  0x00, 0x00, 0x00, 0x00, 0x01, 0x00, 0x00, 0x00, 0x04, 0x00, 0x00, 0x00,
  0x00, 0x00, 0x0e, 0x00, 0x14, 0x00, 0x04, 0x00, 0x00, 0x00, 0x08, 0x00,
  0x0c, 0x00, 0x10, 0x00, 0x0e, 0x00, 0x00, 0x00, 0x24, 0x00, 0x00, 0x00,
  0x01, 0x00, 0x00, 0x00, 0x10, 0x00, 0x00, 0x00, 0x08, 0x00, 0x00, 0x00,
  0x04, 0x00, 0x04, 0x00, 0x04, 0x00, 0x00, 0x00, 0x07, 0x00, 0x00, 0x00,
  0x69, 0x6e, 0x70, 0x75, 0x74, 0x5f, 0x32, 0x00, 0x02, 0x00, 0x00, 0x00,
  0x01, 0x00, 0x00, 0x00, 0x00, 0x08, 0x00, 0x00, 0x07, 0x00, 0x00, 0x00,
  0xd0, 0x00, 0x00, 0x00, 0xa8, 0x00, 0x00, 0x00, 0x88, 0x00, 0x00, 0x00,
  0x68, 0x00, 0x00, 0x00, 0x48, 0x00, 0x00, 0x00, 0x28, 0x00, 0x00, 0x00,
  0x04, 0x00, 0x00, 0x00, 0x54, 0xff, 0xff, 0xff, 0x00, 0x00, 0x00, 0x20,
  0x04, 0x00, 0x00, 0x00, 0x0c, 0x00, 0x00, 0x00, 0x46, 0x6c, 0x65, 0x78,
  0x49, 0x64, 0x65, 0x6e, 0x74, 0x69, 0x74, 0x79, 0x00, 0x00, 0x00, 0x00,
  0x74, 0xff, 0xff, 0xff, 0x00, 0x00, 0x00, 0x20, 0x04, 0x00, 0x00, 0x00,
  0x0b, 0x00, 0x00, 0x00, 0x46, 0x6c, 0x65, 0x78, 0x53, 0x6f, 0x66, 0x74,
  0x6d, 0x61, 0x78, 0x00, 0x90, 0xff, 0xff, 0xff, 0x00, 0x00, 0x00, 0x20,
  0x04, 0x00, 0x00, 0x00, 0x0a, 0x00, 0x00, 0x00, 0x46, 0x6c, 0x65, 0x78,
  0x4d, 0x61, 0x74, 0x4d, 0x75, 0x6c, 0x00, 0x00, 0xac, 0xff, 0xff, 0xff,
  0x00, 0x00, 0x00, 0x20, 0x04, 0x00, 0x00, 0x00, 0x0b, 0x00, 0x00, 0x00,
  0x46, 0x6c, 0x65, 0x78, 0x4d, 0x61, 0x78, 0x50, 0x6f, 0x6f, 0x6c, 0x00,
  0xc8, 0xff, 0xff, 0xff, 0x00, 0x00, 0x00, 0x20, 0x04, 0x00, 0x00, 0x00,
  0x0b, 0x00, 0x00, 0x00, 0x46, 0x6c, 0x65, 0x78, 0x42, 0x69, 0x61, 0x73,
  0x41, 0x64, 0x64, 0x00, 0xe4, 0xff, 0xff, 0xff, 0x00, 0x00, 0x00, 0x20,
  0x04, 0x00, 0x00, 0x00, 0x0a, 0x00, 0x00, 0x00, 0x46, 0x6c, 0x65, 0x78,
  0x43, 0x6f, 0x6e, 0x76, 0x32, 0x44, 0x00, 0x00, 0x08, 0x00, 0x0c, 0x00,
  0x07, 0x00, 0x08, 0x00, 0x08, 0x00, 0x00, 0x00, 0x00, 0x00, 0x00, 0x20,
  0x04, 0x00, 0x00, 0x00, 0x0b, 0x00, 0x00, 0x00, 0x46, 0x6c, 0x65, 0x78,
  0x52, 0x65, 0x73, 0x68, 0x61, 0x70, 0x65, 0x00
};
