/* Copyright 2019 The TensorFlow Authors. All Rights Reserved.

Licensed under the Apache License, Version 2.0 (the "License");
you may not use this file except in compliance with the License.
You may obtain a copy of the License at

    http://www.apache.org/licenses/LICENSE-2.0

Unless required by applicable law or agreed to in writing, software
distributed under the License is distributed on an "AS IS" BASIS,
WITHOUT WARRANTIES OR CONDITIONS OF ANY KIND, either express or implied.
See the License for the specific language governing permissions and
limitations under the License.
==============================================================================*/

// Automatically created from a TensorFlow Lite flatbuffer using the command:
// xxd -i magic_wand_model.tflite > magic_wand_model_data.cc
// See the README for a full description of the creation process.

#include "tensorflow/lite/micro/examples/magic_wand/magic_wand_model_data.h"

// We need to keep the data array aligned on some architectures.
#ifdef __has_attribute
#define HAVE_ATTRIBUTE(x) __has_attribute(x)
#else
#define HAVE_ATTRIBUTE(x) 0
#endif
#if HAVE_ATTRIBUTE(aligned) || (defined(__GNUC__) && !defined(__clang__))
#define DATA_ALIGN_ATTRIBUTE __attribute__((aligned(4)))
#else
#define DATA_ALIGN_ATTRIBUTE
#endif

const unsigned char g_magic_wand_model_data[] DATA_ALIGN_ATTRIBUTE = {
  0x18, 0x00, 0x00, 0x00, 0x54, 0x46, 0x4c, 0x33, 0x00, 0x00, 0x0e, 0x00,
  0x18, 0x00, 0x04, 0x00, 0x08, 0x00, 0x0c, 0x00, 0x10, 0x00, 0x14, 0x00,
  0x0e, 0x00, 0x00, 0x00, 0x03, 0x00, 0x00, 0x00, 0x18, 0x4c, 0x00, 0x00,
  0x0c, 0x00, 0x00, 0x00, 0x10, 0x00, 0x00, 0x00, 0x20, 0x00, 0x00, 0x00,
  0x01, 0x00, 0x00, 0x00, 0x20, 0x44, 0x00, 0x00, 0x0f, 0x00, 0x00, 0x00,
  0x54, 0x4f, 0x43, 0x4f, 0x20, 0x43, 0x6f, 0x6e, 0x76, 0x65, 0x72, 0x74,
  0x65, 0x64, 0x2e, 0x00, 0x11, 0x00, 0x00, 0x00, 0xf4, 0x43, 0x00, 0x00,
  0xa4, 0x43, 0x00, 0x00, 0x84, 0x43, 0x00, 0x00, 0x34, 0x43, 0x00, 0x00,
  0x2c, 0x43, 0x00, 0x00, 0x1c, 0x42, 0x00, 0x00, 0x14, 0x42, 0x00, 0x00,
  0x04, 0x0a, 0x00, 0x00, 0xd4, 0x09, 0x00, 0x00, 0xc4, 0x01, 0x00, 0x00,
  0xbc, 0x01, 0x00, 0x00, 0xb4, 0x01, 0x00, 0x00, 0xac, 0x01, 0x00, 0x00,
  0x1c, 0x00, 0x00, 0x00, 0x14, 0x00, 0x00, 0x00, 0x0c, 0x00, 0x00, 0x00,
  0x04, 0x00, 0x00, 0x00, 0x24, 0xb6, 0xff, 0xff, 0x28, 0xb6, 0xff, 0xff,
  0x2c, 0xb6, 0xff, 0xff, 0x76, 0xb6, 0xff, 0xff, 0x04, 0x00, 0x00, 0x00,
  0x80, 0x01, 0x00, 0x00, 0x13, 0x00, 0x8a, 0xbe, 0x50, 0x7c, 0x49, 0x3e,
  0xb4, 0x06, 0x5a, 0xbc, 0xa6, 0xf2, 0xa8, 0xbd, 0x73, 0x50, 0x62, 0x3c,
  0xdd, 0x0a, 0x4a, 0xbe, 0xe2, 0x77, 0x9c, 0x3e, 0x8b, 0xe0, 0xc7, 0xbd,
  0xb2, 0xfd, 0xf5, 0x3d, 0x13, 0xb1, 0xb2, 0xbe, 0xcd, 0x78, 0x5a, 0xbd,
  0xfb, 0x15, 0x4e, 0xbc, 0x58, 0x7b, 0x3b, 0x3e, 0x14, 0x4b, 0x22, 0xbc,
  0x7e, 0x44, 0xd2, 0x3d, 0xdc, 0xda, 0x72, 0x3c, 0x1a, 0x87, 0xd9, 0x3d,
  0x3e, 0xdc, 0x13, 0x3d, 0x01, 0x1e, 0x75, 0xbe, 0x3d, 0x4f, 0x6a, 0xbd,
  0xa6, 0x52, 0x54, 0xbe, 0xc7, 0x7f, 0x5f, 0xbe, 0x97, 0x5f, 0x35, 0xbc,
  0xc5, 0x84, 0x5b, 0xbe, 0x7c, 0xd5, 0x6f, 0xbd, 0x90, 0x9b, 0x30, 0xbd,
  0x52, 0x86, 0xec, 0xbc, 0xc0, 0x4e, 0x0b, 0xbf, 0xfc, 0x3d, 0xec, 0xbd,
  0x92, 0x71, 0x26, 0x3e, 0x34, 0x26, 0x33, 0x3d, 0x06, 0x68, 0xfc, 0xbd,
  0x54, 0x5f, 0x2f, 0xbd, 0xa2, 0xce, 0xdd, 0x3d, 0x83, 0x6a, 0x76, 0xbc,
  0x64, 0xba, 0x95, 0xbd, 0x44, 0x69, 0x09, 0x3e, 0xea, 0x7b, 0x08, 0x3e,
  0xec, 0x13, 0x9f, 0xbd, 0x80, 0x2a, 0x04, 0xbe, 0x64, 0xf5, 0x84, 0x3e,
  0x31, 0xf8, 0xb4, 0xbd, 0xfa, 0x18, 0xb3, 0xbd, 0x4b, 0x3d, 0xf9, 0xbc,
  0xee, 0x0e, 0x8f, 0xbd, 0x3b, 0x21, 0x39, 0xbc, 0x35, 0xa0, 0xbb, 0xbc,
  0xd5, 0x5f, 0xbe, 0xbd, 0x9e, 0xc4, 0x0b, 0x3d, 0x4a, 0x8d, 0x82, 0xbe,
  0x01, 0xfb, 0x19, 0xbd, 0xb0, 0x51, 0xae, 0x3c, 0xb5, 0xd8, 0x68, 0xbe,
  0x97, 0x45, 0x73, 0x3d, 0xc7, 0x33, 0x2a, 0x3e, 0x9f, 0x82, 0x09, 0x3e,
  0x32, 0x36, 0xba, 0xbd, 0x93, 0x0d, 0x7e, 0xbb, 0xc2, 0x5f, 0xa6, 0xbd,
  0x13, 0x20, 0x55, 0xbe, 0xbf, 0x03, 0x08, 0xbe, 0xeb, 0xe0, 0xa9, 0xbd,
  0xf6, 0x4a, 0xcc, 0xbd, 0x8f, 0xf6, 0x28, 0xbd, 0x29, 0xe0, 0x81, 0x3d,
  0x92, 0x9d, 0x65, 0xbd, 0xe3, 0xb6, 0x17, 0x3e, 0x53, 0x07, 0xa6, 0xbc,
  0xba, 0x44, 0x3c, 0xbb, 0x05, 0x63, 0x36, 0xbc, 0xe1, 0x45, 0x23, 0xbd,
  0x0e, 0x10, 0x08, 0x3d, 0xee, 0xe5, 0x77, 0x3e, 0xf2, 0xe4, 0x76, 0xbe,
  0x61, 0x45, 0xbc, 0x3d, 0xda, 0xeb, 0xe4, 0x3e, 0xd4, 0xe1, 0xbc, 0xbd,
  0x0e, 0x17, 0x9a, 0xbe, 0x2a, 0x52, 0xbf, 0xbe, 0x71, 0x90, 0x91, 0x3e,
  0xfb, 0xfa, 0x6b, 0xbd, 0xdb, 0x52, 0x68, 0x3e, 0x7f, 0xfb, 0x49, 0x3d,
  0xd7, 0x8a, 0x5a, 0x3d, 0x20, 0x58, 0x09, 0xbe, 0xc4, 0x74, 0xd7, 0x3d,
  0x3b, 0x3e, 0xe8, 0xbc, 0x45, 0x92, 0xe0, 0xbc, 0x6d, 0x8e, 0xb8, 0xbe,
  0x24, 0x52, 0x32, 0xbd, 0x6d, 0x5a, 0x85, 0x3e, 0xb4, 0xc1, 0xaf, 0xbc,
  0x0e, 0xdf, 0x1a, 0xbe, 0xc8, 0xd1, 0x8e, 0xbe, 0x95, 0xba, 0xb2, 0xbd,
  0xe6, 0x9d, 0x7e, 0x3d, 0xbc, 0xb7, 0xff, 0xff, 0xc0, 0xb7, 0xff, 0xff,
  0xc4, 0xb7, 0xff, 0xff, 0x0e, 0xb8, 0xff, 0xff, 0x04, 0x00, 0x00, 0x00,
  0x00, 0x08, 0x00, 0x00, 0x65, 0x15, 0x07, 0x3e, 0x19, 0xc0, 0x05, 0xbe,
  0xcb, 0xe0, 0xb8, 0x3d, 0xbc, 0x81, 0x7d, 0xbd, 0xdb, 0xac, 0xcb, 0x3d,
  0x28, 0x09, 0xa9, 0x3e, 0x16, 0x58, 0x9d, 0xbe, 0x1e, 0xc4, 0xd2, 0xbd,
  0x87, 0x2e, 0xdb, 0x3d, 0xd2, 0xdc, 0x80, 0xbd, 0xdc, 0x90, 0x41, 0x3d,
  0xeb, 0x0b, 0x5a, 0xbe, 0x4a, 0x91, 0xa2, 0xbc, 0x93, 0xff, 0x81, 0xbb,
  0x5f, 0xb4, 0x8e, 0xbd, 0x88, 0xba, 0x5c, 0xbd, 0x7b, 0x71, 0xef, 0x3c,
  0x46, 0xe5, 0x4d, 0xbf, 0x3a, 0x1f, 0x96, 0xbd, 0x4d, 0x39, 0xa1, 0xbf,
  0xe4, 0x63, 0x25, 0xbe, 0xc1, 0x1b, 0xa9, 0xbd, 0xba, 0x02, 0x88, 0xbd,
  0xd8, 0xcf, 0x75, 0xbe, 0x53, 0x42, 0xfa, 0xbd, 0xdd, 0xc5, 0xa5, 0xbe,
  0x0a, 0x04, 0x21, 0xbe, 0xab, 0x3c, 0x88, 0xbf, 0x2e, 0x1f, 0x50, 0xbe,
  0xc8, 0xb7, 0xe2, 0xbd, 0x71, 0xed, 0xd5, 0x3e, 0x0c, 0xf3, 0x00, 0xbd,
  0xae, 0x1e, 0x3e, 0x3d, 0x29, 0xf0, 0x91, 0xbd, 0x72, 0xf6, 0x19, 0xbe,
  0x29, 0xb6, 0x28, 0xbd, 0x24, 0xa2, 0x03, 0xbe, 0xe9, 0xcc, 0x83, 0xbd,
  0x4a, 0x72, 0x17, 0x3d, 0xf7, 0xe0, 0xbe, 0xbc, 0xd8, 0x7d, 0x59, 0xbd,
  0xa1, 0xc0, 0x05, 0x3c, 0xf0, 0xcd, 0x51, 0xbe, 0xfd, 0xb6, 0x15, 0xbd,
  0xa1, 0x24, 0x0a, 0x3d, 0x9e, 0x14, 0x22, 0xbd, 0xb7, 0x88, 0x1a, 0x3f,
  0x61, 0x5e, 0x35, 0x3e, 0x90, 0x8c, 0x7c, 0xbc, 0x0d, 0x7a, 0x71, 0xbf,
  0x35, 0x85, 0xb8, 0xbe, 0x38, 0x20, 0x11, 0xbf, 0x30, 0x01, 0x62, 0xbf,
  0xce, 0x28, 0x64, 0xbf, 0xab, 0x4d, 0x87, 0xbd, 0x97, 0xbd, 0xeb, 0xbd,
  0xbd, 0x54, 0x3f, 0x3e, 0x91, 0x0b, 0x9f, 0x3e, 0x6b, 0x12, 0x5b, 0xbe,
  0x31, 0xa1, 0xf4, 0xbe, 0x37, 0xc2, 0x85, 0xbe, 0x8a, 0x6a, 0x61, 0xbe,
  0x7c, 0xa0, 0x46, 0xbc, 0x6b, 0x1e, 0x16, 0xbe, 0x8d, 0x2c, 0xae, 0xbd,
  0xbb, 0x9b, 0x20, 0xbd, 0x96, 0x53, 0x8c, 0xbd, 0xb6, 0x3a, 0x93, 0xbd,
  0xf8, 0x58, 0xb1, 0xbd, 0x46, 0xf3, 0xdd, 0xbd, 0x5f, 0x9b, 0xa1, 0xbe,
  0x67, 0x80, 0xb8, 0x3d, 0x77, 0x4f, 0xd4, 0xbc, 0xc9, 0x54, 0xba, 0x3e,
  0x1c, 0x0e, 0x20, 0xbd, 0xf5, 0x0c, 0x5f, 0x3e, 0x76, 0xbf, 0xfb, 0xbd,
  0xfd, 0xe5, 0xcf, 0xbd, 0xe5, 0xa7, 0x8a, 0xbe, 0x3e, 0x47, 0x5a, 0xbd,
  0x27, 0x5e, 0xe8, 0x3c, 0x4d, 0x54, 0xfc, 0x3c, 0x0b, 0x66, 0x4e, 0x3d,
  0x4f, 0x28, 0x98, 0x3d, 0x15, 0x91, 0x87, 0xbd, 0x57, 0x09, 0x44, 0xbd,
  0x98, 0xb6, 0x34, 0xbe, 0xe5, 0x89, 0x9e, 0x3d, 0xdf, 0x9a, 0xe4, 0x3b,
  0xb6, 0x3c, 0x2c, 0x3e, 0x1f, 0xe0, 0x7a, 0x3d, 0xab, 0xa4, 0x1a, 0x3e,
  0xea, 0x68, 0xdd, 0xbd, 0x60, 0x6a, 0xed, 0xbd, 0xf5, 0x22, 0x37, 0xbe,
  0x93, 0x1c, 0x81, 0x3e, 0xda, 0xdd, 0x2f, 0x3e, 0xfd, 0x91, 0x0b, 0xbc,
  0x9a, 0xce, 0xfc, 0xbd, 0x3a, 0x51, 0xf7, 0x3d, 0xe5, 0x05, 0x96, 0x3e,
  0x96, 0x11, 0x9f, 0xbd, 0x69, 0x79, 0xca, 0xbd, 0x6b, 0x20, 0x0d, 0x3d,
  0x83, 0x7f, 0x35, 0x3d, 0xce, 0x14, 0x5e, 0x3a, 0x37, 0xce, 0x5e, 0xbd,
  0xc5, 0xf1, 0x35, 0x3e, 0xc4, 0x9b, 0xc4, 0xbd, 0x85, 0xbc, 0x4b, 0xbe,
  0x89, 0x78, 0x9a, 0xbd, 0xcc, 0x0f, 0x96, 0x3e, 0xda, 0xe4, 0xee, 0xbd,
  0x7d, 0x4b, 0x7a, 0xbd, 0xb9, 0xc3, 0x0e, 0x3e, 0x6c, 0x9a, 0xbb, 0xbd,
  0xd0, 0xa2, 0x11, 0xbf, 0x00, 0xe5, 0x7a, 0xbe, 0xae, 0x1b, 0xd3, 0xbd,
  0x82, 0x2f, 0x48, 0x3d, 0xb3, 0x89, 0x4e, 0xbe, 0xd8, 0x30, 0x26, 0xbd,
  0xff, 0xa7, 0x03, 0x3e, 0xff, 0x72, 0x80, 0xbe, 0xf2, 0xe6, 0x90, 0xbe,
  0x44, 0xf8, 0x94, 0x3d, 0x3b, 0xe8, 0x8d, 0xbd, 0x09, 0xc6, 0x94, 0xbe,
  0x78, 0xfe, 0x78, 0x3d, 0x1a, 0x39, 0x44, 0xbe, 0xc2, 0x92, 0xf8, 0x3b,
  0x76, 0x1f, 0x18, 0xbe, 0x4b, 0xfb, 0xbe, 0xbd, 0xdc, 0x05, 0x18, 0x3f,
  0x3f, 0x5a, 0x93, 0xbe, 0x8c, 0xec, 0x94, 0xbd, 0x80, 0x00, 0x7b, 0xbd,
  0x83, 0x0d, 0x01, 0xbe, 0x88, 0x9a, 0x86, 0x3d, 0xae, 0x82, 0x25, 0xbe,
  0xe0, 0xc3, 0xe3, 0xbd, 0x80, 0xd8, 0x1a, 0xbe, 0xb9, 0x65, 0x9c, 0xbe,
  0x31, 0xae, 0x3d, 0xbe, 0x02, 0xa7, 0xfb, 0xbd, 0x1c, 0xf6, 0x85, 0xbe,
  0xe7, 0xe5, 0x56, 0x3d, 0xc4, 0xc3, 0x4b, 0x3e, 0x61, 0xca, 0x8f, 0xbe,
  0x41, 0xca, 0x0d, 0xbe, 0x71, 0x61, 0x85, 0xbe, 0x23, 0xcf, 0x05, 0x3d,
  0xe9, 0x93, 0xc8, 0xbd, 0x8a, 0xc2, 0xda, 0xbe, 0xdb, 0xbd, 0x0c, 0x3d,
  0x48, 0x7f, 0x5a, 0xbf, 0x79, 0x35, 0xbb, 0xbe, 0xe7, 0x31, 0x20, 0xbe,
  0x81, 0x36, 0x84, 0x3e, 0x36, 0x72, 0x1e, 0xbe, 0xd1, 0x0b, 0x56, 0xbd,
  0x92, 0xc1, 0x06, 0x3c, 0xab, 0x4d, 0x91, 0xbd, 0xe1, 0x1c, 0x1f, 0xbd,
  0xf7, 0x66, 0x72, 0x3e, 0x34, 0xbf, 0x57, 0x3c, 0xb9, 0x6d, 0xf9, 0x3d,
  0xec, 0xb4, 0xfe, 0xbc, 0xc1, 0x36, 0x5d, 0x3d, 0xef, 0x44, 0x2b, 0x3d,
  0xe3, 0x49, 0x80, 0xbc, 0xa4, 0xe2, 0x60, 0xbd, 0x16, 0xb8, 0xa9, 0xbc,
  0x1d, 0x4e, 0xa5, 0xbd, 0xe4, 0x9f, 0x54, 0x3e, 0x0f, 0xe1, 0x25, 0xbd,
  0xbf, 0x92, 0xe2, 0x3d, 0xaa, 0x39, 0x38, 0x3d, 0xb7, 0x42, 0xe7, 0x3d,
  0x3d, 0x38, 0x4a, 0x3d, 0x73, 0xbc, 0x52, 0xbe, 0xed, 0xb3, 0x24, 0xbe,
  0xba, 0x9a, 0xdd, 0xbe, 0xed, 0xfc, 0xa6, 0x3d, 0xf1, 0xb5, 0x0a, 0x3e,
  0x0d, 0x25, 0x15, 0xbd, 0xc1, 0xce, 0xed, 0xbd, 0xd8, 0x5d, 0x5d, 0xbd,
  0x2d, 0x15, 0x52, 0xbe, 0xa9, 0x58, 0x4b, 0xbe, 0x1c, 0x97, 0x9f, 0x3e,
  0x4d, 0x40, 0xba, 0xbd, 0x41, 0xba, 0x8a, 0x3d, 0xb8, 0x8d, 0x34, 0xbe,
  0x04, 0x75, 0xc9, 0xbd, 0x5e, 0x58, 0x99, 0xbd, 0xe0, 0xed, 0x47, 0xbe,
  0x83, 0xf7, 0x93, 0xbc, 0x67, 0x34, 0x49, 0xbe, 0x10, 0xbc, 0x5e, 0xbe,
  0x3c, 0xa1, 0xa6, 0x3d, 0x7d, 0xaf, 0x82, 0xbd, 0xdf, 0xf9, 0x34, 0xbd,
  0x5c, 0x02, 0x82, 0xbd, 0xb7, 0x0d, 0x90, 0xbd, 0x64, 0x2e, 0xd4, 0xbd,
  0x82, 0xea, 0xb3, 0xbd, 0x0d, 0xdd, 0x89, 0xbd, 0xf2, 0x85, 0xa4, 0x39,
  0x03, 0x77, 0xd3, 0xbd, 0x43, 0x9a, 0xbf, 0xbd, 0xce, 0xa8, 0xa7, 0xbd,
  0xa9, 0x42, 0x38, 0xbd, 0xe0, 0x11, 0x7e, 0xbd, 0x11, 0x56, 0x33, 0x3e,
  0x06, 0x51, 0x0f, 0xbd, 0x1c, 0x88, 0xf8, 0xbc, 0xf1, 0x03, 0xb2, 0x3e,
  0xdb, 0x70, 0x38, 0x3d, 0x72, 0x68, 0x71, 0xbd, 0x24, 0x2f, 0x01, 0xbd,
  0x5e, 0xc0, 0x37, 0x3d, 0x0e, 0xc6, 0xae, 0x3e, 0x80, 0x25, 0x2a, 0x3e,
  0x17, 0xee, 0x35, 0xbe, 0x58, 0x77, 0x22, 0x3c, 0xb0, 0x2b, 0x71, 0x3d,
  0x5e, 0x6f, 0x07, 0x3e, 0x61, 0x0b, 0x16, 0xbd, 0x49, 0x56, 0x8b, 0x3d,
  0x40, 0x4d, 0x83, 0xbe, 0x03, 0x90, 0x24, 0x3e, 0x90, 0x49, 0x15, 0xbd,
  0x65, 0xa5, 0xd2, 0xbd, 0x1e, 0x47, 0x60, 0x3e, 0x4e, 0x30, 0xa2, 0xbd,
  0x5a, 0xc3, 0xe6, 0x3c, 0x13, 0xd6, 0x00, 0x3e, 0x4e, 0x66, 0x35, 0xbe,
  0x8f, 0xb9, 0xc1, 0xbd, 0xd1, 0x6f, 0x90, 0x3e, 0x15, 0x80, 0x38, 0xbe,
  0xa1, 0x60, 0x37, 0xbe, 0x6b, 0x42, 0x03, 0xbe, 0x1e, 0xf1, 0x11, 0xbd,
  0x15, 0xf1, 0x0d, 0xbd, 0x92, 0x64, 0x37, 0xbe, 0xba, 0x45, 0x42, 0xbc,
  0xa3, 0x48, 0x3a, 0x3e, 0x26, 0x58, 0x4a, 0xbe, 0xa8, 0x08, 0x9b, 0xbe,
  0x04, 0x3a, 0xf8, 0xbd, 0xa7, 0x3d, 0x2f, 0xbd, 0x9f, 0x78, 0xd9, 0xbd,
  0xc0, 0x6b, 0xac, 0x3d, 0x8c, 0x68, 0xd9, 0xbb, 0x33, 0x7b, 0xf5, 0xbd,
  0x61, 0xeb, 0xd6, 0xbd, 0xf5, 0x3d, 0xe8, 0xbd, 0x0d, 0x30, 0xdc, 0xbd,
  0x5e, 0xcf, 0x5e, 0xbc, 0x32, 0x0e, 0x2b, 0x3d, 0x46, 0xad, 0x2b, 0x3c,
  0x19, 0x91, 0x17, 0xbe, 0x31, 0x1c, 0x28, 0xbd, 0xfc, 0xe5, 0x40, 0xbc,
  0x76, 0xe8, 0x1e, 0xbe, 0x00, 0x7f, 0xe1, 0xbc, 0x8f, 0xc2, 0xa9, 0x3d,
  0xd1, 0x05, 0x16, 0xbc, 0x94, 0xf8, 0x0f, 0x3e, 0xec, 0x92, 0x05, 0xbe,
  0x5d, 0xc2, 0x7f, 0x3d, 0x39, 0xdb, 0x83, 0xbc, 0xef, 0x1e, 0x27, 0xbe,
  0x70, 0xa7, 0xed, 0x3d, 0xc8, 0x28, 0x87, 0x3d, 0x95, 0xd5, 0x17, 0xbc,
  0x34, 0xba, 0xba, 0x3d, 0x47, 0xdf, 0xe5, 0xbd, 0x99, 0xa7, 0x70, 0x3e,
  0x05, 0x82, 0x59, 0x3d, 0x3a, 0x54, 0x01, 0xbe, 0xbb, 0x90, 0xa4, 0x3e,
  0x8b, 0x70, 0x82, 0x3d, 0x85, 0xf1, 0x3a, 0x3c, 0x13, 0xd2, 0xb8, 0xbb,
  0xd4, 0x79, 0x67, 0xbd, 0xe7, 0x66, 0x04, 0xbf, 0x00, 0x2a, 0xd4, 0xbd,
  0xef, 0xb8, 0xe8, 0x3d, 0x34, 0xc7, 0x37, 0xbf, 0x28, 0x13, 0x82, 0xbd,
  0x18, 0x6f, 0x8c, 0xbd, 0x5e, 0x9b, 0x8c, 0x3d, 0x0d, 0x39, 0x3d, 0xba,
  0x1c, 0x41, 0x40, 0xbf, 0x0d, 0x81, 0xbf, 0xbc, 0xcc, 0x20, 0x88, 0xbd,
  0x9e, 0x17, 0x32, 0xbf, 0xf5, 0x2c, 0xbb, 0xbc, 0xdf, 0x7c, 0x88, 0x3e,
  0xbc, 0xfa, 0x77, 0x3d, 0x09, 0x39, 0x47, 0x3d, 0xc2, 0x01, 0x6e, 0xbf,
  0xa1, 0x93, 0x46, 0xbe, 0xf5, 0x92, 0x9f, 0xbc, 0xc0, 0x5e, 0x02, 0xbf,
  0x74, 0x33, 0xab, 0x3d, 0x0d, 0x66, 0x5d, 0x3d, 0x02, 0x39, 0xbc, 0xbc,
  0xbe, 0x1d, 0x2a, 0x3d, 0x6d, 0x7b, 0x55, 0xbf, 0x34, 0xff, 0x4b, 0xbe,
  0xba, 0x10, 0x22, 0x3e, 0xdb, 0x9f, 0xf8, 0xbe, 0x6d, 0x59, 0x64, 0x3e,
  0x6c, 0x3f, 0x62, 0x3d, 0x11, 0xf8, 0x83, 0xbb, 0xb8, 0xf2, 0xf2, 0xbd,
  0xe1, 0xe8, 0xb1, 0xbc, 0xa0, 0xec, 0xfb, 0x3c, 0x06, 0x18, 0xb9, 0xbb,
  0x57, 0xb4, 0xf2, 0x3d, 0xb9, 0xd2, 0x24, 0xbe, 0x8e, 0x77, 0x84, 0xbd,
  0x45, 0xf8, 0x60, 0x3d, 0x4a, 0x83, 0x90, 0x3e, 0xee, 0x8d, 0xab, 0x3d,
  0x53, 0x05, 0xfc, 0x3d, 0xf3, 0xe0, 0x07, 0x3d, 0x82, 0x2c, 0xec, 0x3d,
  0x4c, 0x82, 0x5a, 0xbd, 0x6b, 0x30, 0xa1, 0xbd, 0x27, 0x70, 0x39, 0x3e,
  0x7e, 0xb3, 0x05, 0xbd, 0xe3, 0x2f, 0xf0, 0x3d, 0xc0, 0xdb, 0x7e, 0xbf,
  0xaf, 0xb2, 0xec, 0x3c, 0x4d, 0xe6, 0x7f, 0xbf, 0x60, 0xb0, 0xb0, 0xbe,
  0xa0, 0x89, 0xe1, 0xbd, 0xde, 0xdf, 0x65, 0xbb, 0xdf, 0xe8, 0xd4, 0xbd,
  0x33, 0xb0, 0x07, 0xbd, 0x65, 0xfe, 0x8d, 0x3d, 0xfc, 0xa0, 0xe5, 0x3c,
  0x5d, 0x9e, 0xc6, 0xbf, 0x48, 0x58, 0x1d, 0xbf, 0xde, 0x0a, 0x1b, 0xbd,
  0x3e, 0x08, 0x84, 0xbd, 0x4e, 0x3c, 0x90, 0xbe, 0x7f, 0x92, 0x4b, 0x3d,
  0x97, 0x3a, 0xa6, 0x3e, 0x60, 0x7c, 0xd5, 0x3c, 0xf3, 0x8f, 0x0d, 0xbd,
  0xe4, 0x0b, 0x16, 0x3e, 0x8e, 0x51, 0x8d, 0x3e, 0xb4, 0xab, 0x8c, 0xbd,
  0x1c, 0x39, 0xb4, 0x3d, 0x3e, 0x15, 0x97, 0x3c, 0x40, 0x4e, 0x7d, 0xbd,
  0x1f, 0x14, 0x49, 0x3c, 0x7b, 0x76, 0x19, 0x3c, 0xf0, 0x8e, 0xe2, 0xbc,
  0xbf, 0x43, 0x2f, 0xbd, 0x50, 0x19, 0x40, 0xbe, 0x1d, 0x4b, 0x08, 0x3d,
  0x35, 0x31, 0xd6, 0x3b, 0xf5, 0x60, 0x73, 0xbe, 0xd1, 0x7e, 0x1e, 0x3d,
  0xdc, 0xcb, 0x01, 0xbd, 0xf4, 0x76, 0x43, 0xbe, 0xf4, 0xf1, 0xaa, 0xbd,
  0x1a, 0x7c, 0x61, 0xbe, 0x5c, 0xe5, 0xe3, 0x3c, 0xca, 0x20, 0x1b, 0xbd,
  0x70, 0x90, 0xba, 0xbe, 0x85, 0xce, 0x8e, 0xbc, 0x65, 0x12, 0x92, 0xbe,
  0x43, 0x76, 0x95, 0xbe, 0x8e, 0xb3, 0xe0, 0xbd, 0xce, 0xd7, 0x67, 0xbd,
  0xf4, 0x59, 0x75, 0x3d, 0x63, 0x60, 0x48, 0xbd, 0x9e, 0x67, 0xb1, 0xbd,
  0xdd, 0x99, 0x7b, 0xbd, 0x11, 0x04, 0x11, 0xbd, 0xcb, 0x62, 0x0a, 0xbd,
  0x0a, 0x96, 0x3d, 0x3d, 0x89, 0xed, 0xb5, 0xbc, 0x4a, 0x5a, 0x5c, 0x3e,
  0x4d, 0x75, 0x42, 0x3c, 0xe6, 0x3d, 0x95, 0xbd, 0x30, 0x6e, 0x76, 0xbc,
  0x46, 0x76, 0x9c, 0xbd, 0xc1, 0xde, 0x3f, 0xbc, 0x61, 0xde, 0x86, 0x3d,
  0xda, 0x7a, 0x42, 0xbd, 0x3c, 0x07, 0x40, 0xbb, 0xd2, 0xda, 0x6c, 0x3d,
  0xda, 0x02, 0x8a, 0xbd, 0x8b, 0x01, 0x9b, 0xbd, 0xad, 0x5f, 0x96, 0xbd,
  0xa9, 0xa1, 0x22, 0xbc, 0x86, 0x14, 0x8d, 0xbd, 0xe2, 0x5a, 0x2b, 0xbd,
  0xcf, 0x71, 0x1c, 0xbd, 0x6b, 0x79, 0xe8, 0x3b, 0xb1, 0x03, 0x0f, 0xbd,
  0xb2, 0xcf, 0xc0, 0x3e, 0x69, 0xbf, 0x93, 0xbd, 0x90, 0x93, 0xcb, 0xbb,
  0xb3, 0x02, 0x63, 0x3e, 0xcd, 0x01, 0xfd, 0xbc, 0xee, 0x45, 0x89, 0xbd,
  0xda, 0x2c, 0x3f, 0x3f, 0xe6, 0xf6, 0x50, 0xbe, 0x93, 0x38, 0xd9, 0xbd,
  0x07, 0x39, 0xe3, 0xbe, 0x25, 0xe0, 0x14, 0xbd, 0xab, 0xcf, 0x9a, 0x3d,
  0x8a, 0xc9, 0x22, 0xbe, 0x71, 0x67, 0x9a, 0xbe, 0x4b, 0x9b, 0x9a, 0xbd,
  0x65, 0xcf, 0x3c, 0xbe, 0x21, 0xef, 0xa7, 0xbe, 0xaf, 0x6e, 0x2c, 0xbe,
  0x00, 0xc9, 0x3e, 0x3e, 0xa1, 0xcf, 0xf3, 0xbc, 0x6a, 0xfe, 0xc4, 0xbc,
  0x9c, 0x98, 0xd9, 0xbd, 0xa8, 0xd5, 0x15, 0xbe, 0xef, 0x18, 0x0c, 0xbe,
  0xcb, 0x6c, 0x7d, 0xbe, 0x1e, 0xdc, 0xee, 0x3d, 0xba, 0x96, 0x90, 0x3b,
  0xa4, 0x11, 0xad, 0xbd, 0xac, 0x6f, 0x2a, 0x3e, 0x79, 0xbb, 0xeb, 0x3d,
  0x4f, 0xf4, 0xa5, 0xbe, 0xff, 0x82, 0xa1, 0xbd, 0x6f, 0x36, 0x0e, 0xbe,
  0xb8, 0xe2, 0xaf, 0x3d, 0xed, 0x05, 0x26, 0xbd, 0x51, 0x5e, 0x0a, 0xbe,
  0x48, 0xaa, 0x18, 0x3d, 0x37, 0x93, 0x10, 0x3e, 0xd7, 0x45, 0xbd, 0xbc,
  0x16, 0x89, 0xcf, 0x3d, 0xd3, 0x17, 0x44, 0x3e, 0xdf, 0x89, 0x6e, 0xbd,
  0xb1, 0xc1, 0x9e, 0xbe, 0x9f, 0x9c, 0x48, 0xbe, 0x4f, 0x84, 0x6b, 0xbd,
  0xae, 0xed, 0x1b, 0x3e, 0x48, 0xb3, 0xef, 0xbc, 0x33, 0xb1, 0x9a, 0x3d,
  0x00, 0xf4, 0xfe, 0x3a, 0x45, 0x6e, 0x93, 0xbe, 0xfa, 0xcd, 0x18, 0xbe,
  0x0c, 0x06, 0x8f, 0xbd, 0xb9, 0x78, 0xda, 0xbc, 0x3a, 0x7f, 0x61, 0xbe,
  0xf4, 0x3e, 0x85, 0x3e, 0x92, 0x54, 0xc6, 0xbc, 0x92, 0xa3, 0xb2, 0x3d,
  0xda, 0xd8, 0x3f, 0xbe, 0x8f, 0x01, 0x43, 0x3e, 0xf1, 0x63, 0x0a, 0xbc,
  0xeb, 0xa8, 0x11, 0xbd, 0x48, 0xbe, 0xf0, 0xbe, 0xb6, 0x72, 0x25, 0x3e,
  0xe3, 0x2b, 0xcb, 0xbd, 0x55, 0x0e, 0x49, 0xbd, 0xd3, 0x04, 0x9f, 0x3c,
  0xf0, 0x94, 0xfa, 0x3d, 0x9e, 0xf1, 0x4e, 0x3c, 0xe4, 0x06, 0x12, 0xbe,
  0x13, 0x9b, 0x0b, 0xbe, 0xe3, 0x59, 0x36, 0xbe, 0x0f, 0x2a, 0x0d, 0x3c,
  0x26, 0x58, 0xef, 0xbd, 0x44, 0xe0, 0x20, 0xbe, 0xcd, 0xd4, 0x1c, 0xbe,
  0x2b, 0x21, 0xa2, 0xbd, 0x90, 0x76, 0x01, 0x3e, 0x13, 0xac, 0xfe, 0x3d,
  0x70, 0xec, 0xb9, 0xbe, 0x44, 0xde, 0x71, 0x3e, 0x04, 0xdd, 0x56, 0x3c,
  0xe1, 0xb1, 0x1b, 0xbe, 0xf5, 0x9e, 0xf3, 0xbd, 0x4b, 0xe2, 0xa6, 0xbc,
  0xc4, 0x85, 0xdc, 0xbd, 0xe0, 0x04, 0x24, 0x3e, 0x19, 0x78, 0x6e, 0xbe,
  0x5a, 0x56, 0xc2, 0x3d, 0x05, 0x9e, 0x4a, 0xbd, 0x89, 0x0e, 0x60, 0xbe,
  0x76, 0xd1, 0x3a, 0xbd, 0x69, 0xda, 0x15, 0x3d, 0x77, 0x91, 0xb2, 0xbe,
  0xbc, 0x64, 0xe1, 0xbd, 0x41, 0x8e, 0x86, 0xbd, 0x95, 0xf4, 0xb0, 0x3d,
  0xca, 0x6b, 0xd2, 0x3e, 0x85, 0xd7, 0xe5, 0xbd, 0x5b, 0x41, 0xb9, 0x3b,
  0xf3, 0xe7, 0x5d, 0x3d, 0x88, 0x1b, 0xd4, 0xbe, 0x41, 0xf2, 0x44, 0xbc,
  0x1a, 0xc0, 0xff, 0xff, 0x04, 0x00, 0x00, 0x00, 0x20, 0x00, 0x00, 0x00,
  0x74, 0xf0, 0x28, 0xc0, 0xa1, 0x7a, 0x83, 0x3c, 0xde, 0x1a, 0x9d, 0xc0,
  0x0a, 0x33, 0xac, 0xbf, 0x7e, 0x4e, 0xb6, 0xbe, 0x86, 0xa2, 0xe1, 0xbf,
  0x43, 0xc5, 0x21, 0xbf, 0xd3, 0xea, 0x4d, 0xbf, 0x46, 0xc0, 0xff, 0xff,
  0x04, 0x00, 0x00, 0x00, 0x00, 0x38, 0x00, 0x00, 0x51, 0x65, 0x08, 0xbe,
  0x6a, 0x72, 0x8d, 0xbe, 0x28, 0xac, 0x14, 0x3d, 0xbb, 0xe8, 0xab, 0xbc,
  0x08, 0xce, 0xe4, 0x3d, 0x97, 0x8a, 0x3f, 0x3d, 0xb9, 0xb3, 0x98, 0xbd,
  0xff, 0xb0, 0x91, 0xbe, 0x04, 0x0e, 0x86, 0x3c, 0xa3, 0xc9, 0xc5, 0xbd,
  0xe2, 0x83, 0x5e, 0xbc, 0x68, 0xd2, 0xfd, 0x3a, 0x90, 0x76, 0xa7, 0xbd,
  0x75, 0x80, 0xcc, 0xbd, 0x7d, 0xe2, 0xa4, 0xbc, 0x60, 0x60, 0xb7, 0x3d,
  0x87, 0x7d, 0xe6, 0xbd, 0x02, 0xed, 0xf7, 0xbe, 0x7f, 0xb1, 0xa5, 0x3b,
  0x72, 0x82, 0xfd, 0xbd, 0x3a, 0x88, 0x8f, 0x3e, 0x59, 0x93, 0x3e, 0x3d,
  0xc7, 0xa3, 0xf5, 0xbe, 0xfe, 0xdb, 0x79, 0xbe, 0x20, 0x7c, 0x2d, 0xbd,
  0xcb, 0x1e, 0x08, 0x3e, 0x08, 0x4e, 0x8c, 0xbe, 0x5f, 0x57, 0x0f, 0xbe,
  0xf7, 0xe0, 0x48, 0xbe, 0xd5, 0x16, 0xa7, 0xbe, 0x30, 0xea, 0x47, 0xbd,
  0x3e, 0xe5, 0x01, 0x3e, 0x28, 0xbb, 0x9a, 0xbe, 0xa4, 0x1a, 0xae, 0xbe,
  0x19, 0x07, 0x00, 0x3c, 0x6f, 0x9b, 0xe0, 0xbd, 0x27, 0xba, 0x71, 0x3e,
  0x86, 0xa0, 0xa7, 0x3c, 0x95, 0xca, 0xf8, 0xbc, 0x5b, 0xf5, 0xe0, 0xbe,
  0xfb, 0x51, 0x8c, 0xbb, 0x9e, 0x2f, 0x52, 0x3d, 0x11, 0x1d, 0x07, 0xbe,
  0xed, 0xea, 0x0e, 0xbf, 0x52, 0x0f, 0xa3, 0xbe, 0x16, 0xd8, 0xb0, 0xbe,
  0xba, 0xf0, 0x85, 0xbd, 0x60, 0xc0, 0x31, 0x3e, 0xce, 0x94, 0xb5, 0x3d,
  0xd9, 0x06, 0xc2, 0xbd, 0xdd, 0xd7, 0x67, 0x3c, 0x5c, 0x4b, 0x85, 0xbe,
  0x62, 0xc3, 0x0b, 0x3e, 0x8a, 0xb4, 0x84, 0xbc, 0xa7, 0x1c, 0xe3, 0xbd,
  0xc4, 0x5f, 0x1f, 0xbf, 0x5c, 0xf8, 0x2d, 0xbc, 0x71, 0xad, 0x53, 0x3d,
  0xab, 0xd8, 0x45, 0xbe, 0xb4, 0x7d, 0xee, 0xbe, 0x17, 0x02, 0x9b, 0xbe,
  0x71, 0x8b, 0x32, 0xbe, 0xca, 0x90, 0x82, 0xbe, 0xa6, 0xa0, 0x54, 0x3d,
  0xbc, 0xd1, 0x1e, 0x3b, 0xbb, 0xb7, 0x21, 0x3d, 0x63, 0x9b, 0x25, 0x3c,
  0x33, 0xf6, 0x80, 0xbe, 0xc0, 0x78, 0xd8, 0xbd, 0xd1, 0xe1, 0x85, 0x3d,
  0x79, 0xc6, 0x4a, 0xbe, 0xf2, 0x30, 0xa5, 0xbe, 0x4a, 0x82, 0x5f, 0xbc,
  0x6d, 0xed, 0x27, 0xbe, 0x73, 0x70, 0x5d, 0xbd, 0x6c, 0xc1, 0x8b, 0xbe,
  0x8b, 0x5b, 0xd0, 0xbe, 0xa7, 0x56, 0xc6, 0xbe, 0x8b, 0xe3, 0xcd, 0xbd,
  0x21, 0x4a, 0x0a, 0xbf, 0x1e, 0x33, 0xbf, 0xbd, 0x2c, 0x16, 0x8f, 0xbe,
  0x4f, 0xdf, 0x3e, 0x3c, 0x6c, 0x99, 0x6e, 0xbe, 0x2d, 0xa3, 0x23, 0xbf,
  0xe4, 0x4a, 0x7f, 0xbd, 0x8b, 0xb0, 0x47, 0x3d, 0xa3, 0x4b, 0x06, 0xbf,
  0xec, 0x51, 0x9d, 0x3d, 0x6f, 0xff, 0xad, 0xbe, 0x2b, 0x11, 0x6c, 0xbe,
  0xe1, 0x3b, 0xc7, 0xbe, 0x88, 0x1c, 0x8b, 0xbe, 0xb9, 0x83, 0xe6, 0xbd,
  0xd8, 0xb8, 0xf9, 0xbd, 0xf1, 0x65, 0x39, 0xbf, 0x6c, 0x6f, 0x4a, 0x3c,
  0xaa, 0x1c, 0x81, 0xbe, 0xc8, 0x75, 0x2f, 0xbc, 0x48, 0x70, 0xe6, 0xbc,
  0x85, 0x30, 0x25, 0xbe, 0x66, 0x16, 0x10, 0xbe, 0xda, 0x33, 0x2e, 0xbd,
  0x8e, 0xf8, 0xa7, 0x3c, 0x93, 0x7d, 0x3b, 0x3d, 0x9e, 0x08, 0xeb, 0xbe,
  0xfd, 0x39, 0x1b, 0x3e, 0xce, 0xd4, 0xbd, 0x3d, 0xca, 0x9a, 0x25, 0xbe,
  0x0f, 0x1b, 0x56, 0xbe, 0x78, 0x2b, 0x3e, 0xbd, 0xee, 0xcd, 0x5c, 0xbe,
  0xe1, 0xbf, 0x4a, 0x3e, 0x29, 0x66, 0xd6, 0x3d, 0xad, 0x7c, 0x7e, 0x3d,
  0xf4, 0x45, 0xe1, 0xbc, 0xf3, 0x16, 0x72, 0x3e, 0xa5, 0x39, 0x22, 0xbd,
  0x09, 0x13, 0x12, 0xbd, 0x0c, 0xa7, 0xa3, 0x3c, 0x77, 0x0c, 0xa0, 0x3d,
  0xfb, 0x86, 0x83, 0xbe, 0xf9, 0x02, 0x13, 0x3d, 0x14, 0xf6, 0x10, 0x3e,
  0x2c, 0xd6, 0x83, 0xbb, 0x67, 0xda, 0x29, 0x3d, 0x2b, 0x11, 0xb6, 0xbd,
  0x1c, 0xb6, 0x96, 0xbc, 0x1a, 0xba, 0x47, 0x3e, 0x86, 0x86, 0x49, 0x3e,
  0xc1, 0x7f, 0xc5, 0x3c, 0x1c, 0xec, 0xb3, 0x3c, 0x6f, 0xc9, 0xb2, 0x3d,
  0x7b, 0xfd, 0x7c, 0x3c, 0x5b, 0x57, 0x51, 0x3d, 0xd1, 0x90, 0xf2, 0x3d,
  0xe2, 0x1f, 0x8e, 0xbd, 0x94, 0x45, 0xe2, 0xbd, 0x4f, 0x30, 0x38, 0x3d,
  0x0e, 0xfb, 0x70, 0x3d, 0xcf, 0x37, 0x09, 0x3d, 0xbd, 0xed, 0xb4, 0xba,
  0x83, 0x49, 0x89, 0xbc, 0xf3, 0xc2, 0x36, 0xbd, 0xf6, 0x2e, 0x4b, 0x3d,
  0x55, 0x1b, 0x4f, 0x3d, 0x01, 0xa4, 0x08, 0xbe, 0x6b, 0x3b, 0x6d, 0x3c,
  0x3c, 0xc8, 0x2e, 0x3e, 0x7e, 0x71, 0xd9, 0xbd, 0x35, 0x82, 0xe3, 0x3c,
  0xea, 0xcd, 0x15, 0x3d, 0x7e, 0xda, 0x5d, 0xbe, 0xb3, 0x5e, 0x8f, 0x3c,
  0x19, 0x9b, 0x17, 0x3e, 0xf5, 0x9c, 0x17, 0x3e, 0x64, 0x8d, 0xd2, 0xbd,
  0xfe, 0x03, 0xd2, 0x38, 0x78, 0x67, 0x1e, 0xbd, 0x1e, 0x84, 0x49, 0xbe,
  0x01, 0x92, 0xf5, 0xbb, 0xa8, 0x84, 0x64, 0x3d, 0x12, 0x45, 0x94, 0x3c,
  0xbe, 0xa5, 0x2b, 0xbc, 0x95, 0xc6, 0x95, 0xbd, 0xde, 0xce, 0x66, 0xbd,
  0xbd, 0x15, 0x5e, 0xbd, 0xe1, 0x2d, 0xcb, 0xbe, 0x6b, 0x78, 0xdc, 0x3d,
  0xb2, 0xb9, 0xaf, 0x3c, 0xe9, 0x5b, 0xcd, 0x3d, 0xee, 0xdb, 0x7a, 0x3d,
  0x54, 0x07, 0x3b, 0x3d, 0xd6, 0xc4, 0x3d, 0xbe, 0x3a, 0x39, 0x0f, 0xbe,
  0x66, 0x97, 0xe3, 0xbd, 0xfc, 0x19, 0x9a, 0xbd, 0x6e, 0x94, 0x2c, 0xbe,
  0x86, 0x80, 0x05, 0x3e, 0x84, 0xc6, 0x3b, 0xbc, 0xae, 0xea, 0xc2, 0x3d,
  0x8c, 0xf1, 0xb5, 0x3d, 0x80, 0xe5, 0x5f, 0xbd, 0xe6, 0x67, 0xc1, 0x3d,
  0xad, 0x07, 0xb3, 0x3c, 0x64, 0xb5, 0xf6, 0x3d, 0x34, 0xdd, 0xb1, 0x3e,
  0xb2, 0xa3, 0xb6, 0xbc, 0x85, 0x88, 0x2c, 0x3e, 0x50, 0x4a, 0xc0, 0xbe,
  0xbb, 0x1d, 0xd1, 0xbd, 0x71, 0x41, 0xd4, 0x3b, 0x80, 0xf4, 0x8b, 0xbd,
  0x28, 0x87, 0x11, 0x3e, 0xee, 0x2e, 0xc6, 0xbe, 0xca, 0x0d, 0x0a, 0x3d,
  0xbd, 0x9e, 0x89, 0x3d, 0x74, 0x21, 0xaa, 0xbd, 0x31, 0x04, 0x29, 0x3d,
  0xc1, 0xec, 0x3b, 0x3d, 0xa0, 0xdd, 0xe5, 0xbd, 0x2f, 0x36, 0xd0, 0x3d,
  0xc2, 0xc1, 0xa6, 0x3e, 0x55, 0x83, 0xf1, 0x3c, 0x73, 0x10, 0x48, 0x3e,
  0x88, 0x5a, 0xc5, 0xbc, 0x58, 0x8f, 0x33, 0x3d, 0x7f, 0x90, 0xd2, 0xbd,
  0x48, 0xf8, 0x2e, 0x3e, 0x93, 0x63, 0xb2, 0xbe, 0xf3, 0x64, 0x9f, 0xbf,
  0x3d, 0x5d, 0x74, 0xbe, 0x04, 0xac, 0x96, 0x3e, 0xad, 0x8d, 0xfc, 0xbd,
  0x32, 0xe0, 0x65, 0xbe, 0x16, 0x66, 0x1d, 0x3d, 0x08, 0xf3, 0x62, 0x3c,
  0xe5, 0x22, 0x15, 0x3f, 0x19, 0xc3, 0x9a, 0xbe, 0xf4, 0xee, 0x70, 0x3d,
  0x38, 0xa6, 0x91, 0x3e, 0x07, 0xc3, 0xe3, 0xbd, 0x3c, 0x7d, 0x94, 0xbc,
  0xe6, 0x5b, 0x0f, 0x3d, 0xd8, 0x13, 0x29, 0x3e, 0xec, 0x5f, 0xbb, 0x3e,
  0xbc, 0x9f, 0x47, 0x3d, 0x65, 0xe7, 0x86, 0x3e, 0xec, 0xbe, 0x18, 0x3e,
  0x00, 0xcc, 0x65, 0x3d, 0x74, 0x25, 0xa0, 0x3e, 0xbe, 0x34, 0x83, 0x3e,
  0xb7, 0x29, 0xd4, 0x3b, 0x0f, 0xab, 0x83, 0x3b, 0x1d, 0xa0, 0xe0, 0x3e,
  0xe6, 0x98, 0x49, 0x3e, 0x99, 0xa2, 0xda, 0x3e, 0xa0, 0x91, 0x91, 0x3c,
  0xf3, 0xb5, 0x67, 0x3e, 0x2c, 0x0b, 0x10, 0x3e, 0xb8, 0x50, 0xc5, 0x3e,
  0xa3, 0xbc, 0xb4, 0x3e, 0xe7, 0xab, 0x8c, 0xbd, 0xc3, 0x42, 0x52, 0x3d,
  0x36, 0xc7, 0x96, 0x3e, 0x80, 0x65, 0x7d, 0x3e, 0x93, 0xb5, 0x61, 0xbe,
  0x58, 0x0f, 0xc0, 0x3d, 0xa3, 0x92, 0xba, 0x39, 0x8c, 0xa3, 0x9b, 0xbd,
  0x90, 0x35, 0xaa, 0x3e, 0x1a, 0xd9, 0x13, 0x3f, 0xa5, 0xac, 0x30, 0x3e,
  0x40, 0x80, 0x65, 0xbe, 0x9f, 0xaa, 0xe4, 0x3d, 0x8d, 0x20, 0x2e, 0x3c,
  0x2b, 0x0a, 0xb6, 0xbd, 0xed, 0x8b, 0x68, 0x3e, 0x5d, 0x45, 0x3a, 0xbc,
  0xee, 0xda, 0x64, 0x3e, 0x35, 0x0f, 0xa7, 0x3d, 0x3e, 0x00, 0x5d, 0x3e,
  0x4a, 0xcb, 0x91, 0xbd, 0x58, 0x88, 0x0c, 0xbe, 0xbd, 0x7d, 0xd7, 0xbb,
  0x11, 0x70, 0xe2, 0xbd, 0x1e, 0x32, 0xc9, 0x3a, 0x1c, 0xa7, 0x6c, 0xbe,
  0x7e, 0x60, 0xec, 0x3d, 0x8d, 0xc8, 0xa2, 0xbe, 0x20, 0x9b, 0x04, 0x3e,
  0x51, 0xff, 0x84, 0xbe, 0xe6, 0x13, 0x96, 0x3c, 0x82, 0x00, 0x82, 0xbd,
  0x5e, 0x93, 0x60, 0x3c, 0x7f, 0xa2, 0xe0, 0x3c, 0xee, 0x3e, 0x00, 0xbe,
  0xbe, 0xd5, 0x85, 0x3e, 0xf6, 0xd6, 0xcb, 0x3d, 0x6d, 0x2f, 0x21, 0xbe,
  0x31, 0x8c, 0x07, 0x3d, 0xa3, 0x68, 0x89, 0x3b, 0x01, 0x37, 0x1c, 0xbe,
  0x34, 0x87, 0x98, 0xbd, 0xff, 0xae, 0x46, 0x3d, 0xf4, 0xc5, 0x91, 0xbe,
  0xd0, 0xc9, 0x39, 0xbd, 0x2e, 0xa1, 0x8d, 0xbe, 0x3d, 0x09, 0x8a, 0xbe,
  0x0d, 0x34, 0xc2, 0x3d, 0x59, 0x37, 0x83, 0x3c, 0xa2, 0x3d, 0x2f, 0x3e,
  0x0a, 0x47, 0x22, 0xbe, 0x5f, 0xa9, 0x21, 0x3d, 0xa8, 0x57, 0xe9, 0xbb,
  0x48, 0xf6, 0xe6, 0xbd, 0x1a, 0xa2, 0x79, 0x3c, 0xfc, 0x3a, 0x25, 0xbe,
  0xff, 0x7c, 0x29, 0x3d, 0x3a, 0xe3, 0x14, 0xbc, 0xf2, 0xa1, 0xeb, 0x3b,
  0xfa, 0xa1, 0x2f, 0xbe, 0xc3, 0xd9, 0x58, 0x3d, 0x17, 0x7b, 0xae, 0xbe,
  0xb6, 0xb7, 0x88, 0xbe, 0x83, 0xc0, 0xdc, 0xbd, 0x4e, 0xe1, 0x26, 0xbb,
  0x9b, 0x14, 0x5f, 0x3d, 0x03, 0x83, 0x6c, 0x3d, 0x2c, 0xac, 0x73, 0x3e,
  0x97, 0x00, 0x20, 0xbe, 0x84, 0x57, 0x09, 0xbe, 0x7c, 0x88, 0xec, 0x3d,
  0x92, 0xfa, 0x8a, 0x3d, 0xa4, 0xb5, 0x1d, 0xbd, 0x42, 0x73, 0xe6, 0xbc,
  0x7a, 0x13, 0x93, 0x3d, 0xaf, 0x27, 0x8b, 0xbe, 0x55, 0x63, 0xa9, 0xbc,
  0x87, 0x88, 0x6b, 0xbe, 0xea, 0x54, 0x79, 0xbe, 0x76, 0x8b, 0x2e, 0x3d,
  0x5e, 0x9c, 0x5f, 0x3a, 0xb7, 0x02, 0xfe, 0x3d, 0xdc, 0xc1, 0xf6, 0xbc,
  0xf8, 0x19, 0x3d, 0x3e, 0x14, 0x2b, 0x15, 0xbe, 0x04, 0x85, 0x47, 0xbe,
  0xbb, 0xd1, 0x24, 0xbd, 0x2e, 0x79, 0x94, 0x3d, 0xb1, 0xd1, 0x10, 0xbe,
  0xac, 0x70, 0x64, 0xbd, 0x7f, 0xa3, 0x7a, 0x3c, 0xf9, 0xd9, 0x2a, 0xbe,
  0x36, 0x5a, 0x9d, 0x3d, 0xb0, 0xeb, 0x1b, 0xbd, 0x55, 0xe9, 0x56, 0xbe,
  0x0b, 0x05, 0x22, 0xbe, 0xa1, 0xc7, 0x9e, 0xbd, 0x62, 0xaa, 0x0a, 0x39,
  0x77, 0x8f, 0x86, 0xbe, 0xe4, 0x24, 0xe2, 0x3d, 0x67, 0xb9, 0xa0, 0xbd,
  0xa2, 0xed, 0xdb, 0xbd, 0xd9, 0xde, 0x2a, 0x3d, 0xbb, 0x01, 0x9d, 0xba,
  0x9b, 0xff, 0x10, 0x3d, 0xfb, 0xe6, 0xd3, 0x3c, 0xfc, 0x63, 0x2a, 0x3d,
  0x44, 0x96, 0x1c, 0xbe, 0xbf, 0xdd, 0xb5, 0xbc, 0x7d, 0xca, 0x78, 0xbe,
  0x34, 0x8b, 0x36, 0xbe, 0x93, 0xd1, 0x98, 0xbc, 0x79, 0xd8, 0xd6, 0x3b,
  0x9c, 0xe9, 0x84, 0x3d, 0x76, 0xd6, 0x79, 0xbd, 0x52, 0x53, 0x3a, 0xbd,
  0xdf, 0x15, 0x18, 0xbd, 0x31, 0x0e, 0x2a, 0xbe, 0xc4, 0xac, 0x19, 0x3d,
  0xc7, 0x94, 0xa9, 0x3d, 0x2d, 0x01, 0x68, 0xbc, 0x05, 0x38, 0xbb, 0xbd,
  0xd4, 0xe5, 0x4a, 0x3d, 0x82, 0x7e, 0x29, 0xbe, 0xb7, 0x4a, 0x0b, 0xbd,
  0xae, 0x9a, 0x54, 0xbd, 0x0b, 0xf3, 0x7f, 0xbe, 0xfa, 0x90, 0x42, 0xbe,
  0x89, 0x13, 0x09, 0xbe, 0x3c, 0x22, 0x41, 0x3d, 0x44, 0xa9, 0x86, 0xbe,
  0x60, 0x6e, 0xda, 0x3d, 0x51, 0x3e, 0x1a, 0xbe, 0x88, 0x8f, 0x22, 0xbe,
  0xc7, 0xbb, 0x4f, 0x3d, 0x20, 0xcf, 0x21, 0x3e, 0xc0, 0xfc, 0xdc, 0xbd,
  0x5a, 0xe0, 0x13, 0xbe, 0x9f, 0xe7, 0x68, 0xbd, 0x67, 0x67, 0xa9, 0xbd,
  0xe3, 0x54, 0x63, 0x3d, 0x2c, 0x90, 0x0e, 0xbe, 0x0e, 0xcf, 0x02, 0x3c,
  0x6a, 0xf8, 0xf9, 0x3c, 0xff, 0x14, 0x6e, 0xbd, 0x73, 0x5b, 0x26, 0x3d,
  0x1b, 0x87, 0xea, 0xbd, 0x78, 0x86, 0xb2, 0x3c, 0x55, 0x66, 0x06, 0xbe,
  0x07, 0x7e, 0x10, 0xbe, 0x26, 0xf7, 0x7f, 0x3d, 0xcf, 0x1d, 0xfa, 0x3d,
  0xb3, 0x3b, 0x40, 0xbe, 0x8c, 0x81, 0x3e, 0x3c, 0xfb, 0xa5, 0x06, 0xbe,
  0xf0, 0x50, 0x78, 0xbd, 0xc1, 0x2e, 0x07, 0xbd, 0x70, 0x17, 0xb4, 0xbe,
  0x21, 0xcf, 0xb5, 0xbd, 0x29, 0x3e, 0xd2, 0xbc, 0x54, 0x68, 0x32, 0xbe,
  0x53, 0xb0, 0xbf, 0x3d, 0x5a, 0x5b, 0xba, 0x3d, 0x65, 0x81, 0xb1, 0xbd,
  0xc5, 0xb8, 0x2a, 0xbe, 0x4e, 0x76, 0x65, 0xbe, 0x0d, 0x31, 0x17, 0xbc,
  0x94, 0x64, 0x0b, 0x3e, 0xb2, 0x11, 0x37, 0xbe, 0x9b, 0xaa, 0xe0, 0xbc,
  0xed, 0x6e, 0x2c, 0xbc, 0xf1, 0x73, 0x49, 0xbe, 0xff, 0x4c, 0x7d, 0xbc,
  0x5c, 0xc4, 0xc3, 0xbd, 0xb5, 0x85, 0x01, 0xbe, 0xfa, 0x7d, 0xa8, 0xbd,
  0x46, 0xf8, 0xfd, 0xbd, 0x48, 0x17, 0x7e, 0xbc, 0x7c, 0xf9, 0x74, 0xbe,
  0xe9, 0x26, 0x02, 0xbc, 0x48, 0x50, 0x4b, 0xbd, 0xb3, 0x26, 0x63, 0xbe,
  0x28, 0x92, 0xa2, 0x3d, 0xef, 0xa5, 0x8b, 0x3d, 0x48, 0xae, 0x0f, 0xbe,
  0x59, 0xb5, 0x78, 0x3d, 0x50, 0xdc, 0xb1, 0x3d, 0x16, 0xc1, 0x3f, 0xbe,
  0x5d, 0x98, 0x9d, 0xbc, 0xd3, 0x51, 0x04, 0x3e, 0x6e, 0xa4, 0x74, 0x3b,
  0xe0, 0x11, 0xa8, 0x3e, 0xf7, 0xf2, 0x7b, 0xbd, 0xba, 0xb4, 0xfe, 0x3c,
  0x1f, 0xd5, 0x49, 0xbc, 0x9d, 0x07, 0x66, 0x3e, 0x5c, 0x6e, 0xc3, 0xbb,
  0x9c, 0x2d, 0x30, 0x3e, 0x3b, 0xb0, 0x96, 0x3d, 0x31, 0xf1, 0x22, 0xbe,
  0x8a, 0x02, 0x8b, 0x3e, 0x18, 0x91, 0x2c, 0x3d, 0x33, 0xe5, 0x18, 0x3e,
  0x71, 0x2f, 0x04, 0xbd, 0xcc, 0xd1, 0x23, 0x3f, 0x5b, 0x92, 0x16, 0x3e,
  0xb4, 0xae, 0x49, 0xbd, 0xf1, 0x8d, 0x0a, 0x3e, 0x9e, 0x4b, 0x74, 0x3a,
  0xa3, 0x6c, 0x53, 0x3d, 0xaf, 0x2e, 0x85, 0x3d, 0x57, 0x77, 0x62, 0x3d,
  0x70, 0x7b, 0xe9, 0xbd, 0x5c, 0x0c, 0x2b, 0xbd, 0xf4, 0x6e, 0x2a, 0xbc,
  0x57, 0xae, 0x03, 0xbe, 0x05, 0x7c, 0x6c, 0x3d, 0x02, 0x47, 0x86, 0x3c,
  0x5c, 0xe2, 0x02, 0xbc, 0x20, 0xf5, 0x3e, 0x3e, 0xf8, 0xb1, 0x92, 0x3d,
  0x3b, 0xa0, 0x86, 0xbc, 0x63, 0x6d, 0xa0, 0xbe, 0x35, 0x09, 0x42, 0x3e,
  0x8a, 0xe9, 0x90, 0xbc, 0x72, 0xd0, 0xe5, 0xbd, 0x4f, 0x52, 0x77, 0x3e,
  0x12, 0xab, 0xe1, 0xbd, 0x81, 0x2a, 0xd3, 0xbe, 0x38, 0x6b, 0x80, 0xbe,
  0xa1, 0xfa, 0x31, 0x3d, 0xd6, 0x96, 0x8b, 0xbd, 0xa3, 0x3c, 0x4d, 0xbe,
  0x3e, 0x26, 0x6b, 0x3c, 0x6a, 0x87, 0xd6, 0xbd, 0x88, 0x4a, 0xc1, 0xbb,
  0xd1, 0x25, 0xc2, 0x3c, 0xbe, 0x9e, 0x89, 0x3e, 0x4c, 0x00, 0xc6, 0xbe,
  0x80, 0x9e, 0x5b, 0xbd, 0x7f, 0x49, 0xc8, 0x3c, 0x9f, 0x06, 0x72, 0x3d,
  0xb7, 0x0d, 0x50, 0x3e, 0x3a, 0xe6, 0x43, 0xbd, 0x9a, 0x90, 0xbe, 0xbe,
  0xc6, 0x7a, 0x62, 0xbe, 0x97, 0x43, 0x47, 0xbd, 0x30, 0x6f, 0x86, 0xbc,
  0x72, 0x60, 0xb2, 0xbe, 0x21, 0x82, 0x95, 0xbe, 0xa8, 0xf2, 0x2f, 0xbe,
  0xa9, 0xb6, 0xb3, 0xbe, 0x92, 0xea, 0x9e, 0xbc, 0xd4, 0x68, 0x5f, 0x3d,
  0x16, 0xc7, 0xc6, 0xbe, 0x5b, 0xcc, 0x67, 0xbe, 0xf1, 0x96, 0xb3, 0x3c,
  0xbd, 0xd6, 0xad, 0xbc, 0x80, 0x17, 0x03, 0x3c, 0x07, 0x4c, 0x12, 0xbe,
  0xb7, 0x36, 0x26, 0xbf, 0xd1, 0x8a, 0xaf, 0xbe, 0x99, 0x6e, 0xab, 0xbc,
  0xe2, 0x91, 0x2e, 0x3d, 0xf2, 0x40, 0xa3, 0xbe, 0x42, 0x3e, 0xb7, 0xbe,
  0x33, 0xdf, 0xe4, 0xbd, 0xaa, 0xf5, 0x7b, 0xbe, 0x84, 0x23, 0xc7, 0x3a,
  0xe8, 0xfb, 0x64, 0x3c, 0x9b, 0xd5, 0xbc, 0x3c, 0x80, 0xed, 0x08, 0xbd,
  0x05, 0x00, 0x80, 0x3d, 0x9d, 0x1e, 0x2d, 0xbe, 0x5c, 0x74, 0x3e, 0x3e,
  0x0a, 0x27, 0x01, 0x3e, 0xc4, 0x8e, 0xe9, 0x3c, 0x55, 0xa2, 0x6c, 0x3d,
  0x97, 0x63, 0xb4, 0xbd, 0x7a, 0x18, 0xa9, 0xbd, 0x6b, 0xf8, 0x71, 0xbe,
  0xf5, 0x36, 0x21, 0xbf, 0xaf, 0x92, 0xa8, 0xbd, 0xea, 0xc5, 0x03, 0xbf,
  0xad, 0xec, 0x0d, 0xbd, 0x2d, 0xdb, 0xad, 0xbd, 0x98, 0x78, 0x34, 0xbe,
  0x92, 0x4f, 0xe5, 0x3e, 0x19, 0xb8, 0x59, 0xbb, 0x7a, 0x81, 0x67, 0xbe,
  0xd4, 0x5d, 0xc4, 0xbd, 0x08, 0x38, 0xdd, 0x3c, 0x38, 0xc2, 0x05, 0x3d,
  0x2d, 0x51, 0xbc, 0xbd, 0x7c, 0x64, 0xaf, 0xbc, 0x66, 0xf0, 0x6d, 0xbe,
  0x9f, 0x6b, 0x4b, 0x3d, 0xb9, 0xa3, 0x36, 0xbf, 0xb5, 0x35, 0x14, 0xbd,
  0x9b, 0x8f, 0xd5, 0xbe, 0xff, 0x9a, 0x11, 0x3d, 0x29, 0x0c, 0x97, 0xbc,
  0x5a, 0xc6, 0xb8, 0xbe, 0x7e, 0xab, 0xa5, 0xbe, 0x29, 0x5c, 0x9c, 0x3d,
  0xf5, 0x1d, 0xba, 0xbe, 0xbf, 0x29, 0x47, 0xbd, 0xa8, 0x68, 0xc7, 0xbd,
  0x5d, 0xa8, 0xb8, 0xbd, 0x2c, 0x5c, 0x3f, 0xbe, 0x19, 0xe4, 0x10, 0xbe,
  0x6a, 0xdd, 0x1e, 0xbe, 0x7f, 0xd5, 0x76, 0xbd, 0xa9, 0xfe, 0x16, 0xbf,
  0x87, 0x10, 0xad, 0xbc, 0x26, 0x05, 0x16, 0xbe, 0x34, 0xd5, 0x77, 0xbe,
  0x77, 0x94, 0xfb, 0x3d, 0xe4, 0x9d, 0x3b, 0x3d, 0x59, 0xa7, 0x9c, 0xbd,
  0x94, 0x91, 0x03, 0xbb, 0xd8, 0x57, 0xef, 0xbe, 0x1b, 0x23, 0xa0, 0x3d,
  0xb6, 0x7f, 0x69, 0xbd, 0xdb, 0x6f, 0xa0, 0xbc, 0x88, 0x2c, 0x77, 0xbd,
  0x0e, 0xb5, 0x4b, 0xbe, 0xa3, 0x71, 0xde, 0x3c, 0xe0, 0x46, 0x20, 0xbe,
  0xfd, 0xe2, 0x85, 0xbe, 0x1a, 0xe2, 0x8f, 0x3d, 0xd4, 0x21, 0x0b, 0xbf,
  0x61, 0x74, 0xc6, 0xbc, 0xdb, 0x3c, 0x9c, 0x3d, 0x13, 0xbe, 0x39, 0xbe,
  0x2b, 0x19, 0x4f, 0x3d, 0x65, 0x4b, 0x59, 0xbd, 0x0d, 0xa4, 0x47, 0xbe,
  0x3e, 0xad, 0x8e, 0x3e, 0xce, 0x5f, 0xe8, 0xbd, 0xf4, 0x82, 0xe7, 0xbd,
  0xec, 0x7b, 0xba, 0x3d, 0x16, 0x94, 0x9c, 0xbe, 0x45, 0x7a, 0x48, 0x3c,
  0x17, 0xd6, 0xad, 0xbe, 0x04, 0x6b, 0x14, 0x3e, 0xe6, 0x9c, 0x0a, 0x3e,
  0xea, 0xfe, 0x99, 0xbe, 0x4c, 0xe4, 0x3c, 0xbd, 0xfd, 0x98, 0x2e, 0x3e,
  0x31, 0xf3, 0x5b, 0x3e, 0x6c, 0xce, 0x5f, 0x3e, 0xd4, 0x35, 0xe9, 0xbb,
  0xb3, 0x51, 0x80, 0xbe, 0x9f, 0xde, 0x84, 0x3e, 0x5d, 0xaf, 0xd8, 0xba,
  0xbf, 0x58, 0x32, 0x3d, 0x96, 0xb7, 0x34, 0x3d, 0x75, 0x1d, 0x7b, 0xbe,
  0xd4, 0x3d, 0xd0, 0xbd, 0x51, 0xf9, 0xa0, 0xbd, 0x95, 0x7a, 0x31, 0x3d,
  0xba, 0x85, 0xb5, 0x3c, 0x5e, 0xe0, 0x39, 0xbe, 0x7d, 0xbc, 0xde, 0xbd,
  0xfc, 0x54, 0x57, 0x3d, 0x21, 0x22, 0x54, 0x3e, 0xf0, 0xab, 0x14, 0x3e,
  0x22, 0x50, 0xfd, 0xbd, 0x80, 0x95, 0x1d, 0xbe, 0x2b, 0x71, 0xb6, 0x3e,
  0x88, 0x87, 0x78, 0x3d, 0x75, 0xd9, 0xdc, 0x3d, 0xa8, 0x06, 0x33, 0x3d,
  0x08, 0xe0, 0xb9, 0xbd, 0x63, 0x1e, 0xfb, 0xbd, 0x0e, 0x1f, 0x99, 0x3c,
  0xa5, 0x91, 0xac, 0x3d, 0xd3, 0xf7, 0x65, 0x3d, 0xa4, 0x97, 0x6a, 0xbc,
  0xda, 0x99, 0xa2, 0xbd, 0x54, 0x1b, 0x43, 0x3d, 0xc9, 0xed, 0x1d, 0x3e,
  0x9f, 0x4e, 0x79, 0x3e, 0x06, 0x3b, 0x2e, 0x3c, 0x76, 0x00, 0x59, 0xbe,
  0x5b, 0x29, 0x66, 0x3e, 0xd2, 0xad, 0x86, 0xbb, 0xf1, 0x9c, 0xc3, 0x3d,
  0x39, 0x62, 0xe7, 0x3d, 0x48, 0x95, 0x14, 0x3e, 0x66, 0x7b, 0xb8, 0xbc,
  0x9e, 0xdb, 0x27, 0x3c, 0x08, 0xf3, 0x14, 0x3e, 0xcc, 0x20, 0x32, 0xbd,
  0x5b, 0xa5, 0x4b, 0xbc, 0xd1, 0xa4, 0x6c, 0xbd, 0x06, 0xee, 0x8d, 0x3d,
  0xde, 0x1a, 0x02, 0x3e, 0x48, 0x84, 0x05, 0x3e, 0x9f, 0xa2, 0x22, 0x3d,
  0xb4, 0xe8, 0x97, 0xbe, 0x9f, 0xae, 0x10, 0x3e, 0x40, 0x00, 0x44, 0x3d,
  0x15, 0xf7, 0x21, 0x3e, 0x63, 0x06, 0x8e, 0x3c, 0x19, 0x86, 0xca, 0x3d,
  0xbb, 0xa3, 0xa0, 0x3d, 0x66, 0x6f, 0x1b, 0x3e, 0xec, 0xb3, 0x1e, 0x3d,
  0x3e, 0x2f, 0x5a, 0xbc, 0x3b, 0x15, 0x01, 0xbe, 0x5a, 0x6c, 0x01, 0xbe,
  0xf2, 0xa8, 0x8b, 0xbe, 0xca, 0x27, 0x99, 0x3b, 0xf9, 0x1b, 0xf8, 0xba,
  0xd2, 0x64, 0x34, 0x3d, 0x22, 0xee, 0x28, 0xbd, 0x8c, 0xda, 0x16, 0xbe,
  0xca, 0xc6, 0x3e, 0xb9, 0x51, 0xc4, 0x88, 0x3e, 0xbc, 0x01, 0x08, 0x3e,
  0x89, 0xe1, 0x82, 0x3e, 0x02, 0x9a, 0x86, 0xbe, 0x72, 0x13, 0x0f, 0x3c,
  0xcb, 0x5d, 0x7d, 0xbc, 0xea, 0xe3, 0x89, 0xbd, 0xd7, 0xc3, 0x07, 0xbe,
  0x1a, 0xca, 0x47, 0xbd, 0x45, 0xab, 0x62, 0xbd, 0xce, 0x31, 0x2d, 0xbd,
  0x96, 0x59, 0xa4, 0x3d, 0xb1, 0xa1, 0x9a, 0x3b, 0x28, 0xf7, 0x8a, 0xbb,
  0xe3, 0xfe, 0xb6, 0x3c, 0x55, 0x09, 0x39, 0xbe, 0x58, 0xd0, 0xed, 0xbd,
  0xb7, 0x81, 0xc2, 0xbd, 0x7d, 0xa9, 0x20, 0xbe, 0x6a, 0xd7, 0x05, 0xbd,
  0x2c, 0x2e, 0x68, 0x3d, 0x1d, 0xba, 0x88, 0xbc, 0x19, 0x87, 0x4f, 0x3c,
  0x2b, 0xa2, 0x33, 0xbb, 0x32, 0x17, 0x00, 0xbe, 0x08, 0x41, 0xd8, 0x3c,
  0x80, 0x2c, 0x8d, 0x3d, 0xc9, 0x58, 0xcc, 0xbd, 0x33, 0x97, 0x0c, 0xbe,
  0xf5, 0x8b, 0x44, 0xbe, 0x45, 0xd4, 0x30, 0x3d, 0xe8, 0x83, 0xd0, 0x3c,
  0xf2, 0x86, 0x4b, 0x3d, 0xf3, 0xdb, 0x2d, 0x3c, 0x30, 0x12, 0xcc, 0xbc,
  0x30, 0x19, 0xaf, 0xbd, 0x17, 0xe9, 0xb9, 0x3d, 0xb7, 0x7c, 0xa8, 0x3d,
  0x5c, 0xb3, 0x76, 0xbd, 0x6a, 0xd0, 0xe2, 0xbd, 0x91, 0xb5, 0x08, 0xbd,
  0xe4, 0xcf, 0xee, 0xbd, 0xb0, 0x0a, 0xe5, 0xbd, 0x83, 0x2a, 0xd8, 0xbd,
  0x6e, 0x37, 0x59, 0xbe, 0x1c, 0xdf, 0x5e, 0xbd, 0x4f, 0xf7, 0x98, 0x3d,
  0xc3, 0x62, 0x42, 0x3a, 0x8c, 0x59, 0x06, 0xbe, 0xa0, 0x77, 0xd7, 0x3d,
  0x8a, 0x88, 0xb9, 0xbd, 0xa2, 0x69, 0xd4, 0x3d, 0xa4, 0x20, 0x9c, 0x3b,
  0x71, 0x43, 0xa1, 0xbd, 0x7a, 0xbf, 0x35, 0xbe, 0x97, 0xa2, 0x1f, 0x3d,
  0x47, 0x87, 0x25, 0xbc, 0x95, 0xd7, 0xa1, 0xbc, 0x7b, 0x9b, 0xd9, 0x3d,
  0xac, 0x3f, 0xd9, 0xbd, 0xcf, 0xe2, 0x90, 0x3d, 0x3b, 0x94, 0x3b, 0xbe,
  0x0f, 0x98, 0x24, 0xbe, 0x9e, 0x99, 0xb9, 0xbd, 0x97, 0xcf, 0xe6, 0x3d,
  0x22, 0x7a, 0xc6, 0x3d, 0x00, 0x6a, 0x36, 0xbe, 0x97, 0xdf, 0x90, 0xbc,
  0x8d, 0x8b, 0xc2, 0xbd, 0xef, 0x38, 0x21, 0xbe, 0x68, 0xc1, 0xc3, 0xbc,
  0x37, 0xc3, 0x1a, 0xbe, 0x07, 0x71, 0x85, 0xbd, 0xef, 0xae, 0x0b, 0xbe,
  0xda, 0xcc, 0x09, 0xbd, 0xe4, 0x36, 0x0c, 0xbd, 0xa8, 0x2e, 0x09, 0xbd,
  0xe4, 0x1a, 0x96, 0x3d, 0x7b, 0x8f, 0xf6, 0x3d, 0x69, 0xba, 0x83, 0xbd,
  0xbc, 0xb5, 0x90, 0x3d, 0xfd, 0x5b, 0x29, 0xbd, 0xac, 0xc7, 0x3d, 0x3c,
  0xa5, 0x08, 0x05, 0x3e, 0x55, 0x17, 0x95, 0x3d, 0x11, 0xf5, 0x08, 0xbd,
  0x52, 0xe8, 0x1f, 0xbe, 0xfb, 0x88, 0x18, 0xbd, 0x08, 0x10, 0x97, 0xbd,
  0x07, 0x59, 0x59, 0xbd, 0x12, 0xef, 0x0c, 0xbe, 0xb4, 0x09, 0x81, 0xbd,
  0xa8, 0xf3, 0x8e, 0xbd, 0x74, 0xc9, 0x8d, 0xbc, 0x28, 0x2f, 0x8b, 0x3d,
  0x24, 0xd0, 0x44, 0xbe, 0x29, 0x65, 0x37, 0xbe, 0x73, 0x3a, 0xc4, 0xbd,
  0x6c, 0xda, 0x05, 0xbe, 0x06, 0x3a, 0x40, 0x3c, 0xc7, 0x1e, 0x6b, 0x3d,
  0x1e, 0xc2, 0x55, 0x3d, 0xc3, 0x25, 0x36, 0xbe, 0x5f, 0x0f, 0x89, 0x3c,
  0xb9, 0x13, 0x40, 0xbe, 0x3e, 0x1c, 0x0e, 0xbd, 0x4d, 0x50, 0xbf, 0x3d,
  0xc2, 0x97, 0xa0, 0xbd, 0x35, 0x36, 0x37, 0xbe, 0xc5, 0x4a, 0x88, 0xbd,
  0xe9, 0x8c, 0x35, 0xbd, 0x1c, 0xb0, 0xa1, 0xbd, 0x94, 0x23, 0xc0, 0xbd,
  0x5c, 0xc9, 0xba, 0x3d, 0x11, 0x1e, 0x99, 0xbd, 0x9f, 0x76, 0x19, 0xbe,
  0xe7, 0xfe, 0x45, 0xbd, 0x25, 0x75, 0x55, 0xbd, 0x99, 0xd5, 0x04, 0xbd,
  0x4a, 0x14, 0xab, 0xbc, 0x29, 0xc6, 0x5e, 0xbd, 0xd4, 0xfe, 0x88, 0xbd,
  0xb4, 0xc3, 0x1b, 0xbe, 0xc5, 0x14, 0xb0, 0x3d, 0xe1, 0x04, 0x35, 0xbe,
  0x53, 0xe2, 0x49, 0xbe, 0x0b, 0xd9, 0xff, 0xb9, 0x87, 0xb6, 0x89, 0xbd,
  0xbd, 0x80, 0xcf, 0x3c, 0xf1, 0xa8, 0x05, 0xbd, 0x34, 0xc4, 0x17, 0xbe,
  0xc3, 0x8c, 0xd0, 0xbb, 0x12, 0x67, 0x21, 0xbd, 0x54, 0x5c, 0x0d, 0x3d,
  0xef, 0x00, 0x40, 0xbd, 0xeb, 0x1d, 0xbd, 0xbd, 0x98, 0xd9, 0x94, 0xbc,
  0xd2, 0x24, 0xbd, 0x3d, 0xbe, 0x85, 0xc4, 0xbd, 0x70, 0xf0, 0xb0, 0x3d,
  0x1c, 0x55, 0xf4, 0xbd, 0xe3, 0x60, 0x07, 0xbc, 0xd5, 0xf3, 0x8f, 0xbc,
  0x73, 0xac, 0xae, 0xbd, 0xc0, 0x55, 0x50, 0xbc, 0x32, 0xa0, 0x27, 0xbd,
  0x6a, 0x9c, 0xa6, 0x3d, 0x7a, 0x1e, 0xe7, 0x3d, 0x09, 0x5a, 0x0a, 0xbe,
  0xa2, 0xee, 0x91, 0xbd, 0x19, 0xd4, 0x12, 0x3a, 0xf2, 0x2b, 0x1a, 0xbd,
  0x58, 0x36, 0x61, 0x3d, 0x88, 0x27, 0xe5, 0xbd, 0xe1, 0x6e, 0x18, 0xbd,
  0xd3, 0xc5, 0x50, 0x3d, 0x49, 0xd7, 0xe3, 0xbd, 0x5c, 0xe9, 0x1f, 0xbe,
  0xe5, 0x12, 0x0a, 0xbe, 0x84, 0x7a, 0x04, 0xbe, 0x3a, 0x10, 0x5d, 0x3c,
  0x84, 0x7f, 0xc0, 0xbd, 0x9f, 0xd3, 0xa4, 0xbd, 0x26, 0xfc, 0x05, 0xbe,
  0xba, 0xff, 0x01, 0xbe, 0x1b, 0xbf, 0x54, 0xbc, 0x1f, 0x41, 0x63, 0xbe,
  0x97, 0x95, 0x70, 0xbd, 0x4b, 0x69, 0x0f, 0xbd, 0xe3, 0x8a, 0xc2, 0xbc,
  0x4c, 0xa2, 0x89, 0x3d, 0xaa, 0x69, 0xc0, 0x3d, 0x75, 0x2f, 0x7e, 0x3d,
  0x5b, 0x43, 0x61, 0xbe, 0x03, 0x02, 0xaa, 0xbc, 0x21, 0x53, 0x46, 0xbe,
  0xd9, 0x8b, 0x33, 0xbe, 0x69, 0x45, 0x12, 0xbc, 0xa1, 0x6f, 0x06, 0x3d,
  0x01, 0x50, 0xe5, 0xbc, 0x80, 0xe4, 0xb1, 0xbd, 0xf3, 0xd1, 0xa5, 0xbd,
  0x0e, 0x36, 0x98, 0xbd, 0x7a, 0xc6, 0x3d, 0x3d, 0x7d, 0x67, 0x42, 0xbe,
  0x5d, 0xb5, 0xcc, 0x3c, 0x69, 0xf6, 0x1c, 0x3d, 0x2b, 0xc6, 0x54, 0xba,
  0xd0, 0x1d, 0xf3, 0xbd, 0xb2, 0xe2, 0x1c, 0xbc, 0x8d, 0x7f, 0x0a, 0x3d,
  0x58, 0x09, 0x2a, 0xbe, 0xbc, 0x22, 0x70, 0xbe, 0x63, 0x6b, 0x00, 0xbe,
  0x8f, 0xb0, 0x2a, 0xbd, 0xab, 0x41, 0x6a, 0xbc, 0x74, 0x4c, 0xfe, 0xbd,
  0x26, 0xd0, 0x18, 0xbc, 0x5f, 0xa3, 0x1c, 0xbd, 0x24, 0x92, 0xfe, 0xbd,
  0x6f, 0x03, 0x12, 0xbe, 0xcc, 0x07, 0x6d, 0x3a, 0x38, 0xf9, 0xe7, 0x3c,
  0xab, 0x6a, 0xbe, 0xbd, 0x10, 0x01, 0x41, 0xbd, 0xfc, 0x0d, 0x14, 0xbe,
  0x20, 0x6f, 0x2f, 0xbe, 0x54, 0x18, 0x42, 0xbe, 0xab, 0x0c, 0xc9, 0x3b,
  0x90, 0x79, 0x8f, 0xbd, 0x8c, 0x1c, 0x60, 0x3c, 0x9e, 0x23, 0x39, 0x3d,
  0x7c, 0x18, 0x0f, 0xbe, 0xf4, 0x30, 0xd4, 0xbd, 0x4a, 0xe3, 0x2f, 0x3d,
  0x5d, 0x1c, 0xd9, 0x3c, 0x99, 0x4b, 0xa2, 0xbd, 0x52, 0x5f, 0x2b, 0xbe,
  0x8c, 0x1d, 0x75, 0x3d, 0xfb, 0x43, 0xff, 0xbc, 0x05, 0x2f, 0x89, 0xbd,
  0xbe, 0x2e, 0xd1, 0xbd, 0x67, 0x7c, 0x1b, 0xbe, 0x7f, 0xa6, 0xc6, 0xbd,
  0xc8, 0x57, 0x49, 0xbc, 0x9f, 0x9a, 0xc0, 0xbd, 0xba, 0x26, 0x25, 0xbd,
  0xa2, 0x48, 0xd8, 0xbd, 0xfd, 0xa8, 0x12, 0x3b, 0x27, 0x03, 0x06, 0xbd,
  0x99, 0xcb, 0x94, 0xbd, 0xd1, 0x34, 0x09, 0xbe, 0x6c, 0x75, 0x6f, 0xbc,
  0xe7, 0xa5, 0x2c, 0xbe, 0x6e, 0x39, 0xd1, 0xbc, 0xbd, 0x54, 0xe3, 0xbb,
  0x38, 0x4f, 0xf5, 0x3c, 0x8f, 0x18, 0xd4, 0x3c, 0x2b, 0x8c, 0xd3, 0x3d,
  0x23, 0x06, 0x0e, 0x3d, 0x45, 0x3d, 0x52, 0xbc, 0x06, 0x2e, 0x0a, 0xbc,
  0xb8, 0x33, 0x97, 0x3c, 0xaa, 0x6e, 0x06, 0xbe, 0xa0, 0x52, 0x39, 0x3e,
  0x2d, 0xea, 0xc7, 0x3c, 0x35, 0xa4, 0x6b, 0x3e, 0xa9, 0xec, 0xb4, 0x3c,
  0x3f, 0xec, 0xd9, 0x3c, 0xf2, 0x08, 0x89, 0x3d, 0xe9, 0x93, 0xb2, 0xbd,
  0xdb, 0xa2, 0xf2, 0xba, 0x80, 0xb6, 0x1d, 0xbd, 0x50, 0x87, 0xbf, 0xbd,
  0x4a, 0x4f, 0x88, 0x3e, 0x33, 0x4d, 0xa4, 0x3d, 0xe8, 0x46, 0x2f, 0xbe,
  0xd8, 0xde, 0x0f, 0x3e, 0x5b, 0xc0, 0x39, 0xbc, 0xd3, 0x54, 0xf7, 0xbc,
  0xaf, 0x0e, 0x13, 0x3e, 0x89, 0x58, 0x54, 0xbe, 0x3e, 0x50, 0x3e, 0x3c,
  0xa5, 0x50, 0x2f, 0xbe, 0x99, 0xa4, 0xe7, 0xbb, 0xbf, 0x57, 0xf2, 0xbc,
  0x48, 0xe2, 0x23, 0xbe, 0xda, 0x15, 0xfa, 0xbd, 0xac, 0xaa, 0x24, 0xbd,
  0x4d, 0x66, 0xf9, 0xbd, 0x31, 0x3e, 0x3e, 0x3e, 0xaa, 0x51, 0x3d, 0x3d,
  0x3d, 0x44, 0x68, 0xbe, 0x59, 0x7c, 0x93, 0xbe, 0xef, 0x7d, 0x79, 0x3c,
  0xcd, 0xe8, 0xae, 0x3c, 0xde, 0x1d, 0x31, 0x3e, 0xa8, 0xc9, 0x99, 0xbe,
  0xca, 0xba, 0xa3, 0xbd, 0x08, 0x18, 0x41, 0x3a, 0xf4, 0xdf, 0x9e, 0x3d,
  0x58, 0x94, 0xc4, 0xbc, 0x5e, 0x08, 0x50, 0xbe, 0x3f, 0x39, 0xf4, 0xbd,
  0x10, 0x83, 0x06, 0xbc, 0xae, 0x56, 0x77, 0xbe, 0x53, 0x59, 0x96, 0x3c,
  0x62, 0xcd, 0xbd, 0x3c, 0xd1, 0x5b, 0x92, 0xbe, 0x09, 0x3b, 0xa2, 0xbe,
  0x9b, 0x6a, 0x82, 0xbc, 0x53, 0x14, 0x40, 0xbd, 0x19, 0x68, 0xea, 0x3c,
  0x30, 0xe0, 0xac, 0xbe, 0xf4, 0x0d, 0x49, 0xbd, 0x5a, 0x9b, 0x1f, 0xbd,
  0x0b, 0x2f, 0x8f, 0xbd, 0x04, 0x54, 0x05, 0x3e, 0xdf, 0xcd, 0xab, 0xbe,
  0x4f, 0xbd, 0x62, 0xbe, 0x9b, 0x58, 0xc1, 0xbb, 0xf4, 0xba, 0x01, 0xbe,
  0x39, 0x4c, 0x05, 0xbe, 0xd3, 0xf4, 0x80, 0x3d, 0xec, 0x05, 0x39, 0xbf,
  0x7b, 0x41, 0x25, 0xbe, 0x57, 0xd3, 0xd2, 0xbd, 0xb8, 0x7a, 0xb4, 0xbd,
  0x93, 0x9a, 0xf4, 0x3d, 0x99, 0x32, 0xee, 0x3b, 0x26, 0x3c, 0x03, 0xbd,
  0x57, 0x1b, 0xb4, 0xbe, 0x4f, 0xfe, 0x21, 0xbe, 0x6f, 0x1f, 0xb2, 0x3c,
  0x5d, 0xb3, 0x5a, 0xbe, 0x99, 0x4e, 0x91, 0xbe, 0x90, 0x78, 0x83, 0xbc,
  0x3e, 0xa0, 0x39, 0xbe, 0x66, 0x25, 0x5a, 0x3e, 0x29, 0x09, 0x04, 0xbd,
  0xd7, 0x02, 0xbf, 0xbe, 0x83, 0x06, 0x10, 0xbe, 0xdf, 0xa1, 0x05, 0xbe,
  0x56, 0x60, 0x0b, 0xbd, 0xd6, 0xea, 0x8d, 0x3d, 0x3d, 0xcd, 0xac, 0xbe,
  0x05, 0xc3, 0xdf, 0x3c, 0x04, 0x87, 0xa8, 0xbe, 0x1f, 0xe7, 0x28, 0xbd,
  0xd1, 0xe5, 0xa9, 0xbc, 0xff, 0x7a, 0x1e, 0xbe, 0x4a, 0x57, 0xda, 0xbe,
  0x68, 0x43, 0xa2, 0x38, 0xbf, 0x6f, 0xc9, 0xbe, 0x5f, 0xe1, 0x07, 0xbd,
  0xa3, 0xdf, 0x2d, 0xbe, 0xad, 0x95, 0xdd, 0xbe, 0x28, 0xb9, 0x88, 0xbe,
  0x29, 0xb2, 0xca, 0xbd, 0x36, 0xbe, 0x55, 0x3c, 0x2c, 0x51, 0xec, 0x3a,
  0x0c, 0x61, 0x08, 0xbf, 0x2f, 0x85, 0xe1, 0xbd, 0x47, 0x9e, 0xc3, 0xbe,
  0x9b, 0x8f, 0x14, 0xbe, 0x7f, 0xea, 0x9d, 0xbe, 0xfd, 0xdd, 0x56, 0xbe,
  0x31, 0xc6, 0xc9, 0xbe, 0xf0, 0xb6, 0x29, 0xbc, 0xdc, 0xa8, 0x0a, 0xbf,
  0x32, 0x7d, 0xbc, 0x3d, 0x63, 0xe6, 0xb9, 0xbd, 0x0c, 0x53, 0x88, 0xbe,
  0x48, 0x6b, 0xb9, 0xbe, 0xa7, 0x7c, 0xa7, 0xbc, 0x06, 0x6e, 0x1e, 0x3e,
  0x83, 0x3e, 0x82, 0x3d, 0xbd, 0x5d, 0xf0, 0xbe, 0xf6, 0xfe, 0x82, 0xbe,
  0x7d, 0xa9, 0x4f, 0xbe, 0xb9, 0x06, 0x97, 0xbe, 0x40, 0xb4, 0xc4, 0xbe,
  0x70, 0xb4, 0x82, 0xbc, 0xe2, 0x0f, 0x6e, 0xbe, 0xa5, 0xf3, 0x0c, 0x3d,
  0x71, 0x95, 0xa4, 0xbe, 0xee, 0x3e, 0xa8, 0xbe, 0x31, 0xee, 0x35, 0xbd,
  0x58, 0x84, 0xfd, 0xbd, 0x42, 0x69, 0xc5, 0xbd, 0x50, 0x25, 0x8c, 0x3d,
  0x16, 0x21, 0x2f, 0xbd, 0xa0, 0x26, 0x84, 0x3d, 0xfd, 0xd8, 0xb9, 0xbe,
  0xf0, 0x13, 0x95, 0xbe, 0x14, 0x5b, 0x4d, 0xbe, 0x7a, 0x7f, 0x98, 0xbe,
  0x25, 0x1a, 0xd3, 0xbe, 0x94, 0xc8, 0x64, 0x3e, 0x1e, 0x87, 0xe0, 0x3e,
  0xcf, 0x06, 0xe4, 0x3c, 0xa2, 0xba, 0x48, 0x3e, 0xd1, 0xaa, 0x4f, 0xbf,
  0x13, 0xf7, 0x0c, 0xbd, 0x6e, 0x86, 0x17, 0xbd, 0xcb, 0x9e, 0x68, 0x3e,
  0xb7, 0x33, 0x0e, 0x3e, 0xc0, 0xc6, 0x69, 0xbe, 0x0c, 0x65, 0x92, 0x3d,
  0x8b, 0x10, 0x4d, 0x3d, 0x35, 0x32, 0xa4, 0xbd, 0x54, 0xee, 0x1d, 0x3e,
  0x75, 0x9e, 0x49, 0xbe, 0x68, 0x0f, 0xfe, 0xbd, 0x55, 0xbf, 0x1a, 0x3e,
  0x03, 0xb3, 0x91, 0x3e, 0xdb, 0x3e, 0xbf, 0x3c, 0xb2, 0xa4, 0x3c, 0x3d,
  0x8a, 0x24, 0x33, 0xbd, 0xdd, 0x8b, 0xe5, 0x3c, 0x84, 0x5a, 0x2e, 0x3c,
  0x16, 0x89, 0x1a, 0x3e, 0x10, 0xdc, 0x9e, 0x3d, 0x66, 0xf8, 0xf5, 0xbe,
  0x43, 0xb1, 0x54, 0x3e, 0x54, 0x91, 0xe8, 0x3d, 0x77, 0x2b, 0xf8, 0x3b,
  0x0d, 0x63, 0xc4, 0x3c, 0xdf, 0xd4, 0xad, 0xbd, 0xba, 0xea, 0xac, 0xbd,
  0x27, 0xb0, 0x47, 0xbd, 0x42, 0x6d, 0x0c, 0xbe, 0xa9, 0x41, 0x35, 0x3e,
  0xf0, 0xd6, 0xc7, 0xbc, 0xe0, 0x72, 0x8e, 0x3d, 0x82, 0xae, 0xb3, 0x3d,
  0x74, 0xc7, 0x73, 0x3d, 0x0e, 0x68, 0x89, 0x3d, 0x94, 0x54, 0x57, 0x3d,
  0x42, 0xc7, 0x6e, 0xbe, 0x00, 0x64, 0x18, 0x3e, 0x4c, 0xfd, 0x61, 0x3c,
  0x40, 0x0c, 0xe3, 0x3c, 0x89, 0x73, 0x51, 0xbd, 0x93, 0x1d, 0xba, 0xbb,
  0xff, 0xa0, 0xde, 0xbd, 0x05, 0x30, 0x53, 0xbd, 0xcc, 0x54, 0x62, 0xbd,
  0xa1, 0x56, 0x1b, 0xbe, 0x58, 0x30, 0x99, 0x3d, 0xf0, 0x2e, 0x2f, 0x3d,
  0xba, 0xca, 0x4b, 0xbd, 0x2d, 0xad, 0xa3, 0x3d, 0x55, 0xd0, 0x66, 0x3d,
  0x18, 0x06, 0x14, 0xbd, 0x99, 0x79, 0xdd, 0xbd, 0x3e, 0x3f, 0x13, 0x3e,
  0x15, 0x5a, 0x1f, 0x3d, 0x4b, 0x71, 0xf9, 0x3d, 0x2e, 0xe2, 0x10, 0x3d,
  0xd2, 0x3b, 0x61, 0x3e, 0x73, 0x71, 0x5c, 0x3e, 0xbe, 0xf0, 0xb5, 0x3d,
  0x37, 0x15, 0x91, 0xbe, 0x46, 0x10, 0xa2, 0xbf, 0xdf, 0x3d, 0x84, 0xbd,
  0xbf, 0x14, 0x1a, 0x3e, 0x89, 0x2f, 0xb0, 0xbd, 0xab, 0x5c, 0x10, 0xbe,
  0x27, 0x16, 0xab, 0xbd, 0x74, 0x92, 0x54, 0x3c, 0xb2, 0x2c, 0x0c, 0x3f,
  0x53, 0xb6, 0xd2, 0xbe, 0xeb, 0xa4, 0xc5, 0xbc, 0x68, 0xba, 0x64, 0x3e,
  0xae, 0xf3, 0xc3, 0x3c, 0x55, 0x18, 0x00, 0x3e, 0x97, 0x9f, 0x81, 0x3c,
  0x14, 0x50, 0xa0, 0xbd, 0x5e, 0x56, 0x70, 0xbe, 0x11, 0x21, 0x8e, 0x3d,
  0x22, 0x03, 0xa0, 0x3d, 0x35, 0x7a, 0x4c, 0x3e, 0x2d, 0xfe, 0x31, 0x3e,
  0xed, 0x55, 0x7b, 0xbe, 0x29, 0x99, 0x83, 0xbc, 0x3d, 0x90, 0x14, 0xbd,
  0x12, 0x63, 0xbd, 0xbd, 0x17, 0x0c, 0xb0, 0xbd, 0x20, 0x39, 0x13, 0x3d,
  0x6f, 0xbd, 0x04, 0x3d, 0x92, 0x58, 0x0f, 0xbe, 0xdf, 0xa2, 0xcb, 0xbc,
  0x31, 0xf9, 0x03, 0xbd, 0x53, 0x16, 0x13, 0xbf, 0x43, 0xf4, 0xa8, 0xbe,
  0xc0, 0x7c, 0x6d, 0x3d, 0x48, 0xc1, 0x83, 0xbe, 0x54, 0xd0, 0xcd, 0x3c,
  0xf2, 0x6b, 0x79, 0xbb, 0x94, 0x21, 0x3c, 0x3e, 0xe3, 0x7c, 0xdc, 0x3d,
  0x30, 0xd9, 0x8a, 0xbc, 0x99, 0x00, 0x63, 0x3d, 0xef, 0xab, 0x5d, 0xbe,
  0x50, 0x7b, 0x09, 0xbe, 0xb5, 0x1b, 0x4b, 0x3d, 0xd7, 0xba, 0x86, 0xbe,
  0xf3, 0xe5, 0x5f, 0xbc, 0xe5, 0x75, 0x81, 0xbc, 0x0f, 0x70, 0x83, 0x3e,
  0x30, 0xf5, 0x41, 0xbe, 0xf9, 0x35, 0x81, 0x3d, 0xaf, 0x07, 0x82, 0xbe,
  0xdc, 0xd6, 0x93, 0x3d, 0x76, 0xdf, 0xbf, 0x3c, 0x4c, 0x4d, 0x1d, 0x3e,
  0x94, 0x7c, 0x6f, 0x3e, 0xa7, 0x3a, 0xde, 0x3c, 0x39, 0xaf, 0x26, 0xbe,
  0xcc, 0x77, 0x0f, 0x3e, 0x13, 0xdb, 0xf9, 0xbd, 0x09, 0x17, 0xb1, 0x3d,
  0x80, 0x68, 0xc7, 0xbc, 0xec, 0x9d, 0xc7, 0xbd, 0x60, 0xc6, 0xf1, 0x3d,
  0x38, 0x4e, 0xba, 0x3d, 0x31, 0x3a, 0x76, 0x3e, 0xa3, 0x8a, 0x41, 0x3d,
  0xfe, 0x0a, 0x6b, 0xbe, 0x42, 0x2e, 0x69, 0x3e, 0x66, 0x24, 0x01, 0x3e,
  0x42, 0x97, 0x05, 0xbe, 0x76, 0x45, 0xa5, 0xbd, 0x0d, 0xa3, 0x20, 0xbe,
  0x48, 0xbb, 0x8a, 0xbe, 0xec, 0x1c, 0x25, 0xbb, 0x36, 0x80, 0x7c, 0x3d,
  0x5a, 0x73, 0x16, 0x3d, 0xc6, 0x28, 0x02, 0x3d, 0xb8, 0xe4, 0x40, 0xbe,
  0x35, 0x1b, 0x97, 0xbc, 0x4a, 0xb3, 0x7d, 0x3d, 0xd1, 0x9d, 0xcb, 0xba,
  0x6e, 0xf8, 0x60, 0xbd, 0x55, 0x8e, 0x2f, 0xbe, 0x87, 0xc2, 0x6e, 0x3e,
  0x8b, 0xc5, 0xac, 0x3c, 0x13, 0x8d, 0x8b, 0xbb, 0x7b, 0x4c, 0xf0, 0xbc,
  0xd9, 0x89, 0x33, 0xbe, 0x04, 0xd9, 0x5a, 0x3d, 0xad, 0x5a, 0x46, 0x3c,
  0x97, 0xe6, 0x08, 0x3e, 0xd7, 0x70, 0x90, 0x3c, 0x96, 0x8d, 0x37, 0xbe,
  0xe1, 0x25, 0x3f, 0xbd, 0x49, 0x98, 0x95, 0x3d, 0x1c, 0x55, 0x6d, 0x3d,
  0xdd, 0x08, 0x9c, 0x3e, 0x2b, 0x2d, 0xdc, 0x3d, 0x61, 0x8f, 0x8e, 0xbe,
  0x80, 0x66, 0x62, 0x3e, 0xa3, 0x09, 0xdc, 0x3d, 0xd9, 0x94, 0x07, 0x3e,
  0xa0, 0x7a, 0x32, 0xbd, 0x42, 0x14, 0x0a, 0xbe, 0xb3, 0xfa, 0x35, 0x3d,
  0xa2, 0x26, 0x1d, 0x3d, 0x35, 0xb7, 0x87, 0x3c, 0xc7, 0x87, 0xcd, 0x3d,
  0x5a, 0x7f, 0xd4, 0xbd, 0x63, 0x29, 0xfa, 0xbd, 0xfe, 0x64, 0xb1, 0x3d,
  0x2d, 0xfa, 0x31, 0x3e, 0xe3, 0x21, 0x9a, 0x3c, 0xbf, 0xd3, 0x5b, 0xbc,
  0xc5, 0xbe, 0x97, 0xbe, 0x9a, 0xe8, 0x72, 0x3e, 0xe4, 0x5a, 0xb8, 0xba,
  0x7f, 0x3c, 0xd3, 0xbb, 0xa2, 0x1e, 0x8a, 0x3c, 0xf1, 0xfd, 0x44, 0xbe,
  0x75, 0x23, 0x0b, 0x3e, 0x3b, 0xda, 0x06, 0xbd, 0x92, 0x2e, 0x84, 0x3d,
  0x2b, 0xa7, 0xd7, 0x3c, 0xb7, 0x45, 0x35, 0xbd, 0x47, 0x60, 0xd0, 0xbc,
  0xee, 0x6f, 0xc2, 0xbc, 0xd1, 0x2b, 0x36, 0x3e, 0x5e, 0x34, 0xbc, 0x3d,
  0x97, 0xa5, 0x65, 0x3d, 0xc9, 0x9d, 0x88, 0xbe, 0xad, 0x3a, 0x97, 0x3e,
  0x59, 0x30, 0x04, 0x3d, 0x89, 0x47, 0x9a, 0x3d, 0x56, 0xde, 0x5c, 0xbd,
  0x50, 0x0d, 0xdd, 0xbd, 0xf9, 0x43, 0xf1, 0xbd, 0xfb, 0xb6, 0xa7, 0xbd,
  0xcd, 0x08, 0xbd, 0x3d, 0x93, 0x12, 0x06, 0xbd, 0x1b, 0x59, 0xc3, 0xbd,
  0x8d, 0x84, 0xb1, 0xbd, 0xf2, 0x75, 0x3b, 0xbc, 0x9a, 0xe4, 0xeb, 0x3d,
  0x4d, 0xe4, 0x2f, 0x3e, 0xee, 0x7c, 0xc2, 0x3d, 0x15, 0xb6, 0xe1, 0xbe,
  0x04, 0x9a, 0x84, 0x3e, 0xc7, 0xd5, 0xd3, 0x3d, 0x11, 0xef, 0xca, 0x3d,
  0x03, 0xa5, 0x36, 0x3c, 0xa0, 0x78, 0x9c, 0xbd, 0x06, 0x60, 0xaa, 0xbc,
  0x72, 0xee, 0x5d, 0xbe, 0x50, 0xd1, 0x32, 0x3d, 0x58, 0x35, 0x23, 0xbc,
  0x20, 0xc3, 0xba, 0xbd, 0x23, 0x78, 0xed, 0xbd, 0xa1, 0xad, 0xc3, 0x3c,
  0xbf, 0xc2, 0x09, 0x3e, 0x55, 0x5f, 0x4e, 0x3e, 0xbe, 0x15, 0x1f, 0x3c,
  0x31, 0x20, 0xbc, 0xbe, 0xe1, 0x69, 0xce, 0x3e, 0xc1, 0x0b, 0x9d, 0x3d,
  0x61, 0xa0, 0xea, 0x3d, 0x37, 0x8f, 0x23, 0xbd, 0xd6, 0xfd, 0xec, 0xbd,
  0xd5, 0x39, 0xb9, 0xbd, 0x67, 0x21, 0x55, 0xbd, 0x02, 0x3b, 0x7d, 0x3c,
  0xbf, 0x75, 0x23, 0xbd, 0x94, 0xa6, 0xde, 0xbd, 0x05, 0x4d, 0x27, 0xbe,
  0x3b, 0xf9, 0x92, 0x3d, 0x70, 0x6e, 0x4f, 0x3e, 0xd3, 0x87, 0x62, 0x3e,
  0x4b, 0x0c, 0x15, 0x3d, 0x93, 0x56, 0x8a, 0xbe, 0xea, 0xa6, 0x8a, 0x3e,
  0xde, 0x06, 0xaf, 0xbd, 0xdf, 0x0b, 0xb7, 0x3d, 0x4e, 0x4a, 0x0d, 0xbd,
  0xd1, 0x4f, 0xbe, 0xbc, 0xb6, 0x01, 0x0e, 0xbe, 0x2d, 0x74, 0xf6, 0x3d,
  0xb0, 0xb8, 0xd9, 0x3d, 0xcf, 0xc4, 0x55, 0xbc, 0x1d, 0x55, 0xd6, 0xbd,
  0xfa, 0x1d, 0x12, 0xbe, 0xa9, 0x68, 0xde, 0x3d, 0xf6, 0x81, 0xa0, 0x3e,
  0x24, 0x3a, 0x8c, 0x3d, 0xbd, 0xa6, 0x84, 0x3d, 0x19, 0xaa, 0xe1, 0xbe,
  0x38, 0xde, 0x9e, 0x3c, 0x18, 0x62, 0xab, 0xbd, 0x8d, 0x5e, 0xcd, 0x3d,
  0x63, 0x0f, 0xc6, 0x3d, 0xcc, 0x70, 0x97, 0x3c, 0xbf, 0xc8, 0xf2, 0xbd,
  0x23, 0x59, 0x8d, 0xbd, 0x85, 0x7c, 0x25, 0x3e, 0xf8, 0x02, 0x30, 0xbd,
  0x45, 0xc0, 0x0f, 0xbe, 0x0e, 0xff, 0xfc, 0xbd, 0x6a, 0x25, 0x90, 0x3d,
  0xef, 0x19, 0x74, 0x3e, 0x89, 0x24, 0xc8, 0x3d, 0xa6, 0x66, 0x56, 0x3d,
  0xac, 0x62, 0xc8, 0xbd, 0x76, 0xfe, 0xff, 0xbd, 0xb4, 0x51, 0xd6, 0xbd,
  0xbd, 0xad, 0xf7, 0x3c, 0xcc, 0x95, 0xa1, 0x3d, 0xc3, 0xf8, 0xc9, 0x3d,
  0x59, 0x47, 0x25, 0xbf, 0xc4, 0xf0, 0xa5, 0xbd, 0x4e, 0x30, 0xaf, 0x3d,
  0x7d, 0x81, 0x3c, 0xbe, 0x9e, 0x67, 0xb5, 0xbc, 0x4e, 0xc0, 0x6c, 0xbe,
  0x9f, 0xcf, 0xe5, 0xbd, 0x4c, 0x11, 0x37, 0xbe, 0xd5, 0x39, 0x16, 0xbe,
  0xc5, 0xd9, 0x0e, 0x3e, 0x6c, 0x92, 0x03, 0x3c, 0xab, 0x34, 0xa3, 0xbd,
  0x50, 0xe0, 0x7d, 0xbe, 0x3c, 0x60, 0xf6, 0x3d, 0xc9, 0x51, 0xa8, 0xbe,
  0x30, 0x4f, 0x5a, 0x3e, 0x37, 0x97, 0x76, 0xbf, 0x7d, 0x59, 0x18, 0x3c,
  0xc1, 0xef, 0x3b, 0xbc, 0xd4, 0xe6, 0x8e, 0xbe, 0x89, 0xa1, 0x47, 0xbe,
  0x69, 0x10, 0xc7, 0xbe, 0x44, 0x38, 0xdd, 0xbe, 0x30, 0x7d, 0x5f, 0x3e,
  0xa4, 0xe6, 0x04, 0x3f, 0x40, 0xc8, 0x8b, 0x3d, 0xe2, 0x2b, 0xbb, 0x3e,
  0x0f, 0x74, 0xbd, 0x3d, 0x8b, 0x41, 0x8a, 0xbc, 0xc5, 0x27, 0x96, 0x3e,
  0x5d, 0x6c, 0x19, 0x3e, 0xb4, 0xb1, 0xea, 0x3d, 0x6b, 0x50, 0xe2, 0xbd,
  0xe8, 0xa0, 0xe1, 0x3e, 0x71, 0x0c, 0x20, 0x3d, 0xb3, 0x71, 0x56, 0x3e,
  0x59, 0x48, 0x24, 0x3f, 0xb2, 0xfa, 0x6e, 0x3d, 0xa7, 0x11, 0xe2, 0x3d,
  0x2b, 0xbc, 0x71, 0x3e, 0x2a, 0x4f, 0x39, 0x3f, 0xd0, 0xbf, 0x11, 0x3d,
  0xfb, 0x9b, 0x39, 0x3d, 0x94, 0x08, 0xab, 0x3e, 0xc6, 0x55, 0x23, 0x3e,
  0x10, 0xb4, 0x0c, 0xbe, 0x0b, 0x04, 0xd3, 0x3c, 0x6c, 0xb4, 0xc5, 0x3d,
  0x75, 0xfc, 0x80, 0xbe, 0xeb, 0x7c, 0x54, 0x3e, 0x52, 0x0d, 0x24, 0x3f,
  0x81, 0xd0, 0xda, 0x3d, 0x5c, 0xd6, 0x1f, 0x3e, 0xb8, 0x60, 0xf6, 0x3d,
  0x56, 0x7a, 0x01, 0x3c, 0xaa, 0x9c, 0x00, 0xbe, 0x36, 0x21, 0x38, 0xbe,
  0xe2, 0x0c, 0x12, 0xbe, 0xe4, 0xcf, 0x6a, 0x3e, 0x1f, 0x3f, 0x95, 0x3d,
  0x36, 0xd1, 0x54, 0x3e, 0xa8, 0xea, 0x2a, 0xbe, 0x21, 0x4f, 0x00, 0xbd,
  0xeb, 0xaf, 0x10, 0x3d, 0x34, 0xba, 0x53, 0xbe, 0xb1, 0xc6, 0x93, 0xbd,
  0x41, 0x20, 0x08, 0xbd, 0xd9, 0xe9, 0x81, 0x3d, 0xbd, 0x24, 0x93, 0xbe,
  0x4e, 0x30, 0xc7, 0x3d, 0xc5, 0x27, 0x44, 0xbd, 0xc1, 0xdc, 0x25, 0xbd,
  0xb4, 0x22, 0xb6, 0xbe, 0xb7, 0x4a, 0x43, 0xbd, 0x05, 0x6b, 0x46, 0x3d,
  0xb9, 0xa4, 0xcd, 0xbd, 0x6c, 0xdc, 0xa8, 0x3e, 0x61, 0x8e, 0xd6, 0xbd,
  0x9e, 0x80, 0x00, 0xbd, 0xa9, 0x33, 0x9f, 0xbd, 0x27, 0x49, 0x08, 0xbd,
  0x8e, 0xb7, 0xa7, 0xbc, 0xda, 0x62, 0xec, 0x3c, 0x5f, 0x7e, 0x06, 0x3d,
  0xee, 0xeb, 0xe8, 0xbd, 0x53, 0xbd, 0xef, 0x3d, 0x1e, 0x22, 0x15, 0xbe,
  0x23, 0x6f, 0x5f, 0xbe, 0xb1, 0x3c, 0x84, 0xbe, 0xec, 0x84, 0xbc, 0xbc,
  0x0a, 0xce, 0x08, 0x3c, 0x36, 0xff, 0x7b, 0xbd, 0xb1, 0xd0, 0x52, 0x3e,
  0x5a, 0xfe, 0x35, 0x3d, 0x1c, 0xd2, 0xd4, 0xbd, 0xc7, 0x53, 0x84, 0x3d,
  0x00, 0xb9, 0xa8, 0x3d, 0x3e, 0xd7, 0x96, 0x3d, 0xb4, 0x7f, 0x72, 0xbd,
  0x14, 0x36, 0x1a, 0x3d, 0x68, 0xa3, 0x95, 0xbe, 0xf9, 0xa2, 0xa9, 0x3d,
  0x08, 0xc6, 0xf4, 0xbd, 0x9a, 0xbd, 0x43, 0xbd, 0x6b, 0x8c, 0xe7, 0xbe,
  0x37, 0x84, 0x22, 0xbd, 0x06, 0x91, 0x48, 0xbd, 0x1a, 0xee, 0x75, 0x3e,
  0x14, 0xe4, 0xa1, 0x3d, 0xba, 0x02, 0x5c, 0xbd, 0x56, 0x29, 0xbe, 0xbc,
  0x45, 0x6b, 0x89, 0x3d, 0x37, 0xe9, 0x42, 0x3d, 0x3a, 0xdc, 0x2c, 0x3d,
  0x45, 0x30, 0x4a, 0xb9, 0xaa, 0xf3, 0x11, 0x3d, 0xe1, 0xad, 0x4e, 0xbe,
  0xc7, 0x41, 0xde, 0x3d, 0x5b, 0x07, 0x9c, 0xbe, 0x1c, 0x04, 0xd1, 0xbd,
  0xe6, 0x2d, 0xc6, 0xbc, 0x01, 0x35, 0x67, 0xbd, 0x42, 0xc5, 0xf5, 0x3c,
  0xbf, 0x95, 0x85, 0x3d, 0x7e, 0xf7, 0x00, 0x3e, 0xbe, 0x33, 0x89, 0xbd,
  0xeb, 0x9f, 0x41, 0xbd, 0x31, 0x36, 0x22, 0xbc, 0xa4, 0x37, 0x69, 0xbc,
  0xaa, 0xfa, 0x15, 0xbe, 0x1a, 0x91, 0x59, 0x3d, 0xf4, 0xf0, 0x59, 0xbd,
  0xd7, 0xda, 0x49, 0xbe, 0x8a, 0x21, 0xd5, 0x3d, 0x7e, 0x56, 0x7d, 0xbd,
  0x30, 0x2d, 0x01, 0xbe, 0x71, 0x1a, 0x2e, 0xbe, 0x53, 0xd8, 0xb7, 0xbd,
  0x64, 0x41, 0xcf, 0x3d, 0xa7, 0x59, 0x00, 0xbe, 0x2c, 0xb1, 0x09, 0x3e,
  0xdb, 0xd1, 0x02, 0xbe, 0x8a, 0xd5, 0xbb, 0xbd, 0xb0, 0xde, 0xb0, 0x3d,
  0x90, 0x25, 0x22, 0x3c, 0xbd, 0xc3, 0x84, 0xbd, 0x69, 0x9b, 0xbe, 0x3d,
  0x04, 0x9b, 0x92, 0xbb, 0x14, 0xad, 0x0f, 0xbe, 0x7f, 0x14, 0xa2, 0x3c,
  0x6f, 0xc6, 0xbf, 0xbd, 0xa9, 0xfa, 0xa2, 0xbe, 0x93, 0xae, 0x09, 0xbe,
  0x91, 0x2d, 0x0f, 0xbe, 0x9c, 0x2b, 0xf1, 0x3d, 0xc1, 0x6a, 0x06, 0xbe,
  0x05, 0xf1, 0x48, 0x3d, 0x89, 0x60, 0xe0, 0xbd, 0xe1, 0xf7, 0x0a, 0xbe,
  0x86, 0xf4, 0x42, 0x3d, 0x55, 0xb4, 0xa7, 0x3d, 0xbc, 0xa3, 0x8f, 0x3d,
  0xec, 0x59, 0xae, 0x3d, 0x6a, 0x78, 0x95, 0x3d, 0x57, 0x04, 0x78, 0xbe,
  0x85, 0x67, 0x57, 0x3d, 0x41, 0x8e, 0x9f, 0xbd, 0xa8, 0x5b, 0x38, 0xbe,
  0xb5, 0x5b, 0x99, 0xbe, 0x68, 0xda, 0x7c, 0xbe, 0xa3, 0x89, 0x26, 0x3e,
  0x6f, 0x72, 0x41, 0xbe, 0x4c, 0xee, 0x1b, 0xbb, 0x41, 0xbf, 0x65, 0xbe,
  0xe0, 0x10, 0xf5, 0xbd, 0x92, 0xa3, 0xd1, 0xbc, 0xf9, 0x87, 0xfe, 0x3d,
  0x66, 0xc3, 0x6b, 0xbd, 0xe5, 0x15, 0xa7, 0x3d, 0xc2, 0x28, 0x0d, 0x3d,
  0x5f, 0x68, 0x88, 0xbe, 0x55, 0x4d, 0x55, 0x3d, 0x43, 0x4a, 0xbb, 0xbd,
  0x7c, 0x92, 0x81, 0xbe, 0x0d, 0x1e, 0x49, 0xbe, 0x36, 0x38, 0x49, 0xbe,
  0x32, 0xe8, 0x8c, 0x3d, 0x11, 0x50, 0x36, 0xbe, 0xf6, 0x62, 0x15, 0xbd,
  0x1d, 0x0a, 0x81, 0xbe, 0x67, 0x2b, 0xe0, 0xbc, 0xe4, 0x14, 0x24, 0xbc,
  0xdf, 0x62, 0x1e, 0x3e, 0xc1, 0xc8, 0xda, 0xbd, 0x5e, 0x17, 0x0c, 0x3b,
  0x42, 0x5c, 0xbe, 0xbc, 0x32, 0x72, 0x2d, 0xbe, 0xb0, 0x84, 0x21, 0xbd,
  0xec, 0xb0, 0x5e, 0xbc, 0x5e, 0x31, 0x4e, 0xbe, 0xad, 0x07, 0x02, 0x3c,
  0x30, 0x64, 0x15, 0xbe, 0xb7, 0x44, 0x22, 0x3d, 0x6f, 0x13, 0x8a, 0x3d,
  0x26, 0x86, 0xe0, 0x3d, 0x43, 0x72, 0xa7, 0xbd, 0x07, 0x4c, 0x30, 0xbd,
  0x93, 0x3a, 0xc5, 0x3d, 0xc4, 0x9d, 0xa4, 0x3c, 0xde, 0x10, 0x80, 0xbe,
  0x64, 0x31, 0x12, 0xbc, 0x81, 0x40, 0x9d, 0xbd, 0x13, 0x7d, 0x4e, 0xbe,
  0x2a, 0x25, 0xf1, 0x3c, 0xe5, 0x22, 0x02, 0xbd, 0xff, 0x20, 0x44, 0xbe,
  0x0e, 0x32, 0xd5, 0xbc, 0xb5, 0x60, 0x63, 0xbd, 0xcf, 0xdd, 0xcf, 0xbc,
  0x13, 0x18, 0x81, 0xbe, 0xce, 0x00, 0x0a, 0x3e, 0x0d, 0x74, 0x27, 0x3d,
  0x7b, 0x28, 0xc7, 0xbd, 0xa2, 0xcc, 0x54, 0x3d, 0x6f, 0x0f, 0xad, 0xbe,
  0x63, 0x70, 0xf0, 0xbd, 0xaa, 0x4a, 0xe9, 0x3d, 0x5e, 0x29, 0x29, 0x3d,
  0x29, 0xd4, 0x06, 0xbe, 0xb4, 0x45, 0xc5, 0x3d, 0xe8, 0x20, 0x81, 0x3e,
  0x82, 0x91, 0xbb, 0x3d, 0x1d, 0x15, 0xa8, 0x3e, 0xd2, 0x6a, 0xa9, 0xbe,
  0x66, 0x78, 0x20, 0x3c, 0x03, 0xff, 0x78, 0xbd, 0xba, 0xdf, 0xe4, 0x3d,
  0x3c, 0x40, 0x4e, 0x3e, 0x46, 0x0d, 0x80, 0x3e, 0x06, 0x22, 0xdf, 0x3d,
  0x0d, 0x2e, 0x95, 0x3d, 0xf6, 0x29, 0x53, 0x3d, 0x8c, 0xa4, 0xa5, 0x3c,
  0x88, 0xaa, 0xb0, 0x3d, 0xbc, 0x7f, 0x97, 0xbc, 0xe3, 0xd6, 0x09, 0x3f,
  0xd9, 0x0e, 0x1f, 0x3e, 0x0a, 0x9d, 0xab, 0x3d, 0x2a, 0x87, 0xae, 0x3d,
  0xba, 0x72, 0xc1, 0xbd, 0x4f, 0xce, 0x07, 0xbe, 0x46, 0x31, 0x3a, 0xbe,
  0x81, 0x34, 0x14, 0x3d, 0x4a, 0x11, 0xa6, 0xbd, 0x56, 0x3c, 0x32, 0x3d,
  0xec, 0x1a, 0x55, 0xbe, 0x74, 0x5e, 0xbc, 0x3d, 0x37, 0xd1, 0x12, 0xbe,
  0xdd, 0x87, 0x10, 0xbd, 0xcb, 0xae, 0x2a, 0xbe, 0x28, 0xcd, 0x0e, 0xbd,
  0xb4, 0xce, 0xe7, 0xbc, 0x99, 0xde, 0x3c, 0xbe, 0x59, 0xf0, 0xf3, 0xbd,
  0xac, 0xed, 0x33, 0xbe, 0x48, 0x07, 0x97, 0xbc, 0xef, 0x69, 0x67, 0xbe,
  0x4d, 0x53, 0x2f, 0x3b, 0x4b, 0xb2, 0xa0, 0xbc, 0xd5, 0xc5, 0x93, 0x3d,
  0x03, 0x09, 0x29, 0x3d, 0x5b, 0x1c, 0x97, 0xbd, 0xc0, 0xee, 0x8a, 0xb8,
  0x5d, 0xe4, 0xcd, 0xbd, 0xbb, 0x6c, 0x51, 0x3c, 0x73, 0xce, 0x2c, 0xbd,
  0x2a, 0xd4, 0x17, 0xbe, 0xcc, 0x22, 0x07, 0xbd, 0x6a, 0x7c, 0x45, 0xbe,
  0xe7, 0xdc, 0xc5, 0xbd, 0xf6, 0x6f, 0xa4, 0x3d, 0xc6, 0xa5, 0x2e, 0xbe,
  0x5c, 0x03, 0x6e, 0xbe, 0x26, 0x5a, 0xf2, 0xbd, 0xe6, 0x73, 0x16, 0xbe,
  0x52, 0x75, 0xa9, 0x3a, 0xfe, 0xe5, 0x30, 0xbe, 0xb0, 0xe7, 0x02, 0x3d,
  0xc8, 0x3f, 0x90, 0xbd, 0xc0, 0xec, 0xaa, 0xbd, 0xfd, 0x46, 0x23, 0xbe,
  0xf6, 0x9d, 0xdf, 0xba, 0x01, 0x87, 0xa3, 0x3d, 0x5a, 0xa6, 0x45, 0xbc,
  0x3c, 0xd2, 0x80, 0x3d, 0x4a, 0x03, 0x3a, 0x3d, 0x00, 0xdb, 0xe9, 0xbd,
  0xf6, 0xe4, 0x6f, 0xbd, 0xdd, 0x5f, 0x82, 0x3d, 0xeb, 0x5c, 0x5a, 0x3d,
  0x98, 0x92, 0xe1, 0xbc, 0xe4, 0xfd, 0xe7, 0xbd, 0x4b, 0x54, 0xcb, 0xbd,
  0x30, 0x3b, 0x59, 0xbb, 0xe7, 0x1e, 0x9e, 0x3c, 0x55, 0x1f, 0x41, 0xbd,
  0x0b, 0x81, 0x31, 0xbd, 0x56, 0x18, 0x08, 0xbe, 0xb5, 0x8c, 0xcb, 0xbd,
  0x83, 0x5d, 0x8c, 0xbd, 0xd3, 0x43, 0x07, 0xbe, 0x3b, 0xb8, 0xe0, 0xbc,
  0x40, 0x1d, 0xa4, 0xbd, 0xc4, 0x96, 0xeb, 0xbd, 0xf6, 0x0b, 0x3a, 0x3d,
  0xad, 0xe7, 0x34, 0x3d, 0x8d, 0x48, 0x77, 0xbb, 0x6c, 0xe9, 0x85, 0x3d,
  0x6a, 0xe2, 0x11, 0x3d, 0xf8, 0x44, 0x29, 0x3d, 0xc5, 0xa3, 0xab, 0x3d,
  0x6e, 0xfe, 0x99, 0x3d, 0x31, 0xd2, 0x2f, 0xbe, 0x48, 0x56, 0xff, 0x3c,
  0x0d, 0x6c, 0x2b, 0xbe, 0xd3, 0x99, 0x93, 0xbd, 0x9e, 0xfc, 0xe4, 0xbd,
  0xb3, 0x52, 0x9f, 0x3d, 0xd2, 0x89, 0xb0, 0x3d, 0x3d, 0xfd, 0x53, 0x3d,
  0x5d, 0x0d, 0x52, 0xbe, 0x8e, 0xbd, 0x18, 0xbe, 0x2e, 0x74, 0x5e, 0xbb,
  0xcf, 0xbb, 0x81, 0x3c, 0x30, 0x87, 0x1b, 0xbe, 0x2c, 0xe5, 0x93, 0xbd,
  0xb3, 0x52, 0xb8, 0x3c, 0x39, 0x30, 0xee, 0xbd, 0xbf, 0xcb, 0xa0, 0xbc,
  0x08, 0xa0, 0x9a, 0x3c, 0xae, 0xd0, 0x2e, 0xbd, 0x48, 0xef, 0x62, 0xbd,
  0x79, 0xbe, 0xcb, 0xbd, 0xf1, 0xe5, 0x41, 0xbd, 0xfa, 0xd2, 0x1b, 0xbe,
  0xa8, 0x11, 0xaf, 0xbd, 0x51, 0xec, 0x85, 0xbc, 0x7b, 0x0b, 0x34, 0xbe,
  0x5a, 0x00, 0xaf, 0x3c, 0xf1, 0x1a, 0x4d, 0xbe, 0xa0, 0xf3, 0x8d, 0xbd,
  0x40, 0xb5, 0x60, 0xbe, 0xd8, 0xcd, 0x0f, 0xbe, 0xf5, 0x95, 0x43, 0xbe,
  0xff, 0x65, 0x3e, 0xbc, 0xf4, 0x00, 0x01, 0x3d, 0x78, 0xce, 0x1f, 0xbe,
  0x7b, 0x17, 0x00, 0x3c, 0xb7, 0x39, 0x2a, 0x3c, 0x11, 0x1b, 0xe5, 0xbd,
  0x6c, 0x62, 0xe7, 0xbc, 0xd9, 0x77, 0x18, 0xbe, 0x80, 0x9b, 0x39, 0xbc,
  0xf0, 0xea, 0x6a, 0xbd, 0xe3, 0xc0, 0xca, 0xbb, 0xb3, 0x49, 0xbf, 0xbd,
  0xc3, 0x76, 0x19, 0xbd, 0x69, 0x6b, 0x83, 0x3c, 0x1b, 0x3a, 0xc7, 0xbd,
  0x2d, 0x1e, 0x33, 0xbd, 0xcf, 0x7f, 0x75, 0x3d, 0x9b, 0x3e, 0xc6, 0xbd,
  0x81, 0xf1, 0xe6, 0xbd, 0xb9, 0x54, 0x9c, 0x3c, 0x3a, 0xe6, 0x16, 0xbe,
  0x76, 0x7f, 0xa7, 0xbc, 0x3e, 0x32, 0x27, 0xbe, 0x51, 0x02, 0xcc, 0xbd,
  0x80, 0x5b, 0x81, 0xbd, 0x9a, 0xef, 0x1e, 0x3d, 0x76, 0x21, 0xdc, 0xbd,
  0xdf, 0x2e, 0x03, 0xbd, 0x26, 0x4d, 0xe5, 0x3b, 0xb8, 0xa1, 0xbf, 0xbd,
  0x11, 0x21, 0xcb, 0x3c, 0x00, 0xbe, 0xbc, 0x3d, 0x69, 0x50, 0x65, 0xbd,
  0x87, 0x6c, 0x69, 0xbe, 0xa5, 0xdd, 0xb5, 0x3c, 0x79, 0x39, 0x13, 0x3d,
  0x25, 0xea, 0x11, 0xbe, 0x51, 0xa6, 0x45, 0xbe, 0xa3, 0x84, 0x07, 0xbe,
  0xe4, 0x77, 0x7e, 0xbd, 0x68, 0x04, 0xf7, 0xbc, 0x1c, 0x98, 0x2c, 0xbe,
  0x53, 0xfb, 0xae, 0xbd, 0x58, 0x42, 0x40, 0x3d, 0x70, 0x64, 0x8c, 0xbd,
  0x71, 0xd2, 0x22, 0xbe, 0x77, 0x7b, 0xd9, 0xbc, 0x62, 0x5a, 0x0d, 0x3d,
  0x3a, 0x08, 0x15, 0xbe, 0xee, 0x24, 0x3d, 0xbe, 0x0f, 0x4c, 0x2c, 0xbe,
  0xd4, 0x30, 0x01, 0xbe, 0x86, 0xb6, 0x09, 0xbe, 0x28, 0xcd, 0x8d, 0x3d,
  0xe7, 0x9a, 0x04, 0x3c, 0x71, 0xda, 0xe8, 0xbc, 0x64, 0x99, 0x8a, 0xbd,
  0x7f, 0x9d, 0xd7, 0xbd, 0xc6, 0x45, 0x84, 0xbd, 0x5e, 0xb6, 0xa2, 0xbd,
  0x2c, 0x3f, 0x51, 0xbe, 0x41, 0x3f, 0xf1, 0xbd, 0x90, 0x2e, 0xd8, 0x3c,
  0xfe, 0x52, 0x40, 0xbd, 0x26, 0x1b, 0x1d, 0xbd, 0x77, 0xdd, 0x57, 0xbe,
  0xeb, 0xfe, 0x06, 0x3d, 0x32, 0x96, 0x39, 0x3d, 0xf4, 0xb2, 0x26, 0xbe,
  0x1a, 0xc7, 0x10, 0xbe, 0x5c, 0xb8, 0xc0, 0xbc, 0x2a, 0x33, 0x3b, 0xbe,
  0xdd, 0x2a, 0xa8, 0xbd, 0xb7, 0xa2, 0x72, 0xbd, 0x3d, 0xdb, 0x11, 0x3d,
  0x7d, 0x46, 0x00, 0xbe, 0x08, 0xf0, 0x22, 0x3d, 0x69, 0xc7, 0x14, 0xbe,
  0xea, 0x65, 0xcb, 0xbc, 0xca, 0x9f, 0x9e, 0x3c, 0x28, 0x31, 0x09, 0xbd,
  0x19, 0x10, 0x11, 0xbd, 0xfb, 0xa9, 0x03, 0xbe, 0x30, 0x97, 0x2d, 0xbe,
  0xd9, 0x4c, 0x15, 0xbe, 0x29, 0x35, 0xf9, 0xbd, 0xdc, 0x4a, 0x3c, 0x3c,
  0x2f, 0x44, 0x42, 0xbe, 0x2f, 0x06, 0x67, 0xbd, 0xaa, 0x84, 0x26, 0xbe,
  0x1d, 0xd8, 0xd7, 0xbd, 0x84, 0x1a, 0x88, 0xbb, 0xb9, 0x0c, 0x3e, 0xbe,
  0x19, 0x38, 0x0a, 0xbe, 0xfe, 0x4b, 0xe1, 0xbd, 0x86, 0x7c, 0x47, 0xbe,
  0x33, 0x85, 0x7f, 0xbe, 0x54, 0x42, 0x67, 0xbc, 0xbd, 0xd5, 0x17, 0xbe,
  0x70, 0x39, 0xd2, 0xbc, 0x3d, 0x74, 0xbd, 0xbc, 0x38, 0x96, 0x0a, 0xbd,
  0xcc, 0x73, 0xf0, 0xbd, 0xd7, 0xd8, 0xea, 0x3c, 0xc4, 0xa0, 0x3c, 0xbe,
  0x95, 0x21, 0x2c, 0x3d, 0x81, 0xc3, 0x76, 0xbd, 0x0e, 0x36, 0xc5, 0xbd,
  0xff, 0xc4, 0xa0, 0x3d, 0x26, 0xaf, 0x06, 0xbe, 0x46, 0x2a, 0x32, 0xbe,
  0xc9, 0xd0, 0xda, 0xbc, 0xf2, 0x30, 0x83, 0xbe, 0x33, 0x66, 0x6d, 0xbe,
  0xda, 0x14, 0x90, 0xbd, 0xd5, 0xa5, 0x16, 0xbe, 0x5f, 0x41, 0x27, 0xbe,
  0x8f, 0x79, 0xbe, 0x3d, 0x9a, 0xa9, 0x80, 0xbb, 0x07, 0x53, 0x33, 0xbe,
  0x1e, 0xb8, 0x94, 0xbd, 0x6f, 0xe2, 0x78, 0x3d, 0xea, 0x83, 0x6d, 0x3d,
  0x07, 0x2d, 0x3a, 0xbe, 0x5c, 0x8f, 0xa4, 0xbc, 0xf2, 0xb9, 0xc8, 0xbd,
  0x49, 0x4a, 0x4c, 0x3c, 0x90, 0x69, 0xf4, 0x3c, 0xa4, 0xaa, 0x3e, 0xbe,
  0x82, 0x60, 0x27, 0xbe, 0xfa, 0x9c, 0x0f, 0x3d, 0xf9, 0x8b, 0x14, 0xbe,
  0xcf, 0x1c, 0xf6, 0xbd, 0x4f, 0x8a, 0x1a, 0x3d, 0x4d, 0xba, 0x4a, 0x3c,
  0x7b, 0x1b, 0x98, 0xbd, 0xfd, 0x3d, 0x64, 0x3d, 0x3e, 0x05, 0xc5, 0x3d,
  0x0d, 0x10, 0x43, 0xbe, 0x67, 0x2a, 0x06, 0xbe, 0x35, 0xd0, 0xbb, 0xba,
  0x3d, 0x6f, 0x64, 0xbe, 0xd1, 0x5c, 0xf4, 0x3d, 0x4c, 0x13, 0xde, 0xbd,
  0xa3, 0x5f, 0x93, 0x3d, 0xa3, 0x63, 0xaf, 0xbb, 0x8e, 0x60, 0x2c, 0xbe,
  0x65, 0xc6, 0x41, 0xbe, 0x4d, 0x16, 0x35, 0xbe, 0x94, 0xc7, 0x05, 0xbd,
  0x51, 0xfb, 0x28, 0xbe, 0x46, 0x77, 0xa9, 0x3d, 0x5c, 0xab, 0x97, 0x3b,
  0x69, 0x4f, 0x1d, 0xbd, 0x1a, 0x88, 0xa4, 0x3d, 0x33, 0x54, 0x55, 0x3d,
  0xb4, 0xee, 0x34, 0xbe, 0x5e, 0x36, 0x21, 0xbd, 0xc0, 0x7c, 0x9f, 0x3d,
  0xee, 0x60, 0x89, 0xbd, 0x15, 0x6c, 0xda, 0xbd, 0x49, 0x7c, 0xdd, 0xbd,
  0x09, 0x1d, 0x96, 0x3c, 0xaf, 0x78, 0x75, 0x3d, 0xb0, 0x39, 0xf1, 0xbc,
  0xed, 0x4c, 0xdf, 0x3d, 0x11, 0x86, 0x1e, 0x3d, 0x6c, 0xe4, 0x9c, 0x3c,
  0xe5, 0xb4, 0x59, 0x3d, 0xdb, 0x17, 0x46, 0x3d, 0x55, 0x72, 0x83, 0xbd,
  0xb2, 0xd9, 0x0f, 0xbe, 0x14, 0x59, 0x8f, 0x3d, 0x2f, 0xb2, 0x82, 0x3c,
  0x8e, 0x39, 0x1a, 0xbe, 0xfb, 0xf2, 0xb5, 0x3d, 0x6d, 0xd5, 0x18, 0xbe,
  0xe9, 0xc9, 0x6a, 0x3c, 0x5b, 0xc6, 0xfd, 0xbd, 0x89, 0x76, 0x47, 0x3d,
  0xf6, 0xb2, 0xec, 0x3d, 0xec, 0x11, 0x9d, 0xbb, 0x70, 0x17, 0x32, 0x3d,
  0x74, 0x8b, 0x33, 0xbe, 0x3d, 0xdd, 0x39, 0xbe, 0xe4, 0x72, 0xdd, 0xbd,
  0x25, 0x62, 0xe1, 0xbd, 0x13, 0x8e, 0x8e, 0xbd, 0x0e, 0xac, 0x34, 0xbe,
  0xc0, 0x99, 0xa1, 0xbd, 0x6f, 0x10, 0x01, 0x3e, 0x0e, 0xfa, 0x8a, 0xbd,
  0xa7, 0x54, 0x7b, 0xbd, 0x02, 0xc7, 0x96, 0x3d, 0x67, 0x2d, 0xc2, 0x3d,
  0x8c, 0x1b, 0x17, 0xbe, 0x11, 0xb8, 0xbb, 0x3d, 0xb6, 0xda, 0x0f, 0xbe,
  0x79, 0xf6, 0xd5, 0xbd, 0x5a, 0x07, 0x05, 0x3b, 0xfa, 0x57, 0x22, 0x3d,
  0x6c, 0x5e, 0x02, 0xbe, 0x28, 0x24, 0x0e, 0xbe, 0x85, 0xe6, 0x14, 0xbe,
  0xce, 0xf9, 0xcc, 0xbd, 0x33, 0xa4, 0x06, 0xbe, 0x50, 0xe2, 0x04, 0xbe,
  0xba, 0x6e, 0x7c, 0x3d, 0x6a, 0xd6, 0x42, 0xbd, 0x70, 0x7c, 0x11, 0xbe,
  0xc5, 0xd8, 0x31, 0xbd, 0x4e, 0x90, 0x82, 0x3d, 0xa9, 0x4a, 0x6b, 0x3d,
  0x7f, 0x66, 0x38, 0xbe, 0x3b, 0x46, 0xdc, 0x3c, 0x6d, 0x54, 0x2f, 0xbe,
  0xe4, 0x7f, 0x0b, 0xbe, 0x67, 0x89, 0xe5, 0xbc, 0x28, 0x6a, 0xea, 0xbc,
  0xb8, 0xfe, 0x09, 0x3d, 0x8c, 0xbc, 0xd0, 0xbd, 0xad, 0x2a, 0x96, 0x3c,
  0x59, 0x9d, 0x6e, 0x3c, 0x6b, 0xc1, 0x97, 0xbd, 0xec, 0xb2, 0x32, 0xbe,
  0x68, 0xd3, 0x55, 0xbc, 0xb2, 0x06, 0x85, 0xbd, 0xc2, 0x41, 0xb3, 0x3c,
  0x3c, 0x7a, 0x0c, 0x3e, 0xdb, 0x8e, 0x4e, 0xbe, 0x81, 0x14, 0x31, 0x3d,
  0xdf, 0x20, 0x02, 0x3d, 0xcd, 0xd8, 0x87, 0xbb, 0xa6, 0xc4, 0x96, 0x3d,
  0x54, 0x05, 0xa9, 0xbd, 0x6c, 0x25, 0x35, 0x3d, 0x54, 0x47, 0xfc, 0xbd,
  0x0c, 0x63, 0x5e, 0x3c, 0x4e, 0xba, 0xb7, 0xbd, 0x35, 0x29, 0x2b, 0x3d,
  0xd8, 0x7f, 0xf1, 0xbd, 0x9c, 0x72, 0x86, 0xbc, 0xdf, 0x27, 0x52, 0x3d,
  0x39, 0xf6, 0x5f, 0xbe, 0x88, 0xe8, 0x38, 0xbd, 0x0c, 0x0f, 0xc0, 0xbd,
  0x61, 0x89, 0xad, 0xbd, 0x52, 0x20, 0xf7, 0xbd, 0x1d, 0x27, 0x8f, 0xbc,
  0x0d, 0x3c, 0x2a, 0xbe, 0x4d, 0x7d, 0xc2, 0xbd, 0x22, 0x71, 0x63, 0x3d,
  0x61, 0x26, 0x23, 0xbe, 0x63, 0x66, 0x1c, 0xbe, 0x95, 0xb4, 0x24, 0xbe,
  0xd7, 0xc0, 0x81, 0x3d, 0xa3, 0xe1, 0xbd, 0x3d, 0x47, 0x07, 0x01, 0xbe,
  0x77, 0x65, 0x1e, 0x3d, 0x67, 0x0a, 0x2e, 0xbe, 0xa2, 0x00, 0xc4, 0xbd,
  0x32, 0xae, 0xee, 0x3c, 0x75, 0x02, 0x4a, 0xbe, 0x60, 0x10, 0x4e, 0x3d,
  0xe2, 0xd6, 0x3d, 0xbe, 0xb0, 0x8e, 0xc1, 0xbd, 0x8a, 0x54, 0xf0, 0xbd,
  0x57, 0x39, 0x1d, 0xbe, 0x3d, 0x31, 0xd6, 0x3d, 0x60, 0x95, 0x8e, 0xbc,
  0xb6, 0x30, 0xd8, 0xbd, 0xc6, 0x52, 0x32, 0xbd, 0xa3, 0xb9, 0xd3, 0xbd,
  0x54, 0x04, 0x9d, 0xbd, 0x02, 0x45, 0x86, 0xbd, 0x80, 0xdc, 0x85, 0xbb,
  0xf2, 0x22, 0x2e, 0xbe, 0x42, 0x66, 0xb7, 0x3d, 0x6f, 0x93, 0xb6, 0x3d,
  0x22, 0xa6, 0xd2, 0xbd, 0x1f, 0x71, 0x9c, 0xbd, 0xbd, 0xfc, 0x48, 0xbe,
  0x4e, 0xf8, 0xfc, 0xbd, 0x22, 0x9a, 0x80, 0xbd, 0xf6, 0x68, 0xee, 0xbc,
  0x3e, 0x77, 0x0f, 0xbe, 0x44, 0x8e, 0xe0, 0x3d, 0x2b, 0x6c, 0x8d, 0xbd,
  0x34, 0xd2, 0xfb, 0xbd, 0xcc, 0x74, 0x24, 0xbe, 0x89, 0x50, 0x1a, 0x3d,
  0x66, 0x7d, 0x93, 0xbd, 0x87, 0x48, 0x3b, 0xbe, 0xaa, 0xfc, 0x6e, 0xbd,
  0x84, 0x1c, 0xa0, 0x3c, 0xc5, 0x1e, 0x65, 0x3d, 0x54, 0xc3, 0x62, 0x3d,
  0x28, 0x65, 0xb0, 0x3b, 0x07, 0x6a, 0x24, 0xbe, 0xba, 0x8a, 0x21, 0x3d,
  0x17, 0xbe, 0x97, 0xbc, 0x30, 0x90, 0x86, 0xbd, 0x7a, 0xb4, 0xa1, 0xbd,
  0x4d, 0x41, 0x4a, 0xbd, 0x5b, 0x7d, 0x4c, 0xbe, 0x98, 0xb7, 0xa7, 0x3d,
  0xeb, 0x1c, 0xe9, 0xbc, 0x97, 0xc3, 0xd4, 0xbd, 0xdf, 0x53, 0x7b, 0x3a,
  0x15, 0x0f, 0x4a, 0xbe, 0x65, 0xf2, 0x0b, 0xbd, 0x9f, 0x21, 0x1a, 0x3b,
  0x8c, 0x7f, 0x0c, 0xbe, 0x50, 0x6a, 0xc8, 0x3a, 0x56, 0x93, 0xf9, 0xbd,
  0x99, 0x4f, 0x1a, 0xbe, 0x8c, 0x61, 0x1b, 0xbe, 0x02, 0x51, 0x5b, 0xbd,
  0x65, 0xa4, 0x1c, 0xbe, 0x37, 0x2c, 0x5e, 0xbc, 0x3c, 0x24, 0xfc, 0x3c,
  0x47, 0xb2, 0xe5, 0x3c, 0xd1, 0xc7, 0xcb, 0xbd, 0x88, 0xf1, 0x43, 0xbe,
  0xe7, 0xb5, 0xd2, 0x3d, 0xec, 0xa3, 0x57, 0xbe, 0x11, 0xe0, 0x30, 0xbb,
  0x3d, 0xf4, 0x37, 0xbe, 0x81, 0x9d, 0x2f, 0xbe, 0x38, 0x66, 0x3d, 0xbe,
  0xad, 0x19, 0x70, 0x3c, 0x02, 0x84, 0x85, 0x3c, 0x03, 0x25, 0x9c, 0x3d,
  0xde, 0x60, 0x19, 0xbe, 0xd9, 0xfa, 0xf1, 0x3d, 0xa4, 0xd6, 0x32, 0xbe,
  0x4c, 0x62, 0x30, 0xbe, 0x51, 0x28, 0x99, 0xbd, 0xe7, 0x54, 0x21, 0xbe,
  0x8b, 0x0c, 0x78, 0xbc, 0xcb, 0xe0, 0xf8, 0xbd, 0xbb, 0xd3, 0xe2, 0xbd,
  0xc4, 0xab, 0x4a, 0x3e, 0x19, 0x1b, 0x62, 0xbc, 0x27, 0x7a, 0x01, 0x3d,
  0xde, 0x47, 0xf7, 0x3d, 0x8b, 0x03, 0x56, 0x3d, 0x2d, 0x5f, 0x88, 0xbe,
  0xaa, 0x91, 0xc8, 0xba, 0xab, 0x3d, 0x25, 0xbd, 0xa8, 0x81, 0x11, 0xbd,
  0xdf, 0xea, 0xdc, 0x3d, 0x37, 0x3b, 0x58, 0x3d, 0x34, 0x29, 0x1f, 0xbe,
  0x81, 0x90, 0xc4, 0xbd, 0x7c, 0xf3, 0x6a, 0x3d, 0x55, 0x20, 0x20, 0xbe,
  0xd8, 0x9e, 0x4b, 0xbe, 0x4e, 0x38, 0x01, 0xbe, 0xba, 0x8f, 0x0e, 0x3d,
  0x57, 0xee, 0x41, 0xbe, 0x90, 0x1e, 0xef, 0x3d, 0x45, 0x4b, 0x68, 0xbd,
  0x28, 0xa9, 0x38, 0xbe, 0xdd, 0x77, 0x24, 0xbe, 0x05, 0x63, 0x04, 0xbd,
  0xd3, 0xab, 0xea, 0xbd, 0xbd, 0xa5, 0x70, 0xbe, 0xe1, 0xb1, 0x32, 0xbe,
  0xe3, 0xae, 0xe6, 0xbd, 0x64, 0xca, 0xa9, 0xbe, 0x9e, 0xbf, 0x22, 0xbe,
  0x39, 0xf0, 0x54, 0xbb, 0x1b, 0xcf, 0xc0, 0xbc, 0x95, 0x25, 0x9b, 0xbe,
  0xc6, 0xde, 0xb2, 0x3b, 0xcf, 0x3f, 0x40, 0xbd, 0xda, 0xf8, 0x09, 0xbe,
  0x1d, 0x7c, 0xdc, 0x3c, 0xe5, 0xbc, 0xc4, 0x3d, 0xa2, 0x1e, 0xd9, 0x3d,
  0x7d, 0x35, 0xc3, 0xbc, 0x9f, 0x5d, 0x63, 0xbe, 0x65, 0xb0, 0x30, 0xbd,
  0x6f, 0x1d, 0x97, 0xbe, 0xa3, 0xdd, 0x03, 0xbe, 0xa7, 0x47, 0x70, 0xbd,
  0x13, 0xac, 0xcb, 0x3c, 0xd3, 0xcb, 0xea, 0xbd, 0xb1, 0xdf, 0x4c, 0xbd,
  0x1d, 0x2a, 0x25, 0x3e, 0xdf, 0x50, 0x0e, 0x3d, 0xab, 0xd1, 0x8c, 0xbd,
  0x02, 0xcc, 0x40, 0xbd, 0x24, 0x27, 0x10, 0x3d, 0x75, 0x0e, 0x02, 0xbd,
  0x2c, 0xf4, 0x7d, 0xbd, 0x2e, 0xe5, 0x32, 0xbd, 0xbf, 0xf6, 0x65, 0xbe,
  0x3f, 0x1a, 0x37, 0xbd, 0x05, 0x73, 0x91, 0xbe, 0xa3, 0x40, 0x8a, 0xbc,
  0xc2, 0xd6, 0xc9, 0x3d, 0x21, 0x03, 0x92, 0xbd, 0x97, 0xea, 0x33, 0x3d,
  0xaa, 0x81, 0x68, 0x3b, 0x5b, 0x83, 0xc4, 0xbc, 0x0a, 0xa9, 0x25, 0x3d,
  0x9b, 0x2c, 0x25, 0xbe, 0x14, 0x3e, 0xac, 0x3c, 0xc1, 0x23, 0x08, 0xba,
  0x8b, 0x1e, 0xbc, 0x3d, 0x97, 0x46, 0x30, 0x3d, 0x26, 0x0d, 0x65, 0xbe,
  0xa6, 0x8a, 0x41, 0x3c, 0x15, 0xf2, 0xd3, 0xbd, 0xfa, 0xc8, 0xf3, 0xbd,
  0x5f, 0x15, 0x43, 0x3d, 0xd3, 0x93, 0x61, 0xbe, 0x92, 0x8b, 0xfa, 0xbc,
  0xba, 0x67, 0x25, 0x3d, 0x84, 0x5e, 0xdc, 0xbc, 0x84, 0x0d, 0x2f, 0xbe,
  0x88, 0x7b, 0x80, 0xbc, 0x5d, 0x24, 0x64, 0xbe, 0xc5, 0xec, 0xe4, 0x3e,
  0xeb, 0x0b, 0xda, 0x3d, 0xc1, 0xb1, 0x01, 0x3c, 0x6d, 0xb4, 0xd5, 0xbd,
  0xa8, 0xf8, 0x8c, 0xbe, 0x3c, 0x26, 0x2a, 0x3e, 0xe6, 0xc3, 0xaf, 0xbd,
  0xa2, 0x32, 0x8a, 0xbd, 0x72, 0x85, 0x25, 0x3e, 0x18, 0x8d, 0xa7, 0xbe,
  0x6a, 0xd1, 0xf4, 0xbd, 0x7b, 0xd8, 0x1c, 0x3e, 0x8f, 0xa7, 0xe6, 0x3d,
  0xba, 0xb7, 0xe9, 0x3d, 0x92, 0xff, 0x1b, 0x39, 0xd6, 0xeb, 0xa9, 0xbe,
  0x4e, 0x35, 0x89, 0x3e, 0x22, 0x86, 0xce, 0x3d, 0x91, 0x39, 0x39, 0x3d,
  0x89, 0x38, 0x7f, 0xbd, 0xbd, 0x81, 0x95, 0xbe, 0xc3, 0xfc, 0xa0, 0x3c,
  0x39, 0xdc, 0x59, 0x3d, 0xfc, 0x49, 0x82, 0xbd, 0x43, 0x94, 0xf6, 0x3d,
  0x8d, 0x26, 0x7e, 0xbe, 0x72, 0xaa, 0x00, 0xbd, 0x19, 0xc0, 0xd3, 0x3d,
  0x19, 0xf2, 0x31, 0x3e, 0x15, 0x09, 0x15, 0x3e, 0x8a, 0x23, 0x21, 0xbe,
  0x31, 0xea, 0x87, 0xbe, 0x97, 0x3c, 0x88, 0x3e, 0x95, 0x2e, 0xd4, 0xba,
  0xbf, 0x26, 0x22, 0x3e, 0x6f, 0x2e, 0xb6, 0x3b, 0x97, 0xfd, 0x6d, 0xbe,
  0xdb, 0x4a, 0x5d, 0xbc, 0x64, 0x0b, 0x07, 0xbd, 0xf0, 0x4f, 0xd2, 0x3d,
  0xf1, 0x6e, 0x08, 0x3e, 0x7a, 0xae, 0x2d, 0xbe, 0x17, 0xa3, 0x6d, 0x3b,
  0x20, 0xed, 0x04, 0x3e, 0x5a, 0xea, 0xcc, 0x3d, 0x25, 0x06, 0xa2, 0x3e,
  0x3a, 0x03, 0x3e, 0xbc, 0xa1, 0x25, 0x70, 0xbe, 0x87, 0x25, 0x77, 0x3e,
  0x5b, 0xc3, 0xb6, 0xbc, 0xae, 0xab, 0x0a, 0x3c, 0x11, 0x12, 0x9b, 0x3d,
  0xe4, 0x8b, 0x7a, 0xbd, 0xdc, 0x8e, 0x30, 0x3d, 0xd1, 0xa4, 0xe0, 0xbd,
  0x1f, 0xe5, 0x8a, 0x3d, 0xad, 0x0e, 0xdf, 0x3d, 0x20, 0x65, 0x9f, 0xbd,
  0xaf, 0xa1, 0x35, 0xbd, 0xa5, 0x64, 0xa8, 0x3d, 0x2c, 0x9f, 0x0e, 0x3e,
  0x0a, 0x1f, 0xbe, 0x3e, 0x56, 0xb8, 0x1c, 0xbd, 0xf3, 0xee, 0x84, 0xbe,
  0xb6, 0x05, 0x2b, 0x3e, 0xe0, 0x9a, 0x33, 0x3d, 0x02, 0x7f, 0xca, 0x3c,
  0x97, 0x85, 0xe2, 0x3c, 0x3a, 0xfa, 0xbb, 0x3d, 0x2c, 0x24, 0x0a, 0x3e,
  0x01, 0x6d, 0x53, 0x3d, 0xfb, 0xcf, 0xfd, 0x3d, 0x41, 0x61, 0x80, 0x3c,
  0x09, 0xb0, 0x69, 0x3d, 0x61, 0x38, 0x15, 0xbe, 0x97, 0x60, 0xf9, 0xbd,
  0xcd, 0xe6, 0x39, 0x3e, 0xb0, 0xae, 0x5e, 0x3e, 0x31, 0x32, 0x2a, 0x3c,
  0x9e, 0xa0, 0xa4, 0xbe, 0xcd, 0xb6, 0x2b, 0x3e, 0x07, 0xb6, 0x46, 0x3c,
  0x44, 0xa0, 0x2e, 0x3d, 0x68, 0x10, 0x6d, 0xbd, 0xe3, 0xce, 0xde, 0x3d,
  0xca, 0xbe, 0x04, 0x3e, 0x27, 0x2d, 0x11, 0x3e, 0x63, 0xca, 0x85, 0x3d,
  0x89, 0x51, 0xc7, 0xbd, 0x00, 0xdc, 0xa9, 0x3c, 0xeb, 0x09, 0x6e, 0xbe,
  0x9f, 0x97, 0x86, 0xbe, 0xfa, 0x44, 0xe9, 0xba, 0x05, 0x4f, 0xfe, 0xbd,
  0x44, 0x2e, 0xd3, 0xba, 0x90, 0x31, 0xac, 0xbe, 0x4b, 0x71, 0xbc, 0xbe,
  0x9c, 0x9e, 0x3e, 0xbe, 0x7e, 0x25, 0x6a, 0x3d, 0x1e, 0xbc, 0x39, 0xbe,
  0x16, 0xcb, 0x10, 0x3e, 0x8a, 0x63, 0x30, 0xbe, 0x8e, 0x13, 0x21, 0xbe,
  0xd8, 0x96, 0xf3, 0xbd, 0x85, 0xba, 0x0c, 0xbe, 0xc9, 0xd6, 0x97, 0xbe,
  0xd1, 0xa0, 0x14, 0xbe, 0xd3, 0x16, 0xa8, 0xbe, 0x6c, 0x1a, 0xa5, 0xbe,
  0x6b, 0x6f, 0x81, 0xbd, 0xcb, 0x80, 0xc5, 0x3d, 0x71, 0xfe, 0x0b, 0xbd,
  0x32, 0x87, 0xbe, 0xbe, 0x0b, 0x64, 0x0f, 0xbe, 0xe7, 0x2f, 0x3c, 0xbe,
  0xc1, 0xe2, 0x28, 0xbd, 0xa4, 0x5c, 0xd8, 0x3d, 0xfc, 0x5f, 0xc1, 0xbe,
  0x95, 0x90, 0x9e, 0xbe, 0x17, 0xfb, 0xad, 0xbd, 0x91, 0x30, 0xec, 0xbd,
  0xaf, 0xbf, 0x43, 0x3c, 0xdd, 0x67, 0x55, 0xbe, 0xf9, 0x25, 0x8c, 0x3e,
  0x1b, 0x3c, 0x0b, 0xbe, 0x0b, 0x35, 0x85, 0xbe, 0x7c, 0xc2, 0x3f, 0x3e,
  0x2f, 0x5e, 0xf2, 0xb9, 0x15, 0x1a, 0xda, 0x3d, 0xc6, 0x50, 0x3b, 0xbe,
  0x9d, 0x9d, 0xaf, 0xbe, 0x9d, 0x8e, 0x34, 0xbd, 0x51, 0x22, 0x2f, 0xbe,
  0xa2, 0x60, 0xaa, 0xbe, 0x5d, 0x8a, 0x94, 0x3c, 0x0d, 0xb3, 0xfb, 0x3c,
  0xf1, 0x3c, 0xe8, 0xbd, 0x58, 0x82, 0x20, 0xbc, 0x1a, 0xe6, 0xb5, 0xbe,
  0xde, 0x09, 0xc2, 0x3d, 0x83, 0xac, 0xa9, 0x3c, 0xf2, 0x22, 0x58, 0xbe,
  0x71, 0x1c, 0x44, 0x3d, 0x83, 0xda, 0xc1, 0xbd, 0x1b, 0xdb, 0x3d, 0xbd,
  0x9a, 0x3d, 0xa5, 0x3d, 0x99, 0xda, 0x96, 0xbe, 0xbe, 0xf8, 0xe4, 0xbd,
  0x97, 0x5a, 0x8e, 0x3d, 0x90, 0xc8, 0x3c, 0xbc, 0xfd, 0xcc, 0x1d, 0xbd,
  0x6c, 0xd9, 0x72, 0xbd, 0x20, 0x59, 0xe7, 0xbd, 0x96, 0xbf, 0x2c, 0xbe,
  0x35, 0x83, 0x6d, 0x3a, 0x7b, 0x12, 0xb8, 0xbd, 0xae, 0xcd, 0x13, 0x3e,
  0xc6, 0x77, 0x89, 0xbe, 0x78, 0x0c, 0xa5, 0x3c, 0xa1, 0xd2, 0x74, 0xbe,
  0x38, 0x35, 0xd9, 0xbd, 0x6d, 0x6b, 0xcf, 0xbd, 0xb6, 0xb3, 0x22, 0xbf,
  0xe3, 0x2c, 0x91, 0xbe, 0xc5, 0xce, 0x16, 0x3d, 0x60, 0x54, 0x73, 0xbd,
  0x60, 0x5b, 0x46, 0xbc, 0xb6, 0xe1, 0x22, 0xbe, 0xa6, 0xe4, 0xcb, 0xbd,
  0x24, 0xdd, 0xaf, 0xbe, 0xec, 0x5d, 0x24, 0xbe, 0x4c, 0xf7, 0x50, 0xbe,
  0x1c, 0x47, 0xbb, 0xbc, 0xbc, 0x5c, 0x83, 0xbe, 0xcc, 0x3f, 0x4c, 0x3d,
  0x1c, 0xa0, 0x7f, 0xbe, 0x4d, 0xe1, 0x95, 0xbd, 0x2a, 0xfd, 0x96, 0xbc,
  0x9f, 0xb1, 0x8e, 0x3d, 0xff, 0x4d, 0xf1, 0xbd, 0x78, 0x7c, 0x37, 0x3c,
  0x1b, 0x0d, 0x9a, 0xbd, 0x5e, 0xc0, 0x93, 0xbe, 0xf2, 0x86, 0x2b, 0xbf,
  0x89, 0x8b, 0x7d, 0xbe, 0xa3, 0xa6, 0x08, 0xbf, 0x39, 0x38, 0x19, 0xbe,
  0xc8, 0xdb, 0x8c, 0xbe, 0x78, 0x36, 0x1e, 0xbe, 0x04, 0xb4, 0x53, 0xbe,
  0xba, 0xb2, 0x8c, 0x3d, 0x08, 0xbb, 0x75, 0xbe, 0x98, 0x92, 0x2a, 0xbc,
  0x2b, 0x5e, 0x06, 0xbe, 0x21, 0xfe, 0x09, 0x3b, 0xb5, 0x4d, 0xfe, 0xbe,
  0x23, 0xb7, 0x4d, 0x3e, 0xa7, 0x88, 0x2e, 0x3c, 0x61, 0x2c, 0x3f, 0xbe,
  0xf9, 0x50, 0x36, 0xbf, 0xc5, 0x26, 0x35, 0xbe, 0x50, 0x45, 0xb1, 0x3d,
  0x31, 0x16, 0xde, 0xbd, 0xe7, 0x2c, 0xe6, 0xbd, 0x9b, 0xae, 0xb1, 0x3d,
  0x24, 0xa9, 0xad, 0x3c, 0x9a, 0x3a, 0x98, 0x3c, 0xfc, 0xa3, 0x28, 0xbc,
  0x49, 0x45, 0x84, 0xbe, 0x7f, 0x97, 0x7e, 0xbd, 0xbf, 0xd4, 0x3f, 0x3d,
  0xfc, 0x7f, 0xb5, 0xbc, 0x9b, 0x93, 0x9e, 0x3d, 0xab, 0x88, 0x9f, 0xbe,
  0x44, 0xe4, 0xa0, 0xbd, 0x82, 0x13, 0x1a, 0x3e, 0xa0, 0xdf, 0x0a, 0xbc,
  0x5c, 0x20, 0x06, 0xbe, 0xd1, 0x2a, 0x53, 0xbd, 0xd0, 0xf1, 0x2b, 0xbe,
  0x3d, 0xed, 0x4d, 0x3e, 0x85, 0xfc, 0xf9, 0xbd, 0x67, 0x4c, 0x11, 0xbd,
  0x0b, 0x96, 0x40, 0xbc, 0x58, 0x16, 0x18, 0xbd, 0x23, 0x34, 0xfe, 0x3b,
  0xb6, 0xfb, 0x8b, 0x3a, 0xea, 0x06, 0x95, 0x3d, 0x10, 0xcd, 0xa1, 0x3d,
  0xc5, 0x71, 0x4c, 0xbe, 0xb1, 0x53, 0x81, 0x3d, 0xb4, 0x47, 0x13, 0x3e,
  0x94, 0x6e, 0x17, 0xbd, 0x5a, 0xcb, 0x8c, 0x3d, 0x83, 0x49, 0x3b, 0xbe,
  0x2e, 0xa6, 0x17, 0xbe, 0x9f, 0x1a, 0xa9, 0x3d, 0xc1, 0xaf, 0xe4, 0x3d,
  0x31, 0x59, 0x32, 0xbd, 0xe4, 0xf4, 0x61, 0x3c, 0x1c, 0x13, 0xe7, 0x3d,
  0x51, 0xcf, 0x80, 0xbd, 0x98, 0x24, 0xf3, 0xba, 0xe8, 0x29, 0x8f, 0x3c,
  0x38, 0x73, 0x5b, 0x3d, 0xd2, 0x0a, 0x90, 0xbe, 0xe9, 0xbb, 0x8f, 0x3d,
  0x8b, 0xa2, 0x69, 0x3d, 0xed, 0xa3, 0x6e, 0xbd, 0xfc, 0x91, 0x15, 0xbe,
  0xe4, 0xf2, 0x82, 0xbd, 0x43, 0x1f, 0x34, 0xbe, 0x32, 0x26, 0xdb, 0x3d,
  0x1b, 0x8c, 0x82, 0x3e, 0x31, 0xa0, 0x82, 0x3c, 0xfd, 0xf9, 0x30, 0x3d,
  0x43, 0x0a, 0x49, 0x3e, 0x39, 0x25, 0x9b, 0xbd, 0x49, 0x70, 0xd5, 0x3c,
  0x85, 0x0e, 0x22, 0xbd, 0x42, 0xfe, 0x84, 0x3d, 0x4a, 0x16, 0xce, 0xbd,
  0x93, 0x1b, 0xd2, 0x3d, 0x3d, 0xb3, 0x20, 0x3e, 0x09, 0x6f, 0x12, 0x3d,
  0x15, 0x35, 0x9c, 0xbd, 0x57, 0xfb, 0x86, 0xbd, 0x84, 0xad, 0xa9, 0xbd,
  0x4d, 0x00, 0x75, 0x3d, 0x03, 0x13, 0xbc, 0x3c, 0x8e, 0x74, 0xbf, 0x3c,
  0x5c, 0xbd, 0xac, 0x3c, 0xa1, 0x42, 0xc5, 0xbc, 0xf4, 0x73, 0x99, 0x3b,
  0x05, 0xe3, 0x6a, 0x3d, 0x14, 0x1e, 0xa4, 0xbc, 0x7e, 0x6d, 0x01, 0x3d,
  0xfe, 0x09, 0x9a, 0xbd, 0x1e, 0x4f, 0xa5, 0x3d, 0x09, 0x7c, 0x11, 0x3d,
  0xa0, 0x60, 0xce, 0x3d, 0x6d, 0x50, 0x2d, 0xbc, 0x6d, 0xf9, 0x47, 0xbd,
  0xe9, 0x80, 0xde, 0xbc, 0x78, 0xdb, 0xc1, 0x3d, 0x62, 0x70, 0x87, 0x3d,
  0x14, 0xe1, 0x5b, 0x3e, 0x1a, 0x00, 0xa3, 0x3a, 0x3e, 0x19, 0x0c, 0x3e,
  0x52, 0xd9, 0x91, 0x3d, 0x52, 0x1c, 0xb2, 0x3c, 0x64, 0x74, 0x6d, 0x3d,
  0xd0, 0x12, 0x16, 0x3d, 0xcf, 0x02, 0xc3, 0xbc, 0x7a, 0x0a, 0xad, 0x3d,
  0x6f, 0x3f, 0xa2, 0x3d, 0x19, 0x2d, 0x00, 0x3e, 0x7f, 0xcb, 0xdd, 0xbd,
  0x0e, 0x7c, 0x01, 0x3c, 0x00, 0x01, 0xe6, 0xbd, 0xc3, 0x6a, 0x1b, 0xbc,
  0xa7, 0xff, 0x97, 0xbd, 0xd9, 0x84, 0xf7, 0xbd, 0x5a, 0x3b, 0x11, 0xbe,
  0x91, 0xfc, 0x3c, 0x3d, 0xe1, 0x9c, 0xaf, 0x3c, 0x69, 0x77, 0x00, 0x3e,
  0xfd, 0xee, 0xbb, 0x3d, 0x06, 0x52, 0xb6, 0xbe, 0x1e, 0x8e, 0x1f, 0x3d,
  0x2f, 0xc2, 0xcb, 0x3e, 0x6a, 0xdb, 0x31, 0x3d, 0xab, 0x2d, 0xd0, 0x3d,
  0xc7, 0xf5, 0x91, 0xbe, 0x65, 0x4d, 0x13, 0x3e, 0x10, 0x24, 0xcf, 0xbd,
  0x40, 0xde, 0x08, 0xbe, 0x12, 0x5d, 0x71, 0xbe, 0x5d, 0xb2, 0xa6, 0xbf,
  0x53, 0x7a, 0x2f, 0xbe, 0x47, 0xf8, 0x51, 0x3d, 0x43, 0x58, 0xc7, 0xbe,
  0x5e, 0x8c, 0xeb, 0xbc, 0xdb, 0xbf, 0x36, 0xbe, 0xd8, 0xc1, 0x53, 0xbe,
  0x62, 0x50, 0xdf, 0x3d, 0xe0, 0xdc, 0x88, 0x3d, 0xfc, 0x2e, 0xbf, 0x3d,
  0x18, 0x9d, 0x6e, 0x3d, 0xa8, 0x03, 0xf2, 0xbc, 0xd9, 0x3b, 0x31, 0x3d,
  0x1e, 0x09, 0xf3, 0x3d, 0xd8, 0x5f, 0xdd, 0xbd, 0x86, 0x22, 0x63, 0xbe,
  0x8c, 0x13, 0xb0, 0xbf, 0x6a, 0x75, 0x46, 0xbe, 0xfd, 0x03, 0x5a, 0x3e,
  0x61, 0x03, 0xc3, 0xbe, 0x87, 0x78, 0xb8, 0xbe, 0x50, 0x6c, 0x8b, 0xbd,
  0x0b, 0x20, 0x86, 0xbe, 0x27, 0xfd, 0x09, 0x3e, 0xec, 0x74, 0x51, 0xbd,
  0x9b, 0x46, 0xbd, 0xbc, 0x4f, 0x6b, 0xad, 0x3d, 0x85, 0xbe, 0x9d, 0xbe,
  0xb0, 0x4d, 0x9b, 0xbe, 0xf6, 0x3f, 0xc0, 0xbb, 0x81, 0x32, 0x70, 0x3a,
  0x9b, 0x91, 0xaa, 0xbe, 0x55, 0x99, 0x7c, 0xbf, 0x7a, 0xac, 0x4a, 0xbe,
  0x47, 0xf4, 0xaa, 0x3d, 0x0d, 0xb4, 0xbb, 0xbd, 0xb3, 0x66, 0x83, 0xbe,
  0x4a, 0xaf, 0xad, 0x3d, 0x36, 0x81, 0x48, 0xbf, 0xbd, 0x08, 0x55, 0x3e,
  0xb3, 0x47, 0xcf, 0xbe, 0x7c, 0x6b, 0x82, 0xbc, 0xe0, 0x19, 0x35, 0x3c,
  0x05, 0x79, 0x2d, 0x3c, 0x78, 0x94, 0x62, 0x3c, 0x80, 0x26, 0xe6, 0x3e,
  0x2f, 0x2b, 0x0d, 0xbe, 0xce, 0x6d, 0x03, 0xbe, 0xe3, 0x47, 0x18, 0xbd,
  0x51, 0x31, 0x9d, 0xbd, 0x13, 0x5a, 0x8a, 0x3d, 0x97, 0x14, 0x9a, 0xbc,
  0xfe, 0xf8, 0x9a, 0xbd, 0x72, 0x24, 0x9b, 0xbd, 0xa5, 0x7d, 0xe0, 0xbd,
  0xb2, 0xbf, 0x7d, 0x3e, 0x44, 0xbe, 0xf9, 0xbd, 0xd8, 0x53, 0xef, 0x3c,
  0x9a, 0x0c, 0xfb, 0xbd, 0x1b, 0x7b, 0x24, 0xbf, 0x9a, 0x19, 0x4d, 0x3c,
  0x84, 0xb6, 0x1e, 0xbe, 0x55, 0x11, 0x57, 0x3d, 0x72, 0x25, 0x82, 0xbd,
  0x0d, 0x3b, 0xcb, 0x3c, 0x15, 0xc6, 0x38, 0x3e, 0xc2, 0x13, 0x8b, 0xbe,
  0x13, 0x3f, 0x44, 0xbd, 0xfd, 0xa6, 0xec, 0x3b, 0xfd, 0x2c, 0x2d, 0xbd,
  0x70, 0xdc, 0x0d, 0xbe, 0x91, 0x67, 0x90, 0x3e, 0x3a, 0xe4, 0x1d, 0xbe,
  0x0f, 0xaa, 0x72, 0xbe, 0xf9, 0xf7, 0x09, 0xbb, 0x19, 0xae, 0x93, 0xbc,
  0x5f, 0x29, 0x5b, 0xbd, 0xc8, 0x13, 0x0d, 0x3e, 0x10, 0x64, 0xcf, 0xbe,
  0x68, 0x54, 0x0c, 0x3e, 0xbf, 0x9c, 0xdf, 0x3c, 0xc5, 0xf3, 0xc5, 0x3c,
  0x9d, 0x2c, 0xa8, 0x3b, 0x5c, 0x79, 0x74, 0xbd, 0xaa, 0x55, 0x3b, 0x3d,
  0xc0, 0xfc, 0xd2, 0xbd, 0xdd, 0xbf, 0x8a, 0xbd, 0x49, 0x32, 0x99, 0x3e,
  0x4c, 0xfc, 0x60, 0xbe, 0xc5, 0x19, 0x2b, 0xbe, 0xb8, 0x87, 0x97, 0x3d,
  0xde, 0x93, 0x40, 0x3e, 0x4c, 0x60, 0xdb, 0x3c, 0xab, 0x0a, 0xbd, 0x3d,
  0xb9, 0xdb, 0xd1, 0xbd, 0x7a, 0xe3, 0x0f, 0xbe, 0x36, 0x1c, 0x00, 0xbc,
  0x1e, 0x22, 0xbd, 0x3d, 0x35, 0x60, 0x22, 0x3e, 0x96, 0xd5, 0x64, 0xbe,
  0xa4, 0x7b, 0x87, 0x3d, 0x4a, 0x4a, 0xae, 0x3d, 0xc0, 0xa6, 0x6c, 0x3d,
  0xc7, 0x26, 0x47, 0x3e, 0x9c, 0x97, 0x3e, 0x3e, 0x3c, 0x81, 0x14, 0xbe,
  0x99, 0xb0, 0x66, 0x3d, 0x41, 0xf2, 0x82, 0xbc, 0x43, 0x79, 0x1f, 0x3e,
  0x6c, 0x61, 0x90, 0x3d, 0x95, 0x81, 0xb8, 0x3d, 0x68, 0x30, 0x17, 0xbe,
  0x6c, 0x5f, 0x20, 0xbd, 0x24, 0x03, 0xcc, 0x3d, 0xe5, 0xe1, 0x2b, 0xbe,
  0x1f, 0x42, 0x68, 0xbd, 0x51, 0xe0, 0x2f, 0x3d, 0x74, 0xff, 0xf0, 0x3d,
  0x92, 0xbe, 0xbb, 0x3c, 0x9c, 0xa9, 0x2f, 0xbc, 0x33, 0xdd, 0x1d, 0x3e,
  0x05, 0x8a, 0x5f, 0xbe, 0x30, 0x4b, 0x56, 0x3c, 0x64, 0x0c, 0x42, 0x3e,
  0xce, 0xa6, 0x30, 0xbd, 0x8c, 0xcc, 0x29, 0x3e, 0x0a, 0x83, 0x54, 0x3d,
  0x5e, 0xf6, 0xb8, 0x3c, 0xea, 0x39, 0xd4, 0xbd, 0x5a, 0xf2, 0xa0, 0x3d,
  0x0e, 0x5b, 0x59, 0xbe, 0xad, 0x47, 0x3f, 0xbe, 0x2b, 0xdd, 0xcc, 0x3c,
  0x5b, 0xf8, 0xf8, 0x3c, 0x70, 0xde, 0x8d, 0x3d, 0x44, 0x74, 0x72, 0xbc,
  0x56, 0x47, 0xa0, 0x3d, 0x22, 0x81, 0xfb, 0xbc, 0xf0, 0xdc, 0x3b, 0xbd,
  0x84, 0xe8, 0x01, 0x3e, 0x67, 0xc4, 0xc9, 0x3d, 0x89, 0xc4, 0x2e, 0x3e,
  0xf1, 0x50, 0x11, 0xbe, 0x13, 0x78, 0x9c, 0xbe, 0xa3, 0x16, 0xe7, 0xbc,
  0x71, 0xf7, 0x9f, 0x3d, 0x30, 0xe0, 0xb8, 0xbe, 0x02, 0x50, 0x80, 0xbd,
  0x93, 0x01, 0x7d, 0x3d, 0x37, 0xd7, 0xbe, 0x3d, 0xfa, 0xda, 0xbb, 0x3d,
  0xdd, 0xa4, 0x8c, 0xbc, 0x64, 0xf7, 0x24, 0x3e, 0x18, 0xfa, 0x90, 0xbd,
  0xb8, 0x50, 0x3e, 0x3d, 0x29, 0xf3, 0x31, 0x3e, 0x98, 0xfc, 0xfd, 0x3c,
  0x2f, 0x27, 0x11, 0x3e, 0x81, 0x72, 0x74, 0x3c, 0xf7, 0xf2, 0x9a, 0xbd,
  0xc1, 0xdc, 0x30, 0xbd, 0x95, 0x24, 0x7c, 0xbc, 0x5d, 0x1b, 0x15, 0xbe,
  0xe5, 0xe1, 0x7a, 0xbd, 0xd5, 0xa1, 0x25, 0xbc, 0x8a, 0x2c, 0x81, 0x3d,
  0x17, 0x03, 0xde, 0x3c, 0xda, 0x46, 0x2e, 0x3e, 0x48, 0x3e, 0x50, 0x3d,
  0x36, 0x32, 0x01, 0xbe, 0x45, 0x72, 0x1e, 0x3d, 0xcd, 0xbe, 0xeb, 0x3d,
  0x8e, 0x04, 0xfd, 0x3c, 0xf4, 0x5b, 0xce, 0x3d, 0xfc, 0x6e, 0xb0, 0xbc,
  0xb6, 0xf6, 0x0b, 0xbe, 0xa4, 0x70, 0x61, 0x3d, 0x21, 0x74, 0x03, 0x3d,
  0x98, 0xe1, 0x35, 0xbe, 0x58, 0xbb, 0x17, 0xbd, 0x26, 0x4a, 0x1a, 0xbc,
  0xbe, 0xf7, 0xb4, 0x3d, 0x63, 0x36, 0x86, 0xbc, 0x05, 0xdd, 0x6b, 0xbe,
  0x4e, 0xbb, 0x40, 0x3e, 0x4b, 0x4c, 0x03, 0xbe, 0x3e, 0x52, 0xad, 0x3c,
  0xbc, 0x71, 0x3f, 0x3e, 0xbe, 0x5b, 0x3e, 0x3d, 0x5f, 0x43, 0x09, 0x3e,
  0x81, 0x00, 0x25, 0xbd, 0x38, 0xad, 0x07, 0xbe, 0x18, 0x53, 0x4d, 0x3d,
  0x4c, 0x43, 0x61, 0x3d, 0x0c, 0xa1, 0x07, 0xbd, 0x4e, 0xba, 0xea, 0x3c,
  0xea, 0x72, 0x01, 0xbd, 0xc0, 0x41, 0x81, 0x3d, 0xe1, 0x81, 0x5b, 0x3d,
  0x4c, 0xb6, 0x97, 0xbe, 0xe7, 0x0b, 0xa5, 0xbc, 0x48, 0xf2, 0x32, 0xbe,
  0xd2, 0xda, 0x84, 0x3d, 0x8c, 0x5f, 0x5e, 0x3e, 0xa1, 0xc7, 0x02, 0x3e,
  0x0c, 0xc9, 0x31, 0x3e, 0x80, 0xd2, 0x72, 0x3c, 0x21, 0x71, 0x2f, 0x3d,
  0x69, 0x6f, 0xa3, 0xbd, 0x8e, 0x40, 0xd2, 0x3d, 0xe0, 0xc8, 0x9b, 0xbe,
  0x47, 0x50, 0x0e, 0xbd, 0x5b, 0x11, 0xa7, 0xbd, 0x8e, 0x8b, 0x3d, 0x3e,
  0xa3, 0xc7, 0xac, 0x3c, 0x39, 0x1c, 0x62, 0xbd, 0xee, 0x82, 0x84, 0xbd,
  0xc7, 0x1b, 0x80, 0xbe, 0x74, 0xb2, 0xcf, 0xbd, 0xe7, 0x3f, 0x80, 0x3e,
  0x4c, 0x39, 0x64, 0x3e, 0xfb, 0x88, 0xd1, 0x3d, 0x87, 0x2f, 0xbe, 0x3c,
  0x20, 0xd9, 0xa1, 0x3d, 0x56, 0xa4, 0x1a, 0xbd, 0xe4, 0xef, 0x2a, 0x3e,
  0x28, 0x30, 0x66, 0xbe, 0xf6, 0x48, 0x88, 0xbd, 0xda, 0x26, 0x73, 0xbe,
  0x86, 0x7c, 0x3d, 0x3d, 0xb6, 0x51, 0x21, 0xbe, 0x59, 0x39, 0x45, 0xbe,
  0xb5, 0xf1, 0x8b, 0xbc, 0xf2, 0x0c, 0x8d, 0xbe, 0x38, 0x94, 0x7a, 0xbe,
  0x38, 0xf4, 0xdc, 0x3e, 0x50, 0x49, 0xa9, 0x3b, 0xad, 0xce, 0xd0, 0x3e,
  0x09, 0x89, 0x7c, 0xbe, 0x22, 0x0b, 0x23, 0x3e, 0x32, 0xe2, 0x6d, 0x3d,
  0x93, 0x63, 0xa1, 0xbc, 0xd8, 0xbf, 0x2b, 0xbe, 0x03, 0x66, 0x85, 0xbd,
  0xb1, 0x64, 0x05, 0xbf, 0x62, 0x73, 0x02, 0x3e, 0x64, 0xd3, 0x3f, 0xbe,
  0x5b, 0xa5, 0x81, 0xbd, 0xac, 0xae, 0xfb, 0x3d, 0x14, 0xe3, 0x42, 0xbe,
  0x82, 0xe4, 0x8c, 0xbe, 0x93, 0x8a, 0xfd, 0x3e, 0xd5, 0xc6, 0xdb, 0xbd,
  0x3e, 0xb8, 0xdf, 0x3a, 0xec, 0x0c, 0x96, 0xbe, 0xcc, 0xe5, 0x00, 0xbe,
  0xb9, 0x58, 0x06, 0x3e, 0x55, 0x01, 0x22, 0xbd, 0x71, 0x20, 0xa9, 0xbe,
  0x5d, 0xec, 0xd8, 0xbd, 0x74, 0x9f, 0xe8, 0xbe, 0x5f, 0x04, 0x08, 0xbf,
  0x33, 0x01, 0x59, 0xbe, 0x2f, 0xca, 0x3d, 0x3c, 0xd6, 0xba, 0x4e, 0xbd,
  0xbe, 0xce, 0xbd, 0xbd, 0x1f, 0x27, 0xae, 0xbe, 0x00, 0x1d, 0x02, 0x3b,
  0x64, 0x89, 0x51, 0xbe, 0xdc, 0xd5, 0x38, 0xbe, 0x6d, 0x74, 0x51, 0xbd,
  0xec, 0xf8, 0x1d, 0xbe, 0xd2, 0xdc, 0x1d, 0xbe, 0xa5, 0x83, 0x47, 0xbe,
  0x9e, 0x83, 0x2e, 0xbe, 0x4b, 0x5b, 0x5e, 0xbd, 0xbb, 0x71, 0x3d, 0xbe,
  0x6e, 0x37, 0x01, 0xbc, 0x23, 0x82, 0xde, 0xbd, 0x75, 0x10, 0x3d, 0xbe,
  0x4e, 0x0b, 0x6d, 0xbd, 0xad, 0xd3, 0x51, 0xbe, 0x40, 0xb4, 0x4e, 0x3d,
  0xd0, 0x14, 0x46, 0xbd, 0x96, 0x9f, 0x14, 0x3b, 0x92, 0x6d, 0xaf, 0x3c,
  0x83, 0x38, 0xe2, 0x3d, 0x0e, 0x19, 0xe3, 0xbd, 0x7c, 0xf9, 0x4a, 0xbe,
  0x18, 0x3e, 0xef, 0x3c, 0xf6, 0xe1, 0x5f, 0xbd, 0x57, 0x00, 0x15, 0xbe,
  0x62, 0xd6, 0xa2, 0x3d, 0xaf, 0xad, 0x39, 0x3b, 0x0a, 0x48, 0x6e, 0xbd,
  0x93, 0xd2, 0xa8, 0xbd, 0x56, 0x66, 0x72, 0xbc, 0xc8, 0x72, 0x73, 0xbd,
  0x09, 0xfd, 0xba, 0xbd, 0x46, 0xcd, 0x21, 0x3d, 0x27, 0xb5, 0xae, 0x3d,
  0x16, 0xb6, 0x07, 0xbd, 0x5d, 0x77, 0xa7, 0x3d, 0xa9, 0x08, 0xdb, 0xbd,
  0xfb, 0xca, 0x1e, 0xbe, 0xe3, 0x5f, 0xe6, 0x3c, 0x8c, 0x4e, 0xca, 0xbc,
  0x6e, 0xf4, 0x4e, 0xbe, 0x15, 0x45, 0x28, 0x3d, 0x27, 0x81, 0x80, 0xbd,
  0x7c, 0x6d, 0xb3, 0x3d, 0x42, 0xaf, 0xb8, 0xbd, 0x66, 0x4f, 0x9b, 0xbd,
  0xc6, 0x85, 0xb3, 0x3d, 0x78, 0x3f, 0x13, 0xbe, 0xdd, 0x23, 0xe7, 0x3c,
  0x21, 0x1f, 0x32, 0xbc, 0x5c, 0x0e, 0xde, 0x3d, 0xc3, 0xbc, 0x6d, 0x3c,
  0x26, 0xe5, 0x21, 0xbe, 0x3d, 0xbe, 0x0a, 0xbc, 0x67, 0x62, 0x05, 0xbe,
  0xb3, 0xda, 0xa7, 0x3d, 0x56, 0xe4, 0xad, 0xbd, 0xbb, 0xf0, 0xa0, 0xbd,
  0xfa, 0x95, 0x27, 0x3d, 0x7f, 0x8b, 0x9f, 0xbd, 0xbf, 0xe7, 0x3e, 0xbe,
  0xfe, 0xbc, 0x71, 0xbd, 0x03, 0x90, 0x3c, 0x3b, 0x78, 0x8d, 0x01, 0xbe,
  0x43, 0x0b, 0x07, 0xbd, 0xcf, 0xa0, 0x05, 0xbe, 0xf3, 0x7d, 0xcd, 0x3d,
  0xf3, 0xdb, 0x32, 0xba, 0x71, 0x00, 0xee, 0xbd, 0xfd, 0x8c, 0x1f, 0x3d,
  0xd8, 0x98, 0xb2, 0xbd, 0x51, 0x9d, 0x68, 0x3d, 0x8b, 0x76, 0xa4, 0x3c,
  0xeb, 0x34, 0x3f, 0xbe, 0x80, 0x0c, 0xeb, 0x3c, 0xef, 0x6f, 0x09, 0xbe,
  0x04, 0x71, 0xb5, 0xbc, 0xfa, 0x53, 0x31, 0xbe, 0x94, 0xf8, 0x75, 0xbd,
  0x93, 0x96, 0x73, 0xbd, 0xc6, 0x55, 0x25, 0xbe, 0x01, 0x35, 0x9b, 0xbd,
  0x95, 0x30, 0x48, 0x3d, 0x6f, 0x3e, 0x7f, 0x3d, 0x81, 0x06, 0x23, 0xbe,
  0x29, 0x41, 0x82, 0xbb, 0x4f, 0xda, 0x90, 0x3b, 0x17, 0x92, 0x67, 0xbc,
  0x37, 0x1e, 0x30, 0xbe, 0x4b, 0x99, 0xb6, 0x3c, 0xe1, 0xdb, 0x2a, 0x3d,
  0x74, 0x6d, 0x50, 0xbe, 0x48, 0xe0, 0x9e, 0x3d, 0xd3, 0x44, 0xce, 0xbb,
  0xd4, 0xb7, 0x20, 0xbd, 0x0c, 0xaf, 0x10, 0xbe, 0x0c, 0xe1, 0x4e, 0x3d,
  0xbe, 0xf9, 0xda, 0x3d, 0xde, 0x3a, 0xde, 0xbc, 0xd0, 0x93, 0x1b, 0x3d,
  0x7f, 0x3a, 0xf3, 0xbd, 0xcc, 0x62, 0x9a, 0xbc, 0x91, 0x0a, 0x19, 0xbe,
  0x47, 0x64, 0xe1, 0xbd, 0xe7, 0x66, 0xd4, 0xbd, 0x04, 0x6e, 0x06, 0xbe,
  0x1a, 0xe8, 0x3e, 0xbd, 0xbd, 0xcd, 0x21, 0xbe, 0x6c, 0x13, 0x96, 0xbd,
  0x62, 0xb7, 0x05, 0xbd, 0x6c, 0xda, 0xd6, 0xbd, 0x4c, 0x75, 0xe3, 0xbb,
  0xe6, 0x13, 0x5f, 0x3d, 0xde, 0xcd, 0x03, 0xbd, 0x28, 0xc6, 0xcc, 0xbd,
  0x73, 0x0b, 0xe2, 0x3c, 0x40, 0x3c, 0x0b, 0x3e, 0xed, 0xbc, 0xfd, 0xbd,
  0x77, 0x82, 0x93, 0x3b, 0x79, 0xbe, 0x02, 0x3e, 0xa7, 0xa9, 0x39, 0xbe,
  0x04, 0x0e, 0xa9, 0xbc, 0x62, 0x00, 0x07, 0x3c, 0x2a, 0x45, 0x9d, 0xbd,
  0xd8, 0x19, 0xd3, 0x3d, 0x8d, 0x9f, 0xd5, 0xbc, 0xcc, 0x7c, 0x3c, 0xbe,
  0xf1, 0x59, 0x82, 0x3a, 0x9f, 0x7c, 0x08, 0xbe, 0xfe, 0xb1, 0x2e, 0xbe,
  0x00, 0x11, 0xbe, 0xbd, 0xb8, 0x0a, 0x57, 0x3d, 0x78, 0x76, 0xd0, 0x3d,
  0xcb, 0x99, 0x55, 0xbd, 0x1e, 0x3f, 0x9d, 0x3c, 0xf9, 0xe4, 0x1f, 0xbd,
  0x47, 0x65, 0x2a, 0x3d, 0x98, 0xaf, 0x32, 0xbe, 0xd9, 0xdb, 0x9b, 0xbd,
  0x16, 0x03, 0x3d, 0x3d, 0x7e, 0x94, 0x96, 0x3d, 0x9c, 0xa5, 0x84, 0x3d,
  0xea, 0x1e, 0xa4, 0xbd, 0x75, 0xea, 0x0e, 0xbd, 0x65, 0xa6, 0x8a, 0xbd,
  0xce, 0xcb, 0xe2, 0xbd, 0xe2, 0xd0, 0x14, 0x3c, 0x94, 0x2b, 0x0d, 0x3c,
  0xb0, 0x98, 0x96, 0x3c, 0x7b, 0x06, 0xf7, 0xbd, 0x0f, 0x9f, 0x99, 0xbd,
  0x3a, 0xab, 0x81, 0x3d, 0xc8, 0x58, 0x4d, 0xbd, 0x47, 0xdc, 0x41, 0xbe,
  0xcc, 0x1a, 0xd5, 0xbd, 0x5d, 0xd0, 0xbf, 0xbc, 0x4f, 0xb5, 0xdd, 0xbc,
  0xba, 0x42, 0x7c, 0x3d, 0x82, 0x2a, 0x5d, 0xbe, 0x69, 0xcc, 0x0c, 0x3d,
  0x03, 0x0e, 0x1d, 0xbc, 0x08, 0x62, 0x26, 0xbe, 0xcf, 0x3a, 0x69, 0x3d,
  0x0f, 0x37, 0x0c, 0x3b, 0x1f, 0xd6, 0x00, 0xbe, 0x8b, 0x1b, 0xfb, 0x3b,
  0xd7, 0x48, 0x0a, 0xbe, 0xe8, 0xed, 0xf2, 0xbd, 0xb5, 0x73, 0x82, 0xbe,
  0x72, 0x26, 0xc8, 0xbc, 0xe3, 0xa4, 0x08, 0x3d, 0x49, 0xbd, 0x79, 0x3d,
  0xcc, 0xaf, 0x68, 0xbd, 0x4a, 0x79, 0xce, 0xbd, 0x1c, 0x2f, 0xe3, 0xbd,
  0xf5, 0x22, 0x5d, 0x3c, 0x03, 0xfd, 0x16, 0xbe, 0x90, 0x73, 0x9e, 0xbb,
  0xaa, 0x00, 0xd2, 0xbd, 0x5d, 0x67, 0x0e, 0xbd, 0x13, 0x75, 0xa6, 0xbc,
  0x77, 0x8a, 0x5d, 0xbd, 0x2f, 0xb0, 0x14, 0xbe, 0xca, 0xd1, 0x82, 0xbd,
  0x62, 0x82, 0xf5, 0xbd, 0x1a, 0x49, 0x38, 0xbc, 0x3f, 0xcd, 0xa8, 0x3c,
  0x25, 0x82, 0xdf, 0xbd, 0xef, 0x74, 0x2a, 0xbd, 0x0d, 0x65, 0x45, 0xbe,
  0xe2, 0x98, 0x70, 0xbe, 0x19, 0xe7, 0xf9, 0xbd, 0x14, 0xc2, 0xa7, 0xbc,
  0x0c, 0x41, 0x88, 0x3d, 0x11, 0xdc, 0x93, 0xbd, 0x7b, 0x88, 0xa7, 0x3c,
  0xad, 0x5a, 0xad, 0xbd, 0xe0, 0x30, 0x3f, 0xbd, 0x3d, 0x38, 0xbf, 0xbd,
  0x53, 0x11, 0x87, 0x3d, 0x09, 0x50, 0x71, 0xbc, 0xbb, 0x0a, 0x2f, 0x3c,
  0x07, 0x2a, 0xa4, 0x3d, 0x93, 0x65, 0xae, 0xbb, 0xeb, 0xbd, 0x11, 0x3d,
  0x83, 0xb3, 0xd4, 0xbd, 0xca, 0x7b, 0xa9, 0xbd, 0xf3, 0x58, 0xdc, 0xbd,
  0x3c, 0x78, 0x37, 0xbe, 0xb7, 0x9c, 0x01, 0xbe, 0x0e, 0xb9, 0x2d, 0xbe,
  0xc1, 0x26, 0x3d, 0x3c, 0xb6, 0x82, 0x56, 0x3c, 0xfa, 0x8a, 0x83, 0xbd,
  0xe1, 0xea, 0x54, 0xbe, 0x25, 0x99, 0x5d, 0x3b, 0x35, 0xd7, 0x81, 0x3c,
  0x47, 0x23, 0x57, 0xbe, 0xae, 0x9f, 0x12, 0xbe, 0x70, 0x8a, 0x90, 0xbd,
  0x8c, 0x8c, 0x90, 0x3d, 0x8a, 0xab, 0x08, 0xbc, 0x6d, 0xe6, 0xff, 0xbc,
  0x49, 0xd6, 0x4b, 0xbe, 0xce, 0x0a, 0x03, 0xbe, 0xec, 0x92, 0x55, 0xbd,
  0x53, 0xd9, 0x58, 0x3c, 0xda, 0x71, 0x4a, 0x3d, 0x83, 0x8e, 0xd0, 0xbc,
  0x4c, 0xa3, 0xb9, 0xbd, 0x64, 0x98, 0xbe, 0xbe, 0x7b, 0x90, 0x41, 0x3c,
  0x35, 0xd0, 0x07, 0xbe, 0x25, 0x75, 0x17, 0xbf, 0xf0, 0xbc, 0x59, 0xbd,
  0x8c, 0xd5, 0x09, 0xbe, 0x31, 0xed, 0xac, 0x3e, 0x0d, 0xae, 0x37, 0xbe,
  0xe0, 0x63, 0xc1, 0x3c, 0xbc, 0x5f, 0x3b, 0xbe, 0x7d, 0x19, 0x1f, 0xbf,
  0xba, 0x8d, 0xa0, 0xbd, 0xee, 0x0e, 0x4a, 0xbd, 0xf2, 0x50, 0xab, 0x3e,
  0x1f, 0x9d, 0x39, 0x3e, 0x00, 0x99, 0x1b, 0xbd, 0xfb, 0x90, 0x9c, 0xbe,
  0xf2, 0xff, 0x0e, 0xbe, 0x0a, 0xde, 0x28, 0x3d, 0x11, 0xf9, 0xb4, 0xbd,
  0x78, 0x38, 0x80, 0xbd, 0xc8, 0x49, 0x02, 0xbe, 0xe0, 0xb6, 0x2d, 0x3e,
  0xa1, 0x09, 0x93, 0xbd, 0xeb, 0xce, 0x0c, 0xbf, 0xe5, 0xc3, 0x63, 0xbe,
  0xfa, 0x55, 0x81, 0x3d, 0x70, 0x7c, 0x98, 0xbe, 0x18, 0xb3, 0xaa, 0xbe,
  0xa2, 0xab, 0x32, 0xbd, 0x36, 0x7c, 0x4e, 0x3e, 0xb8, 0x9e, 0x29, 0x3d,
  0xf9, 0xd3, 0xdc, 0xbd, 0x2e, 0x1b, 0xac, 0xbe, 0x87, 0x2c, 0xa5, 0xbc,
  0xfe, 0x34, 0xac, 0x3d, 0x67, 0x24, 0xc9, 0xbd, 0xdd, 0x28, 0x07, 0xbe,
  0x9b, 0x67, 0x79, 0x3e, 0x34, 0xc0, 0x6e, 0xbe, 0x16, 0x73, 0x33, 0xbf,
  0xcf, 0x8b, 0x19, 0xbd, 0xfa, 0xcb, 0x8f, 0x3d, 0x2b, 0x37, 0x99, 0xbe,
  0x78, 0x90, 0xbb, 0xbd, 0x22, 0xb2, 0xc3, 0xbe, 0xeb, 0xd9, 0x6e, 0xbd,
  0xc0, 0x7b, 0xab, 0xbb, 0x8b, 0x70, 0x04, 0x3e, 0x8c, 0x9a, 0xda, 0x3c,
  0xc0, 0x13, 0x4d, 0xbe, 0x34, 0xf5, 0xb3, 0x3d, 0xbe, 0x31, 0x2d, 0xbe,
  0xda, 0xf7, 0x93, 0xbd, 0x60, 0xfb, 0x8b, 0x3e, 0x0e, 0xae, 0x21, 0xbc,
  0x8e, 0x7d, 0xb7, 0xbe, 0xa2, 0x37, 0xe7, 0x3d, 0x16, 0x8a, 0x2e, 0xbe,
  0xa2, 0xa9, 0x32, 0x3d, 0x23, 0x15, 0x81, 0x3e, 0xb9, 0x81, 0x28, 0x3e,
  0xc3, 0xc1, 0x52, 0x3b, 0xa4, 0xe2, 0x00, 0x3d, 0xea, 0xa0, 0x0a, 0x3e,
  0xee, 0x8c, 0xd8, 0x3d, 0x95, 0xce, 0x09, 0xbe, 0x58, 0xf5, 0x39, 0xbe,
  0x0c, 0xb5, 0x3c, 0x3e, 0x6a, 0x34, 0x3c, 0xbe, 0xdf, 0x9d, 0x54, 0x3e,
  0x2a, 0xfb, 0xe8, 0x3d, 0x80, 0x51, 0x47, 0xbe, 0x6e, 0xe5, 0xb8, 0x3d,
  0x1c, 0x48, 0x07, 0x3e, 0xa6, 0x79, 0x26, 0x3e, 0x46, 0x02, 0x04, 0x3e,
  0xe6, 0x61, 0xf8, 0x3d, 0x5d, 0x43, 0x7c, 0x3d, 0x9f, 0xab, 0x1d, 0xbe,
  0xc3, 0x37, 0x38, 0x3e, 0x76, 0x01, 0x6d, 0xbe, 0x56, 0xc2, 0xa7, 0xbd,
  0xde, 0xa0, 0x55, 0xbd, 0xbb, 0xda, 0xd0, 0x3d, 0xa3, 0xa4, 0x38, 0xbc,
  0x4e, 0x49, 0x10, 0x3e, 0xa6, 0x31, 0xa4, 0xbd, 0x03, 0x72, 0x93, 0xbe,
  0x6f, 0x0d, 0x86, 0xbd, 0x05, 0x7f, 0xa1, 0x3e, 0xda, 0x61, 0xc2, 0x3d,
  0xe5, 0x8d, 0xb2, 0x3d, 0x4b, 0x95, 0x46, 0x3d, 0xea, 0x15, 0x20, 0xbd,
  0xaf, 0x63, 0x96, 0xbd, 0x41, 0x67, 0x5e, 0x3d, 0x1c, 0x81, 0x14, 0xbf,
  0xb4, 0xfc, 0xcf, 0xbd, 0xe0, 0x2d, 0x79, 0x3c, 0x3e, 0x06, 0x84, 0x3d,
  0x5f, 0x90, 0x85, 0x3d, 0xba, 0xb2, 0x6a, 0x3c, 0x0c, 0x53, 0x47, 0x3d,
  0x59, 0x81, 0x17, 0xbe, 0x6b, 0x35, 0x05, 0x3d, 0xed, 0xbb, 0x12, 0x3e,
  0xb1, 0x03, 0x70, 0x3d, 0x28, 0xf3, 0x19, 0x3e, 0xaa, 0x14, 0x9d, 0x3d,
  0xe5, 0x3c, 0xc7, 0xbd, 0x45, 0xe5, 0x42, 0xbd, 0xb8, 0xf0, 0x92, 0xb9,
  0xd0, 0xf3, 0xa7, 0xbe, 0xdc, 0x6a, 0x01, 0xbe, 0xeb, 0xb2, 0xfd, 0xbd,
  0x8b, 0x73, 0x61, 0x3d, 0xa5, 0x00, 0x86, 0x3d, 0x81, 0x66, 0xd5, 0x3d,
  0xfb, 0xdb, 0x27, 0x3e, 0xd1, 0xd1, 0x18, 0xbe, 0x31, 0xcc, 0x89, 0x3d,
  0x6b, 0xb9, 0x72, 0x3e, 0x1f, 0x4f, 0x62, 0x3d, 0x8b, 0x57, 0x02, 0x3e,
  0xc7, 0x56, 0x0c, 0xbd, 0x21, 0x4a, 0x74, 0xbe, 0xcf, 0x0b, 0x6c, 0xbd,
  0xd3, 0xc8, 0x95, 0x3d, 0xf8, 0xaf, 0x35, 0xbe, 0xae, 0xe1, 0xb4, 0xbd,
  0x49, 0x6e, 0x66, 0xbd, 0x37, 0x2f, 0xc2, 0x3d, 0x39, 0xc8, 0xe0, 0x3b,
  0xfe, 0x09, 0x94, 0xbd, 0xfc, 0x43, 0x4b, 0x3d, 0xec, 0x5a, 0x66, 0xbe,
  0xbb, 0x44, 0x52, 0x3c, 0xa6, 0x28, 0x88, 0x3e, 0x26, 0x58, 0x35, 0x3e,
  0xd4, 0x3f, 0xf6, 0x3d, 0x66, 0x6c, 0x6b, 0xbd, 0x2b, 0x07, 0x8b, 0xbd,
  0xea, 0x1e, 0x0d, 0x3d, 0x81, 0x04, 0x08, 0x3e, 0x83, 0x25, 0x6c, 0xbe,
  0xb2, 0xdd, 0xf6, 0xbc, 0x2e, 0x25, 0x17, 0xbd, 0x85, 0xfc, 0xc2, 0x3d,
  0xc2, 0x55, 0x74, 0x3d, 0x6a, 0x9d, 0x34, 0xbd, 0x47, 0x35, 0xf9, 0x3d,
  0x1f, 0xbd, 0x76, 0xbe, 0xfe, 0x3e, 0x76, 0x3d, 0x4c, 0x4a, 0x56, 0x3e,
  0x34, 0x8f, 0xb9, 0x3d, 0xa6, 0xf1, 0x35, 0x3e, 0x19, 0xe1, 0xe6, 0xbc,
  0xa4, 0x8d, 0xb1, 0xbd, 0x07, 0xca, 0x57, 0x3b, 0x8b, 0xef, 0x06, 0x3d,
  0x7d, 0x4b, 0x5b, 0xbe, 0xcf, 0xc6, 0xab, 0xbd, 0x96, 0xb9, 0xac, 0x3c,
  0xe1, 0x6e, 0xc7, 0x3d, 0xd5, 0x7e, 0x10, 0xbd, 0x21, 0x0e, 0xfe, 0xbc,
  0x09, 0xb9, 0x60, 0xbd, 0xfd, 0xd5, 0x42, 0xbe, 0x28, 0xa1, 0x1e, 0x3d,
  0xfc, 0x72, 0x48, 0x3e, 0x5e, 0xca, 0xf5, 0x3d, 0x33, 0x7a, 0xd1, 0x3d,
  0x50, 0x29, 0xc4, 0x3b, 0x05, 0x59, 0xed, 0xbc, 0xa5, 0xf1, 0x84, 0xbd,
  0x12, 0x18, 0xa6, 0x3d, 0x62, 0xd5, 0x47, 0xbe, 0xef, 0x48, 0xb1, 0x3c,
  0x26, 0x74, 0x40, 0x39, 0xbe, 0x73, 0x3e, 0x3d, 0x3e, 0xaa, 0x8a, 0xbc,
  0x50, 0x94, 0x83, 0xbe, 0x48, 0x6c, 0xa4, 0x3d, 0xf3, 0x42, 0x35, 0xbe,
  0x64, 0xd1, 0xd8, 0x3c, 0xb3, 0x43, 0x66, 0x3e, 0x1f, 0xd1, 0xde, 0x3d,
  0xd6, 0x0a, 0x02, 0x3e, 0x6e, 0x7f, 0xf0, 0xbd, 0xb7, 0xc5, 0x8f, 0x3d,
  0x64, 0x71, 0xb0, 0xbd, 0x89, 0xc7, 0xb4, 0x3d, 0xd7, 0x54, 0xa7, 0xbd,
  0x68, 0xca, 0x11, 0xbd, 0x17, 0xa1, 0x1f, 0xbe, 0xc8, 0xb8, 0x20, 0x3e,
  0x01, 0x2f, 0xd6, 0x3c, 0x47, 0xd6, 0x44, 0xbe, 0x85, 0x0f, 0x88, 0x3a,
  0x81, 0xb9, 0x06, 0xbe, 0xd0, 0x5c, 0x37, 0xbe, 0xe0, 0xa5, 0x40, 0x3e,
  0xc0, 0x6d, 0xff, 0x3d, 0xce, 0x49, 0x9f, 0x3e, 0x3c, 0xf0, 0x5b, 0xbe,
  0xea, 0x3e, 0x4c, 0xbe, 0x23, 0x3e, 0xaa, 0x3d, 0xeb, 0xd9, 0xd3, 0x3c,
  0xc4, 0x42, 0x19, 0xbe, 0x25, 0x3c, 0xb7, 0x3d, 0x4b, 0x31, 0xe2, 0xbe,
  0xcb, 0xe8, 0x79, 0xbe, 0x66, 0xab, 0x79, 0xbd, 0xb3, 0xd9, 0xb9, 0xbd,
  0xf8, 0x6d, 0x6b, 0x3d, 0x0e, 0x54, 0xe6, 0xbb, 0x42, 0x0a, 0xbd, 0xbe,
  0x2c, 0xbb, 0x16, 0x3e, 0x04, 0xec, 0x7c, 0xbe, 0x89, 0x5b, 0x38, 0x3e,
  0xc3, 0x0a, 0x06, 0xbe, 0x0b, 0xd8, 0x53, 0xbc, 0x0e, 0xb3, 0xa4, 0x3d,
  0x73, 0x1f, 0x43, 0x3d, 0x86, 0xcc, 0xee, 0xbd, 0x7d, 0x44, 0x21, 0x3e,
  0x50, 0xf0, 0x3a, 0xbe, 0x28, 0xab, 0x25, 0xbe, 0x26, 0x80, 0x13, 0x3d,
  0xc8, 0xf3, 0x5d, 0xbe, 0x13, 0xcc, 0x35, 0x3d, 0x8d, 0xfb, 0xc4, 0xbc,
  0xe1, 0x74, 0xfd, 0xbd, 0x74, 0x3d, 0x45, 0xbe, 0x1f, 0xe9, 0x89, 0x3d,
  0x37, 0x6b, 0x87, 0xbc, 0x38, 0xc1, 0xa5, 0xbe, 0x8d, 0x87, 0x96, 0x3d,
  0xd7, 0x71, 0x4b, 0x3d, 0xc0, 0x06, 0xaf, 0xbc, 0xc1, 0x01, 0x82, 0xbc,
  0xc6, 0x74, 0x25, 0x3e, 0xd4, 0x7f, 0xdc, 0xbe, 0xc7, 0x90, 0x58, 0xbe,
  0xfd, 0x6e, 0x44, 0x3d, 0x1f, 0x60, 0xa1, 0xbe, 0x5a, 0x32, 0x0b, 0x3e,
  0x13, 0xed, 0xe6, 0xbe, 0x03, 0x2b, 0x70, 0xbe, 0xcf, 0xb2, 0xf2, 0xbe,
  0x4e, 0x04, 0x81, 0xbd, 0xd4, 0x71, 0xa0, 0xbe, 0x72, 0xef, 0x2c, 0xbe,
  0x4b, 0xaa, 0xa8, 0xbd, 0xfe, 0xe6, 0xee, 0x3d, 0x6f, 0xf3, 0xf1, 0xbd,
  0x50, 0x70, 0xd7, 0x3d, 0x51, 0xed, 0xb3, 0x3d, 0xc2, 0xf7, 0xed, 0xbd,
  0x70, 0x9f, 0x2e, 0xbe, 0xf7, 0xaf, 0x02, 0x3e, 0x46, 0x28, 0x8c, 0xbe,
  0xec, 0x68, 0x00, 0xbe, 0xf3, 0x92, 0x1c, 0xbf, 0x33, 0x34, 0x78, 0xbe,
  0x8b, 0xf4, 0x45, 0xbf, 0x25, 0xc3, 0xb6, 0xbd, 0x36, 0xa3, 0xc4, 0xbe,
  0x72, 0xc4, 0xd5, 0xbd, 0xd6, 0x1e, 0xc9, 0x3d, 0x95, 0xca, 0x45, 0x3d,
  0x07, 0x09, 0xc5, 0xbd, 0xef, 0x4a, 0x1b, 0xbd, 0x3b, 0xf1, 0x07, 0xbe,
  0x07, 0x95, 0x93, 0xba, 0x89, 0xf0, 0x71, 0xbc, 0x73, 0x86, 0x3f, 0x3e,
  0xba, 0xcf, 0x30, 0x3c, 0xf2, 0x57, 0x64, 0xbe, 0x56, 0x43, 0xd7, 0xbb,
  0xc0, 0xf1, 0xa6, 0xbc, 0xa5, 0x1d, 0xca, 0xbd, 0xea, 0xf1, 0x78, 0xbd,
  0x72, 0x47, 0x7e, 0xbd, 0x30, 0xb4, 0x09, 0x3e, 0xfc, 0x3b, 0x01, 0x3c,
  0x13, 0x7a, 0x71, 0x3d, 0x58, 0x1e, 0xe7, 0xbd, 0xd0, 0x79, 0xc7, 0x3d,
  0x13, 0xf4, 0x32, 0xbd, 0xf0, 0x78, 0x36, 0xbd, 0xe4, 0x65, 0x0a, 0x3d,
  0xf4, 0xd3, 0x3e, 0x3c, 0xe5, 0x1e, 0x7b, 0xbe, 0xb5, 0x85, 0x22, 0xbe,
  0xd3, 0xd8, 0xc8, 0x3d, 0x50, 0x94, 0x88, 0xbb, 0x90, 0xf3, 0x1c, 0x3e,
  0xa9, 0x49, 0x39, 0x3c, 0x33, 0xb0, 0x57, 0xbe, 0x75, 0x6c, 0x98, 0x3d,
  0x73, 0x93, 0x0f, 0xbe, 0x6a, 0x9f, 0x53, 0xbd, 0xa5, 0x5b, 0xee, 0x3d,
  0x13, 0xca, 0x27, 0xbd, 0x13, 0x44, 0x2f, 0x3c, 0xa8, 0x58, 0x80, 0xbd,
  0x98, 0x53, 0x9d, 0x3b, 0x1f, 0xfe, 0x89, 0x3d, 0x4e, 0x8e, 0x8e, 0xbe,
  0x53, 0x37, 0x0e, 0xbc, 0x36, 0xac, 0x4e, 0x3e, 0x6a, 0x05, 0xeb, 0xbc,
  0x9e, 0xbe, 0x9e, 0xbe, 0x31, 0x25, 0xcb, 0xbd, 0xde, 0x47, 0x3f, 0xbe,
  0x8a, 0xfc, 0x0a, 0x3d, 0xd3, 0x47, 0xd9, 0x3d, 0x24, 0x83, 0x3c, 0xbd,
  0xfb, 0x97, 0x99, 0xbc, 0x3f, 0xa7, 0x3b, 0x3e, 0xcc, 0x40, 0xdc, 0xbc,
  0xdf, 0xab, 0x69, 0xbd, 0xee, 0x8a, 0x1e, 0xbc, 0xd9, 0x24, 0x53, 0x3d,
  0x1c, 0xc1, 0x2a, 0xbd, 0xee, 0xf3, 0x73, 0x3d, 0xb2, 0x7e, 0x86, 0x3d,
  0xe7, 0x74, 0xd1, 0xbd, 0x0e, 0x57, 0x87, 0xbe, 0xa0, 0x85, 0xf7, 0xbd,
  0xea, 0xc0, 0x93, 0xbe, 0x33, 0xa2, 0x83, 0x3d, 0xdf, 0x5c, 0x00, 0x3d,
  0x0d, 0xa4, 0x4c, 0x3d, 0x86, 0x7e, 0x11, 0xbd, 0x3b, 0x90, 0x2f, 0xbb,
  0x89, 0x6c, 0x52, 0xbd, 0xd8, 0x3a, 0x0c, 0xbc, 0xec, 0xd4, 0xb9, 0xbd,
  0x24, 0xa1, 0xb8, 0x3d, 0x8a, 0x98, 0x5b, 0xbd, 0xdb, 0x89, 0xdb, 0x3c,
  0x26, 0x16, 0xe9, 0x3d, 0x69, 0x44, 0x3b, 0xbd, 0x3a, 0x36, 0xb5, 0xbd,
  0x44, 0xc1, 0x86, 0xbd, 0x08, 0x18, 0xec, 0xbd, 0x07, 0x39, 0x85, 0x3d,
  0xc5, 0x3e, 0xcc, 0x3d, 0x49, 0xc9, 0xa7, 0xbc, 0xe9, 0x9a, 0x23, 0x3d,
  0xc8, 0xe6, 0xc6, 0xbd, 0xbd, 0x50, 0xb0, 0xba, 0x55, 0x49, 0xd1, 0xbc,
  0xb2, 0x93, 0xb5, 0xbc, 0x23, 0x5b, 0x29, 0x3d, 0x6a, 0x3d, 0x11, 0xbe,
  0xe9, 0xd6, 0xba, 0x3d, 0x78, 0x03, 0x94, 0x3d, 0x1c, 0x78, 0x8e, 0xbd,
  0x03, 0xc4, 0x87, 0xbc, 0x22, 0x61, 0xc4, 0xbd, 0xab, 0x41, 0x04, 0xbe,
  0x85, 0xb2, 0x18, 0x3d, 0x22, 0xc3, 0x40, 0x3d, 0x23, 0x28, 0x20, 0x3d,
  0xc9, 0x6c, 0xcd, 0x3c, 0x53, 0xe0, 0x49, 0x3d, 0xf5, 0x46, 0xc9, 0xbc,
  0x4e, 0xa0, 0x6e, 0x3c, 0x38, 0x20, 0x51, 0x3c, 0xd2, 0x33, 0xa2, 0x3c,
  0xf3, 0x9a, 0x00, 0xbe, 0x1f, 0x82, 0x90, 0x3d, 0xfa, 0x40, 0x23, 0x3e,
  0xfe, 0xbe, 0xa2, 0xbb, 0x18, 0xb3, 0x00, 0xbe, 0x3a, 0x7a, 0x2c, 0xbd,
  0x49, 0x85, 0x02, 0xbe, 0xe8, 0x7d, 0x9b, 0x3c, 0x3e, 0x7f, 0xb4, 0xbc,
  0xee, 0x5f, 0xeb, 0x3d, 0x2c, 0x4f, 0x91, 0x3d, 0x5b, 0xbd, 0x08, 0x3d,
  0x66, 0xb9, 0x0b, 0x3d, 0x1f, 0xbc, 0xce, 0x3c, 0x8e, 0x47, 0x80, 0xbc,
  0x87, 0xd3, 0x30, 0x3c, 0x64, 0x2c, 0x95, 0x3d, 0xe4, 0x42, 0x0d, 0x3e,
  0x5a, 0x05, 0x39, 0x3d, 0xa2, 0x5e, 0x48, 0x3d, 0x9c, 0x87, 0xd0, 0xbd,
  0x93, 0x76, 0xc3, 0xbb, 0x8c, 0xcd, 0xda, 0xbc, 0x6e, 0x25, 0x0a, 0xbd,
  0xff, 0x03, 0x9a, 0xbd, 0x40, 0x67, 0xd9, 0xbd, 0xbf, 0x7e, 0xd2, 0x3c,
  0x35, 0x27, 0xb2, 0x3c, 0x09, 0x81, 0x48, 0xbc, 0x80, 0x43, 0xab, 0x3c,
  0xcc, 0xff, 0xd2, 0xbc, 0xf8, 0x70, 0x20, 0xbe, 0xd9, 0x99, 0x2d, 0x3e,
  0x75, 0x9e, 0x77, 0x3e, 0x85, 0x2c, 0x67, 0x3d, 0xbb, 0xcd, 0x75, 0x3d,
