/* Copyright 2019 The TensorFlow Authors. All Rights Reserved.

Licensed under the Apache License, Version 2.0 (the "License");
you may not use this file except in compliance with the License.
You may obtain a copy of the License at

    http://www.apache.org/licenses/LICENSE-2.0

Unless required by applicable law or agreed to in writing, software
distributed under the License is distributed on an "AS IS" BASIS,
WITHOUT WARRANTIES OR CONDITIONS OF ANY KIND, either express or implied.
See the License for the specific language governing permissions and
limitations under the License.
==============================================================================*/

// Automatically created from a TensorFlow Lite flatbuffer using the command:
// xxd -i magic_wand_model.tflite > magic_wand_model_data.cc
// See the README for a full description of the creation process.

#include "tensorflow/lite/micro/examples/magic_wand/magic_wand_model_data.h"

// We need to keep the data array aligned on some architectures.
#ifdef __has_attribute
#define HAVE_ATTRIBUTE(x) __has_attribute(x)
#else
#define HAVE_ATTRIBUTE(x) 0
#endif
#if HAVE_ATTRIBUTE(aligned) || (defined(__GNUC__) && !defined(__clang__))
#define DATA_ALIGN_ATTRIBUTE __attribute__((aligned(4)))
#else
#define DATA_ALIGN_ATTRIBUTE
#endif

const unsigned char g_magic_wand_model_data[] DATA_ALIGN_ATTRIBUTE = {
    0x1c, 0x00, 0x00, 0x00, 0x54, 0x46, 0x4c, 0x33, 0x00, 0x00, 0x12, 0x00,
    0x1c, 0x00, 0x04, 0x00, 0x08, 0x00, 0x0c, 0x00, 0x10, 0x00, 0x14, 0x00,
    0x00, 0x00, 0x18, 0x00, 0x12, 0x00, 0x00, 0x00, 0x03, 0x00, 0x00, 0x00,
    0x24, 0x4c, 0x00, 0x00, 0x10, 0x00, 0x00, 0x00, 0x1c, 0x00, 0x00, 0x00,
    0x2c, 0x00, 0x00, 0x00, 0x0c, 0x00, 0x00, 0x00, 0x01, 0x00, 0x00, 0x00,
    0x14, 0x01, 0x00, 0x00, 0x01, 0x00, 0x00, 0x00, 0xdc, 0x00, 0x00, 0x00,
    0x0f, 0x00, 0x00, 0x00, 0x54, 0x4f, 0x43, 0x4f, 0x20, 0x43, 0x6f, 0x6e,
    0x76, 0x65, 0x72, 0x74, 0x65, 0x64, 0x2e, 0x00, 0x12, 0x00, 0x00, 0x00,
    0xb0, 0x00, 0x00, 0x00, 0xa4, 0x00, 0x00, 0x00, 0x98, 0x00, 0x00, 0x00,
    0x8c, 0x00, 0x00, 0x00, 0x80, 0x00, 0x00, 0x00, 0x74, 0x00, 0x00, 0x00,
    0x68, 0x00, 0x00, 0x00, 0x60, 0x00, 0x00, 0x00, 0x58, 0x00, 0x00, 0x00,
    0x50, 0x00, 0x00, 0x00, 0x48, 0x00, 0x00, 0x00, 0x40, 0x00, 0x00, 0x00,
    0x38, 0x00, 0x00, 0x00, 0x2c, 0x00, 0x00, 0x00, 0x20, 0x00, 0x00, 0x00,
    0x18, 0x00, 0x00, 0x00, 0x10, 0x00, 0x00, 0x00, 0x04, 0x00, 0x00, 0x00,
    0x6e, 0xb6, 0xff, 0xff, 0x68, 0x00, 0x00, 0x00, 0x30, 0xb6, 0xff, 0xff,
    0x34, 0xb6, 0xff, 0xff, 0x7e, 0xb6, 0xff, 0xff, 0xf0, 0x01, 0x00, 0x00,
    0x86, 0xb6, 0xff, 0xff, 0xc8, 0x03, 0x00, 0x00, 0x48, 0xb6, 0xff, 0xff,
    0x4c, 0xb6, 0xff, 0xff, 0x50, 0xb6, 0xff, 0xff, 0x54, 0xb6, 0xff, 0xff,
    0x58, 0xb6, 0xff, 0xff, 0x5c, 0xb6, 0xff, 0xff, 0xa6, 0xb6, 0xff, 0xff,
    0xc0, 0x0d, 0x00, 0x00, 0xae, 0xb6, 0xff, 0xff, 0x00, 0x46, 0x00, 0x00,
    0xb6, 0xb6, 0xff, 0xff, 0x60, 0x46, 0x00, 0x00, 0xbe, 0xb6, 0xff, 0xff,
    0xe0, 0x46, 0x00, 0x00, 0xc6, 0xb6, 0xff, 0xff, 0x48, 0x47, 0x00, 0x00,
    0xce, 0xb6, 0xff, 0xff, 0x98, 0x48, 0x00, 0x00, 0x90, 0xb6, 0xff, 0xff,
    0x05, 0x00, 0x00, 0x00, 0x31, 0x2e, 0x35, 0x2e, 0x30, 0x00, 0x00, 0x00,
    0x54, 0xf4, 0xff, 0xff, 0x08, 0x00, 0x00, 0x00, 0x11, 0x00, 0x00, 0x00,
    0x13, 0x00, 0x00, 0x00, 0x6d, 0x69, 0x6e, 0x5f, 0x72, 0x75, 0x6e, 0x74,
    0x69, 0x6d, 0x65, 0x5f, 0x76, 0x65, 0x72, 0x73, 0x69, 0x6f, 0x6e, 0x00,
    0x0c, 0x00, 0x14, 0x00, 0x04, 0x00, 0x08, 0x00, 0x0c, 0x00, 0x10, 0x00,
    0x0c, 0x00, 0x00, 0x00, 0x20, 0x00, 0x00, 0x00, 0x14, 0x00, 0x00, 0x00,
    0x08, 0x00, 0x00, 0x00, 0x88, 0x48, 0x00, 0x00, 0x01, 0x00, 0x00, 0x00,
    0x00, 0x00, 0x00, 0x00, 0x01, 0x00, 0x00, 0x00, 0x01, 0x00, 0x00, 0x00,
    0x10, 0x00, 0x00, 0x00, 0x9c, 0x0c, 0x00, 0x00, 0x14, 0x0b, 0x00, 0x00,
    0xd4, 0x00, 0x00, 0x00, 0x24, 0x45, 0x00, 0x00, 0x84, 0x00, 0x00, 0x00,
    0xa4, 0x02, 0x00, 0x00, 0x80, 0x45, 0x00, 0x00, 0x9c, 0x0b, 0x00, 0x00,
    0xb0, 0x0c, 0x00, 0x00, 0xc4, 0x47, 0x00, 0x00, 0x50, 0x0b, 0x00, 0x00,
    0x2c, 0x0c, 0x00, 0x00, 0x48, 0x46, 0x00, 0x00, 0xec, 0x45, 0x00, 0x00,
    0x08, 0x00, 0x00, 0x00, 0xc8, 0x0b, 0x00, 0x00, 0x66, 0xb8, 0xff, 0xff,
    0x10, 0x00, 0x00, 0x00, 0x10, 0x00, 0x00, 0x00, 0x1c, 0x00, 0x00, 0x00,
    0x40, 0x00, 0x00, 0x00, 0x04, 0x00, 0x00, 0x00, 0x01, 0x00, 0x00, 0x00,
    0x2a, 0x00, 0x00, 0x00, 0x01, 0x00, 0x00, 0x00, 0x08, 0x00, 0x00, 0x00,
    0x20, 0x00, 0x00, 0x00, 0x73, 0x65, 0x71, 0x75, 0x65, 0x6e, 0x74, 0x69,
    0x61, 0x6c, 0x2f, 0x6d, 0x61, 0x78, 0x5f, 0x70, 0x6f, 0x6f, 0x6c, 0x69,
    0x6e, 0x67, 0x32, 0x64, 0x2f, 0x4d, 0x61, 0x78, 0x50, 0x6f, 0x6f, 0x6c,
    0x00, 0x00, 0x00, 0x00, 0x88, 0xb7, 0xff, 0xff, 0xba, 0xb8, 0xff, 0xff,
    0x10, 0x00, 0x00, 0x00, 0x0f, 0x00, 0x00, 0x00, 0x1c, 0x00, 0x00, 0x00,
    0x34, 0x00, 0x00, 0x00, 0x04, 0x00, 0x00, 0x00, 0x01, 0x00, 0x00, 0x00,
    0x80, 0x00, 0x00, 0x00, 0x03, 0x00, 0x00, 0x00, 0x08, 0x00, 0x00, 0x00,
    0x16, 0x00, 0x00, 0x00, 0x73, 0x65, 0x71, 0x75, 0x65, 0x6e, 0x74, 0x69,
    0x61, 0x6c, 0x2f, 0x63, 0x6f, 0x6e, 0x76, 0x32, 0x64, 0x2f, 0x52, 0x65,
    0x6c, 0x75, 0x00, 0x00, 0xd0, 0xb7, 0xff, 0xff, 0x02, 0xb9, 0xff, 0xff,
    0x10, 0x00, 0x00, 0x00, 0x0e, 0x00, 0x00, 0x00, 0x1c, 0x00, 0x00, 0x00,
    0x44, 0x00, 0x00, 0x00, 0x04, 0x00, 0x00, 0x00, 0x01, 0x00, 0x00, 0x00,
    0x04, 0x00, 0x00, 0x00, 0x03, 0x00, 0x00, 0x00, 0x08, 0x00, 0x00, 0x00,
    0x27, 0x00, 0x00, 0x00, 0x73, 0x65, 0x71, 0x75, 0x65, 0x6e, 0x74, 0x69,
    0x61, 0x6c, 0x2f, 0x63, 0x6f, 0x6e, 0x76, 0x32, 0x64, 0x2f, 0x43, 0x6f,
    0x6e, 0x76, 0x32, 0x44, 0x2f, 0x52, 0x65, 0x61, 0x64, 0x56, 0x61, 0x72,
    0x69, 0x61, 0x62, 0x6c, 0x65, 0x4f, 0x70, 0x00, 0x28, 0xb8, 0xff, 0xff,
    0x80, 0x01, 0x00, 0x00, 0x1c, 0x6a, 0xf6, 0xbd, 0xaa, 0x16, 0xfd, 0x3c,
    0xf6, 0xd9, 0x20, 0x3e, 0x64, 0xf8, 0xdd, 0x3d, 0x07, 0xc0, 0x82, 0xbe,
    0x9e, 0xa3, 0x38, 0xbd, 0x13, 0x41, 0xa1, 0x3d, 0xb0, 0x81, 0x90, 0xbd,
    0xc7, 0xdd, 0xbc, 0xbb, 0x87, 0x9c, 0x24, 0xbe, 0x72, 0x08, 0x6a, 0xbd,
    0x10, 0x1b, 0x61, 0x3e, 0x79, 0x49, 0x18, 0xbe, 0xda, 0x09, 0x88, 0xbe,
    0x2d, 0x70, 0x4d, 0x3d, 0x5c, 0x4a, 0x9e, 0xbd, 0x0f, 0xf1, 0x46, 0x3e,
    0x1c, 0xbd, 0x02, 0xbf, 0x56, 0xbc, 0x07, 0x3e, 0x63, 0x92, 0x39, 0xbe,
    0x4e, 0xde, 0x84, 0x3e, 0x64, 0x38, 0x88, 0xbd, 0xa0, 0x32, 0xc3, 0xbd,
    0x0f, 0x94, 0xb7, 0xbe, 0xd6, 0x11, 0x27, 0xbc, 0xcc, 0x7e, 0xf3, 0x3d,
    0xf3, 0x4d, 0xaa, 0x3d, 0xbc, 0x8a, 0x28, 0x3e, 0xa2, 0xb5, 0xda, 0xbd,
    0x92, 0x1a, 0xb6, 0xbd, 0x9a, 0x49, 0xb1, 0x3d, 0xfc, 0x93, 0x1c, 0x3d,
    0x74, 0xa1, 0xa1, 0xbd, 0xc7, 0x48, 0x1d, 0xbe, 0x3a, 0x53, 0xb2, 0x3b,
    0x92, 0x51, 0xa5, 0xbd, 0x6a, 0xc4, 0x3c, 0xbd, 0xdb, 0x61, 0x6d, 0xbd,
    0x78, 0x9f, 0x03, 0xbe, 0x40, 0x1f, 0x30, 0xbd, 0x17, 0xde, 0xad, 0x3d,
    0xd7, 0xee, 0x74, 0xbd, 0xb6, 0x5c, 0xc2, 0x3d, 0x1c, 0x89, 0x65, 0xbe,
    0xfd, 0xc4, 0x48, 0x3e, 0xb2, 0x29, 0x13, 0x3d, 0xcc, 0x56, 0x13, 0x3d,
    0xf8, 0xce, 0x1b, 0xbc, 0xb5, 0x4b, 0xe8, 0xbc, 0x48, 0x05, 0x5c, 0xbe,
    0xaf, 0xfa, 0x0d, 0x3e, 0x74, 0x84, 0xa4, 0x3d, 0x4c, 0x84, 0x04, 0x3e,
    0x09, 0x7a, 0xba, 0x3c, 0xb3, 0xa6, 0x07, 0x3e, 0x7d, 0xe5, 0xe5, 0x3d,
    0x7e, 0xb9, 0xa5, 0x3c, 0x4e, 0x70, 0x49, 0x3e, 0x39, 0xfe, 0x12, 0xbe,
    0xfa, 0x8b, 0x01, 0xbe, 0xb9, 0x8e, 0xe6, 0xbc, 0xc8, 0x2f, 0xb3, 0xbd,
    0x1b, 0x2b, 0x9e, 0xbd, 0xe7, 0x7f, 0x0e, 0x3d, 0x3e, 0xa3, 0x2a, 0x3d,
    0xa1, 0x73, 0x31, 0x3d, 0xc8, 0xc7, 0x03, 0xbd, 0x07, 0x71, 0xaf, 0xbd,
    0xb2, 0x6b, 0x2b, 0xbe, 0x06, 0xc2, 0x1f, 0xbe, 0x3b, 0xbf, 0x30, 0xbe,
    0x7e, 0x51, 0x22, 0x3e, 0x5a, 0xa7, 0x92, 0x3d, 0xb8, 0x60, 0x35, 0xbe,
    0xa7, 0xdf, 0x8f, 0x3d, 0xbc, 0xfc, 0x42, 0x3e, 0x42, 0x86, 0x7d, 0xbc,
    0x3a, 0xd0, 0xd8, 0x3c, 0xea, 0x45, 0x40, 0xbc, 0x04, 0xd3, 0x9d, 0xb7,
    0xe3, 0xdf, 0xae, 0xbd, 0x80, 0x5e, 0x59, 0xbe, 0x88, 0x15, 0xc0, 0xbd,
    0xea, 0x86, 0xaa, 0xbd, 0x3b, 0x4a, 0x64, 0x3d, 0x89, 0x25, 0x42, 0xbe,
    0xc2, 0x29, 0x93, 0xbe, 0x62, 0x85, 0x00, 0x3e, 0xf1, 0x0e, 0xda, 0xbd,
    0x48, 0x09, 0xb8, 0xbe, 0xad, 0xe2, 0x4d, 0xbe, 0x69, 0x26, 0x99, 0xbe,
    0x86, 0x3c, 0xcd, 0xbe, 0x05, 0xe6, 0x4e, 0xbd, 0xdb, 0x8f, 0xfb, 0x3d,
    0xc6, 0xf5, 0x97, 0x3e, 0xde, 0xba, 0xff, 0xff, 0x10, 0x00, 0x00, 0x00,
    0x0d, 0x00, 0x00, 0x00, 0x1c, 0x00, 0x00, 0x00, 0x48, 0x00, 0x00, 0x00,
    0x04, 0x00, 0x00, 0x00, 0x10, 0x00, 0x00, 0x00, 0x04, 0x00, 0x00, 0x00,
    0x01, 0x00, 0x00, 0x00, 0x08, 0x00, 0x00, 0x00, 0x29, 0x00, 0x00, 0x00,
    0x73, 0x65, 0x71, 0x75, 0x65, 0x6e, 0x74, 0x69, 0x61, 0x6c, 0x2f, 0x63,
    0x6f, 0x6e, 0x76, 0x32, 0x64, 0x5f, 0x31, 0x2f, 0x43, 0x6f, 0x6e, 0x76,
    0x32, 0x44, 0x2f, 0x52, 0x65, 0x61, 0x64, 0x56, 0x61, 0x72, 0x69, 0x61,
    0x62, 0x6c, 0x65, 0x4f, 0x70, 0x00, 0x00, 0x00, 0x08, 0xba, 0xff, 0xff,
    0x00, 0x08, 0x00, 0x00, 0x40, 0x7a, 0x10, 0xbf, 0x9b, 0xf1, 0xcc, 0xbe,
    0x78, 0x88, 0x1d, 0xbf, 0xc2, 0xb7, 0x09, 0xbf, 0xbd, 0xd6, 0xaf, 0xbe,
    0xf5, 0x29, 0xed, 0xbe, 0xad, 0x18, 0x70, 0xbe, 0x3d, 0x91, 0x40, 0x3b,
    0x2f, 0xcf, 0x55, 0xbe, 0xc6, 0x0b, 0xed, 0x3e, 0xbe, 0x7a, 0x80, 0xbe,
    0x3c, 0x3c, 0xb1, 0x3a, 0xab, 0xea, 0xa6, 0x3d, 0x88, 0x57, 0x55, 0xbe,
    0x0c, 0x62, 0xdc, 0xbe, 0x07, 0x6b, 0xbe, 0x3e, 0x9e, 0x0d, 0x28, 0x3d,
    0xd9, 0xd2, 0xb1, 0x3d, 0x4c, 0x45, 0xbd, 0xbd, 0x3c, 0xe0, 0x1f, 0x3d,
    0x76, 0xb5, 0x48, 0xbd, 0x2b, 0xe8, 0x3a, 0xbe, 0xd3, 0x21, 0x57, 0xbe,
    0xdc, 0x21, 0x70, 0x3e, 0x00, 0x71, 0xec, 0x3d, 0x9c, 0xeb, 0x61, 0x3d,
    0x0d, 0x8a, 0x9c, 0x3d, 0x2a, 0x35, 0x03, 0x3d, 0x1b, 0x1c, 0x28, 0x3b,
    0xa6, 0xf9, 0xa9, 0xbd, 0x20, 0xfb, 0x2f, 0xbe, 0x8c, 0xcb, 0x04, 0x3d,
    0x43, 0x62, 0x64, 0x3d, 0xf8, 0x65, 0xd6, 0x3d, 0xf3, 0xbe, 0x3a, 0xbd,
    0xaf, 0x2b, 0x53, 0x3d, 0x99, 0x58, 0xf8, 0xbd, 0x3a, 0xbe, 0x43, 0xbd,
    0xd0, 0xe7, 0xc0, 0xbc, 0xa4, 0x8d, 0xf3, 0x3d, 0xa2, 0xd7, 0x9c, 0xbc,
    0x87, 0x1b, 0xb0, 0x3e, 0x18, 0x20, 0x88, 0xbd, 0xee, 0x9e, 0xc5, 0x3e,
    0xc1, 0x35, 0xaf, 0x3c, 0xc0, 0x97, 0x39, 0xbd, 0xa5, 0x6f, 0x04, 0xbd,
    0x7b, 0x03, 0x1c, 0xbe, 0x0f, 0x75, 0xbb, 0xbd, 0xdf, 0x1b, 0x54, 0xbd,
    0xfb, 0xbf, 0xcc, 0xbd, 0x1b, 0x01, 0x10, 0xbd, 0x20, 0x67, 0xb4, 0xbc,
    0xdf, 0xa6, 0x40, 0x3c, 0x74, 0xb4, 0x28, 0x3d, 0x65, 0xe7, 0xc3, 0xbd,
    0x8d, 0x38, 0x91, 0xbd, 0x8f, 0xba, 0x45, 0xbc, 0x69, 0xc7, 0x49, 0xbc,
    0xa3, 0xcb, 0xf8, 0x3c, 0x69, 0xed, 0x2d, 0x3e, 0x0d, 0xf4, 0xc6, 0xbc,
    0xd6, 0xe7, 0xfe, 0xbd, 0xfa, 0xa0, 0x86, 0xbd, 0x30, 0x83, 0xf0, 0xbd,
    0xf5, 0xb9, 0xd1, 0xbd, 0x1c, 0x39, 0x90, 0xbe, 0x74, 0x62, 0xd8, 0xbd,
    0x13, 0x28, 0x07, 0xbe, 0xbf, 0xbd, 0xbf, 0xbd, 0x15, 0xcf, 0xa8, 0xbb,
    0x9c, 0x1a, 0x8f, 0xbd, 0x91, 0x23, 0x93, 0x3d, 0x79, 0x63, 0xc4, 0xbd,
    0xec, 0xdd, 0x72, 0xbe, 0xd2, 0xd8, 0xac, 0xbe, 0xbf, 0x1e, 0x21, 0xbe,
    0xae, 0xab, 0x20, 0xbd, 0x8f, 0xe9, 0x90, 0x3d, 0xbb, 0x47, 0xdd, 0x3d,
    0xb1, 0x93, 0x37, 0xbd, 0xeb, 0xcf, 0x45, 0xbc, 0x33, 0x8f, 0x15, 0xbe,
    0xeb, 0x19, 0x9f, 0xbe, 0x66, 0x21, 0xe3, 0xbd, 0x53, 0x82, 0x60, 0x3c,
    0x11, 0xdc, 0xf1, 0xbc, 0x0c, 0x01, 0x1e, 0x3d, 0xdb, 0xd5, 0x1d, 0x3f,
    0x58, 0xa3, 0x61, 0x3d, 0x0a, 0x2b, 0x16, 0xbe, 0x01, 0x9d, 0x50, 0xbe,
    0xac, 0xac, 0x63, 0x3e, 0x76, 0xdb, 0x8a, 0xbc, 0x57, 0xec, 0x8f, 0xbc,
    0xad, 0x20, 0xd6, 0x3d, 0xc2, 0x63, 0x89, 0x3d, 0xc3, 0x1e, 0xe9, 0x3e,
    0xa8, 0x41, 0x9e, 0xbd, 0xac, 0x2c, 0x2b, 0xbe, 0x98, 0x73, 0xbf, 0x3d,
    0x7a, 0x22, 0x54, 0xbd, 0x44, 0xaf, 0x2c, 0xbe, 0x05, 0x45, 0xd9, 0xbc,
    0x74, 0xaa, 0x20, 0x3e, 0x6e, 0x1e, 0x95, 0x3e, 0x54, 0x20, 0x12, 0xbc,
    0xbe, 0x20, 0xcf, 0x3d, 0xa6, 0x02, 0x28, 0xbe, 0xd1, 0xfe, 0xe8, 0xbd,
    0x1f, 0x2a, 0x83, 0xbe, 0x33, 0x44, 0xf3, 0x3d, 0xff, 0x48, 0xda, 0xbd,
    0x8d, 0x1e, 0x79, 0x3e, 0xdb, 0xee, 0xb2, 0x3d, 0xdb, 0xde, 0x5b, 0xbe,
    0x55, 0x57, 0x49, 0xbe, 0x62, 0x4b, 0x29, 0xbf, 0x93, 0xbf, 0x23, 0xbf,
    0xea, 0xa3, 0x71, 0x3d, 0xa5, 0x50, 0x00, 0xbe, 0xb6, 0xd1, 0xc0, 0xbf,
    0x1d, 0x22, 0x7d, 0xbd, 0x00, 0x09, 0x81, 0x3d, 0xde, 0x28, 0x75, 0xbe,
    0x03, 0x1b, 0x2e, 0xbf, 0x3c, 0x3a, 0x3b, 0xbf, 0x52, 0x1a, 0xe6, 0xbd,
    0x9d, 0xe9, 0xea, 0xbd, 0x49, 0x71, 0x2c, 0x3d, 0xe8, 0x8b, 0x55, 0xbb,
    0x6c, 0x97, 0x24, 0xbe, 0x44, 0xe8, 0xe0, 0xba, 0x6d, 0x45, 0x4b, 0x3f,
    0x7f, 0x26, 0x38, 0x3e, 0xab, 0x04, 0x6e, 0xbe, 0x70, 0x59, 0x0e, 0xbe,
    0xd6, 0xfb, 0x7a, 0x3d, 0x45, 0x72, 0xa2, 0xbd, 0xb5, 0x6f, 0x2e, 0xbe,
    0xda, 0xf5, 0x07, 0x3e, 0xe0, 0x2b, 0xac, 0xbd, 0xaf, 0x35, 0xf6, 0xbd,
    0xd0, 0x2b, 0xac, 0xbd, 0x26, 0x2d, 0x11, 0xbe, 0x7e, 0xfa, 0x87, 0x3d,
    0x3a, 0xb7, 0xf6, 0xbd, 0xb1, 0xd0, 0xe2, 0xbc, 0xc8, 0xa2, 0x86, 0xbd,
    0x19, 0xf5, 0xb1, 0xbd, 0xf6, 0x65, 0x4d, 0xbe, 0x23, 0x63, 0x47, 0x3e,
    0xb7, 0x26, 0xd3, 0xbd, 0x57, 0xf4, 0x12, 0xbf, 0x93, 0xd4, 0x39, 0xbe,
    0x77, 0xf2, 0x62, 0x3d, 0xf6, 0x3d, 0xc3, 0xbe, 0xb6, 0xf5, 0x2b, 0xbe,
    0xbe, 0x8a, 0x76, 0xbe, 0xb1, 0x39, 0x63, 0x3e, 0xde, 0xbe, 0x3c, 0xbe,
    0xd4, 0x01, 0x94, 0xbe, 0x19, 0x1a, 0x97, 0xbb, 0xcb, 0x83, 0x4e, 0xbe,
    0x50, 0x19, 0x94, 0xbd, 0xf8, 0x8a, 0x95, 0xbe, 0xc8, 0xab, 0x86, 0xbe,
    0x18, 0x57, 0x6d, 0x3e, 0x87, 0xad, 0x8b, 0x3c, 0x72, 0x7b, 0x8d, 0x3e,
    0x54, 0x39, 0x95, 0x3d, 0x1d, 0xfa, 0x4b, 0xbe, 0x97, 0xd2, 0x7a, 0xbe,
    0x68, 0x4a, 0xcb, 0xbe, 0xf0, 0x10, 0x04, 0xbf, 0x2b, 0xb5, 0x82, 0x3e,
    0xf8, 0x71, 0x1a, 0x3e, 0x29, 0xf0, 0x29, 0x3d, 0x74, 0x5a, 0x1a, 0x3e,
    0x58, 0x75, 0xd1, 0xbd, 0x38, 0x6c, 0x99, 0x3e, 0x6c, 0xd4, 0x63, 0xbe,
    0xc3, 0x51, 0x90, 0xbe, 0xcf, 0xff, 0xae, 0xbe, 0xfe, 0xf1, 0x00, 0x3d,
    0x52, 0x64, 0x90, 0xbd, 0x02, 0x1a, 0xce, 0xbd, 0x86, 0x74, 0x00, 0x3d,
    0x82, 0x40, 0x04, 0x3e, 0x38, 0x03, 0x82, 0x3e, 0x8f, 0x1c, 0xf4, 0x3e,
    0x6f, 0x04, 0x68, 0xbe, 0x00, 0x12, 0xe3, 0x3d, 0x01, 0xf6, 0xb5, 0x3d,
    0xd9, 0x99, 0x36, 0x3d, 0x40, 0xad, 0xde, 0x3e, 0xaf, 0x74, 0xc1, 0x3d,
    0xb7, 0x8e, 0x6f, 0xbe, 0xb3, 0xa6, 0x32, 0xbe, 0xff, 0xca, 0x23, 0x3e,
    0x0c, 0xf1, 0x42, 0x3e, 0xe3, 0x85, 0x2c, 0x3d, 0xca, 0xc8, 0xb7, 0xba,
    0x1a, 0x94, 0x53, 0xbd, 0x9a, 0x33, 0xaa, 0x3d, 0x9c, 0x7c, 0x79, 0xbe,
    0x84, 0xb2, 0x71, 0xbe, 0x48, 0xc1, 0x2b, 0xbd, 0xf4, 0x89, 0x6c, 0xbd,
    0x1f, 0xd2, 0xf2, 0xbd, 0xd2, 0x4f, 0x28, 0xbd, 0xb4, 0xbb, 0xb3, 0xbd,
    0x6f, 0x96, 0xab, 0xbc, 0x23, 0x9d, 0x82, 0xbe, 0xe6, 0x6b, 0x59, 0xbd,
    0x27, 0x09, 0x03, 0xbe, 0x42, 0xa6, 0xac, 0xbd, 0xb6, 0x12, 0x20, 0x3d,
    0x0a, 0x63, 0x24, 0xbe, 0x75, 0x27, 0x28, 0xbe, 0xa5, 0x62, 0x2b, 0xbe,
    0x1f, 0x48, 0x06, 0xbe, 0x7e, 0xd0, 0xb2, 0xbd, 0xa9, 0xd6, 0x80, 0x3a,
    0xff, 0x7a, 0x11, 0xbe, 0x76, 0x5f, 0x41, 0x3e, 0x17, 0xa9, 0xfa, 0xbd,
    0x5b, 0xd1, 0x71, 0xbd, 0xf3, 0x23, 0xaf, 0xbd, 0x63, 0x24, 0xe0, 0xbc,
    0xc6, 0x62, 0x9d, 0x3e, 0xd6, 0x19, 0x47, 0xbe, 0x92, 0x69, 0xf1, 0xbd,
    0x8a, 0x67, 0x82, 0x3d, 0x17, 0x33, 0x69, 0x3d, 0x1a, 0x91, 0x25, 0xbe,
    0xf1, 0xab, 0xae, 0x3d, 0x3a, 0x21, 0xc1, 0x3e, 0xd8, 0xc4, 0x5d, 0xbd,
    0xc7, 0x58, 0xa6, 0xbe, 0xc6, 0xb0, 0xed, 0x3b, 0x75, 0xd6, 0xa2, 0x3c,
    0x64, 0xa8, 0x1d, 0xbe, 0xe5, 0x1f, 0x3a, 0xbe, 0x7b, 0x03, 0x39, 0xbd,
    0x14, 0xa2, 0x81, 0x3d, 0xdb, 0xfd, 0xb2, 0xbc, 0xca, 0x96, 0x9a, 0xbe,
    0x7c, 0xcc, 0xc9, 0x3c, 0xb8, 0x7d, 0x88, 0x3d, 0x36, 0x39, 0x0b, 0xbd,
    0x5e, 0x1f, 0x3c, 0xbe, 0x27, 0x36, 0x83, 0x3c, 0x38, 0xa1, 0x23, 0xbd,
    0xba, 0xfa, 0xf6, 0x3b, 0x8d, 0xa9, 0xc3, 0xbe, 0x50, 0x34, 0xf0, 0xbd,
    0x92, 0x0f, 0xb3, 0xbd, 0xd9, 0xad, 0x5e, 0xbe, 0xc1, 0x27, 0xb2, 0x3c,
    0x6a, 0x29, 0x07, 0xbe, 0x0f, 0xb5, 0x26, 0xbe, 0xc8, 0xf9, 0x27, 0x3e,
    0x2a, 0x97, 0xa4, 0x3e, 0xe1, 0x45, 0x53, 0x3e, 0xec, 0xd7, 0xa0, 0x3d,
    0xfd, 0x1a, 0x8c, 0xbe, 0x1d, 0x4c, 0xd6, 0xbd, 0x4a, 0x78, 0x63, 0xbe,
    0x18, 0xa4, 0xd9, 0xbc, 0x5a, 0xaa, 0x37, 0x3d, 0xff, 0xe8, 0x3b, 0xbe,
    0x6b, 0x8c, 0x67, 0x3e, 0x13, 0xec, 0x12, 0xbc, 0xae, 0xcc, 0xab, 0xbc,
    0x2e, 0x9b, 0x72, 0xbd, 0x46, 0x3f, 0xb4, 0x3e, 0xdb, 0xba, 0xd3, 0xbd,
    0x7b, 0xdb, 0x86, 0xbe, 0x6a, 0x66, 0xd9, 0xbe, 0x8c, 0x5c, 0x80, 0x3d,
    0x60, 0x64, 0x4d, 0xbe, 0x4d, 0x91, 0x58, 0x3e, 0xa9, 0xfc, 0x0e, 0xbe,
    0x32, 0xc8, 0xce, 0x3e, 0xa8, 0xc8, 0xb3, 0xbe, 0x4d, 0x07, 0xae, 0xbe,
    0xbc, 0xa3, 0x2c, 0xbf, 0x57, 0x9c, 0x21, 0xbe, 0x0e, 0x6d, 0x6e, 0xbe,
    0x30, 0xa6, 0x15, 0xbf, 0xd6, 0x76, 0x01, 0xbf, 0x80, 0x3e, 0xab, 0xbe,
    0xbe, 0x98, 0x2d, 0xbe, 0xe2, 0x02, 0x48, 0xbe, 0xc8, 0x4b, 0x96, 0xbe,
    0x48, 0xaa, 0x2e, 0x3e, 0xa2, 0x19, 0x01, 0x3f, 0xa8, 0xec, 0x8f, 0xbe,
    0x15, 0xd2, 0x24, 0x3e, 0x5c, 0x80, 0xc2, 0xbc, 0xf0, 0x78, 0x29, 0xbe,
    0xfe, 0x1d, 0x63, 0xbe, 0x32, 0xf1, 0x22, 0xbd, 0x35, 0x8c, 0x1d, 0x3e,
    0xb9, 0x22, 0xc2, 0x3e, 0xde, 0x75, 0xc0, 0xbe, 0x27, 0x71, 0x73, 0xbb,
    0x37, 0x41, 0xde, 0x3d, 0x0a, 0x71, 0xfe, 0xbd, 0x9e, 0x66, 0xf6, 0xbd,
    0x2b, 0x93, 0x07, 0xbc, 0x75, 0x1e, 0x90, 0x3d, 0x01, 0x49, 0x59, 0x3e,
    0x0a, 0xb2, 0xbe, 0xbe, 0xd4, 0x65, 0x9f, 0xbc, 0x43, 0x20, 0xdd, 0x3d,
    0xef, 0x01, 0x74, 0xbd, 0xb2, 0xa4, 0xd5, 0x3b, 0xa4, 0x30, 0xf9, 0xbc,
    0xb8, 0x15, 0x68, 0xb8, 0x58, 0xa2, 0xa7, 0xbe, 0x5a, 0x25, 0xa5, 0x3d,
    0x2d, 0x86, 0xb2, 0xbe, 0xc9, 0x31, 0xc2, 0x3e, 0xd2, 0x61, 0x28, 0x3d,
    0xa6, 0xfe, 0xba, 0x3d, 0x4b, 0x6c, 0xf6, 0xbd, 0xaa, 0x14, 0xdc, 0xbc,
    0xf6, 0x7d, 0xdc, 0xbd, 0xce, 0xb6, 0x75, 0xbd, 0x0b, 0xa5, 0xa8, 0xbe,
    0x9b, 0xb5, 0x4a, 0x3e, 0xfc, 0xfa, 0x98, 0x3d, 0x27, 0xd6, 0x39, 0x3d,
    0x1a, 0xbf, 0x67, 0x3d, 0x3f, 0x04, 0x04, 0xbc, 0x07, 0x56, 0x42, 0xbd,
    0xd8, 0xe6, 0x52, 0xbe, 0x72, 0xff, 0xc7, 0xbd, 0xd8, 0x5b, 0xba, 0xbd,
    0xe9, 0xb9, 0xc8, 0xbd, 0xe2, 0x54, 0x05, 0xbe, 0xb5, 0x8f, 0xf2, 0x3e,
    0x74, 0xe9, 0x68, 0xbd, 0x6f, 0x16, 0xcd, 0xbe, 0x2a, 0x22, 0x40, 0x3c,
    0xfc, 0x03, 0xf2, 0x3d, 0x91, 0x74, 0xaa, 0x3d, 0x7d, 0xb1, 0x1f, 0xbe,
    0x95, 0xc1, 0x14, 0xbe, 0xbb, 0xe5, 0x89, 0xbe, 0xae, 0xff, 0x5a, 0x3d,
    0x31, 0x79, 0x07, 0xbe, 0x07, 0xfb, 0xba, 0x3e, 0x4e, 0xd0, 0x86, 0xbd,
    0x68, 0x36, 0x29, 0x3e, 0xec, 0x14, 0xc7, 0x3d, 0xef, 0xf6, 0x06, 0x3b,
    0x76, 0xa0, 0xe8, 0x3c, 0x97, 0x57, 0xac, 0x3c, 0xec, 0x02, 0x8d, 0xbe,
    0x43, 0xaf, 0x42, 0x3d, 0x13, 0x39, 0x0e, 0x3d, 0xf4, 0xed, 0x5a, 0x3e,
    0xbb, 0xf1, 0x18, 0xbe, 0x71, 0x1f, 0xc8, 0xbb, 0x6d, 0x8c, 0x0b, 0xbe,
    0xfe, 0x5d, 0xc3, 0xbd, 0x2c, 0xae, 0x87, 0xbe, 0x58, 0x74, 0x3e, 0x3d,
    0x14, 0x52, 0x13, 0xbe, 0x41, 0x11, 0x55, 0xbe, 0x43, 0x03, 0x0e, 0x3e,
    0xf8, 0x4c, 0x2e, 0x3e, 0x09, 0x6a, 0xea, 0xbd, 0xec, 0xe1, 0xc3, 0xbd,
    0xd5, 0xdf, 0x2a, 0xbe, 0x2e, 0xc1, 0xd9, 0xbd, 0xc1, 0x5b, 0x72, 0xbe,
    0x73, 0xe9, 0x0f, 0xbe, 0xab, 0xc3, 0x0c, 0x3e, 0x85, 0xd1, 0x5e, 0x3e,
    0x08, 0x70, 0x0d, 0xbe, 0x6f, 0xb7, 0x01, 0x3d, 0x0c, 0x0f, 0x86, 0xbd,
    0x0d, 0x23, 0x56, 0x3e, 0x16, 0x6f, 0x10, 0xbc, 0x4f, 0x98, 0x42, 0xbf,
    0x85, 0x4e, 0x44, 0xbe, 0xf0, 0x20, 0x0b, 0xbe, 0x5b, 0xa3, 0x0f, 0xbc,
    0xbd, 0x33, 0x45, 0xbd, 0x84, 0xfb, 0x48, 0xbd, 0x11, 0x99, 0x8c, 0x3c,
    0x41, 0x1e, 0x08, 0x3e, 0xe3, 0x3e, 0x6c, 0xbf, 0x97, 0x2b, 0x0c, 0xbe,
    0x94, 0xec, 0x23, 0xbb, 0x8f, 0x35, 0x4f, 0x3c, 0xea, 0xec, 0x0c, 0xbd,
    0x04, 0x13, 0x3d, 0xbe, 0x13, 0x76, 0x23, 0x3e, 0x37, 0x0d, 0x99, 0x3c,
    0xd4, 0xa3, 0xf4, 0xbe, 0x18, 0x6a, 0x6c, 0xbe, 0x3d, 0x3c, 0xf6, 0xbd,
    0xf8, 0x51, 0xaf, 0xbc, 0x1f, 0x6e, 0x8a, 0xbc, 0x55, 0xc5, 0x8c, 0xbe,
    0x9e, 0x9c, 0x79, 0xbd, 0x13, 0x14, 0xb7, 0xbd, 0x89, 0xcd, 0x1a, 0xbe,
    0x79, 0x14, 0x2e, 0x3e, 0xdd, 0xa2, 0x71, 0x3e, 0xad, 0x71, 0xbe, 0xbc,
    0xa3, 0xc9, 0x22, 0x3f, 0x66, 0x4b, 0x0f, 0x3d, 0x45, 0x1c, 0x29, 0xbe,
    0xf6, 0x79, 0x93, 0xbe, 0x71, 0x18, 0xb6, 0x3d, 0xcc, 0xcb, 0x9d, 0x3c,
    0xa1, 0xbb, 0xfd, 0xbc, 0xc9, 0x75, 0x05, 0x3e, 0x77, 0x4b, 0xad, 0xbd,
    0x81, 0x1d, 0x5c, 0x3e, 0x2d, 0xcc, 0x24, 0xbd, 0x3a, 0xce, 0x36, 0xbe,
    0xb8, 0x37, 0x27, 0xbe, 0xe6, 0x3e, 0x75, 0x3b, 0xb7, 0xb4, 0x2c, 0xbd,
    0x1f, 0x05, 0x47, 0x3c, 0x81, 0x1d, 0x33, 0x3e, 0x8a, 0xfd, 0x4f, 0x3e,
    0xaf, 0x7c, 0x3b, 0x3d, 0x00, 0xa0, 0xda, 0xbd, 0x39, 0xd1, 0x20, 0xbf,
    0xc9, 0x78, 0xf3, 0xbd, 0x9d, 0x01, 0xa3, 0xbe, 0x42, 0x44, 0xbb, 0xbc,
    0x5a, 0xc1, 0xd4, 0xbd, 0xfd, 0xe7, 0x3c, 0xbf, 0x46, 0x37, 0x85, 0x3d,
    0x79, 0x4e, 0xbc, 0x3d, 0xa4, 0xcd, 0x7f, 0xbf, 0x1d, 0xca, 0x69, 0xbf,
    0x97, 0xeb, 0x69, 0xbf, 0xaa, 0xc9, 0x9f, 0x3c, 0xb4, 0x82, 0x9d, 0x3e,
    0xf1, 0x94, 0x77, 0x3e, 0xf2, 0x74, 0x84, 0xbe, 0x88, 0x66, 0x9c, 0xbe,
    0xdf, 0x4e, 0xf1, 0xbd, 0xa2, 0x9e, 0x31, 0x3e, 0x8b, 0xc9, 0x49, 0x3d,
    0x5a, 0x63, 0x5c, 0x3e, 0xf9, 0xa5, 0x4e, 0x3d, 0x95, 0x3f, 0x8d, 0x3d,
    0x1c, 0xe0, 0x68, 0xbe, 0xb6, 0xe1, 0x7c, 0xbe, 0x82, 0x2b, 0x63, 0xbe,
    0x76, 0x6c, 0x02, 0xbe, 0xfe, 0x30, 0x36, 0xbe, 0x8f, 0x5f, 0x36, 0x3d,
    0x17, 0x52, 0x15, 0x3c, 0x1e, 0xc8, 0x88, 0xbf, 0x0a, 0xa1, 0x5d, 0x3d,
    0xe8, 0x31, 0x71, 0x3e, 0xd2, 0x45, 0x01, 0xbc, 0x41, 0x3c, 0x27, 0xbe,
    0xbb, 0xa9, 0x4d, 0xbc, 0x0f, 0xde, 0x9d, 0x3c, 0xbf, 0x35, 0xc3, 0xbd,
    0x5b, 0x0e, 0x70, 0xbf, 0xe9, 0xf4, 0xd5, 0x3b, 0x60, 0x9b, 0xec, 0x3d,
    0x8b, 0x75, 0x23, 0xbc, 0x17, 0x03, 0x84, 0xbe, 0x99, 0x04, 0xd0, 0x3c,
    0xdd, 0x01, 0x08, 0xbe, 0x82, 0xd5, 0x75, 0xbd, 0x05, 0xaa, 0xec, 0x3c,
    0xb9, 0x4d, 0x45, 0x3d, 0xa3, 0x11, 0x69, 0xbb, 0xa3, 0xb0, 0x50, 0x3e,
    0x7a, 0x5f, 0xaa, 0xbd, 0x6a, 0x73, 0xbe, 0xbd, 0x91, 0x25, 0xa9, 0xbd,
    0x0f, 0x8e, 0xe0, 0xbd, 0x50, 0x51, 0x8f, 0x3c, 0xf4, 0x7d, 0xb9, 0x3d,
    0xa2, 0x11, 0x50, 0x3d, 0x3a, 0xb5, 0x32, 0x3e, 0xe1, 0x28, 0x87, 0x3e,
    0x44, 0x83, 0x09, 0x3e, 0xc3, 0x5f, 0x0a, 0xbe, 0xc4, 0xb8, 0x0f, 0xbe,
    0xaa, 0xb2, 0xab, 0xbd, 0x93, 0x40, 0x5c, 0xbd, 0x35, 0xf0, 0x19, 0xbd,
    0x4a, 0xa8, 0x02, 0x3b, 0x3c, 0x51, 0x1a, 0x3c, 0xbe, 0x2d, 0xdd, 0xbb,
    0x55, 0x5d, 0xc3, 0x3d, 0x10, 0x6f, 0x7c, 0xbd, 0x62, 0xf7, 0x45, 0xbe,
    0xd5, 0xda, 0xe1, 0x3d, 0x25, 0xd5, 0x13, 0x3e, 0xf0, 0xd6, 0xea, 0xbd,
    0x62, 0x2b, 0x56, 0xbd, 0x80, 0x0c, 0xb1, 0x3d, 0x19, 0xbe, 0xa5, 0x3d,
    0x3e, 0xc3, 0xff, 0xff, 0x10, 0x00, 0x00, 0x00, 0x0c, 0x00, 0x00, 0x00,
    0x1c, 0x00, 0x00, 0x00, 0x34, 0x00, 0x00, 0x00, 0x04, 0x00, 0x00, 0x00,
    0x01, 0x00, 0x00, 0x00, 0x80, 0x00, 0x00, 0x00, 0x03, 0x00, 0x00, 0x00,
    0x01, 0x00, 0x00, 0x00, 0x0c, 0x00, 0x00, 0x00, 0x63, 0x6f, 0x6e, 0x76,
    0x32, 0x64, 0x5f, 0x69, 0x6e, 0x70, 0x75, 0x74, 0x00, 0x00, 0x00, 0x00,
    0x08, 0x00, 0x0c, 0x00, 0x04, 0x00, 0x08, 0x00, 0x08, 0x00, 0x00, 0x00,
    0x10, 0x00, 0x00, 0x00, 0x04, 0x00, 0x00, 0x00, 0x01, 0x00, 0x00, 0x00,
    0x00, 0x00, 0x7f, 0x43, 0x01, 0x00, 0x00, 0x00, 0x00, 0x00, 0x00, 0x00,
    0x9e, 0xc3, 0xff, 0xff, 0x10, 0x00, 0x00, 0x00, 0x0b, 0x00, 0x00, 0x00,
    0x14, 0x00, 0x00, 0x00, 0x2c, 0x00, 0x00, 0x00, 0x02, 0x00, 0x00, 0x00,
    0x01, 0x00, 0x00, 0x00, 0x10, 0x00, 0x00, 0x00, 0x15, 0x00, 0x00, 0x00,
    0x73, 0x65, 0x71, 0x75, 0x65, 0x6e, 0x74, 0x69, 0x61, 0x6c, 0x2f, 0x64,
    0x65, 0x6e, 0x73, 0x65, 0x2f, 0x52, 0x65, 0x6c, 0x75, 0x00, 0x00, 0x00,
    0xac, 0xc2, 0xff, 0xff, 0xde, 0xc3, 0xff, 0xff, 0x10, 0x00, 0x00, 0x00,
    0x0a, 0x00, 0x00, 0x00, 0x1c, 0x00, 0x00, 0x00, 0x38, 0x00, 0x00, 0x00,
    0x04, 0x00, 0x00, 0x00, 0x01, 0x00, 0x00, 0x00, 0x2a, 0x00, 0x00, 0x00,
    0x01, 0x00, 0x00, 0x00, 0x10, 0x00, 0x00, 0x00, 0x18, 0x00, 0x00, 0x00,
    0x73, 0x65, 0x71, 0x75, 0x65, 0x6e, 0x74, 0x69, 0x61, 0x6c, 0x2f, 0x63,
    0x6f, 0x6e, 0x76, 0x32, 0x64, 0x5f, 0x31, 0x2f, 0x52, 0x65, 0x6c, 0x75,
    0x00, 0x00, 0x00, 0x00, 0xf8, 0xc2, 0xff, 0xff, 0x2a, 0xc4, 0xff, 0xff,
    0x10, 0x00, 0x00, 0x00, 0x09, 0x00, 0x00, 0x00, 0x1c, 0x00, 0x00, 0x00,
    0x40, 0x00, 0x00, 0x00, 0x04, 0x00, 0x00, 0x00, 0x01, 0x00, 0x00, 0x00,
    0x0e, 0x00, 0x00, 0x00, 0x01, 0x00, 0x00, 0x00, 0x10, 0x00, 0x00, 0x00,
    0x22, 0x00, 0x00, 0x00, 0x73, 0x65, 0x71, 0x75, 0x65, 0x6e, 0x74, 0x69,
    0x61, 0x6c, 0x2f, 0x6d, 0x61, 0x78, 0x5f, 0x70, 0x6f, 0x6f, 0x6c, 0x69,
    0x6e, 0x67, 0x32, 0x64, 0x5f, 0x31, 0x2f, 0x4d, 0x61, 0x78, 0x50, 0x6f,
    0x6f, 0x6c, 0x00, 0x00, 0x4c, 0xc3, 0xff, 0xff, 0x7e, 0xc4, 0xff, 0xff,
    0x10, 0x00, 0x00, 0x00, 0x08, 0x00, 0x00, 0x00, 0x14, 0x00, 0x00, 0x00,
    0x30, 0x00, 0x00, 0x00, 0x02, 0x00, 0x00, 0x00, 0x01, 0x00, 0x00, 0x00,
    0x04, 0x00, 0x00, 0x00, 0x1a, 0x00, 0x00, 0x00, 0x73, 0x65, 0x71, 0x75,
    0x65, 0x6e, 0x74, 0x69, 0x61, 0x6c, 0x2f, 0x64, 0x65, 0x6e, 0x73, 0x65,
    0x5f, 0x31, 0x2f, 0x42, 0x69, 0x61, 0x73, 0x41, 0x64, 0x64, 0x00, 0x00,
    0x90, 0xc3, 0xff, 0xff, 0xc2, 0xc4, 0xff, 0xff, 0x10, 0x00, 0x00, 0x00,
    0x07, 0x00, 0x00, 0x00, 0x14, 0x00, 0x00, 0x00, 0x20, 0x00, 0x00, 0x00,
    0x02, 0x00, 0x00, 0x00, 0x01, 0x00, 0x00, 0x00, 0x04, 0x00, 0x00, 0x00,
    0x08, 0x00, 0x00, 0x00, 0x49, 0x64, 0x65, 0x6e, 0x74, 0x69, 0x74, 0x79,
    0x00, 0x00, 0x00, 0x00, 0xc4, 0xc3, 0xff, 0xff, 0xf6, 0xc4, 0xff, 0xff,
    0x10, 0x00, 0x00, 0x00, 0x06, 0x00, 0x00, 0x00, 0x14, 0x00, 0x00, 0x00,
    0x48, 0x00, 0x00, 0x00, 0x02, 0x00, 0x00, 0x00, 0x10, 0x00, 0x00, 0x00,
    0xe0, 0x00, 0x00, 0x00, 0x30, 0x00, 0x00, 0x00, 0x73, 0x65, 0x71, 0x75,
    0x65, 0x6e, 0x74, 0x69, 0x61, 0x6c, 0x2f, 0x64, 0x65, 0x6e, 0x73, 0x65,
    0x2f, 0x4d, 0x61, 0x74, 0x4d, 0x75, 0x6c, 0x2f, 0x52, 0x65, 0x61, 0x64,
    0x56, 0x61, 0x72, 0x69, 0x61, 0x62, 0x6c, 0x65, 0x4f, 0x70, 0x2f, 0x74,
    0x72, 0x61, 0x6e, 0x73, 0x70, 0x6f, 0x73, 0x65, 0x00, 0x00, 0x00, 0x00,
    0x20, 0xc4, 0xff, 0xff, 0x00, 0x38, 0x00, 0x00, 0x91, 0x78, 0x9e, 0x3d,
    0x02, 0x6e, 0x72, 0x3e, 0xaf, 0x5f, 0x65, 0xbc, 0x83, 0x89, 0xa5, 0x3e,
    0x99, 0x1e, 0xf5, 0x3d, 0xb4, 0x02, 0x92, 0x3d, 0xaf, 0x31, 0x96, 0x3d,
    0x44, 0x77, 0xa2, 0xbe, 0xf0, 0x3c, 0x73, 0xbe, 0x0f, 0xec, 0x35, 0x3f,
    0x47, 0xd1, 0x20, 0xbc, 0xae, 0x8d, 0x48, 0xbe, 0xce, 0xcc, 0x3d, 0x3e,
    0xad, 0x49, 0x78, 0x3e, 0x11, 0x2e, 0x82, 0xbd, 0xa7, 0xf3, 0x7e, 0x3d,
    0x7b, 0xea, 0x7a, 0x3d, 0xd1, 0xe5, 0x1f, 0x3e, 0x92, 0x8c, 0x7a, 0x3d,
    0xe8, 0x22, 0x46, 0xbe, 0xe4, 0x5c, 0x24, 0x3e, 0xa2, 0x0d, 0x6b, 0x3c,
    0xfb, 0x04, 0x21, 0xbd, 0x1c, 0x6e, 0xd1, 0xbe, 0xd5, 0xc6, 0xd9, 0xbc,
    0xb6, 0xe8, 0xdf, 0x3d, 0xd8, 0x73, 0x09, 0x3d, 0xcb, 0x45, 0xb1, 0xbe,
    0xda, 0x6a, 0x0e, 0x3d, 0x40, 0xbe, 0xef, 0xbc, 0xe4, 0xbb, 0xcb, 0xbd,
    0xf6, 0x35, 0x30, 0x3d, 0x25, 0x3a, 0x56, 0xbe, 0x1f, 0x35, 0x0a, 0x3d,
    0x95, 0x31, 0x21, 0x3d, 0xde, 0xaa, 0x54, 0xbe, 0x8d, 0x0a, 0x6b, 0x3e,
    0xd5, 0x70, 0x02, 0xbd, 0xdc, 0x18, 0xaa, 0x3c, 0x2a, 0x0c, 0x79, 0xbe,
    0xee, 0xc5, 0x04, 0x3b, 0x2c, 0xb9, 0xbe, 0x3d, 0x0f, 0x55, 0x82, 0xbc,
    0x94, 0xf6, 0x00, 0xbf, 0x0a, 0xa2, 0x02, 0xbe, 0xa3, 0x2b, 0x58, 0xbd,
    0x09, 0x4f, 0xd3, 0xbd, 0x57, 0x98, 0x36, 0xbe, 0xcd, 0xed, 0x81, 0xbe,
    0x78, 0x4d, 0x3b, 0xbd, 0xa1, 0xf9, 0xdc, 0xbd, 0x18, 0xc4, 0x29, 0xbd,
    0xf5, 0x6d, 0xb2, 0x3e, 0x43, 0x7b, 0x53, 0x3e, 0x2b, 0x6a, 0x69, 0x3c,
    0xec, 0x2e, 0x13, 0xbf, 0x6a, 0x0d, 0x2c, 0xbe, 0x3d, 0xe3, 0x32, 0x3e,
    0xf4, 0x41, 0x39, 0x3d, 0x48, 0xd3, 0x49, 0xbe, 0x7f, 0x25, 0x9a, 0xbe,
    0xd3, 0x36, 0x0b, 0xbe, 0xa5, 0xa3, 0x89, 0xbd, 0x09, 0x30, 0xe5, 0xbd,
    0x13, 0x17, 0x83, 0xbe, 0x1a, 0x4c, 0xc4, 0xbc, 0x81, 0x1e, 0x67, 0xbe,
    0x82, 0x77, 0xdf, 0xbd, 0x02, 0x7d, 0x33, 0x3e, 0xd3, 0x35, 0x02, 0x3e,
    0x8a, 0xc0, 0x90, 0x3c, 0x8b, 0xd0, 0x95, 0xbe, 0x2a, 0x67, 0x6f, 0xbe,
    0xf3, 0xf4, 0x20, 0x3e, 0x01, 0x28, 0xba, 0x3c, 0x55, 0x65, 0xaa, 0xbd,
    0x76, 0x1d, 0x90, 0xbd, 0xa5, 0x37, 0xce, 0x3d, 0x8f, 0xd7, 0x80, 0xbd,
    0x02, 0xea, 0x7d, 0xbc, 0xd1, 0xff, 0xe6, 0xbd, 0x96, 0xb5, 0xa0, 0x3d,
    0xea, 0xb0, 0x90, 0xbe, 0x9e, 0xed, 0x99, 0xbd, 0x2e, 0xee, 0xd9, 0x3d,
    0xe9, 0xf4, 0xb5, 0x3e, 0xa2, 0xb4, 0xfe, 0x3d, 0xe5, 0x4b, 0x30, 0x3d,
    0x07, 0xf3, 0x58, 0xbe, 0x29, 0xa8, 0x2a, 0x3b, 0xf6, 0x0c, 0x40, 0x3e,
    0xb9, 0x87, 0xc0, 0xbc, 0xf3, 0x12, 0x67, 0x3d, 0xd7, 0x33, 0x82, 0xbd,
    0xba, 0x47, 0x15, 0xbd, 0x64, 0xca, 0x29, 0x3e, 0xca, 0x70, 0x5d, 0x3e,
    0x9c, 0xa8, 0xcb, 0x3d, 0xbe, 0xe3, 0xaf, 0xbd, 0xaf, 0x93, 0x2c, 0xbe,
    0x07, 0x36, 0xb5, 0x3e, 0xfc, 0xff, 0x34, 0x3e, 0x71, 0x9a, 0xbb, 0xbd,
    0xa8, 0x92, 0x4b, 0x3e, 0xb1, 0x22, 0x29, 0xbe, 0xce, 0x5d, 0x3e, 0x3e,
    0xda, 0xca, 0x42, 0x3e, 0x20, 0x1a, 0x58, 0x3d, 0x5c, 0x0a, 0x0c, 0x3d,
    0xe2, 0xff, 0xf0, 0x3d, 0x79, 0xfd, 0x0c, 0x3e, 0x69, 0x5f, 0x03, 0x3e,
    0x66, 0xd3, 0x2e, 0xbb, 0x3a, 0x63, 0x64, 0x3c, 0x10, 0x2f, 0x48, 0xbe,
    0xc5, 0xa7, 0x47, 0xbe, 0xda, 0x5a, 0x97, 0x3e, 0xc1, 0x6e, 0xcd, 0xbc,
    0x9a, 0x9c, 0x51, 0xbd, 0x31, 0x27, 0xdd, 0x3d, 0x0b, 0xb2, 0x80, 0xbd,
    0xbf, 0x75, 0xa7, 0xbc, 0xd5, 0x65, 0x2f, 0x3e, 0xc4, 0x0d, 0x1b, 0x3e,
    0xcf, 0x7f, 0xf2, 0x3d, 0x73, 0xc7, 0xf2, 0x3d, 0x69, 0x2e, 0x98, 0xbb,
    0xa8, 0x5b, 0xa8, 0x3d, 0xfd, 0xb0, 0xbf, 0xbd, 0xa3, 0x49, 0xfc, 0xbd,
    0xad, 0xf5, 0x02, 0xbe, 0x60, 0x1e, 0x26, 0xbe, 0x1d, 0x96, 0x3d, 0x3e,
    0xf7, 0x23, 0x2c, 0x3e, 0x44, 0x1b, 0x86, 0x3d, 0x88, 0x56, 0x48, 0xbd,
    0xad, 0xf6, 0xee, 0x3c, 0x0d, 0x81, 0x13, 0x3d, 0xd0, 0x76, 0x09, 0x3e,
    0x49, 0x83, 0x83, 0xbd, 0x50, 0xd6, 0x79, 0xbe, 0x8c, 0x17, 0x4f, 0x3d,
    0xec, 0xe5, 0x90, 0x3d, 0x1e, 0x19, 0x4f, 0x3d, 0x1f, 0x3c, 0x9f, 0xbd,
    0xe5, 0x47, 0x4b, 0xbe, 0x33, 0xf0, 0x14, 0xbe, 0x58, 0xbf, 0x21, 0x3d,
    0xd2, 0x8c, 0x42, 0x3e, 0x31, 0xe6, 0x9a, 0x3d, 0xf9, 0x4e, 0xab, 0xbd,
    0x6f, 0x46, 0x1f, 0xbe, 0x9e, 0xf1, 0x21, 0x3d, 0x04, 0x72, 0xfb, 0x3d,
    0x29, 0xca, 0x24, 0x3e, 0x32, 0x01, 0xa1, 0xbe, 0x07, 0x9b, 0x45, 0xbe,
    0xf9, 0x09, 0xc5, 0x3d, 0xc9, 0x84, 0x44, 0xbd, 0xde, 0xb5, 0x68, 0xbd,
    0x0a, 0xf6, 0x3e, 0xbe, 0x78, 0x6e, 0xbc, 0xbd, 0x03, 0xf8, 0x38, 0xbd,
    0xe9, 0xf6, 0x17, 0xbd, 0x1a, 0x19, 0x3b, 0x3e, 0x43, 0xb1, 0xdb, 0x3c,
    0xc5, 0x5b, 0x1e, 0xbb, 0xcc, 0x9b, 0x00, 0xbe, 0x01, 0xe4, 0xe4, 0xba,
    0xe5, 0x8d, 0x26, 0x3e, 0x4b, 0x09, 0x0a, 0xbc, 0x50, 0x4e, 0xe0, 0xbe,
    0xe3, 0x93, 0xf3, 0xbc, 0xe8, 0xe9, 0x20, 0x3d, 0x23, 0xa7, 0xe2, 0x3c,
    0xe2, 0x05, 0xa7, 0x3d, 0xd4, 0xda, 0x29, 0xbd, 0xb3, 0x43, 0xa7, 0xbc,
    0x28, 0x61, 0x0d, 0xbd, 0x7e, 0x55, 0xa7, 0x3d, 0x5f, 0x27, 0x3f, 0x3e,
    0x12, 0x19, 0xca, 0x3b, 0xc9, 0x89, 0x0b, 0xbd, 0x57, 0x99, 0x33, 0xbd,
    0x61, 0x8f, 0xda, 0xbc, 0x6a, 0x54, 0x5a, 0x3e, 0x31, 0xeb, 0x2b, 0x3d,
    0x8c, 0x95, 0x97, 0xbe, 0x5b, 0x2d, 0x85, 0x3e, 0x49, 0x3f, 0xf4, 0xbc,
    0x20, 0xbb, 0x62, 0x3c, 0x01, 0x69, 0xae, 0xbd, 0xe1, 0x2c, 0x43, 0xbe,
    0xe9, 0x5d, 0x84, 0x3d, 0xb3, 0x61, 0x17, 0x3e, 0x47, 0x07, 0x95, 0xbc,
    0xcd, 0x7c, 0x87, 0x3e, 0xd9, 0xb3, 0x03, 0x3d, 0x1c, 0x7e, 0x15, 0x3d,
    0xe1, 0x0b, 0xb0, 0xbd, 0x23, 0xfe, 0x94, 0x3c, 0xf0, 0x36, 0xd7, 0x3d,
    0x9e, 0x2b, 0x82, 0x3c, 0x78, 0x43, 0x9b, 0xbe, 0xf9, 0x5d, 0x0c, 0xbe,
    0x07, 0x45, 0xda, 0x3d, 0x79, 0x36, 0x19, 0x3d, 0x49, 0xff, 0xbc, 0x3c,
    0xd6, 0x6e, 0xec, 0xbe, 0x6c, 0xb2, 0xd5, 0x3c, 0x2a, 0xb0, 0x92, 0x3b,
    0x45, 0x87, 0x3a, 0x3e, 0xd3, 0xe5, 0xb8, 0xbd, 0x92, 0x1a, 0x2e, 0x3c,
    0x9b, 0x33, 0x3c, 0x3e, 0x0f, 0x3d, 0xa8, 0xbe, 0x53, 0x7c, 0xa6, 0x3d,
    0x3b, 0x9e, 0x98, 0xbe, 0x96, 0x91, 0xd6, 0x3c, 0x71, 0x5b, 0x99, 0xbe,
    0x73, 0x0b, 0x04, 0x3e, 0xfa, 0x8a, 0xc0, 0x3d, 0x7f, 0x1b, 0xdd, 0x3d,
    0xe4, 0x01, 0x84, 0xbd, 0xcf, 0x63, 0xdb, 0xbd, 0xda, 0x5d, 0x8d, 0xbd,
    0x44, 0xe1, 0x46, 0xbd, 0x65, 0x6c, 0x05, 0xbe, 0x0a, 0x83, 0xb1, 0xbd,
    0x97, 0x4a, 0x59, 0xbe, 0x77, 0x26, 0xa7, 0x3d, 0x0d, 0x22, 0xea, 0xbd,
    0x70, 0x48, 0x14, 0xbe, 0x01, 0x31, 0x04, 0x3e, 0xe0, 0x5e, 0xb8, 0xbd,
    0xd3, 0xe3, 0xee, 0xbd, 0x4e, 0x6f, 0xc4, 0xbc, 0x2f, 0xab, 0x53, 0x3d,
    0xd2, 0x79, 0x2c, 0xbe, 0xea, 0x5e, 0xdb, 0xbd, 0x02, 0x40, 0x4d, 0xbd,
    0xcf, 0x47, 0x5d, 0xbd, 0x1e, 0x48, 0x97, 0xbd, 0x7c, 0x3b, 0xca, 0x3d,
    0x75, 0x1d, 0x43, 0xbe, 0xb7, 0xab, 0x86, 0x3b, 0xfa, 0x51, 0xe2, 0x3b,
    0xcc, 0x0c, 0x1a, 0xbe, 0xda, 0x56, 0xc0, 0x3d, 0xd2, 0xa5, 0x6b, 0xbd,
    0x46, 0xe8, 0x27, 0xbe, 0x95, 0x71, 0x4e, 0xbe, 0x78, 0xda, 0xb0, 0x3d,
    0xec, 0xfd, 0x31, 0xbe, 0x5f, 0xb5, 0x44, 0xbe, 0x2b, 0x48, 0x06, 0xbe,
    0x28, 0x5c, 0xf4, 0xbd, 0x1a, 0xb1, 0xa3, 0x3c, 0x77, 0xd6, 0xef, 0xbd,
    0xec, 0xe1, 0x93, 0xbd, 0x85, 0xb2, 0xcd, 0xbd, 0xf8, 0x0b, 0x52, 0xbd,
    0x16, 0x95, 0xd7, 0x3c, 0xb2, 0x00, 0x29, 0x3c, 0x42, 0x8c, 0xb6, 0x3d,
    0xa8, 0x79, 0x1f, 0xbe, 0xa5, 0xfe, 0xe8, 0xbd, 0x28, 0x30, 0xb8, 0x3d,
    0xb8, 0x23, 0x9e, 0x3d, 0x7f, 0xe1, 0x33, 0xbe, 0x2b, 0xf8, 0x3f, 0xbe,
    0x05, 0x8c, 0x70, 0xbd, 0x30, 0x32, 0xe0, 0xbd, 0xff, 0xd3, 0x45, 0xbe,
    0x29, 0x82, 0x33, 0xbc, 0x2b, 0x86, 0x13, 0xbe, 0x0b, 0x81, 0x07, 0xbd,
    0xb1, 0xd4, 0xa8, 0x3c, 0x42, 0xd6, 0x2d, 0xbc, 0xfc, 0x19, 0x33, 0xba,
    0xd5, 0xf7, 0x29, 0xbe, 0xff, 0xb9, 0x18, 0xbe, 0x34, 0x96, 0x36, 0xbe,
    0x8d, 0x80, 0xcc, 0xbd, 0x55, 0x1f, 0xe9, 0xbc, 0xa1, 0xdd, 0x69, 0xbe,
    0xd3, 0x86, 0xb4, 0x3c, 0x3a, 0xc2, 0x0f, 0xbe, 0xc0, 0x63, 0xcd, 0xbc,
    0xcb, 0xf8, 0xcf, 0xbd, 0x45, 0x7f, 0x5f, 0x3d, 0x95, 0x59, 0xbd, 0x3d,
    0x7b, 0x9c, 0xf0, 0xbd, 0x57, 0xaf, 0xfb, 0x3c, 0xad, 0x44, 0xaf, 0xbd,
    0xa5, 0xf3, 0xbc, 0xbd, 0xb4, 0xe1, 0x59, 0xbd, 0xa6, 0x28, 0x29, 0x3d,
    0xcb, 0x8b, 0x50, 0xbe, 0x20, 0x85, 0x95, 0xbd, 0x33, 0xcf, 0xfa, 0xbb,
    0xde, 0xfc, 0x1c, 0x3d, 0x91, 0xb6, 0x43, 0xbe, 0x54, 0x84, 0xaf, 0xbd,
    0xdc, 0xde, 0x04, 0xbe, 0x69, 0xc6, 0x19, 0xbe, 0x43, 0xcf, 0x23, 0xbd,
    0x77, 0x3b, 0x58, 0xbe, 0x50, 0x09, 0x50, 0xbd, 0x17, 0xa2, 0x2d, 0xbd,
    0xe0, 0xad, 0xb5, 0xba, 0x47, 0x9d, 0xcc, 0x3d, 0x06, 0x72, 0xe3, 0x3d,
    0x92, 0x81, 0x9f, 0x3c, 0x55, 0x1d, 0x06, 0xbe, 0xa0, 0x79, 0x9c, 0x3c,
    0xe1, 0xec, 0xe6, 0xbd, 0x63, 0x0c, 0x9a, 0xbd, 0xc1, 0x82, 0x5e, 0xbe,
    0x01, 0x4c, 0x38, 0xbe, 0x64, 0x06, 0x52, 0xbd, 0xd1, 0x54, 0x08, 0xbe,
    0x0c, 0xb8, 0xc2, 0x3d, 0x5a, 0xd2, 0xb4, 0x3d, 0x84, 0xcb, 0x24, 0xbe,
    0x80, 0xb4, 0x8f, 0x3c, 0x84, 0x69, 0x0c, 0xbe, 0x3d, 0xda, 0x05, 0xbe,
    0x4c, 0x48, 0x0c, 0x3e, 0xdc, 0x35, 0xcf, 0xbc, 0x80, 0x1b, 0x0b, 0xbe,
    0xaa, 0x3a, 0x9c, 0xbc, 0x21, 0xd4, 0x83, 0x3d, 0x26, 0x6e, 0xe8, 0x3d,
    0xe4, 0x41, 0x28, 0x3d, 0x88, 0x35, 0x1d, 0xbe, 0x2c, 0xfb, 0xb2, 0x3d,
    0xe4, 0xbb, 0x0a, 0xbe, 0x95, 0x00, 0xfe, 0xbd, 0x3d, 0x87, 0x89, 0x3c,
    0x19, 0x9f, 0xa0, 0xbc, 0xac, 0xce, 0x6f, 0xbd, 0x16, 0x48, 0x21, 0xbe,
    0xd8, 0x21, 0x13, 0xbe, 0x15, 0x49, 0xfc, 0xbd, 0x6c, 0x10, 0x31, 0x3e,
    0x93, 0x04, 0xa2, 0xbd, 0xbc, 0xce, 0xbe, 0xbd, 0x59, 0xce, 0x51, 0xbd,
    0xd6, 0xf1, 0x60, 0x3d, 0x3a, 0x92, 0x76, 0xbd, 0xb8, 0xef, 0x66, 0x3b,
    0x26, 0x2c, 0x8e, 0x3d, 0xf1, 0xff, 0x1e, 0xbe, 0xc2, 0x6f, 0x26, 0x3d,
    0xe7, 0xb2, 0x4e, 0xbe, 0x31, 0x1e, 0xc4, 0xbd, 0x2f, 0x0a, 0x81, 0x3c,
    0xb9, 0x73, 0xea, 0xbd, 0x41, 0xdf, 0x4b, 0xbd, 0x9d, 0x47, 0x88, 0xbd,
    0xab, 0x21, 0x68, 0xbd, 0x77, 0x20, 0xf9, 0xbc, 0x40, 0x55, 0xaa, 0x3d,
    0x26, 0xe1, 0xf9, 0xbd, 0x97, 0xbe, 0xdd, 0x3d, 0x57, 0xe8, 0x91, 0xbd,
    0x00, 0xbb, 0x3e, 0xbe, 0x22, 0x51, 0x91, 0xbd, 0x6b, 0xe6, 0xa1, 0x3d,
    0x7d, 0xf1, 0xa6, 0x3d, 0xa9, 0x89, 0x86, 0x3d, 0x57, 0x91, 0xef, 0xbd,
    0xcb, 0x06, 0x01, 0xba, 0x9d, 0xc0, 0x4a, 0x3d, 0x71, 0xaf, 0x35, 0xbe,
    0x01, 0x3d, 0x16, 0xbc, 0x01, 0xa4, 0x81, 0xbd, 0xa4, 0xf6, 0x2e, 0xbd,
    0xb7, 0xe9, 0x0d, 0xbd, 0x94, 0xef, 0x26, 0xbe, 0xee, 0x31, 0x20, 0xbe,
    0x43, 0x8a, 0x30, 0x3d, 0x09, 0xa3, 0xb1, 0xbd, 0x20, 0xb8, 0x11, 0x3c,
    0x55, 0x7c, 0x1e, 0x3d, 0xbd, 0x60, 0x4f, 0xbe, 0x05, 0x06, 0xa3, 0x3c,
    0x92, 0x48, 0xfa, 0xbb, 0x6a, 0x53, 0x0a, 0xbe, 0xd5, 0x01, 0x19, 0xbc,
    0x69, 0xf6, 0x2a, 0xbe, 0xf9, 0xbe, 0x08, 0xbe, 0x4b, 0x17, 0x49, 0x3c,
    0xb4, 0x10, 0x79, 0x3d, 0x4f, 0xb1, 0xf2, 0xbc, 0xc4, 0x6b, 0x8a, 0x3c,
    0x6c, 0xa7, 0x35, 0xbe, 0xe2, 0xfb, 0xe0, 0xbd, 0xf3, 0xc0, 0x2a, 0xbd,
    0xe6, 0x47, 0xbd, 0xbd, 0xc3, 0x30, 0x66, 0xbe, 0xfb, 0x2d, 0x35, 0x3d,
    0x13, 0xd6, 0xad, 0xbd, 0x7f, 0xd2, 0x01, 0xbe, 0x9e, 0xe1, 0x57, 0xbd,
    0x8c, 0x02, 0xe2, 0x3c, 0x21, 0x90, 0x11, 0xbe, 0x56, 0x8f, 0xab, 0x3d,
    0xba, 0x5b, 0xdc, 0x3d, 0xaa, 0x5e, 0x77, 0xbe, 0x1c, 0xc9, 0x64, 0x3d,
    0xfa, 0xf6, 0xd4, 0x3b, 0x72, 0x3d, 0x4a, 0x3d, 0x8c, 0xd5, 0x34, 0xbe,
    0x32, 0x30, 0xa8, 0x3b, 0x60, 0x0c, 0x8e, 0x3c, 0x7b, 0xc7, 0x30, 0x3d,
    0x86, 0x51, 0xb9, 0xbb, 0xed, 0x50, 0x0e, 0x3e, 0xb3, 0x70, 0x8a, 0xbc,
    0xc6, 0x3a, 0x1d, 0xbe, 0x77, 0x4d, 0x09, 0xbe, 0xb7, 0x5b, 0x39, 0xbd,
    0x23, 0xc9, 0x94, 0x3d, 0x8c, 0x6b, 0x7d, 0xbd, 0xc7, 0x7e, 0x45, 0xbe,
    0xf7, 0x39, 0xb8, 0xbd, 0x22, 0x46, 0x41, 0xbe, 0x9c, 0xcc, 0x64, 0x3c,
    0x97, 0xae, 0x94, 0xbd, 0xf9, 0x00, 0x8e, 0xbd, 0x34, 0xd3, 0xae, 0xbd,
    0x95, 0x7e, 0x4c, 0x3d, 0x16, 0x3f, 0x81, 0x3d, 0x77, 0x7e, 0x9b, 0xbc,
    0x47, 0x7b, 0x87, 0xbc, 0xb8, 0xc1, 0x14, 0xbe, 0x48, 0x64, 0xff, 0xbd,
    0x41, 0x09, 0xe2, 0xbc, 0xcb, 0x02, 0x2d, 0xbd, 0x52, 0x57, 0x26, 0xba,
    0x2b, 0x92, 0x83, 0xbd, 0x12, 0x88, 0x81, 0xbe, 0x11, 0x87, 0xe4, 0x3d,
    0xf6, 0x25, 0x51, 0xbe, 0xd5, 0x2d, 0xe9, 0xbd, 0xca, 0xc7, 0x6b, 0xbe,
    0x20, 0x33, 0x42, 0x3c, 0xfd, 0x3b, 0x54, 0xbe, 0xcc, 0x6d, 0x18, 0xbd,
    0x50, 0x31, 0x1f, 0xbe, 0x15, 0x5a, 0x48, 0x3e, 0x6a, 0xa8, 0x1e, 0x3e,
    0x1c, 0x72, 0x9d, 0xbe, 0xc2, 0xcf, 0x19, 0x3e, 0xda, 0x99, 0x3e, 0x3d,
    0x33, 0x9c, 0x84, 0xbf, 0xc3, 0xf1, 0x19, 0x3d, 0x3f, 0xf7, 0x24, 0xbd,
    0x29, 0x2a, 0xf7, 0x3e, 0x48, 0xf5, 0x48, 0xbe, 0xf4, 0xbc, 0xf4, 0xbd,
    0xed, 0x44, 0x7f, 0xbd, 0x3b, 0x94, 0x8a, 0x3e, 0xcd, 0x23, 0x5d, 0xbc,
    0x58, 0xdb, 0x8b, 0x3e, 0xe7, 0x74, 0xac, 0xbe, 0x6e, 0x53, 0x84, 0xbd,
    0x18, 0x4a, 0x4a, 0x3e, 0x96, 0x8c, 0xf1, 0x3d, 0xae, 0xc0, 0x5b, 0xbc,
    0x92, 0x87, 0x52, 0x3e, 0x51, 0xcd, 0x55, 0xbd, 0x2d, 0x96, 0x0f, 0x3d,
    0xba, 0xee, 0x95, 0xbc, 0x79, 0xf2, 0x32, 0x3e, 0x9a, 0x6c, 0xd8, 0xbe,
    0x67, 0xfd, 0x06, 0xbe, 0x47, 0x20, 0xd5, 0xbc, 0x67, 0x20, 0xf5, 0x3d,
    0xb6, 0x84, 0xbb, 0x3b, 0x20, 0x91, 0x3a, 0x3e, 0x86, 0x8c, 0x2b, 0xbe,
    0x94, 0x2b, 0xeb, 0x3d, 0x57, 0xbd, 0x17, 0x3e, 0x8f, 0x5f, 0x18, 0xbc,
    0x7d, 0x8f, 0x65, 0xbd, 0x99, 0x37, 0xc3, 0x3e, 0x04, 0x8c, 0xa8, 0xbd,
    0x8a, 0x8d, 0xd3, 0x3d, 0xdc, 0x19, 0xa9, 0xbd, 0x92, 0x13, 0x84, 0x3d,
    0x91, 0xb8, 0xa3, 0xbe, 0x7b, 0x31, 0x87, 0xbd, 0x5b, 0xf4, 0x29, 0xbb,
    0x99, 0x9a, 0x44, 0x3e, 0x7a, 0x99, 0x26, 0xbd, 0xe1, 0xd1, 0x03, 0x3e,
    0x37, 0xac, 0xa1, 0x3c, 0x46, 0xe3, 0x0d, 0x3e, 0xcc, 0xad, 0x96, 0x3d,
    0x34, 0xab, 0xf9, 0xbd, 0xcb, 0x7e, 0x36, 0xbe, 0x75, 0xa7, 0x8c, 0x3e,
    0x65, 0x58, 0x41, 0xbe, 0x12, 0x45, 0xa3, 0xba, 0xd5, 0x51, 0xe2, 0xbc,
    0xac, 0x2c, 0xc8, 0xbc, 0x8a, 0x1d, 0x70, 0xbe, 0x58, 0xb0, 0x65, 0x3c,
    0x00, 0x29, 0xdc, 0x3d, 0xf7, 0x94, 0x9d, 0x3e, 0x24, 0xfa, 0x84, 0xbd,
    0xa0, 0x06, 0xfe, 0x3d, 0x84, 0x08, 0x10, 0xbd, 0xf0, 0x0a, 0xc5, 0x3d,
    0xd4, 0xf2, 0xd3, 0x3c, 0xfd, 0xa3, 0xd5, 0xbd, 0xac, 0x95, 0x4e, 0xbb,
    0x0a, 0x6d, 0x99, 0x3e, 0x5a, 0x84, 0x1d, 0x3c, 0x56, 0x76, 0x8c, 0xbc,
    0xa3, 0xff, 0xa8, 0xbc, 0xb2, 0x9d, 0x4b, 0x3c, 0xe3, 0x87, 0x8b, 0xbe,
    0x30, 0xe9, 0xe6, 0xbd, 0x97, 0xf3, 0xef, 0xbc, 0x67, 0x40, 0x9f, 0x3e,
    0x7e, 0x95, 0x9c, 0xbd, 0xa1, 0xd7, 0xf4, 0x3d, 0x14, 0x05, 0x44, 0xbd,
    0x32, 0x50, 0x40, 0x3e, 0x7f, 0x4f, 0x0e, 0xbe, 0x24, 0xb4, 0x35, 0xbd,
    0xbb, 0x01, 0x13, 0xbe, 0x75, 0x97, 0x72, 0x3e, 0x72, 0xb5, 0xc4, 0xbc,
    0x2d, 0x03, 0xa3, 0xbe, 0x30, 0x9c, 0x85, 0xbd, 0xe9, 0x8a, 0xdd, 0x3d,
    0x66, 0x85, 0xe1, 0xbd, 0x00, 0x78, 0x16, 0xbe, 0xa6, 0xe0, 0x5d, 0xbd,
    0x39, 0xa7, 0x61, 0x3e, 0x40, 0xe9, 0xfa, 0xbd, 0x03, 0x1a, 0x78, 0x3e,
    0xae, 0x8a, 0x10, 0xbe, 0xff, 0x69, 0x73, 0x3d, 0x83, 0xc1, 0xd1, 0xbd,
    0xe9, 0xdc, 0x01, 0xbe, 0xef, 0xa7, 0x5f, 0x3d, 0x1d, 0xe3, 0x3f, 0x3e,
    0xe2, 0x74, 0x36, 0x3d, 0xda, 0xb4, 0x5d, 0xbe, 0xdf, 0x67, 0x56, 0xbd,
    0x3b, 0xe8, 0xca, 0x3d, 0xdb, 0x14, 0x21, 0xbe, 0x26, 0x0e, 0x21, 0xbe,
    0x70, 0xee, 0xce, 0xbd, 0xce, 0xd1, 0x8d, 0x3e, 0xf7, 0x98, 0xdb, 0xbd,
    0x76, 0xd8, 0x78, 0x3d, 0xd9, 0xc5, 0x25, 0xbe, 0x7b, 0x1e, 0x97, 0x3d,
    0x36, 0x31, 0x11, 0xbe, 0x1b, 0x15, 0x09, 0xbe, 0x20, 0xa6, 0x0b, 0xbb,
    0x25, 0xa1, 0xa0, 0x3e, 0x1b, 0xb2, 0xbb, 0xbd, 0x6d, 0x78, 0x9f, 0xbe,
    0xdf, 0xfb, 0x6a, 0xbd, 0xae, 0xdc, 0xc3, 0xbd, 0xb2, 0xe1, 0x8a, 0xbe,
    0x5a, 0x86, 0x90, 0xbd, 0x36, 0x2c, 0x91, 0xbd, 0xa1, 0x4f, 0x8b, 0x3e,
    0xef, 0x10, 0x11, 0xbd, 0x4e, 0xcc, 0xa8, 0x3d, 0x54, 0xf0, 0x7b, 0xbe,
    0x28, 0x40, 0x60, 0x3d, 0xa8, 0x9b, 0x00, 0x3d, 0xcf, 0xce, 0x28, 0xbd,
    0x3c, 0x31, 0x48, 0x3d, 0x41, 0xa1, 0xa4, 0x3e, 0xa7, 0x2a, 0x8b, 0xbe,
    0xdf, 0xd5, 0xf4, 0xbd, 0xac, 0xc1, 0xa2, 0x3b, 0xc4, 0x44, 0xcf, 0xbc,
    0x4f, 0x37, 0x5b, 0xbe, 0x67, 0xc2, 0x4c, 0xbd, 0x8b, 0x10, 0xb2, 0x3c,
    0x50, 0xe3, 0x26, 0x3e, 0xf8, 0x5e, 0xc2, 0x3d, 0x03, 0x12, 0x05, 0x3e,
    0x62, 0xbd, 0x1f, 0xbe, 0x1c, 0xec, 0xfe, 0x3d, 0x6e, 0x47, 0x50, 0x3d,
    0x60, 0x32, 0x89, 0x3d, 0xac, 0x39, 0x92, 0xbd, 0x23, 0x38, 0x3c, 0x3e,
    0x5f, 0x1e, 0x76, 0x3c, 0x94, 0xe2, 0x19, 0xbd, 0x7a, 0xd7, 0xc8, 0xbc,
    0xd8, 0xe3, 0x91, 0x3b, 0x0d, 0x26, 0x99, 0xbe, 0x2a, 0xad, 0x5d, 0xbe,
    0x94, 0x8e, 0x89, 0x3c, 0x4f, 0x99, 0xe6, 0x3d, 0x38, 0xd7, 0x98, 0x3b,
    0xe2, 0x9d, 0x12, 0x3e, 0xe8, 0xb1, 0x8e, 0xbe, 0x2c, 0x89, 0x28, 0x3e,
    0x8f, 0xd0, 0x3e, 0x3e, 0x22, 0x07, 0x50, 0xbd, 0x01, 0x49, 0xb5, 0xbd,
    0x06, 0x7e, 0x76, 0x3e, 0xaa, 0x8b, 0xa0, 0xbd, 0xa5, 0x43, 0x4a, 0xbc,
    0xe5, 0x64, 0x84, 0xbc, 0x7c, 0xb1, 0x36, 0x3d, 0xae, 0x00, 0xc6, 0xbe,
    0x7f, 0x17, 0x0a, 0xbe, 0xa0, 0x53, 0x3c, 0xbd, 0xb2, 0x43, 0xab, 0x3d,
    0xf2, 0xff, 0xcd, 0x3d, 0x42, 0xde, 0xb6, 0x3e, 0x36, 0x05, 0x07, 0xbf,
    0x2d, 0x47, 0x54, 0xbd, 0x73, 0xa0, 0x21, 0x3e, 0xc1, 0x61, 0x05, 0x3e,
    0x27, 0x6b, 0xcb, 0xbd, 0x9a, 0xe1, 0x5b, 0x3e, 0xfe, 0xdc, 0x33, 0xbd,
    0x12, 0x05, 0x2f, 0x3e, 0x84, 0x79, 0x28, 0xbc, 0x3e, 0x68, 0x66, 0xbe,
    0x7a, 0x0f, 0xb7, 0xbe, 0xcb, 0xff, 0xa6, 0xbe, 0xe1, 0x4c, 0x6c, 0x3d,
    0x10, 0x0f, 0xbe, 0x3e, 0x90, 0xef, 0xd3, 0xbd, 0x20, 0x98, 0x8e, 0x3e,
    0x3f, 0x83, 0xbb, 0xbe, 0x22, 0x0e, 0xc8, 0xbd, 0x5b, 0x94, 0x08, 0x3e,
    0xf7, 0x96, 0x9b, 0x3d, 0x53, 0x44, 0x46, 0xbd, 0x31, 0x47, 0xbc, 0x3d,
    0x4b, 0x9a, 0xee, 0xbd, 0x38, 0xf9, 0x35, 0x3d, 0xce, 0xb3, 0x3e, 0x3d,
    0x9b, 0x95, 0x95, 0x3d, 0xcd, 0x6f, 0xbf, 0xbe, 0x13, 0x43, 0x6a, 0xbe,
    0xa7, 0x4d, 0xe2, 0x3d, 0x76, 0xb4, 0x0f, 0x3f, 0x8e, 0x98, 0xa0, 0xbc,
    0x26, 0x91, 0x33, 0xbe, 0xc6, 0x43, 0x7c, 0xbe, 0xbe, 0x98, 0xd5, 0xbc,
    0x48, 0x72, 0x43, 0x3e, 0xf7, 0x74, 0x88, 0xbc, 0xc2, 0x58, 0xec, 0x3c,
    0xb6, 0x16, 0xa7, 0x3d, 0x17, 0x8c, 0x39, 0x3e, 0x84, 0xf5, 0x00, 0xbe,
    0xc4, 0xa8, 0xe2, 0x3d, 0x56, 0xc9, 0x22, 0x3e, 0xa1, 0x57, 0x96, 0xbe,
    0x06, 0x1c, 0x97, 0xbd, 0xda, 0x24, 0x82, 0x3d, 0xb1, 0xaf, 0x1e, 0xbc,
    0x4c, 0x3d, 0x7e, 0xbe, 0xca, 0xe6, 0xbc, 0x3d, 0xec, 0xd0, 0x93, 0xbd,
    0x13, 0x35, 0xeb, 0xbd, 0xbb, 0x88, 0x0e, 0xbd, 0xeb, 0x2b, 0xf4, 0x3c,
    0x13, 0x20, 0x46, 0x3e, 0x54, 0x9f, 0x78, 0xbd, 0x3d, 0x11, 0x44, 0xbd,
    0xb2, 0x3d, 0xe3, 0xbd, 0x3d, 0x61, 0xa8, 0x3d, 0xa9, 0xf8, 0x10, 0xbd,
    0xe2, 0xdc, 0x94, 0x3d, 0x14, 0x39, 0xde, 0xbd, 0x65, 0xa4, 0xde, 0xbd,
    0x72, 0xdd, 0x92, 0xbd, 0xb3, 0x05, 0x53, 0xbd, 0xcf, 0x8d, 0x1d, 0x3d,
    0x0a, 0x84, 0xa3, 0xbe, 0x5c, 0x03, 0x86, 0xbe, 0x16, 0xb6, 0xcb, 0xbe,
    0x30, 0x14, 0xfd, 0xbe, 0xe8, 0xfe, 0x3f, 0x3d, 0xec, 0x02, 0xc4, 0xbd,
    0x55, 0x4b, 0x99, 0x3c, 0xcb, 0xa5, 0x1e, 0xbd, 0xb4, 0x06, 0x82, 0x3d,
    0x2a, 0xd8, 0x92, 0xbe, 0x49, 0xea, 0xa1, 0xbd, 0x25, 0x78, 0x7b, 0xbe,
    0x34, 0xd6, 0xe8, 0xbd, 0xf3, 0x6a, 0x95, 0xbe, 0xde, 0x0c, 0xa1, 0xbd,
    0x81, 0xac, 0x78, 0x3b, 0x55, 0xa5, 0xd6, 0xbe, 0xfb, 0xfa, 0x65, 0xbe,
    0xd2, 0xa0, 0xb2, 0xbe, 0x01, 0x33, 0x4f, 0xbe, 0xc6, 0xa4, 0x8f, 0x3d,
    0xb4, 0x35, 0x72, 0x3d, 0xfd, 0xfb, 0xc4, 0xbc, 0x8a, 0xc5, 0x02, 0xbc,
    0x2e, 0x81, 0x1b, 0x3d, 0xf1, 0x88, 0x71, 0xbe, 0x10, 0xe7, 0x23, 0xbe,
    0xe5, 0xd4, 0x9b, 0xbd, 0x7e, 0x92, 0x9c, 0xbd, 0x32, 0x5d, 0xa5, 0xbe,
    0x3f, 0x12, 0x10, 0xbd, 0x06, 0xa8, 0xa4, 0xbc, 0x81, 0xe0, 0xb0, 0xbe,
    0x1a, 0xef, 0x5d, 0xbe, 0x15, 0x9b, 0xca, 0xbe, 0xa3, 0xb4, 0x36, 0xbe,
    0x80, 0x96, 0x54, 0xbd, 0x27, 0x41, 0xd4, 0xbc, 0xe1, 0x96, 0x7a, 0x3d,
    0xb0, 0xf1, 0xa4, 0x3d, 0x2e, 0x9f, 0x37, 0x3d, 0x69, 0x19, 0xa0, 0xbe,
    0xb0, 0xd8, 0xae, 0x3d, 0x42, 0x80, 0x0e, 0xbd, 0xbe, 0xbb, 0x8d, 0x3c,
    0x1f, 0x71, 0x93, 0xbe, 0xe5, 0x13, 0xa0, 0xbc, 0x55, 0xb8, 0xcd, 0xbc,
    0x55, 0xf0, 0xc0, 0x3b, 0xba, 0xe0, 0x2c, 0xbe, 0xa5, 0x38, 0xfc, 0xbe,
    0x03, 0x08, 0xdc, 0xbd, 0x8c, 0x72, 0x14, 0xbd, 0xef, 0xd9, 0x67, 0x3c,
    0xc9, 0x03, 0xe0, 0x3d, 0x69, 0xe2, 0xa0, 0x3d, 0xe1, 0x86, 0x06, 0x3d,
    0xa4, 0x52, 0x90, 0xbe, 0xda, 0x56, 0x29, 0xbc, 0x2b, 0x9c, 0xbd, 0x3d,
    0x12, 0xf7, 0xf3, 0xbc, 0x96, 0xad, 0x41, 0xbd, 0xb6, 0x4a, 0x10, 0xbd,
    0x7a, 0xee, 0xb5, 0xbd, 0x88, 0x83, 0xaa, 0x3d, 0xae, 0x03, 0xbd, 0xbe,
    0x4d, 0xaf, 0xe1, 0xbe, 0x32, 0x22, 0x4a, 0x3c, 0x6b, 0xa2, 0x90, 0xbd,
    0x7e, 0x81, 0x95, 0xbd, 0xc7, 0xe1, 0xbc, 0x3d, 0x56, 0x42, 0x7e, 0xbd,
    0xb4, 0xdb, 0xcb, 0x3d, 0xfe, 0x8e, 0x0e, 0xbf, 0x68, 0xe9, 0x60, 0x3e,
    0xea, 0x83, 0xce, 0x3c, 0x04, 0x08, 0x6d, 0xbb, 0xff, 0xb2, 0x38, 0x3d,
    0x26, 0xe2, 0x82, 0x3c, 0x71, 0x20, 0x10, 0xbe, 0x82, 0x64, 0x13, 0x3e,
    0xa7, 0x1a, 0xc6, 0xbe, 0x3e, 0xe8, 0xc7, 0xbe, 0x30, 0x1e, 0xd8, 0x3d,
    0x66, 0x87, 0x50, 0xbe, 0x5d, 0xbf, 0x4b, 0xbe, 0xf9, 0x9e, 0xb8, 0xbd,
    0x22, 0x9e, 0x04, 0x3d, 0x89, 0x8f, 0x7a, 0x3d, 0x4a, 0xd9, 0x15, 0xbe,
    0x4f, 0x77, 0x5e, 0x3e, 0xc0, 0x19, 0x08, 0x3d, 0xe0, 0xd6, 0x47, 0xbd,
    0xfb, 0x2b, 0xb6, 0x3d, 0x64, 0xa3, 0xf1, 0x3c, 0x36, 0xee, 0xd1, 0xbd,
    0x3c, 0x60, 0x60, 0x3d, 0x23, 0xae, 0x75, 0xbe, 0xc8, 0x00, 0x89, 0xbe,
    0xc4, 0x9c, 0x22, 0x3e, 0xc9, 0x29, 0x88, 0xbe, 0xd5, 0x6a, 0xc2, 0xbe,
    0x87, 0x71, 0xca, 0xbd, 0x76, 0x80, 0xa3, 0xbc, 0x84, 0xcf, 0xbc, 0xbd,
    0x4c, 0xac, 0x17, 0xbe, 0xaa, 0xd8, 0x91, 0x3e, 0xa9, 0x44, 0x52, 0x3c,
    0xc0, 0xee, 0xfa, 0xbd, 0x2c, 0x3b, 0x24, 0x3d, 0xc8, 0x0a, 0x8c, 0x3d,
    0x37, 0x10, 0x07, 0x3d, 0x98, 0x78, 0xdf, 0x3d, 0x0c, 0xe2, 0xe5, 0xbd,
    0x2c, 0x38, 0x34, 0xbe, 0xe5, 0x49, 0xb7, 0xbd, 0xc7, 0xcf, 0xd8, 0xbe,
    0x54, 0xf3, 0x6e, 0xbe, 0x2d, 0xbc, 0x19, 0xbe, 0xe4, 0x0f, 0x8d, 0x3d,
    0xf1, 0x48, 0xdc, 0xbd, 0xa2, 0x21, 0xdc, 0x3c, 0x86, 0x4c, 0x9d, 0x3e,
    0x93, 0xcd, 0xe7, 0x3d, 0x30, 0x77, 0xbf, 0xbd, 0xe0, 0xd2, 0x9f, 0xbc,
    0x55, 0x3a, 0x8e, 0x3d, 0xf2, 0x3f, 0x6e, 0xbe, 0xfc, 0xb4, 0x96, 0x3d,
    0xf3, 0xfe, 0xa1, 0xbe, 0x80, 0xf7, 0xfc, 0xbd, 0x34, 0xd4, 0x6c, 0x3d,
    0x31, 0x5b, 0x44, 0xbe, 0xcc, 0x50, 0x45, 0xbe, 0xd0, 0x2b, 0xf4, 0xbd,
    0xf7, 0x13, 0x02, 0xbe, 0x60, 0x08, 0xd7, 0xbd, 0xe5, 0x7e, 0x95, 0x3e,
    0xed, 0x1e, 0x7e, 0x3e, 0x30, 0x5f, 0x10, 0x3d, 0xc7, 0xf2, 0x47, 0xbe,
    0x69, 0x3c, 0x8e, 0x3b, 0xf1, 0xee, 0x51, 0xbd, 0x8e, 0x09, 0x41, 0xbe,
    0x6f, 0x3e, 0xbf, 0x3d, 0x30, 0x8d, 0x09, 0xbe, 0xc1, 0xa9, 0x19, 0xbe,
    0xa7, 0xb8, 0x96, 0xbd, 0x6c, 0xd8, 0x82, 0x3c, 0x45, 0x45, 0x3d, 0xbd,
    0x81, 0xb8, 0x4f, 0xbe, 0xd5, 0xe1, 0x32, 0x3d, 0x26, 0x85, 0x51, 0xbc,
    0x86, 0x09, 0x8b, 0x3e, 0xa3, 0x45, 0x87, 0x3e, 0x50, 0xeb, 0x52, 0x3e,
    0x17, 0xe7, 0x97, 0x3c, 0xc6, 0x63, 0x18, 0xbe, 0x34, 0xff, 0xd4, 0xbc,
    0xf9, 0xdc, 0xe5, 0xbe, 0x4c, 0x05, 0x86, 0x3d, 0xee, 0x91, 0xf2, 0xbc,
    0x9f, 0x83, 0xfa, 0xbc, 0x02, 0x38, 0x9e, 0xbd, 0x7c, 0x8a, 0xfe, 0xbc,
    0x9a, 0x13, 0x02, 0xbe, 0xc3, 0xcf, 0x08, 0xbe, 0x49, 0xfb, 0x0d, 0x3d,
    0x17, 0xf6, 0x29, 0xbd, 0x88, 0x7a, 0xdd, 0x3e, 0x6f, 0x3b, 0x01, 0x3e,
    0x19, 0xdd, 0x5b, 0x3e, 0x47, 0xbc, 0x19, 0xbd, 0x43, 0xc4, 0x9a, 0xbd,
    0xdd, 0x16, 0x82, 0x3d, 0xd4, 0x08, 0x89, 0xbe, 0x1f, 0xb5, 0xd8, 0xbe,
    0x5a, 0x44, 0x69, 0x3d, 0x35, 0x15, 0x60, 0xbe, 0x06, 0x34, 0x9e, 0xbe,
    0xff, 0x5a, 0xa1, 0x3e, 0x61, 0x69, 0x86, 0xbe, 0x90, 0xee, 0x8a, 0xbd,
    0x4a, 0x55, 0x36, 0xbe, 0x43, 0x71, 0x57, 0x3d, 0xaa, 0xcb, 0x0e, 0xbf,
    0xb4, 0x91, 0x35, 0xbf, 0x6f, 0x5b, 0x0f, 0xbf, 0x40, 0x82, 0x03, 0x3e,
    0x07, 0x78, 0x98, 0xbe, 0xc2, 0x15, 0x90, 0xbe, 0xf9, 0x72, 0xaa, 0xbe,
    0xe2, 0x17, 0x9c, 0xbe, 0x08, 0x3e, 0xa9, 0x3d, 0x9f, 0xae, 0x1a, 0xbf,
    0xf0, 0xf7, 0x28, 0xbf, 0xe1, 0x8b, 0xfc, 0x3d, 0x5b, 0xb5, 0xec, 0xbe,
    0x64, 0x14, 0xa9, 0x3c, 0x5f, 0x3a, 0xdb, 0xbc, 0xc2, 0xc8, 0xd3, 0xbd,
    0x1d, 0xa2, 0x52, 0xbf, 0x8d, 0x06, 0x85, 0x3d, 0x59, 0xfc, 0xaf, 0xbe,
    0xab, 0xa1, 0xb0, 0x3c, 0x4d, 0xa0, 0x2f, 0xbe, 0x04, 0x1f, 0xd3, 0xbb,
    0x20, 0x49, 0xe2, 0xbc, 0x12, 0xc7, 0x02, 0x3d, 0x76, 0x89, 0x31, 0x3e,
    0xb6, 0x83, 0x48, 0x3d, 0x40, 0xc8, 0xcf, 0xbe, 0xa3, 0x9e, 0xdb, 0x3d,
    0x2f, 0x47, 0x2a, 0x3e, 0xa8, 0xf7, 0x8d, 0xbf, 0xfc, 0x3a, 0x25, 0x3d,
    0x82, 0x9c, 0xb3, 0xbd, 0xe4, 0x25, 0x05, 0x3e, 0x56, 0x7d, 0xc0, 0xbe,
    0x7c, 0xec, 0x9f, 0x3d, 0x48, 0x59, 0x8e, 0xbd, 0xcd, 0x4b, 0x91, 0x3e,
    0x53, 0x6e, 0x0d, 0x3e, 0x91, 0x99, 0x93, 0x3e, 0x54, 0x9c, 0x16, 0xbe,
    0x68, 0x8f, 0xbf, 0x3d, 0xbd, 0xef, 0xa1, 0x3d, 0xc4, 0x83, 0xcf, 0x3b,
    0xd6, 0xc4, 0xc1, 0xbe, 0x11, 0x47, 0x3e, 0x3e, 0x37, 0x5c, 0xf5, 0xbd,
    0xc2, 0x27, 0xdb, 0x3d, 0x5d, 0x79, 0x97, 0xbd, 0x98, 0xf2, 0x0c, 0x3d,
    0x6c, 0xa6, 0xaa, 0xbe, 0xd9, 0x30, 0xb5, 0xbd, 0x90, 0x05, 0x01, 0x3a,
    0xf1, 0x8f, 0x35, 0x3e, 0x82, 0x5d, 0xfd, 0xbc, 0xc7, 0xf8, 0x54, 0x3e,
    0x9e, 0xe1, 0xd8, 0xbc, 0xba, 0x9d, 0x23, 0x3e, 0xc5, 0x87, 0x06, 0x3e,
    0x6b, 0xe7, 0xee, 0x3c, 0xae, 0x75, 0x2a, 0xbe, 0x9b, 0xf5, 0x2c, 0x3e,
    0xc5, 0x58, 0x9d, 0xbc, 0x4b, 0x3b, 0xbb, 0x3c, 0x96, 0x33, 0x7a, 0x3c,
    0xd7, 0xd3, 0xab, 0xbe, 0x33, 0x03, 0x5e, 0xbe, 0x24, 0xe4, 0x2c, 0x3d,
    0xc6, 0x66, 0x09, 0xbc, 0x6f, 0x16, 0x8e, 0x3e, 0xd1, 0x41, 0x07, 0x3b,
    0x25, 0xcc, 0x40, 0x3e, 0xe2, 0x18, 0x0f, 0x3d, 0x15, 0xe8, 0x82, 0x3e,
    0x41, 0x69, 0xdb, 0x3d, 0xe1, 0x27, 0x37, 0xbe, 0x00, 0x5b, 0x9d, 0xbe,
    0xcb, 0xdb, 0x40, 0x3e, 0xe1, 0x3c, 0xea, 0xbb, 0x0e, 0x61, 0x30, 0xbc,
    0xba, 0x37, 0x95, 0x3d, 0xfd, 0x17, 0xf3, 0xbe, 0xc2, 0x74, 0x50, 0xbe,
    0x9a, 0x7a, 0x7e, 0xbd, 0x30, 0x34, 0xc3, 0x3d, 0x54, 0xe2, 0xc3, 0x3e,
    0x6d, 0xa6, 0x9a, 0x3d, 0xaf, 0xa2, 0x88, 0x3e, 0xd8, 0x11, 0x71, 0x3d,
    0x4b, 0xa8, 0x26, 0x3e, 0xb8, 0x2f, 0xeb, 0x3b, 0x65, 0x63, 0x2b, 0xbd,
    0x92, 0xd3, 0x37, 0x3c, 0x95, 0xf0, 0xa6, 0x3e, 0x00, 0x6a, 0x15, 0xbe,
    0x36, 0x55, 0x37, 0x3d, 0x1d, 0x59, 0x4d, 0x3d, 0x7c, 0xdf, 0x91, 0xbe,
    0xa2, 0x6b, 0x6f, 0xbe, 0x27, 0x4b, 0xe2, 0x3c, 0x1a, 0x00, 0x50, 0xbc,
    0xe9, 0x40, 0x9e, 0x3e, 0x99, 0xaa, 0x01, 0xbe, 0xc2, 0x58, 0x70, 0xbb,
    0x83, 0x8c, 0xd9, 0x3c, 0x0d, 0x3e, 0xe6, 0x3d, 0xf1, 0x6f, 0x81, 0x3d,
    0xcb, 0x83, 0x7b, 0x3c, 0x78, 0xff, 0x3b, 0xbd, 0xe1, 0xae, 0x79, 0x3e,
    0x27, 0x72, 0x85, 0xbc, 0x72, 0xb1, 0x0a, 0xbe, 0xda, 0xc6, 0x8a, 0x3b,
    0x6b, 0xe5, 0x14, 0xbe, 0xaf, 0x70, 0x9e, 0xbd, 0xa2, 0xba, 0xc3, 0x3d,
    0x3e, 0x64, 0x10, 0xbd, 0x6c, 0xe2, 0x94, 0x3e, 0x65, 0x6a, 0x08, 0xbd,
    0x70, 0x66, 0x9a, 0x3e, 0x9e, 0x96, 0xd4, 0xbd, 0xb3, 0xcd, 0x70, 0x3e,
    0x93, 0x7a, 0x0f, 0x3e, 0x8c, 0x94, 0xfa, 0xbd, 0xa4, 0x90, 0x63, 0xbd,
    0xcb, 0x07, 0x88, 0x3e, 0x06, 0xab, 0x48, 0x3d, 0x44, 0x5b, 0x3e, 0x3e,
    0x7f, 0xd6, 0x6c, 0xbb, 0x04, 0xed, 0xf0, 0xbc, 0xe4, 0xc3, 0x7c, 0xbe,
    0x26, 0x94, 0x2c, 0xbd, 0x4a, 0x27, 0xcc, 0x3c, 0xfc, 0xc2, 0x92, 0x3e,
    0x82, 0x1b, 0x27, 0xbd, 0x9a, 0xf4, 0x9b, 0x3e, 0x36, 0x53, 0x8b, 0xbe,
    0x0f, 0x9c, 0x8c, 0x3e, 0x2f, 0x68, 0x99, 0x3d, 0x20, 0x62, 0xaa, 0x3c,
    0xbb, 0x1e, 0x6f, 0xbc, 0x9d, 0x1f, 0x4b, 0x3e, 0x54, 0x7f, 0x45, 0xbe,
    0x9b, 0xba, 0xb5, 0x3c, 0x4b, 0x19, 0x2b, 0x3c, 0x99, 0xe6, 0xb7, 0x3c,
    0x0b, 0x45, 0x23, 0xbe, 0x78, 0xd6, 0x2a, 0x3d, 0x02, 0xe2, 0x07, 0x3e,
    0xd6, 0x26, 0x66, 0x3e, 0x3a, 0x28, 0x2b, 0xbe, 0x45, 0x77, 0x36, 0x3e,
    0x2e, 0xf3, 0xf6, 0xbd, 0xb9, 0x28, 0xea, 0x3d, 0x74, 0xdf, 0xdb, 0x3d,
    0x15, 0x69, 0x82, 0x3a, 0xe2, 0x89, 0xa1, 0x3c, 0x04, 0xfe, 0xb6, 0x3e,
    0xc2, 0x5b, 0x1c, 0x3e, 0x73, 0x7a, 0x08, 0xbd, 0x4d, 0x50, 0x0e, 0x3d,
    0xa0, 0x55, 0xb3, 0xbd, 0x18, 0x24, 0x1d, 0xbe, 0xbc, 0x5b, 0xd1, 0xbd,
    0xcc, 0xb0, 0xd9, 0x3d, 0xa1, 0x2c, 0x95, 0x3d, 0x79, 0x70, 0x08, 0xbe,
    0xeb, 0x53, 0x18, 0x3e, 0xc5, 0x8d, 0x43, 0xbd, 0x5d, 0xa3, 0x6e, 0x3d,
    0x66, 0x05, 0x0f, 0x3e, 0xa4, 0x01, 0x8b, 0xbd, 0x57, 0xb8, 0x47, 0xbd,
    0xe8, 0x97, 0x8a, 0x3e, 0x77, 0x52, 0x13, 0xbd, 0x40, 0xa2, 0xae, 0x3d,
    0x8f, 0xbc, 0xd4, 0x3a, 0x8b, 0x08, 0xd4, 0xbd, 0x56, 0x1a, 0x44, 0xbe,
    0x22, 0x87, 0x35, 0xbd, 0xb1, 0x29, 0xa9, 0xbc, 0xfe, 0x06, 0x8c, 0x3e,
    0xca, 0x88, 0x38, 0xbd, 0xba, 0xdd, 0x04, 0x3e, 0x66, 0x0b, 0xa9, 0xbe,
    0x9d, 0xa8, 0x9d, 0xbe, 0x55, 0x60, 0x32, 0x3b, 0x7d, 0x09, 0x09, 0x3e,
    0x4f, 0xb5, 0x3f, 0xbc, 0x71, 0x79, 0xde, 0x3e, 0x2d, 0xe9, 0x38, 0xbe,
    0x9a, 0x4c, 0x76, 0xbd, 0xa2, 0xe8, 0xa0, 0xbc, 0xf4, 0xc7, 0x10, 0xbd,
    0x71, 0x07, 0x20, 0x3c, 0x6d, 0xc8, 0x46, 0x3d, 0x44, 0x3c, 0x16, 0xbd,
    0xfb, 0x5a, 0x5a, 0x3e, 0x43, 0x01, 0xe0, 0xbe, 0x2e, 0xbf, 0x41, 0xbf,
    0x14, 0x7f, 0x1e, 0xbf, 0xcf, 0x88, 0x4d, 0xbf, 0x85, 0xb0, 0xa6, 0xbe,
    0x65, 0xd0, 0x9a, 0x3d, 0xad, 0xbe, 0x1c, 0xbc, 0xfa, 0xc1, 0x85, 0x3d,
    0xfc, 0x72, 0xae, 0xbd, 0x14, 0xf5, 0xc8, 0xbd, 0x0c, 0x20, 0x08, 0x3d,
    0xe8, 0x35, 0x63, 0x3e, 0xc0, 0xf5, 0x74, 0x3d, 0x8b, 0xd5, 0x0d, 0xbf,
    0x3d, 0x94, 0x4b, 0x3d, 0x69, 0xff, 0x33, 0xbe, 0x6f, 0xb7, 0x81, 0xbf,
    0x2a, 0x05, 0x5e, 0xbf, 0x21, 0x19, 0x94, 0xbe, 0x34, 0x2a, 0xed, 0xbe,
    0x10, 0xf1, 0x03, 0xbf, 0x40, 0xf0, 0x80, 0xbf, 0x08, 0x44, 0x1e, 0xbd,
    0x0d, 0x59, 0x46, 0xbf, 0x31, 0xa6, 0xb3, 0xbe, 0x58, 0x5d, 0xc4, 0xbe,
    0x1a, 0x05, 0x10, 0xbd, 0xa7, 0xe6, 0xe1, 0x3e, 0xf7, 0x06, 0xb9, 0xbe,
    0xce, 0xf0, 0xa0, 0xbf, 0xf4, 0xcf, 0x85, 0xbc, 0x3a, 0xe2, 0x82, 0xbe,
    0xfd, 0x85, 0x73, 0xbf, 0x24, 0x22, 0x55, 0xbf, 0x49, 0xad, 0x20, 0xbf,
    0x90, 0x58, 0x3f, 0xbc, 0x5d, 0xbf, 0xb4, 0xbe, 0x23, 0x4b, 0x61, 0xbf,
    0x4a, 0x9a, 0x4d, 0x3c, 0x7a, 0x20, 0x3d, 0xbf, 0xfd, 0x8c, 0xa1, 0x3b,
    0xc4, 0x15, 0x0e, 0xbe, 0x2a, 0xb8, 0x56, 0xbc, 0xb5, 0x41, 0x0c, 0x3f,
    0xf6, 0xfa, 0xcf, 0xbe, 0x3b, 0x1c, 0xfc, 0xbe, 0xb5, 0x8b, 0x24, 0xbd,
    0xca, 0xe0, 0xfd, 0x3e, 0x2a, 0xf3, 0xc9, 0x3e, 0x58, 0x8b, 0x1a, 0x3b,
    0x06, 0x37, 0x0f, 0x3f, 0xe5, 0x79, 0x5a, 0xbe, 0xcb, 0x6c, 0xa5, 0x3d,
    0x61, 0xa0, 0xc6, 0x3e, 0x86, 0x27, 0xbc, 0x3c, 0xee, 0x51, 0x4b, 0xbe,
    0x88, 0x4a, 0x0d, 0x3f, 0x16, 0x0e, 0x82, 0xbe, 0xca, 0xd9, 0xcd, 0xbd,
    0x53, 0x26, 0xec, 0x3e, 0x67, 0xa6, 0x89, 0x3e, 0x3e, 0x89, 0x21, 0x3d,
    0x89, 0x94, 0x8a, 0xba, 0x4e, 0xbc, 0x99, 0xbe, 0xb9, 0xf0, 0xdc, 0x3d,
    0x4b, 0x61, 0xa7, 0xbe, 0x5a, 0x3c, 0x2e, 0xbe, 0xa8, 0x2e, 0x82, 0x3e,
    0x68, 0x10, 0x85, 0xbd, 0x28, 0x23, 0x7c, 0xbe, 0x82, 0x7b, 0x01, 0x3e,
    0xc1, 0xc3, 0x1b, 0xbe, 0x60, 0x8b, 0xc5, 0x3e, 0xda, 0x55, 0xb1, 0xbd,
    0xd7, 0x46, 0x29, 0x3d, 0x8e, 0xff, 0xcd, 0x3d, 0xf1, 0xac, 0xe3, 0xbd,
    0x72, 0x78, 0x43, 0xbe, 0xd3, 0xed, 0x52, 0x3e, 0x6d, 0x9e, 0xe8, 0xbe,
    0x79, 0x9a, 0x9a, 0x3d, 0x98, 0xf6, 0x63, 0xbe, 0x0c, 0x7c, 0xbf, 0xbe,
    0x83, 0x45, 0x9a, 0x3e, 0x1d, 0x35, 0x0b, 0xbe, 0xc5, 0x00, 0x67, 0x3b,
    0x75, 0x3e, 0xf4, 0x3d, 0x77, 0x2b, 0x1b, 0xbe, 0xa5, 0xff, 0xeb, 0xbc,
    0xb6, 0xb3, 0x74, 0x3e, 0x52, 0xbf, 0x3d, 0xbd, 0x7a, 0xdc, 0x2d, 0xbe,
    0x8a, 0x5b, 0x3d, 0xbe, 0xfb, 0x30, 0x6d, 0xbe, 0x67, 0xd8, 0x35, 0x3e,
    0x0e, 0x72, 0xb8, 0xbe, 0xd2, 0x0a, 0x80, 0x3a, 0x43, 0x8b, 0x8d, 0x3d,
    0xd9, 0x8f, 0x9a, 0xbe, 0xba, 0x80, 0x8a, 0x3e, 0xc7, 0x1b, 0x02, 0xbd,
    0x2a, 0xae, 0x80, 0xbb, 0x31, 0x31, 0x08, 0x3e, 0x55, 0x75, 0x2f, 0xbe,
    0xad, 0xc6, 0x48, 0xbd, 0x43, 0x03, 0x7e, 0x3e, 0x48, 0xe4, 0xb8, 0xbd,
    0x75, 0xc6, 0xe8, 0xbd, 0x06, 0x3c, 0xa1, 0xbd, 0xd7, 0xa2, 0xc2, 0x3d,
    0xe5, 0x47, 0x07, 0x3e, 0xa6, 0x42, 0xdb, 0xbe, 0x6b, 0xbf, 0x05, 0xbe,
    0x84, 0x62, 0xc7, 0xbd, 0xb7, 0x2e, 0x97, 0xbe, 0xdc, 0x29, 0x9e, 0x3e,
    0x3b, 0xc5, 0x0a, 0x3d, 0x78, 0xd2, 0x28, 0xbd, 0x41, 0x00, 0x0b, 0xbc,
    0x08, 0xcc, 0xc4, 0xbc, 0xa2, 0x88, 0xe0, 0xbd, 0x23, 0x48, 0xb0, 0x3e,
    0x00, 0x0e, 0x2f, 0xbe, 0x69, 0xb0, 0x84, 0x3d, 0x20, 0x9d, 0x83, 0xbd,
    0x53, 0xe3, 0xa6, 0xbc, 0x99, 0x74, 0xd1, 0x3d, 0x36, 0x33, 0x8d, 0xbe,
    0x35, 0x2e, 0xfe, 0xbc, 0xd4, 0xea, 0xf6, 0xbc, 0xc2, 0xf9, 0x90, 0xbe,
    0x72, 0x67, 0xa7, 0x3d, 0x44, 0xae, 0x08, 0x3e, 0xed, 0x6f, 0x49, 0x3d,
    0xed, 0xe3, 0xa4, 0xbd, 0xc8, 0x11, 0x25, 0x3d, 0xc0, 0x7b, 0x30, 0xbd,
    0x80, 0x6e, 0xf7, 0x3d, 0xb9, 0xe9, 0x94, 0xbe, 0x12, 0x80, 0xba, 0x3d,
    0x03, 0xfb, 0xac, 0xbc, 0xbe, 0x53, 0xf4, 0xbc, 0x8c, 0x26, 0x27, 0xbd,
    0x71, 0x13, 0xc7, 0xbe, 0x6e, 0xc5, 0x02, 0xbe, 0x54, 0x9d, 0x23, 0x3d,
    0xa5, 0xba, 0x39, 0xbe, 0xf0, 0x26, 0x52, 0x3d, 0xfe, 0xf6, 0xc9, 0x3d,
    0x94, 0x18, 0xa8, 0x3d, 0xe6, 0xd3, 0x1c, 0xbe, 0x9a, 0xd2, 0xe6, 0xbd,
    0xbc, 0xb0, 0x1d, 0xbd, 0x22, 0x0a, 0xb0, 0x3d, 0x09, 0x0f, 0x74, 0xbe,
    0x22, 0x36, 0xde, 0x3d, 0xab, 0xc6, 0x20, 0x3d, 0x5b, 0xeb, 0xd1, 0xbd,
    0xaf, 0x09, 0x1a, 0xbd, 0xaa, 0x83, 0x31, 0xbe, 0x2d, 0x9d, 0xbd, 0xbc,
    0x8f, 0xca, 0xb6, 0xbd, 0x8c, 0xa0, 0x4a, 0xbe, 0x4b, 0x67, 0xfa, 0x3d,
    0x3f, 0x99, 0x01, 0x3e, 0x0e, 0x64, 0xa5, 0x3d, 0xe3, 0xe9, 0xd3, 0xba,
    0x9d, 0x09, 0x6a, 0xbc, 0x28, 0x4f, 0x82, 0x3e, 0xe3, 0x4c, 0x0a, 0x3e,
    0x44, 0xfd, 0x6e, 0xbd, 0x94, 0xfc, 0xa0, 0x3d, 0x8e, 0x35, 0x83, 0x3d,
    0xef, 0x14, 0xea, 0xbc, 0x4b, 0xf9, 0x10, 0xbd, 0x42, 0x43, 0x8e, 0xbd,
    0x0b, 0x78, 0x3b, 0xbd, 0x0d, 0xc8, 0x2f, 0xbd, 0x43, 0xc0, 0xb1, 0xbe,
    0xf4, 0x92, 0x85, 0x3e, 0xfd, 0x10, 0xea, 0x3d, 0x3f, 0xa1, 0x89, 0x3d,
    0xb9, 0xd2, 0x2a, 0xbd, 0x6c, 0xfd, 0x99, 0xbe, 0x68, 0xf0, 0x22, 0x3e,
    0x4e, 0x3b, 0xf8, 0xbd, 0x6a, 0xa0, 0x18, 0xbe, 0x91, 0xee, 0x1d, 0xbd,
    0x48, 0x14, 0x0e, 0x3d, 0x64, 0x2b, 0xb2, 0xbd, 0x47, 0x34, 0xad, 0x3c,
    0xb1, 0x9c, 0xe7, 0xbd, 0xd0, 0x9a, 0x8b, 0x3d, 0xc6, 0x5b, 0xe5, 0x3d,
    0xa5, 0x1f, 0x21, 0xbe, 0x0a, 0x26, 0x0b, 0x3e, 0xa4, 0x1a, 0x5a, 0xbd,
    0x3e, 0x53, 0xe8, 0xbd, 0xda, 0xb5, 0xc9, 0x3b, 0xc0, 0x68, 0x53, 0xbe,
    0x85, 0x31, 0x9a, 0x3e, 0xf9, 0x64, 0x1a, 0x3e, 0xe0, 0x4a, 0x35, 0xbd,
    0xe8, 0xaa, 0xa0, 0xbd, 0xac, 0xf7, 0xbd, 0x3d, 0xbf, 0xbd, 0x1a, 0xbe,
    0x71, 0x3e, 0x41, 0x3d, 0x5c, 0x55, 0xfb, 0xbd, 0x4b, 0x79, 0xe0, 0x3d,
    0xc1, 0x0e, 0x87, 0x3d, 0xac, 0xfa, 0x83, 0xbd, 0x1c, 0x1b, 0x1e, 0x3e,
    0xcd, 0xe6, 0xa7, 0x3d, 0xdd, 0x2a, 0xa3, 0xbd, 0xd2, 0x48, 0xc0, 0x3c,
    0x4e, 0x4a, 0xd5, 0xbe, 0x61, 0xa2, 0x16, 0x3e, 0x97, 0xe6, 0x82, 0xbc,
    0x79, 0x7e, 0xaf, 0xbd, 0x3b, 0x1a, 0xfb, 0x3d, 0xc9, 0x30, 0x3d, 0x3e,
    0x3d, 0x27, 0x86, 0xbe, 0xd1, 0x31, 0x5f, 0x3e, 0x42, 0xfc, 0x99, 0xbe,
    0xe0, 0x82, 0xc3, 0x3d, 0x91, 0x85, 0xd1, 0x3d, 0x95, 0xbf, 0xea, 0x3c,
    0x39, 0x19, 0xe4, 0x3d, 0x4f, 0x40, 0x17, 0xbe, 0x5b, 0x8f, 0xd8, 0xbd,
    0x16, 0x8b, 0x63, 0xbd, 0xd5, 0x12, 0xa1, 0x3b, 0xc0, 0xd5, 0x68, 0x3c,
    0x55, 0x96, 0xb8, 0xbd, 0xbc, 0xf3, 0x9d, 0xbe, 0xf8, 0x79, 0xd5, 0x3d,
    0xac, 0x1a, 0xd5, 0x3d, 0xd0, 0x00, 0x14, 0xbd, 0xca, 0x1d, 0xad, 0xba,
    0x79, 0xed, 0x2c, 0xbe, 0xc4, 0x05, 0xc6, 0xbc, 0x0d, 0x1c, 0xf7, 0x3d,
    0xd8, 0xd0, 0x8f, 0xbd, 0x79, 0x0e, 0xba, 0x3d, 0x3c, 0x33, 0x30, 0x3d,
    0x2c, 0x08, 0xbf, 0xbd, 0x4a, 0x7a, 0x71, 0xbd, 0xc2, 0x3b, 0x45, 0xbc,
    0x7a, 0xac, 0x8e, 0xbe, 0x13, 0x06, 0xa9, 0xbd, 0x0e, 0xd4, 0x3b, 0xbe,
    0xc5, 0x4b, 0x47, 0x3d, 0x90, 0xb5, 0x85, 0xbd, 0xe5, 0xce, 0x0f, 0xbe,
    0x02, 0xae, 0xc7, 0x3c, 0xc1, 0x9c, 0x4d, 0xbe, 0x60, 0x07, 0x8f, 0x3d,
    0xa0, 0x57, 0x78, 0xbd, 0x48, 0x93, 0x86, 0x3e, 0xe4, 0xed, 0xfb, 0xbd,
    0x6e, 0x57, 0x74, 0x3d, 0x85, 0x53, 0x01, 0xbd, 0x56, 0xaf, 0xff, 0xbd,
    0xfe, 0xe2, 0x07, 0x3e, 0x13, 0xb4, 0xdb, 0xbd, 0xfb, 0x89, 0x9f, 0xbe,
    0x74, 0xb9, 0xe2, 0xbd, 0x4b, 0xac, 0x8c, 0x3e, 0xf8, 0x2a, 0x8d, 0xbd,
    0x76, 0x7d, 0x08, 0xbe, 0x39, 0xc8, 0x84, 0x3d, 0x62, 0x02, 0xe9, 0xbd,
    0xb0, 0x1c, 0xfc, 0x3a, 0x52, 0x7e, 0x06, 0xbd, 0xec, 0xf1, 0xce, 0xbc,
    0x00, 0x3b, 0xc3, 0x3c, 0x08, 0x4e, 0x3e, 0x3d, 0x5c, 0x19, 0x45, 0xbe,
    0xbb, 0x06, 0xbd, 0xbd, 0x9d, 0xbb, 0xf7, 0xba, 0x9c, 0xa5, 0x87, 0x3b,
    0x1a, 0x83, 0x85, 0xbd, 0xa3, 0x38, 0xeb, 0xbc, 0x83, 0x65, 0xdc, 0x3d,
    0x5c, 0x8d, 0x0e, 0x3e, 0xcf, 0x7f, 0xe6, 0x3b, 0x7d, 0x2c, 0xaf, 0xbd,
    0x9c, 0xc5, 0xaf, 0x3c, 0xd7, 0x6a, 0xc7, 0xbc, 0x7a, 0xc2, 0x48, 0xbe,
    0xfc, 0x1a, 0x0e, 0x3d, 0x9e, 0x97, 0x3e, 0x3d, 0xf1, 0x34, 0xd0, 0xba,
    0xbb, 0x60, 0xee, 0xbd, 0x85, 0x2f, 0xec, 0xbd, 0x8e, 0x6f, 0x7b, 0x3c,
    0xb9, 0x28, 0xfc, 0xbd, 0x4d, 0x84, 0x6b, 0xbe, 0x26, 0x35, 0x4c, 0xbd,
    0x8a, 0xe9, 0x2f, 0xbd, 0x2a, 0x11, 0x1c, 0xbe, 0xbb, 0x7e, 0x08, 0xbe,
    0xf6, 0x73, 0x81, 0xbe, 0x36, 0xfd, 0x11, 0xbd, 0x6a, 0x85, 0xcf, 0xbd,
    0x64, 0x9f, 0x93, 0xbd, 0xb8, 0xfe, 0xff, 0xbd, 0x4f, 0xa5, 0x19, 0xbe,
    0xd9, 0x9b, 0x34, 0xbe, 0x17, 0xac, 0xdb, 0x3a, 0x2d, 0x1c, 0xa1, 0xbd,
    0x22, 0x94, 0x90, 0x3c, 0xcb, 0xa9, 0x6d, 0xbb, 0x84, 0xad, 0x9e, 0x3d,
    0xfd, 0x9a, 0x11, 0xbe, 0x93, 0xaa, 0x13, 0x3d, 0x42, 0x61, 0x8b, 0xbd,
    0x5d, 0x21, 0x28, 0xbe, 0x15, 0x7b, 0xd2, 0xbd, 0xf5, 0x7e, 0x54, 0x3d,
    0xc1, 0x76, 0x81, 0x3d, 0x45, 0x13, 0xe7, 0xbd, 0xac, 0x4f, 0x12, 0x3d,
    0x8f, 0x1c, 0x0e, 0x3c, 0xb3, 0x6d, 0x70, 0x3c, 0x6b, 0xfa, 0xdc, 0xbb,
    0xd6, 0xab, 0xf9, 0xbc, 0x49, 0x49, 0xf7, 0xbc, 0x4b, 0x50, 0x59, 0xbd,
    0x10, 0x1e, 0xb0, 0xbd, 0x43, 0x71, 0x39, 0xbd, 0xd5, 0xe0, 0xc1, 0xbd,
    0x33, 0xc2, 0x5f, 0x3d, 0x48, 0xa7, 0x4a, 0xbe, 0xef, 0x8d, 0x35, 0xbe,
    0xa1, 0x9e, 0x3c, 0xbd, 0xb0, 0x3a, 0xa5, 0xbd, 0xa8, 0x9d, 0xa1, 0x3d,
    0x61, 0xb0, 0x73, 0x3d, 0xdb, 0x36, 0xbd, 0x3d, 0xa1, 0xc1, 0x03, 0xbd,
    0xde, 0x98, 0xac, 0xbd, 0xe1, 0x5a, 0xd4, 0x3d, 0x87, 0x04, 0xa1, 0xbd,
    0x22, 0xcf, 0x2f, 0x3d, 0xae, 0xf3, 0xc2, 0xbd, 0x7d, 0xe0, 0x30, 0xbe,
    0x1d, 0x36, 0x03, 0xbe, 0xc3, 0x86, 0xb1, 0x3d, 0x00, 0xf1, 0xbb, 0xbd,
    0x5f, 0x98, 0x56, 0xbd, 0xdd, 0xcd, 0x06, 0xbe, 0xcf, 0x6e, 0xa5, 0x3b,
    0xaa, 0xa0, 0x88, 0xbd, 0x99, 0x87, 0x56, 0xbe, 0x59, 0xce, 0x37, 0x3d,
    0xc6, 0x1e, 0x9c, 0xbb, 0xf9, 0x24, 0x1f, 0xbe, 0x6e, 0xee, 0x89, 0x3d,
    0xa5, 0xd5, 0xe8, 0xbb, 0xde, 0x47, 0x7d, 0xbd, 0xe3, 0x46, 0x26, 0xbe,
    0x8b, 0x42, 0xc7, 0x3d, 0xb5, 0xc8, 0xc6, 0xbd, 0x58, 0xc1, 0xc3, 0xbd,
    0x4d, 0x67, 0x4f, 0x3d, 0x9f, 0xdd, 0x2b, 0xbe, 0x13, 0x24, 0x02, 0xbd,
    0x8c, 0x30, 0x2a, 0xbd, 0x99, 0x30, 0x54, 0x3c, 0x86, 0xce, 0xa4, 0x3c,
    0x3c, 0xea, 0x1b, 0x3c, 0x18, 0x20, 0x00, 0x3d, 0xf5, 0x1d, 0x0a, 0xbc,
    0x3f, 0xc0, 0x74, 0x3d, 0x5a, 0x4f, 0xf4, 0xbb, 0x1e, 0x77, 0xc5, 0xbd,
    0xee, 0x16, 0xe4, 0xbd, 0xb5, 0xb4, 0x60, 0x3d, 0x25, 0xa2, 0xed, 0xbd,
    0x97, 0x7d, 0x9e, 0xbd, 0xc9, 0xd4, 0x36, 0xbd, 0xbf, 0x1b, 0xa6, 0x3c,
    0x6e, 0xb9, 0x27, 0x3d, 0xe8, 0x11, 0x2e, 0x3d, 0xa5, 0xae, 0xbd, 0xbd,
    0xdd, 0xfa, 0x04, 0xbd, 0xe6, 0x01, 0xe5, 0xbd, 0x03, 0x43, 0x65, 0x3d,
    0x36, 0xf4, 0x34, 0xbd, 0xc8, 0x33, 0xd1, 0xbd, 0x06, 0x06, 0x1c, 0xbe,
    0x17, 0x94, 0xb7, 0x3b, 0x64, 0x11, 0x01, 0xbe, 0xdf, 0xb1, 0xe6, 0xbd,
    0xa5, 0x78, 0x3b, 0xbe, 0x0d, 0x16, 0x58, 0xbd, 0x4b, 0xbc, 0xd4, 0x3c,
    0x92, 0x23, 0x52, 0xbe, 0x0d, 0x3f, 0x15, 0xbe, 0x8c, 0xd3, 0x52, 0xbe,
    0x00, 0xa4, 0x35, 0x3b, 0x37, 0x84, 0xa5, 0x3d, 0xdf, 0xe3, 0x02, 0xbe,
    0xbd, 0x99, 0x0f, 0xbe, 0x9d, 0x37, 0x33, 0xbe, 0x87, 0xd1, 0xfd, 0x3d,
    0xcb, 0x26, 0x39, 0xbe, 0x5d, 0x3f, 0x0e, 0xbe, 0xe6, 0xb1, 0x2d, 0xbe,
    0x4c, 0x00, 0x7d, 0xbd, 0xf7, 0x32, 0xd8, 0x3b, 0xc5, 0xcf, 0x86, 0x3d,
    0x60, 0x62, 0xa8, 0xbd, 0x44, 0x0d, 0x2f, 0xbe, 0xed, 0x1e, 0xf9, 0x3d,
    0x4d, 0x79, 0x51, 0xbe, 0x22, 0xdd, 0x50, 0xbe, 0x74, 0x3b, 0x1e, 0xbe,
    0xe1, 0x4f, 0x77, 0xbd, 0x00, 0x02, 0x1d, 0xbe, 0x07, 0x5f, 0x44, 0xbd,
    0x44, 0x3f, 0xb8, 0x3c, 0x9d, 0x95, 0xa9, 0xbb, 0x4a, 0xe8, 0x55, 0x3d,
    0xfd, 0x6e, 0x5d, 0x3d, 0xcd, 0x7c, 0x20, 0xbe, 0xb5, 0x23, 0xa2, 0x3d,
    0x92, 0xc8, 0x84, 0x3d, 0xa4, 0x4a, 0x3f, 0xbe, 0xae, 0xd7, 0x75, 0xbd,
    0x46, 0x5e, 0xc4, 0xbd, 0xb9, 0xe0, 0x24, 0xbd, 0x2a, 0xba, 0x83, 0xbd,
    0xdd, 0xfe, 0xd9, 0x3d, 0x98, 0x72, 0x94, 0x3d, 0x6b, 0x91, 0x09, 0x3d,
    0x51, 0xae, 0x88, 0x3b, 0x65, 0x6a, 0xd8, 0xbb, 0x44, 0x15, 0x17, 0xbe,
    0xcf, 0xbb, 0xb3, 0x3d, 0xfe, 0xa1, 0x3f, 0xbe, 0x57, 0xbf, 0xd8, 0xbd,
    0xcf, 0xc5, 0x9d, 0x3d, 0xce, 0x80, 0x59, 0xbc, 0x14, 0x38, 0xdd, 0xbd,
    0x49, 0xb5, 0x56, 0xbe, 0xc5, 0xb0, 0xa5, 0x3d, 0xa9, 0x99, 0x10, 0xbd,
    0x39, 0xea, 0x95, 0xbc, 0x73, 0x55, 0x3f, 0xbe, 0xfd, 0x57, 0x85, 0xbd,
    0x1d, 0xf1, 0x65, 0x3d, 0xab, 0xe9, 0x06, 0xbd, 0x77, 0x53, 0xf8, 0xbc,
    0xfa, 0xbc, 0x75, 0xbd, 0x32, 0xc8, 0x6c, 0x3d, 0xec, 0xfb, 0x42, 0xbe,
    0x4f, 0xe3, 0x8a, 0xbd, 0xc9, 0xd4, 0x32, 0xbc, 0xe0, 0x14, 0xbe, 0x3d,
    0xdd, 0xd2, 0x2a, 0xbe, 0x2d, 0xf3, 0x42, 0xbe, 0x8a, 0x61, 0x6e, 0x3d,
    0x34, 0xed, 0x85, 0xbb, 0xcc, 0x83, 0x3c, 0xbd, 0xf4, 0xe4, 0x8f, 0xbc,
    0x6a, 0x4e, 0x2a, 0xbd, 0x32, 0xb8, 0x1b, 0xbe, 0x45, 0xd2, 0x73, 0x3d,
    0xa9, 0x63, 0x64, 0xbd, 0x34, 0x23, 0xb5, 0xbd, 0xe3, 0x16, 0x00, 0x3e,
    0xa5, 0xac, 0xf0, 0xbd, 0x1c, 0xef, 0x3d, 0x3d, 0xfc, 0xba, 0xff, 0x3c,
    0xbc, 0xfa, 0x0b, 0x3d, 0xfc, 0xd7, 0x60, 0xbd, 0x91, 0x10, 0xdd, 0xbb,
    0xe4, 0x68, 0xbe, 0x3d, 0xa5, 0x92, 0x50, 0xbe, 0x98, 0x7b, 0x27, 0xbe,
    0x78, 0xe3, 0xa2, 0xbe, 0xa6, 0x63, 0x21, 0xbd, 0x6d, 0xe4, 0xc0, 0x3d,
    0x68, 0x9c, 0xd2, 0xbd, 0x5b, 0xb4, 0x11, 0x3e, 0xa7, 0xef, 0xa9, 0xbd,
    0xf9, 0xfb, 0x83, 0x3d, 0xd8, 0x6d, 0xe5, 0x3c, 0xc2, 0x59, 0x3d, 0xbd,
    0x6f, 0x02, 0xe3, 0xbc, 0xdd, 0x52, 0xcf, 0xbb, 0x58, 0x34, 0xbc, 0xbd,
    0xa9, 0x43, 0x45, 0xbd, 0x1e, 0xf0, 0x9a, 0xbd, 0x80, 0x43, 0x61, 0x3d,
    0x77, 0xa4, 0x72, 0xbe, 0xa1, 0x17, 0xb0, 0x3e, 0x36, 0x5f, 0xd1, 0x3e,
    0x12, 0x20, 0xfe, 0xbd, 0x5d, 0x4d, 0x7c, 0xbc, 0xfe, 0x0a, 0x3d, 0x3e,
    0xd5, 0xcf, 0x22, 0x3b, 0xdc, 0x2e, 0x0f, 0x3c, 0x79, 0x3c, 0x90, 0x3d,
    0xac, 0x83, 0x2e, 0x3d, 0x75, 0xce, 0x22, 0xbf, 0x23, 0x4e, 0x35, 0xbe,
    0x92, 0x0b, 0x61, 0x3c, 0xcf, 0xdc, 0x70, 0x3e, 0x3f, 0xe4, 0xa2, 0xbe,
    0x63, 0x01, 0x9e, 0x3d, 0x61, 0x05, 0xa8, 0xbe, 0x1b, 0x7d, 0xe0, 0x3d,
    0xb5, 0x3b, 0xcc, 0x3e, 0xdc, 0x97, 0x9d, 0xbe, 0x13, 0xf1, 0x60, 0x3d,
    0xfc, 0x5b, 0x95, 0xbd, 0xd8, 0x27, 0x06, 0x3e, 0x27, 0x3e, 0x65, 0xbd,
    0x3a, 0xc3, 0x7b, 0xbd, 0x77, 0xa5, 0x37, 0x3d, 0x30, 0x67, 0x14, 0xbe,
    0xf9, 0x10, 0xbe, 0xbe, 0x4f, 0xec, 0x53, 0x3e, 0xf5, 0x26, 0xd9, 0x3d,
    0x48, 0x3b, 0x2d, 0xbf, 0xd1, 0x9b, 0x35, 0xbc, 0x7e, 0x60, 0xae, 0x3d,
    0xdf, 0x08, 0x5b, 0x3d, 0x58, 0xe9, 0x9b, 0xbe, 0xb6, 0xc6, 0xf6, 0xbe,
    0x57, 0xa3, 0x45, 0x3e, 0xa1, 0x11, 0x19, 0xbd, 0xaf, 0xb8, 0x2d, 0x3e,
    0xb8, 0x9b, 0x06, 0x3e, 0xbc, 0x03, 0x31, 0xbe, 0x49, 0xe0, 0xa4, 0x3c,
    0x67, 0x3d, 0x16, 0xbd, 0x5d, 0xa2, 0x54, 0xbe, 0xc7, 0x85, 0x1b, 0x3d,
    0xfb, 0x76, 0x05, 0xbb, 0x20, 0x1f, 0xd5, 0xbb, 0xc3, 0x12, 0x65, 0xbe,
    0x1e, 0x60, 0x9d, 0x3e, 0x74, 0x8d, 0x03, 0xbd, 0xe6, 0x87, 0x01, 0xbf,
    0x4e, 0x58, 0xc3, 0xbe, 0x0b, 0x3e, 0x09, 0x3e, 0xae, 0x0f, 0x17, 0xbd,
    0xab, 0xeb, 0x5b, 0x3d, 0x33, 0x41, 0x89, 0x3e, 0xfe, 0x66, 0x14, 0xbe,
    0x82, 0xfd, 0x63, 0xbc, 0x07, 0x1d, 0xbb, 0xbe, 0x80, 0x13, 0x7e, 0x3d,
    0x51, 0x53, 0xdf, 0xbe, 0xb3, 0x78, 0x91, 0x3d, 0x7e, 0x79, 0xac, 0xbd,
    0x2e, 0xe2, 0x3f, 0xbe, 0x46, 0x85, 0x01, 0x3d, 0xec, 0xf8, 0x64, 0x3e,
    0x06, 0x8e, 0xed, 0xbe, 0xf7, 0x7b, 0x1c, 0xbf, 0x09, 0x5b, 0x42, 0x3d,
    0x5b, 0xfd, 0x82, 0x3b, 0xde, 0xa5, 0xe4, 0xbd, 0xcb, 0x7c, 0x82, 0x3e,
    0xd6, 0xe7, 0x77, 0xbe, 0x28, 0x8e, 0xe3, 0xba, 0xf5, 0x19, 0x16, 0xbf,
    0x47, 0xf9, 0x0c, 0x3e, 0x93, 0xa4, 0xa7, 0xbe, 0xa1, 0xfd, 0x0b, 0xbd,
    0x34, 0x25, 0x2a, 0xbe, 0x79, 0xa6, 0x3e, 0xbe, 0x72, 0x46, 0x7a, 0x3e,
    0xdd, 0xb1, 0xd4, 0x3e, 0xa6, 0xae, 0xd7, 0x3d, 0xcd, 0xa3, 0xb8, 0xbe,
    0x83, 0xf2, 0xea, 0xbd, 0xda, 0x19, 0xfc, 0xbc, 0x8d, 0x76, 0xa2, 0xbc,
    0x17, 0x56, 0xa2, 0x3c, 0xf4, 0xa9, 0x00, 0xbe, 0x5b, 0xde, 0x36, 0x3d,
    0x0f, 0x78, 0x2d, 0xbf, 0x7f, 0xdc, 0x7e, 0xbd, 0x8b, 0x23, 0x93, 0xbd,
    0x0b, 0x44, 0x0e, 0x3d, 0xd1, 0xda, 0x73, 0xbe, 0xcf, 0x9f, 0x5b, 0xbe,
    0x50, 0xe9, 0x25, 0x3e, 0x83, 0x6c, 0x95, 0x3e, 0x72, 0x08, 0x76, 0x3d,
    0xae, 0xe5, 0x51, 0xbe, 0xd4, 0xf0, 0xa4, 0xbd, 0xf9, 0x06, 0xce, 0xbd,
    0x90, 0x98, 0x14, 0x3e, 0x24, 0x29, 0x20, 0x3c, 0x11, 0x75, 0x1c, 0xbe,
    0x99, 0x76, 0x2b, 0x3c, 0x9b, 0x64, 0xc1, 0xbe, 0x58, 0x5d, 0x08, 0xbe,
    0xcc, 0x09, 0x0f, 0x3e, 0x6e, 0x15, 0x1e, 0xbd, 0x17, 0x45, 0xed, 0xbd,
    0x15, 0xb4, 0x00, 0xbe, 0x71, 0x06, 0x83, 0x3d, 0xe5, 0x7e, 0xb2, 0x3e,
    0x72, 0x95, 0x57, 0x3e, 0x10, 0x2b, 0x78, 0xbe, 0x8f, 0x8b, 0x17, 0xbe,
    0x7a, 0xcb, 0x69, 0xbd, 0x93, 0xe9, 0x35, 0xbd, 0x70, 0x4a, 0x13, 0x3e,
    0x29, 0x2f, 0xde, 0xbd, 0x49, 0x2c, 0x0f, 0x3d, 0xb4, 0xd1, 0x7b, 0x3e,
    0x15, 0xff, 0x1a, 0xbd, 0x09, 0xeb, 0x16, 0x3d, 0x16, 0x20, 0x94, 0x3d,
    0x62, 0x81, 0x37, 0xbe, 0xf4, 0xb4, 0xa9, 0xbc, 0xa1, 0xe9, 0xfb, 0xbc,
    0x6a, 0xe0, 0xfc, 0x3d, 0x34, 0x3e, 0x4f, 0x3e, 0xc3, 0x45, 0x37, 0xbe,
    0xbd, 0x7c, 0x13, 0x3d, 0x80, 0xc5, 0xa1, 0x3c, 0x95, 0x2d, 0x94, 0xbd,
    0x37, 0xf2, 0xc3, 0x3d, 0xea, 0x4c, 0xb5, 0xbc, 0x3c, 0x6c, 0x0e, 0x3d,
    0x95, 0x03, 0xea, 0x3d, 0x00, 0xcb, 0xa5, 0xbd, 0xc6, 0xdb, 0x94, 0x3d,
    0xe0, 0x75, 0x9f, 0x3d, 0x35, 0x2b, 0xcd, 0xbc, 0x4b, 0xd6, 0x9d, 0xbc,
    0x19, 0xe6, 0x34, 0x3e, 0x95, 0xc7, 0xa8, 0x3d, 0x39, 0xa8, 0x4d, 0x3e,
    0x1a, 0xfe, 0x2e, 0xbe, 0x63, 0x46, 0x8c, 0x3d, 0xb2, 0x63, 0x0c, 0xbe,
    0xcb, 0x53, 0x82, 0xbc, 0x0d, 0xcc, 0x23, 0x3d, 0x93, 0xee, 0xff, 0x3c,
    0xa1, 0xba, 0x10, 0xbd, 0xf4, 0x9f, 0xfd, 0xbb, 0xe4, 0x63, 0x52, 0xbe,
    0xa0, 0x3f, 0xdb, 0x3d, 0xe3, 0x8c, 0xa1, 0xbd, 0x75, 0x4f, 0x75, 0xbd,
    0x64, 0xc3, 0xe6, 0x3c, 0x91, 0x6a, 0x96, 0x3e, 0x5b, 0x8f, 0x41, 0x3e,
    0x0b, 0xed, 0x8d, 0x3e, 0xe1, 0xfa, 0x47, 0xbd, 0xe8, 0x79, 0xa6, 0x3d,
    0x7f, 0x4e, 0x77, 0x3c, 0x3d, 0xbf, 0xf1, 0xba, 0x83, 0x2e, 0x92, 0x3d,
    0x14, 0xc8, 0xc3, 0xbd, 0x42, 0x69, 0x00, 0x3d, 0x86, 0x93, 0x8b, 0x3d,
    0xc6, 0xb3, 0x37, 0xbe, 0x5d, 0x8c, 0x27, 0xbc, 0xee, 0x70, 0xc9, 0xbc,
    0xf7, 0xf5, 0x96, 0xbe, 0x3f, 0x20, 0xe1, 0x3d, 0x07, 0x7a, 0x8b, 0x3e,
    0xc1, 0x46, 0x17, 0x3d, 0x39, 0xcc, 0x3c, 0x3e, 0xd4, 0xa0, 0x11, 0xbe,
    0x24, 0x8b, 0xe3, 0x3d, 0x9b, 0x32, 0x49, 0x3d, 0xc1, 0x6f, 0x08, 0xbe,
    0x5f, 0x21, 0x0e, 0x3d, 0xc0, 0xc1, 0x1a, 0x3d, 0x4d, 0x30, 0x8e, 0x3d,
    0x0d, 0xdf, 0x2e, 0x3e, 0x58, 0x84, 0x4b, 0xbe, 0x96, 0x08, 0x85, 0x3d,
    0x9a, 0x2e, 0x4f, 0x3c, 0x26, 0x4d, 0xc2, 0xbe, 0x78, 0x76, 0xea, 0x3d,
    0xd6, 0x01, 0x0a, 0x3d, 0xf5, 0xef, 0x78, 0xbe, 0x66, 0x9b, 0x82, 0x3e,
    0x90, 0x6b, 0x5f, 0xbe, 0x8c, 0xdf, 0xf9, 0x3d, 0x84, 0x98, 0xe9, 0xbe,
    0x38, 0x4e, 0x73, 0x3c, 0xce, 0xac, 0x2a, 0x3e, 0x1d, 0x29, 0x80, 0x3d,
    0x04, 0xd4, 0x94, 0xbe, 0x5d, 0x8b, 0x2f, 0xbe, 0x02, 0xde, 0xc5, 0xbe,
    0xbc, 0x6b, 0x0e, 0xbd, 0x0e, 0x34, 0xb2, 0xbd, 0xfc, 0xc1, 0x71, 0xbe,
    0xb3, 0x9a, 0xa4, 0xbc, 0xd2, 0x28, 0x55, 0x3e, 0x99, 0x4b, 0x15, 0x3e,
    0x6b, 0x9e, 0x8b, 0xbe, 0x0f, 0xa7, 0xa6, 0xbe, 0x9f, 0x1c, 0x7f, 0x3d,
    0x03, 0x97, 0xd6, 0xbe, 0xec, 0x2d, 0x7e, 0xbd, 0x5a, 0xa2, 0x2a, 0x3e,
    0x96, 0x01, 0xf9, 0x3c, 0x02, 0xaa, 0xd3, 0xbe, 0xb1, 0x3a, 0x1e, 0xbf,
    0x4b, 0xee, 0x50, 0x3e, 0x33, 0x84, 0x4a, 0xbe, 0xae, 0x5e, 0xca, 0xbe,
    0x6d, 0xad, 0x3d, 0xbe, 0x35, 0xdc, 0x8b, 0xbd, 0x7f, 0x3b, 0x19, 0xbe,
    0xf7, 0x3f, 0xe9, 0xbd, 0x39, 0x0d, 0xa9, 0xbe, 0x62, 0xaf, 0x2f, 0xbe,
    0x50, 0x42, 0xf2, 0xbd, 0x0b, 0xa2, 0xec, 0x3d, 0x87, 0x39, 0x6e, 0xbe,
    0xa0, 0xe2, 0x18, 0xbd, 0xd0, 0xf9, 0x9d, 0xbd, 0x44, 0xca, 0x1c, 0x3c,
    0x22, 0x53, 0xc3, 0x3e, 0x8b, 0x89, 0x93, 0xbe, 0x5b, 0xc0, 0x2a, 0xbe,
    0xc5, 0x08, 0xe9, 0xbc, 0x55, 0x7a, 0xbb, 0xbd, 0xa6, 0x59, 0x44, 0xbe,
    0x92, 0x5a, 0x9e, 0xbe, 0x44, 0x21, 0x92, 0xbe, 0x97, 0x4f, 0x57, 0xbe,
    0xe6, 0x26, 0x19, 0xbe, 0x7c, 0x1a, 0xf9, 0xbe, 0xa7, 0x2d, 0x9a, 0x3c,
    0xa1, 0x6c, 0xb9, 0xbe, 0x17, 0x1f, 0xf0, 0xbe, 0x36, 0x41, 0x63, 0xbe,
    0xe1, 0xfb, 0x72, 0xbd, 0x77, 0x52, 0xe0, 0x3e, 0xa8, 0x23, 0x01, 0xbf,
    0x34, 0x23, 0x34, 0xbe, 0x86, 0x7c, 0xbe, 0xbd, 0x95, 0x31, 0xde, 0xbe,
    0xea, 0x79, 0x04, 0xbe, 0x23, 0x82, 0xcc, 0xbe, 0xf6, 0xc9, 0x1c, 0xbf,
    0x1a, 0x7d, 0x41, 0x3c, 0xcb, 0xc1, 0x6b, 0xbe, 0xf7, 0x47, 0x2d, 0xbf,
    0xfe, 0x87, 0x32, 0xbd, 0xad, 0x73, 0x82, 0xbe, 0xa2, 0xd1, 0x3e, 0xbe,
    0x4c, 0xfa, 0x08, 0xbd, 0xef, 0xe1, 0x3d, 0xbd, 0xaf, 0x4c, 0x72, 0x3e,
    0x79, 0x46, 0xa1, 0xbe, 0x5a, 0x73, 0xe1, 0xbe, 0x0d, 0x0b, 0xc8, 0xbd,
    0x2d, 0x22, 0x91, 0x3e, 0x3f, 0x09, 0x7d, 0xbe, 0x18, 0xe7, 0x25, 0xbe,
    0x20, 0x50, 0x49, 0xbd, 0x08, 0x29, 0x4b, 0xbc, 0xce, 0xd6, 0x82, 0xbe,
    0x98, 0xe0, 0xec, 0xbe, 0xcd, 0x3d, 0x2d, 0x3d, 0xf4, 0xf8, 0xb0, 0xbd,
    0x7a, 0xee, 0xf3, 0xbd, 0x21, 0xd4, 0xd8, 0xb8, 0xf1, 0xf3, 0x81, 0xbd,
    0x2f, 0x08, 0x0c, 0x3d, 0x80, 0x46, 0x19, 0x3e, 0x80, 0x3c, 0x9c, 0xbe,
    0xc1, 0x46, 0xf2, 0xbd, 0x1d, 0x89, 0x3a, 0x3e, 0xa9, 0x64, 0x0a, 0xbe,
    0xb5, 0xe3, 0x2f, 0xbd, 0x99, 0x8d, 0x55, 0xbe, 0x19, 0x11, 0xcf, 0xbd,
    0x00, 0x5d, 0x3a, 0xbd, 0xef, 0x70, 0xb8, 0xbe, 0x2f, 0xe7, 0x4e, 0xbc,
    0x57, 0xbc, 0xa1, 0x3e, 0xbc, 0xcd, 0xd9, 0xbc, 0x7d, 0x6a, 0xbe, 0xbd,
    0x23, 0x6e, 0x3a, 0xbd, 0xc8, 0x65, 0x77, 0xbd, 0xb2, 0xe9, 0x1a, 0xbe,
    0x4f, 0xb3, 0x7a, 0xbe, 0x92, 0x29, 0x3d, 0xbd, 0xc2, 0xf1, 0xac, 0x3e,
    0x60, 0x35, 0x39, 0xbd, 0x49, 0xa6, 0xe8, 0x3c, 0x35, 0xf4, 0x04, 0x3e,
    0x41, 0x26, 0x09, 0xbc, 0x51, 0x4e, 0xa3, 0x3e, 0x56, 0x74, 0x9a, 0xbd,
    0xae, 0x10, 0x94, 0x3d, 0x01, 0xe9, 0x51, 0x3d, 0xc0, 0x1d, 0x45, 0x3d,
    0x80, 0xb1, 0xb4, 0xbc, 0x9b, 0x51, 0xcb, 0xbd, 0xa8, 0xca, 0x2d, 0xbd,
    0xa3, 0x12, 0x52, 0xbc, 0x22, 0xee, 0x05, 0xbe, 0xf0, 0x4c, 0x66, 0xbd,
    0x12, 0x0a, 0xa3, 0x3e, 0xae, 0xe7, 0x8d, 0xbc, 0xa2, 0x32, 0x48, 0x3e,
    0xd9, 0x25, 0xc6, 0xbd, 0x9f, 0xe7, 0x0e, 0x3e, 0x83, 0xd4, 0x20, 0x3e,
    0xf5, 0x11, 0xf0, 0xbc, 0xd8, 0xb1, 0x8c, 0x3d, 0xad, 0x03, 0xd5, 0x3b,
    0x87, 0x4f, 0xc0, 0x3d, 0xb5, 0x17, 0x36, 0x3d, 0x13, 0xdc, 0x08, 0xbd,
    0x6d, 0x28, 0x23, 0x3d, 0x24, 0x48, 0x94, 0xbe, 0xd9, 0xbe, 0x4f, 0xbd,
    0x0b, 0x18, 0x90, 0xbd, 0x04, 0xee, 0x91, 0x3e, 0x60, 0x12, 0x20, 0x3e,
    0xa4, 0x50, 0x31, 0x3e, 0x79, 0xb4, 0x91, 0xbd, 0xb6, 0x3b, 0xfd, 0x3d,
    0x87, 0x3a, 0xce, 0x3d, 0xab, 0x25, 0x3c, 0x3d, 0x2e, 0xba, 0xf6, 0x3b,
    0x22, 0xbe, 0x88, 0x3e, 0x41, 0x1d, 0x91, 0x3d, 0x40, 0x2e, 0x92, 0x3d,
    0x02, 0xd8, 0x90, 0x3d, 0x68, 0x3f, 0x58, 0xbe, 0x9b, 0xac, 0xd7, 0xbd,
    0x18, 0x6d, 0x8a, 0xbb, 0x1f, 0xf4, 0x7d, 0xbc, 0xe9, 0x45, 0x09, 0x3e,
    0x9f, 0xfe, 0x95, 0x3d, 0x9d, 0xf8, 0x2a, 0x3e, 0x55, 0x59, 0x18, 0xbe,
    0xb1, 0xfd, 0x36, 0x3e, 0x2a, 0xaa, 0x3b, 0x3e, 0xa6, 0xf6, 0x39, 0xba,
    0xa1, 0x4d, 0x74, 0xbd, 0xd9, 0xe6, 0x8d, 0x3e, 0x80, 0xa5, 0x8c, 0xbc,
    0x61, 0x74, 0x25, 0x3d, 0x34, 0xfe, 0x71, 0x3d, 0xbc, 0xb5, 0x8f, 0xbe,
    0x46, 0x41, 0xf4, 0xbe, 0x17, 0xf2, 0x9e, 0x3a, 0x80, 0x45, 0xce, 0x3c,
    0xa4, 0xd1, 0x8f, 0x3e, 0xe3, 0x2e, 0x43, 0xbc, 0x3d, 0x24, 0xb4, 0x3e,
    0xb1, 0x1e, 0x30, 0xbd, 0x98, 0x36, 0xcd, 0x3d, 0x0c, 0x48, 0x55, 0x3d,
    0x39, 0x6f, 0x16, 0xbe, 0x1d, 0x82, 0x34, 0xbe, 0xc0, 0x7d, 0x81, 0x3e,
    0x73, 0xe1, 0x0a, 0xbe, 0x1d, 0x95, 0x13, 0x3d, 0x52, 0x6b, 0xf5, 0xbb,
    0x42, 0x7e, 0xbc, 0xbe, 0x0c, 0x5a, 0xcc, 0xbe, 0x6b, 0xc1, 0xc3, 0xbc,
    0x85, 0xa2, 0xf7, 0x3c, 0x11, 0xef, 0x4b, 0x3e, 0xa4, 0xb9, 0x85, 0x3d,
    0x1b, 0x76, 0xbe, 0x3e, 0x9f, 0x20, 0xd4, 0xbd, 0x65, 0x15, 0x2a, 0x3e,
    0x6e, 0xdd, 0xfe, 0x3d, 0x72, 0x35, 0x21, 0xbd, 0x54, 0x0f, 0x48, 0xbe,
    0xfe, 0xe7, 0x46, 0x3e, 0x6f, 0x80, 0x80, 0xbd, 0xf4, 0x2c, 0xc8, 0x3d,
    0x45, 0x0b, 0x8e, 0xbd, 0xb3, 0xd3, 0x99, 0xbe, 0x12, 0x64, 0x19, 0xbe,
    0x8e, 0x98, 0x34, 0x3c, 0x3f, 0x82, 0x5c, 0x3d, 0x05, 0x5c, 0x8d, 0x3e,
    0x66, 0x6d, 0x1d, 0x3d, 0xe8, 0xe4, 0x79, 0x3e, 0x09, 0x06, 0x0c, 0xbd,
    0xfc, 0x25, 0x90, 0x3d, 0xd8, 0xda, 0xf1, 0x3d, 0xbb, 0x7e, 0x18, 0x3e,
    0xa7, 0x79, 0xe1, 0x3c, 0x68, 0x65, 0x31, 0x3d, 0x80, 0x16, 0x0f, 0xbe,
    0xa6, 0x2a, 0x79, 0x3c, 0x4f, 0x6a, 0xf5, 0x3d, 0x2d, 0x8e, 0x83, 0xbe,
    0xef, 0x1a, 0x86, 0xbd, 0xd7, 0x98, 0xd3, 0xbc, 0xdc, 0x99, 0xfb, 0x3d,
    0xe8, 0x2d, 0xd0, 0x3e, 0x93, 0x99, 0x23, 0xbe, 0x36, 0xdd, 0x84, 0x3e,
    0x41, 0x0f, 0x0a, 0x3e, 0x90, 0x4b, 0xd5, 0xbc, 0xd3, 0x40, 0xac, 0x3d,
    0x8e, 0x08, 0x95, 0x3c, 0xcc, 0x5b, 0x6f, 0xbe, 0x02, 0x7b, 0x89, 0x3e,
    0x6f, 0x2a, 0x55, 0xbe, 0x64, 0x57, 0xcd, 0xbd, 0x8d, 0xa2, 0xa8, 0x3d,
    0xaa, 0x1f, 0x42, 0xbd, 0x12, 0x22, 0x5c, 0xbe, 0x9a, 0xfa, 0x43, 0xbd,
    0xe0, 0x93, 0x81, 0xbd, 0xa6, 0x78, 0x74, 0xbd, 0x78, 0x8d, 0xd4, 0xbe,
    0x7e, 0xc7, 0x32, 0xbf, 0x01, 0xc0, 0x06, 0xbf, 0xd8, 0xad, 0x7f, 0xbd,
    0xd2, 0xc7, 0xa7, 0xbe, 0xbe, 0xc5, 0xff, 0xbe, 0x1e, 0xf5, 0x03, 0x3c,
    0x96, 0xae, 0x07, 0xbf, 0x43, 0xf6, 0x60, 0xbe, 0x1c, 0x7e, 0x8c, 0xbe,
    0xd4, 0x05, 0x51, 0xbd, 0x21, 0x90, 0x8c, 0x3e, 0x13, 0xcb, 0x85, 0xbe,
    0xdf, 0xb4, 0x05, 0xbf, 0xc3, 0x79, 0xa7, 0x3b, 0x60, 0x54, 0x39, 0x3c,
    0x12, 0x9a, 0x91, 0x3d, 0xe2, 0x53, 0x8d, 0x3d, 0xe8, 0x49, 0x5b, 0xbb,
    0x28, 0xcc, 0x95, 0xbe, 0x00, 0x79, 0xd7, 0xbc, 0x2a, 0x7e, 0x80, 0x3c,
    0xc9, 0x5f, 0x15, 0xbe, 0x4f, 0x7e, 0x4c, 0x3d, 0x4a, 0x6d, 0x58, 0xbc,
    0x6d, 0xa2, 0x17, 0xbe, 0x1c, 0x64, 0x11, 0xbe, 0x05, 0xf2, 0x7d, 0x3e,
    0x0f, 0x16, 0xb4, 0x3b, 0x98, 0x36, 0x88, 0x3d, 0x87, 0x91, 0xc0, 0xbe,
    0x3a, 0xbb, 0xcd, 0x3c, 0x89, 0x5d, 0xa8, 0xbe, 0x67, 0xdb, 0xe2, 0x3d,
    0xd0, 0xe3, 0x5f, 0xbd, 0x2b, 0xad, 0x0e, 0xbe, 0x4c, 0x1e, 0x24, 0xbe,
    0xe7, 0x6f, 0x8f, 0xbe, 0x0a, 0xa3, 0xb5, 0x3c, 0xfe, 0xf3, 0x8b, 0xbd,
    0x42, 0xfb, 0xc2, 0x3d, 0x7b, 0x30, 0x30, 0xbd, 0xbd, 0xbf, 0x49, 0xbe,
    0xb6, 0x92, 0x14, 0x3e, 0x97, 0x15, 0x3d, 0xbd, 0xfa, 0x58, 0x8b, 0xbd,
    0x88, 0x5d, 0x89, 0xbe, 0x8d, 0x80, 0x64, 0xbe, 0x3b, 0xb3, 0x6c, 0xbe,
    0x87, 0xd4, 0xda, 0xbb, 0x92, 0x31, 0x64, 0xbe, 0x8a, 0x85, 0xf4, 0xbd,
    0x9e, 0x89, 0xa4, 0xbd, 0x5e, 0xd7, 0x5d, 0xbe, 0xbf, 0x73, 0x45, 0xbe,
    0x77, 0xa5, 0x52, 0x3c, 0x3a, 0x4a, 0xa7, 0xbd, 0x37, 0xfb, 0x3e, 0xbc,
    0x24, 0x9c, 0x8e, 0xbd, 0x1e, 0x54, 0x91, 0xbc, 0x48, 0xaf, 0x45, 0xbd,
    0x25, 0x8c, 0x1e, 0x3d, 0xf2, 0x1a, 0x92, 0xbd, 0x7b, 0xb7, 0x3a, 0x3e,
    0x0c, 0xe9, 0x98, 0xbe, 0x70, 0x74, 0xb1, 0x3d, 0x43, 0xa9, 0x59, 0xbe,
    0xe1, 0xe3, 0x18, 0x3d, 0xc3, 0x81, 0x90, 0xbe, 0x53, 0x0c, 0x08, 0xbe,
    0x06, 0x59, 0xa5, 0xbd, 0x09, 0x71, 0xa2, 0x3c, 0x7c, 0x30, 0xa6, 0x3d,
    0xd7, 0x3a, 0xab, 0x3b, 0x00, 0xf9, 0x68, 0xbd, 0x79, 0x2a, 0x19, 0xbe,
    0x6d, 0x83, 0xb1, 0xbd, 0x20, 0xc3, 0x15, 0xbd, 0x70, 0x6e, 0x95, 0xbd,
    0xda, 0x24, 0x53, 0xbd, 0x6c, 0x88, 0xb6, 0xbe, 0x14, 0x65, 0x5f, 0x3d,
    0x80, 0xd5, 0x41, 0xbe, 0xaf, 0x31, 0x37, 0x3e, 0xa3, 0xad, 0x1c, 0xbd,
    0x2f, 0xfa, 0x0b, 0xbe, 0xed, 0x59, 0x2e, 0xbe, 0x6a, 0x9d, 0x5b, 0x3e,
    0x37, 0xde, 0x8f, 0xbd, 0x39, 0x9b, 0xb0, 0x3d, 0xaf, 0xc0, 0x03, 0xbd,
    0x85, 0xc3, 0x04, 0x3e, 0x0f, 0x4f, 0x38, 0xbc, 0x0f, 0xb3, 0x06, 0xbe,
    0x64, 0x20, 0x2b, 0xbe, 0x81, 0xb0, 0x1d, 0x3e, 0x57, 0x08, 0x8c, 0xbe,
    0x62, 0xbc, 0xe7, 0x3d, 0x45, 0xdf, 0x4e, 0x3d, 0xa0, 0x7d, 0x29, 0x3d,
    0x87, 0xd4, 0xc4, 0xbd, 0xb2, 0xa7, 0x54, 0xbd, 0x87, 0xfa, 0x8f, 0x3d,
    0x4b, 0x05, 0x34, 0x3e, 0xef, 0x5a, 0xa9, 0x3d, 0xd5, 0xd2, 0xc9, 0xbd,
    0x66, 0xbd, 0x16, 0xbd, 0x54, 0xcf, 0x08, 0x3e, 0x54, 0x8a, 0xf4, 0x3c,
    0xc6, 0xcd, 0x31, 0x3e, 0xf6, 0x6d, 0x7c, 0xbc, 0x7e, 0x1e, 0x10, 0xbd,
    0x30, 0x46, 0x1d, 0xbe, 0x5d, 0x65, 0x9c, 0xbc, 0xea, 0xbe, 0x4d, 0xbe,
    0x76, 0xc0, 0x91, 0xbc, 0x6d, 0x84, 0x33, 0x3d, 0x63, 0xc5, 0x1a, 0xbe,
    0x48, 0xa0, 0xaa, 0x3d, 0x2c, 0x55, 0x27, 0x3e, 0xee, 0x41, 0x94, 0x3d,
    0x3a, 0x2b, 0xa2, 0x3c, 0x14, 0xa0, 0x15, 0xbe, 0x33, 0x75, 0xdb, 0x3b,
    0xe2, 0x0e, 0x5d, 0xbd, 0x8d, 0x94, 0xc3, 0x3c, 0x76, 0x8e, 0xc3, 0xbe,
    0x26, 0xd0, 0x05, 0xbe, 0xb3, 0x7c, 0xc3, 0xbd, 0x95, 0xbd, 0xa3, 0x3d,
    0x98, 0x07, 0xc7, 0xbc, 0xbb, 0xc0, 0x77, 0xbd, 0x0b, 0x87, 0x80, 0x3c,
    0x3b, 0xda, 0x88, 0xbd, 0xc3, 0x53, 0x03, 0x3e, 0xe3, 0x7d, 0x00, 0xbe,
    0x57, 0xf1, 0x40, 0x3c, 0xd3, 0xf2, 0x23, 0xbd, 0xcf, 0x47, 0xcf, 0xbd,
    0x55, 0x35, 0x0c, 0xbd, 0x3a, 0x41, 0x60, 0xbd, 0xb3, 0xc1, 0x21, 0x3e,
    0x17, 0x79, 0x79, 0xbe, 0x4f, 0x9e, 0x0e, 0xbe, 0x81, 0x91, 0x00, 0xbe,
    0xaf, 0x5b, 0xbc, 0xbc, 0xe2, 0xbc, 0xd0, 0xbc, 0xa5, 0xfe, 0x9d, 0x3d,
    0x03, 0xbd, 0x93, 0xbe, 0x1e, 0x59, 0xa9, 0xbd, 0x1f, 0xea, 0xd0, 0xbd,
    0xc9, 0x61, 0x03, 0x3e, 0xe8, 0x4c, 0x16, 0x3e, 0xe5, 0x83, 0x41, 0xbb,
    0xd3, 0x77, 0xd2, 0xbd, 0x9e, 0x9e, 0x8d, 0xbc, 0x75, 0x41, 0x37, 0xbc,
    0x61, 0x40, 0x70, 0xbd, 0xbf, 0xec, 0xde, 0xbd, 0x8c, 0x63, 0xee, 0xbc,
    0xc1, 0x06, 0xe8, 0xbd, 0x15, 0x17, 0x4e, 0x3c, 0xee, 0xaa, 0xf0, 0xbd,
    0x17, 0x12, 0x02, 0xbd, 0xbb, 0xbf, 0x67, 0xbe, 0x35, 0xcb, 0x44, 0xbe,
    0x40, 0xaf, 0xa2, 0x3d, 0xc1, 0xe9, 0x9d, 0xbc, 0x84, 0x51, 0x61, 0x3e,
    0xea, 0xad, 0x7f, 0x3d, 0x5f, 0x13, 0x82, 0x3c, 0x87, 0x1c, 0xf5, 0xbc,
    0x5c, 0xc4, 0xe8, 0x3c, 0xc1, 0xa3, 0x68, 0xbd, 0x2c, 0xbf, 0x98, 0xbe,
    0xf7, 0xa1, 0xd2, 0x3b, 0x70, 0x4c, 0x24, 0x3c, 0xe2, 0x19, 0x8b, 0xbd,
    0xd0, 0x95, 0x17, 0xbe, 0xa4, 0x5e, 0x2b, 0xbe, 0x55, 0x11, 0x53, 0xbe,
    0x33, 0xdc, 0x7c, 0xbe, 0xa3, 0x5f, 0x00, 0x3e, 0x41, 0x5c, 0xf2, 0x3d,
    0x0d, 0xab, 0xe8, 0xbd, 0xdd, 0xf9, 0x24, 0x3d, 0x7f, 0x07, 0x06, 0x3e,
    0x62, 0xd0, 0x26, 0x3d, 0x72, 0x32, 0xf9, 0xbd, 0x80, 0x7a, 0xce, 0xbd,
    0xa8, 0x00, 0x1c, 0xbe, 0x28, 0x3a, 0x33, 0xbe, 0xef, 0xfc, 0xe6, 0xbc,
    0x69, 0xd4, 0xe4, 0x3d, 0x9a, 0x5d, 0x33, 0xbe, 0xb1, 0x1f, 0xd9, 0x3c,
    0xa8, 0xe8, 0x5c, 0xbd, 0xdb, 0x5e, 0x9d, 0xbe, 0x17, 0xac, 0xb8, 0xbc,
    0x5a, 0x52, 0x4d, 0x3d, 0x3d, 0x00, 0x97, 0xbc, 0x9a, 0xaa, 0x53, 0xbe,
    0xc0, 0x8c, 0x18, 0xbe, 0xdd, 0x93, 0x28, 0xbd, 0xa5, 0x6a, 0x97, 0x3d,
    0xe1, 0x09, 0x55, 0xbd, 0xea, 0xdb, 0xaa, 0xbe, 0xb1, 0x0d, 0xa0, 0xbd,
    0x33, 0xb7, 0x0c, 0xbe, 0xf3, 0x7c, 0xe5, 0x3d, 0x9e, 0x05, 0x9c, 0xbe,
    0x52, 0x7b, 0x0e, 0xbe, 0x7d, 0x50, 0x0b, 0xbe, 0x8a, 0x99, 0x1a, 0xbe,
    0x70, 0x90, 0xde, 0x3c, 0x73, 0x98, 0x7f, 0xbc, 0xf2, 0x72, 0x1b, 0x3e,
    0x64, 0x71, 0x72, 0xbd, 0xd5, 0xdb, 0x7c, 0xbe, 0xb0, 0xb4, 0xc6, 0xbc,
    0x80, 0x0a, 0x43, 0xbc, 0x7c, 0x3e, 0xa8, 0x3d, 0x9a, 0xd9, 0xda, 0xbe,
    0xe6, 0x9d, 0x21, 0xbe, 0x5e, 0x36, 0x30, 0xbe, 0xc5, 0x14, 0x38, 0x3e,
    0xd1, 0xa1, 0xa3, 0x3d, 0x22, 0xdd, 0x3d, 0xbe, 0xd6, 0x71, 0x99, 0xbd,
    0xe8, 0xab, 0x8d, 0x3e, 0x02, 0x68, 0x38, 0x3a, 0x4c, 0x4f, 0xc6, 0xbd,
    0x32, 0xb3, 0x38, 0x3e, 0x29, 0x0d, 0x23, 0xbe, 0x84, 0x39, 0xd8, 0xbd,
    0x82, 0x93, 0xaf, 0x3d, 0x5b, 0xbb, 0x98, 0x3c, 0x33, 0x97, 0xa7, 0x3d,
    0x25, 0x92, 0x96, 0xbe, 0x51, 0x1f, 0x79, 0xbe, 0x24, 0x78, 0x0b, 0xbe,
    0x2b, 0x85, 0x78, 0xbe, 0xf7, 0xd1, 0x40, 0x3f, 0xa2, 0xd5, 0x9a, 0x3e,
    0x9b, 0xff, 0x63, 0xbe, 0x0c, 0xcb, 0x08, 0xbe, 0xb8, 0x8a, 0x99, 0x3d,
    0xd1, 0xb9, 0x25, 0x3d, 0xd0, 0x91, 0x31, 0xbd, 0x3d, 0x06, 0x88, 0x3d,
    0x47, 0x65, 0xed, 0x3d, 0xaa, 0xc4, 0xd2, 0xbe, 0xd9, 0x6c, 0xc4, 0xbe,
    0xa1, 0xee, 0xc2, 0x3d, 0x56, 0xbc, 0x62, 0x3e, 0x76, 0x7d, 0x41, 0xbe,
    0x35, 0x60, 0x56, 0x3d, 0x6c, 0x50, 0x1d, 0xbe, 0xcf, 0xf4, 0x84, 0x3d,
    0x61, 0x1d, 0x4e, 0x3e, 0xea, 0xcd, 0x36, 0xbe, 0xc4, 0xc2, 0x77, 0x3c,
    0xa1, 0x6a, 0x14, 0xbd, 0xf2, 0x01, 0xcb, 0x3d, 0x73, 0xe6, 0x0d, 0x3e,
    0xf7, 0x54, 0x4d, 0xbd, 0x1b, 0x0b, 0xf0, 0x3d, 0xd8, 0x6b, 0x4c, 0x3e,
    0x05, 0xd9, 0xbf, 0xbe, 0x29, 0x5a, 0x0a, 0x3e, 0x54, 0x15, 0xaa, 0x3d,
    0x6a, 0xd0, 0xad, 0xbe, 0xb5, 0xa9, 0x7e, 0x3d, 0x5b, 0x9b, 0xa2, 0xbd,
    0x66, 0xeb, 0x1e, 0x3e, 0xdf, 0xfa, 0xb3, 0x3d, 0x01, 0xb9, 0xeb, 0xbd,
    0xed, 0x60, 0x7b, 0x3d, 0xdd, 0xc3, 0xab, 0xbc, 0x9c, 0xf9, 0xa7, 0x3d,
    0x7c, 0x05, 0xd7, 0x3d, 0xf3, 0x62, 0xb7, 0xbe, 0x9d, 0x89, 0x7b, 0x3d,
    0x2e, 0x25, 0x20, 0x3c, 0xdb, 0xe4, 0x3d, 0xbe, 0x0e, 0xee, 0x3d, 0x3d,
    0x9c, 0xd3, 0xdc, 0x3c, 0x00, 0x4d, 0x38, 0xbe, 0xd6, 0x3c, 0x1e, 0xbd,
    0x8b, 0x41, 0x14, 0x3e, 0x56, 0x6b, 0x21, 0x3e, 0xfc, 0x0b, 0xb4, 0xbe,
    0x8c, 0xee, 0x24, 0xbe, 0x92, 0xf6, 0x48, 0x3e, 0x01, 0xa4, 0x4e, 0x3c,
    0x86, 0xf3, 0x0b, 0x3d, 0xde, 0x84, 0x1d, 0x3e, 0xe1, 0xa9, 0x00, 0xbf,
    0xa5, 0x03, 0xa7, 0x3d, 0x2b, 0xf4, 0x32, 0xbd, 0x7b, 0xed, 0x30, 0xbd,
    0xd7, 0xb6, 0x2a, 0xbe, 0xa4, 0xa7, 0xaa, 0xbd, 0x76, 0xa8, 0x59, 0x3e,
    0x63, 0x2b, 0x3f, 0xbd, 0x6a, 0xb1, 0x8d, 0x3c, 0x1c, 0xf7, 0x90, 0x3e,
    0xad, 0xa8, 0xb2, 0xbd, 0x5e, 0xe2, 0x80, 0xbe, 0xb1, 0x3b, 0x67, 0xbd,
    0xaa, 0x58, 0x88, 0xbc, 0xce, 0x93, 0x66, 0xbe, 0x3d, 0xe4, 0x85, 0x3d,
    0xfc, 0x7d, 0xd8, 0xbe, 0x73, 0x8d, 0xeb, 0xbc, 0xf7, 0x65, 0x6c, 0xbe,
    0xc5, 0xd4, 0x51, 0x3d, 0x62, 0x0d, 0x4b, 0xbe, 0xb0, 0xc3, 0x1f, 0xbd,
    0x87, 0x98, 0x69, 0x3d, 0x4d, 0x80, 0xd2, 0xbc, 0x9c, 0x0c, 0x38, 0x3e,
    0x89, 0x8b, 0x81, 0x3e, 0x55, 0x79, 0xea, 0x3d, 0xd0, 0xf2, 0xc8, 0xbd,
    0xb4, 0x9c, 0xa9, 0x3d, 0x7f, 0x05, 0x83, 0xbd, 0x05, 0x77, 0xb0, 0x3b,
    0x62, 0xbd, 0x4c, 0x3d, 0x49, 0x44, 0xc9, 0xbd, 0xdc, 0x3f, 0xb9, 0x3d,
    0x56, 0xc5, 0xe3, 0xbe, 0x5e, 0x61, 0x26, 0x3d, 0x31, 0x0e, 0x12, 0xbc,
    0x2b, 0xe8, 0x93, 0x3b, 0xc0, 0x15, 0x10, 0xbe, 0xdb, 0x6b, 0xd4, 0xbd,
    0xa7, 0xf7, 0x97, 0x3d, 0x61, 0xa0, 0x08, 0x3e, 0x54, 0x8a, 0x65, 0x3e,
    0x58, 0xcc, 0x1d, 0xbe, 0x33, 0x44, 0x63, 0x3c, 0x69, 0x14, 0xf6, 0xbd,
    0xff, 0x62, 0xd4, 0x3d, 0x05, 0x2b, 0x8b, 0x3d, 0x22, 0x2c, 0x13, 0xbe,
    0x52, 0x0c, 0x0f, 0x3d, 0x48, 0x96, 0xc7, 0xbd, 0x4d, 0x35, 0xab, 0x3d,
    0x20, 0xbe, 0xeb, 0x3d, 0x64, 0xf0, 0x86, 0xbd, 0xcb, 0x71, 0xa5, 0xbd,
    0xd5, 0x2a, 0x95, 0x3c, 0x57, 0xaa, 0x06, 0x3e, 0x5e, 0x14, 0x3c, 0x3e,
    0xcb, 0xf8, 0x11, 0x3e, 0x34, 0x34, 0x6d, 0x3d, 0xa4, 0x66, 0x0b, 0x3c,
    0x52, 0x5b, 0x9d, 0xbb, 0x7a, 0x84, 0x90, 0xbd, 0x11, 0xc8, 0x4a, 0x3e,
    0x75, 0xf9, 0x8a, 0xbd, 0x83, 0x65, 0x22, 0xbd, 0x64, 0x5d, 0x15, 0xbd,
    0x91, 0x22, 0x5e, 0xbc, 0xbd, 0x09, 0x12, 0x3d, 0xfe, 0x19, 0xeb, 0x3c,
    0xa3, 0x78, 0x2e, 0xbd, 0x62, 0xf3, 0x7f, 0x3c, 0x05, 0x5e, 0x03, 0x3e,
    0x6c, 0x9e, 0xb7, 0x3d, 0xb1, 0x03, 0x4d, 0x3e, 0x66, 0x72, 0xfd, 0xbd,
    0xc5, 0x12, 0x11, 0x3d, 0x99, 0x39, 0xab, 0x3c, 0xc8, 0xf5, 0x5a, 0xbd,
    0x33, 0x84, 0x98, 0x3c, 0x0a, 0xd6, 0x99, 0x3d, 0x4f, 0xcb, 0xb5, 0xbb,
    0x00, 0x39, 0x41, 0x3e, 0xdc, 0x20, 0x27, 0xbc, 0x34, 0xdb, 0xbb, 0x3d,
    0x33, 0x3c, 0x26, 0x3d, 0x3a, 0x99, 0x2b, 0x3d, 0xa4, 0x31, 0x76, 0x3d,
    0x50, 0x79, 0x91, 0x3d, 0x80, 0x50, 0xc3, 0x3d, 0x5c, 0x3d, 0x39, 0x3e,
    0xc9, 0x7b, 0xed, 0xbc, 0xf2, 0xbb, 0x88, 0x3d, 0x76, 0xb2, 0x5e, 0xbe,
    0x0c, 0x80, 0xb9, 0xbd, 0x10, 0x91, 0x12, 0x3d, 0xca, 0xfb, 0x47, 0x3d,
    0xc4, 0x43, 0xc4, 0xbd, 0xd3, 0x36, 0x82, 0xbd, 0x03, 0x96, 0xda, 0xbd,
    0xac, 0x46, 0xbf, 0x3d, 0x26, 0x6b, 0x26, 0x3d, 0x02, 0xa1, 0x0f, 0xbe,
    0x68, 0x09, 0x42, 0x3e, 0x32, 0xf7, 0x5d, 0x3e, 0xad, 0xa5, 0xec, 0x3d,
    0x97, 0x8a, 0xb1, 0x3e, 0xc7, 0x0e, 0xee, 0xbd, 0x12, 0x2d, 0xf0, 0x3d,
    0x05, 0x02, 0xae, 0xbe, 0x63, 0x2c, 0xe3, 0x3c, 0x1c, 0x86, 0x47, 0x3e,
    0xe5, 0xa6, 0x46, 0x3e, 0x6b, 0x88, 0x8c, 0xbd, 0x6b, 0x84, 0x28, 0x3e,
    0xad, 0xc4, 0x79, 0xbe, 0x77, 0x46, 0xfc, 0xbc, 0x40, 0x27, 0x28, 0x3e,
    0x2c, 0x30, 0xe0, 0xbd, 0xe5, 0xb6, 0xd8, 0x3c, 0x68, 0xac, 0x90, 0x3e,
    0x14, 0x75, 0x1c, 0xbe, 0x0d, 0xc9, 0x9e, 0xbe, 0x4b, 0xec, 0x4f, 0xbe,
    0x1b, 0x78, 0xcb, 0x3d, 0xf6, 0xeb, 0xd3, 0xbe, 0x38, 0xab, 0xed, 0xbd,
    0x86, 0x1a, 0xf4, 0x3d, 0x43, 0x3f, 0xd2, 0x3c, 0xbf, 0x91, 0xc3, 0xbe,
    0x76, 0x19, 0x6a, 0x3d, 0xd9, 0x29, 0x35, 0xbe, 0x3b, 0x83, 0xe7, 0xba,
    0x6e, 0xcd, 0x2e, 0xbf, 0xec, 0x5f, 0x25, 0x3e, 0xb6, 0x01, 0x9f, 0x3d,
    0xd6, 0x6e, 0x37, 0x3e, 0x09, 0x82, 0x49, 0xbe, 0x31, 0x65, 0x67, 0xbf,
    0x1a, 0xf7, 0xfc, 0xbe, 0xa9, 0x80, 0x7a, 0xbc, 0x09, 0x7e, 0xa0, 0xbe,
    0x62, 0x1c, 0x38, 0xbd, 0xce, 0x50, 0x9e, 0x3d, 0x69, 0x4b, 0x47, 0xbe,
    0x53, 0x6d, 0x8f, 0xbe, 0xee, 0x17, 0xa4, 0xbe, 0x42, 0x75, 0x52, 0x3c,
    0xe5, 0x67, 0x1a, 0xbe, 0x34, 0xb7, 0x53, 0xbf, 0xc7, 0xdf, 0xb3, 0xbd,
    0x6a, 0x60, 0x00, 0xbe, 0x32, 0xd9, 0xc0, 0x3d, 0x15, 0x83, 0x9c, 0x3b,
    0x79, 0x94, 0x9a, 0xbe, 0xac, 0x0b, 0xf1, 0xbe, 0x13, 0xd8, 0x11, 0xbe,
    0x25, 0x26, 0xb3, 0xbe, 0x13, 0xce, 0xc7, 0x3d, 0x3a, 0xb6, 0x17, 0x3e,
    0xb7, 0xd8, 0x6f, 0x3d, 0x1f, 0xc1, 0xe2, 0xbe, 0x5a, 0x21, 0x26, 0xbe,
    0xbd, 0x0b, 0x39, 0x3e, 0xf3, 0xb2, 0x87, 0x3d, 0x47, 0x17, 0xf0, 0xbe,
    0x09, 0xb9, 0xd8, 0x3d, 0x3c, 0x61, 0x81, 0x3e, 0x21, 0xe5, 0xba, 0xbd,
    0x26, 0x80, 0x0c, 0x3e, 0x95, 0x3e, 0x9a, 0xbd, 0x45, 0xc1, 0x31, 0xbe,
    0x3d, 0xa0, 0x14, 0xbd, 0x02, 0x58, 0x32, 0xbd, 0x59, 0xc7, 0xff, 0x3c,
    0x15, 0x05, 0xe2, 0x3e, 0x86, 0x1d, 0x0f, 0xbe, 0xa0, 0x40, 0xbc, 0xbe,
    0x68, 0x5e, 0x44, 0x3e, 0x99, 0x1f, 0xfb, 0x3d, 0xfe, 0x0e, 0x21, 0xbe,
    0x13, 0xf4, 0x67, 0xbe, 0x39, 0x82, 0xe1, 0xbc, 0xf4, 0x0d, 0xdb, 0x3d,
    0xd6, 0x05, 0x98, 0xbe, 0xd5, 0x96, 0x43, 0xbe, 0x0d, 0x8b, 0x04, 0xbe,
    0xdb, 0x1b, 0x9b, 0xbd, 0xa7, 0xb8, 0x86, 0xbe, 0x93, 0xa7, 0x48, 0x3e,
    0xff, 0x83, 0x70, 0xbe, 0x81, 0x92, 0xb6, 0x3e, 0x00, 0xde, 0x2d, 0xbe,
    0xcb, 0xea, 0xd1, 0xbe, 0x26, 0x5f, 0x89, 0x3d, 0xa9, 0x78, 0x94, 0xbc,
    0x46, 0xe4, 0xc0, 0xbc, 0xf8, 0x7a, 0x7f, 0xbe, 0x7f, 0x6c, 0xda, 0xbd,
    0xf0, 0x26, 0x7a, 0x3d, 0xc8, 0xe1, 0x68, 0xbe, 0xf9, 0x78, 0x22, 0xbd,
    0xc6, 0xe1, 0x7e, 0xbe, 0x48, 0xa7, 0xa1, 0xbd, 0x79, 0xdc, 0x63, 0xbc,
    0x3b, 0x33, 0x25, 0x3e, 0xe9, 0x5d, 0x8a, 0xbe, 0x68, 0x6a, 0x42, 0xbe,
    0xb6, 0x15, 0x24, 0xbd, 0x8a, 0xab, 0xec, 0xbe, 0x57, 0x0d, 0xf0, 0x3d,
    0xea, 0x0e, 0xd0, 0xbd, 0x6e, 0xe6, 0xd4, 0xbd, 0xc1, 0x3c, 0x84, 0xbe,
    0xfe, 0xc7, 0x0f, 0xbe, 0xe0, 0x6e, 0x3b, 0xbd, 0xb5, 0x5b, 0x75, 0xbe,
    0x57, 0xb2, 0x70, 0xbe, 0x9a, 0xb9, 0x45, 0x3c, 0xc0, 0xe1, 0xd2, 0xbc,
    0x71, 0xc3, 0xbc, 0xbd, 0xc1, 0x3a, 0x0b, 0x3d, 0x0d, 0x92, 0xd4, 0xbc,
    0x90, 0x72, 0x14, 0xbd, 0x19, 0x0f, 0x79, 0x3c, 0x8d, 0xb0, 0xc9, 0xbe,
    0xec, 0x8b, 0xe0, 0x3d, 0x61, 0xeb, 0x92, 0xbd, 0xcc, 0x90, 0xf1, 0xbd,
    0xc4, 0x38, 0x92, 0xbd, 0x89, 0xa0, 0x33, 0xbc, 0x4e, 0xe5, 0x4d, 0xbd,
    0x7a, 0xd2, 0x83, 0xbd, 0x61, 0x9a, 0xd0, 0x3d, 0x33, 0xca, 0x94, 0xbd,
    0x8c, 0x1a, 0xb3, 0x3d, 0x4e, 0x06, 0x51, 0x3e, 0xd5, 0x7a, 0xb3, 0x3d,
    0x6a, 0x1d, 0x01, 0xbe, 0x3a, 0xc0, 0xc4, 0x3e, 0xe6, 0xf7, 0xee, 0xbd,
    0xe2, 0x8e, 0x1f, 0xbe, 0xc2, 0xfd, 0x96, 0x3e, 0x6c, 0xe1, 0x62, 0xbe,
    0xff, 0xd8, 0x13, 0xbe, 0xbd, 0xb6, 0x81, 0xbd, 0xd8, 0xdc, 0x4a, 0x3b,
    0xe5, 0xe2, 0xcb, 0x3a, 0x49, 0x4c, 0xc3, 0xbd, 0xfb, 0x38, 0xa1, 0x3d,
    0x96, 0x5e, 0xa7, 0xbc, 0xcb, 0xde, 0x23, 0x3d, 0x0f, 0x0d, 0x8f, 0x3e,
    0x9b, 0x54, 0x04, 0x3e, 0x7d, 0x1b, 0x78, 0xbd, 0x06, 0x2f, 0x2a, 0x3e,
    0x3e, 0x9a, 0xce, 0xbe, 0xa2, 0xa0, 0xa7, 0xbe, 0x58, 0x1f, 0x5e, 0x3e,
    0x23, 0xe4, 0xc5, 0x3c, 0x25, 0xc4, 0x1f, 0xbe, 0x9a, 0x80, 0x56, 0x3b,
    0x69, 0xb9, 0x17, 0x3e, 0x4d, 0xd6, 0xf1, 0x3d, 0xf3, 0x63, 0x4a, 0xbe,
    0x2b, 0xa0, 0xcd, 0x3d, 0x14, 0xc3, 0x28, 0xbe, 0x61, 0x71, 0x05, 0x3e,
    0x6a, 0xb8, 0x07, 0x3d, 0x55, 0xf9, 0x2b, 0x3e, 0x39, 0x86, 0x0f, 0xbd,
    0x38, 0xd5, 0x61, 0x3e, 0xdb, 0x24, 0xa6, 0xbe, 0x20, 0xde, 0x2c, 0xbe,
    0x15, 0x3f, 0xc8, 0x3d, 0x9e, 0x9b, 0x45, 0x3d, 0xed, 0x09, 0x22, 0xbe,
    0x2a, 0x2c, 0x33, 0xbe, 0x37, 0x8a, 0x54, 0xbd, 0x48, 0x0c, 0x84, 0xba,
    0x2f, 0x23, 0x12, 0xbe, 0xc4, 0x7c, 0x48, 0x3e, 0x82, 0xd5, 0x95, 0xbe,
    0x79, 0xda, 0x06, 0x3c, 0x2d, 0xf1, 0x33, 0x3d, 0x55, 0x60, 0x77, 0xbd,
    0x1d, 0x61, 0x05, 0xbe, 0x81, 0xcb, 0x8d, 0x3e, 0x06, 0x08, 0x01, 0xbe,
    0x95, 0xc7, 0x51, 0xbd, 0xf0, 0x72, 0x99, 0xbd, 0x06, 0xb2, 0xc6, 0x3d,
    0xfb, 0x0f, 0xca, 0x3d, 0x8e, 0x73, 0x7e, 0x3b, 0xfd, 0x34, 0x67, 0xbd,
    0x70, 0x32, 0xdd, 0xbc, 0x2d, 0x99, 0xea, 0xbe, 0xc2, 0x73, 0x64, 0xbd,
    0x00, 0x94, 0x0f, 0xbe, 0x75, 0x7a, 0xba, 0xbd, 0x85, 0xc4, 0x2a, 0x3d,
    0x76, 0x88, 0x30, 0x3d, 0x53, 0x72, 0x9d, 0xbd, 0x30, 0x57, 0x81, 0x3e,
    0x6e, 0x96, 0x95, 0xbd, 0x3c, 0x35, 0x38, 0x3d, 0x9b, 0x98, 0x6f, 0xbb,
    0xf0, 0x78, 0x27, 0x3d, 0xdc, 0xa7, 0x13, 0x3d, 0x6d, 0x26, 0x01, 0x3e,
    0x0c, 0x56, 0x0d, 0x3c, 0x34, 0x73, 0x26, 0x3d, 0x9c, 0xd1, 0xe5, 0xbe,
    0x3a, 0x3d, 0x80, 0xbd, 0x12, 0x3e, 0xf8, 0xbd, 0xaf, 0x15, 0x82, 0xbd,
    0x50, 0x20, 0x49, 0xbe, 0x69, 0x45, 0x3e, 0x3e, 0xaa, 0xf1, 0x2d, 0xbe,
    0x46, 0x98, 0x5a, 0xbe, 0x3a, 0x09, 0xb8, 0xbe, 0x10, 0xa7, 0x6b, 0xbe,
    0xf4, 0x2a, 0x71, 0x3e, 0x34, 0xde, 0x1a, 0xbd, 0x14, 0x25, 0xc5, 0x3d,
    0xac, 0x10, 0x0e, 0xbd, 0xdd, 0xd6, 0x6c, 0x3e, 0x4a, 0x10, 0x6d, 0x3d,
    0x8a, 0x02, 0x45, 0xbe, 0x79, 0x00, 0x82, 0x3d, 0xa0, 0x2d, 0x6d, 0x3e,
    0xcf, 0x3b, 0xaa, 0xbd, 0x62, 0xbc, 0x3b, 0x3d, 0x1d, 0x84, 0x85, 0x3e,
    0x74, 0x75, 0x49, 0xbe, 0x72, 0x3d, 0x81, 0xbe, 0xd5, 0xb1, 0x13, 0xbe,
    0x15, 0x6e, 0x95, 0xbe, 0x6f, 0x24, 0x95, 0x3e, 0x07, 0xc3, 0x22, 0x3e,
    0x71, 0x27, 0x1c, 0xbd, 0xf8, 0x56, 0x55, 0xbe, 0x4d, 0x4b, 0x50, 0xbe,
    0x4e, 0x36, 0x61, 0xbd, 0xb4, 0x21, 0x08, 0xbf, 0x18, 0x79, 0xe1, 0xbc,
    0x05, 0x0e, 0x58, 0x3e, 0xaf, 0xa3, 0xff, 0xbd, 0x20, 0x4e, 0x78, 0xbd,
    0xce, 0x7a, 0xfe, 0xbc, 0x8d, 0xca, 0x02, 0xbe, 0x0c, 0x26, 0xb8, 0xbe,
    0x64, 0x00, 0xab, 0xbe, 0xd2, 0x25, 0x2b, 0xbe, 0x1f, 0x46, 0x4e, 0xbd,
    0x30, 0x12, 0xa0, 0xbd, 0xea, 0xae, 0x29, 0x3e, 0x7f, 0xe0, 0x8f, 0xbe,
    0x9e, 0x18, 0x2b, 0x3d, 0xe2, 0xa8, 0x14, 0xbe, 0x23, 0xe3, 0x17, 0x3c,
    0xee, 0xc3, 0x21, 0x3e, 0x43, 0xdf, 0xce, 0x3d, 0x12, 0x1c, 0xd2, 0xbb,
    0x7f, 0xd5, 0xca, 0x3d, 0x3c, 0x5c, 0xf1, 0x3d, 0x95, 0x71, 0x44, 0x3d,
    0x93, 0xf3, 0xba, 0xbe, 0x68, 0x93, 0x5c, 0xbe, 0x10, 0x67, 0xf1, 0xbe,
    0x2a, 0x15, 0x18, 0x3d, 0x73, 0xe2, 0x82, 0x3b, 0xd6, 0x91, 0xbc, 0x3d,
    0x52, 0xcb, 0xb9, 0xbe, 0xcb, 0x4a, 0xd7, 0x3c, 0x6c, 0x72, 0xa3, 0xbe,
    0xf7, 0xb6, 0xed, 0xbc, 0xf2, 0x4b, 0x78, 0x3a, 0x22, 0x3b, 0x92, 0xbe,
    0x93, 0xd9, 0x90, 0x3e, 0x45, 0x47, 0x15, 0xbe, 0x15, 0xb5, 0x29, 0xbc,
    0x12, 0x00, 0xe3, 0xbd, 0xfb, 0xb2, 0xa7, 0xbe, 0x88, 0x19, 0x9b, 0xbe,
    0x18, 0x47, 0x29, 0xbe, 0x65, 0xe8, 0xec, 0xbb, 0xd7, 0x95, 0x5e, 0xbe,
    0x44, 0xf0, 0xae, 0xbd, 0x5e, 0xb2, 0x63, 0xbe, 0x8f, 0x8c, 0xda, 0xbd,
    0x21, 0xec, 0xce, 0x3c, 0x61, 0xec, 0xc9, 0xbd, 0xc4, 0xbc, 0xae, 0xbe,
    0x55, 0x77, 0xa7, 0xbe, 0x5b, 0x6f, 0x43, 0xbe, 0x09, 0x7c, 0x72, 0x3d,
    0x07, 0x9c, 0x9d, 0xbe, 0xa3, 0x3f, 0x50, 0x3c, 0x1c, 0xa9, 0x0c, 0xbe,
    0x67, 0x2d, 0x3b, 0xbd, 0xc4, 0xed, 0x10, 0x3d, 0x50, 0xa2, 0xd4, 0xbe,
    0x47, 0x29, 0x0c, 0xbe, 0x9d, 0x91, 0x12, 0x3d, 0x88, 0xdd, 0x67, 0xb8,
    0x38, 0x07, 0x2f, 0xbe, 0x1a, 0x06, 0x37, 0xbc, 0x62, 0x98, 0xa3, 0xbe,
    0x98, 0xcc, 0x81, 0x3e, 0x6e, 0x97, 0xd6, 0xbd, 0x95, 0x8b, 0xdd, 0xbd,
    0x79, 0xa4, 0xf3, 0x3c, 0xb5, 0xc2, 0x11, 0xbe, 0xd3, 0xec, 0x66, 0xbe,
    0xa3, 0x56, 0x80, 0xbc, 0x01, 0x00, 0x63, 0x3c, 0x56, 0x89, 0x87, 0x3b,
    0xe2, 0x59, 0x39, 0xbe, 0x4d, 0x6d, 0xfb, 0x3d, 0xa0, 0x39, 0xcc, 0x3d,
    0x69, 0x45, 0x8e, 0xbd, 0x5f, 0x84, 0xd6, 0x3d, 0xa1, 0x84, 0xbd, 0x3d,
    0x10, 0x07, 0x38, 0xbe, 0x9e, 0xfa, 0x10, 0x3e, 0xb7, 0xa7, 0x29, 0xbe,
    0x97, 0x88, 0x6a, 0xbd, 0xbe, 0x44, 0x49, 0xbc, 0x6d, 0xaf, 0x52, 0xbe,
    0x1b, 0x47, 0x60, 0xbd, 0x2d, 0x4d, 0x09, 0x3e, 0xaf, 0x9b, 0x4d, 0x3d,
    0x0e, 0x61, 0x8d, 0x3b, 0x79, 0xf0, 0x43, 0x3e, 0xf1, 0xe4, 0x6e, 0x3e,
    0x30, 0x82, 0xb4, 0x3d, 0xb1, 0x9a, 0x1f, 0xbe, 0xf0, 0x6d, 0xe7, 0x3d,
    0xa4, 0x03, 0x72, 0x3d, 0xf6, 0x2b, 0xa5, 0x3b, 0xd0, 0x1c, 0xd9, 0x3d,
    0x46, 0x22, 0xaa, 0xbe, 0xd3, 0x08, 0x54, 0xbd, 0xcd, 0xb1, 0xc2, 0xba,
    0x07, 0xf2, 0xb6, 0xbd, 0xfe, 0x75, 0x73, 0x3c, 0xe4, 0x9b, 0x0a, 0xbd,
    0xc7, 0x90, 0x9e, 0xbd, 0xf1, 0xea, 0xa7, 0x3c, 0xc8, 0x26, 0x52, 0x3e,
    0xfc, 0x27, 0xc7, 0x3e, 0x97, 0x6f, 0xa9, 0x3d, 0x7f, 0xcb, 0x24, 0xbe,
    0x7d, 0x06, 0xb8, 0xbd, 0xa3, 0x40, 0x5e, 0x3d, 0x27, 0x47, 0x2b, 0xbe,
    0x44, 0x61, 0x8d, 0x3e, 0x04, 0x26, 0x8c, 0xbe, 0x5c, 0x59, 0xfa, 0xbd,
    0xcf, 0xf0, 0xa6, 0xbd, 0xc6, 0xdd, 0x9c, 0x3d, 0x44, 0xe8, 0x70, 0xbe,
    0xda, 0x14, 0x31, 0xbe, 0x38, 0xdb, 0xd2, 0xbd, 0x50, 0xa7, 0x19, 0x3d,
    0xf0, 0x2d, 0x3b, 0x3e, 0xfd, 0x9c, 0xe7, 0x3e, 0xb3, 0x62, 0xbb, 0x3d,
    0xe6, 0xe4, 0x95, 0x3c, 0xa4, 0x26, 0x10, 0x3e, 0xf6, 0x96, 0x4d, 0x3d,
    0xd8, 0x93, 0x34, 0xbd, 0x87, 0x9d, 0x81, 0xbd, 0x4f, 0xb4, 0x85, 0xbd,
    0x7a, 0xb6, 0x55, 0xbe, 0xbd, 0xfd, 0x84, 0x3d, 0x53, 0xa2, 0x15, 0x3e,
    0x10, 0x1e, 0x93, 0xbe, 0x4e, 0xab, 0xc5, 0xbd, 0x55, 0xd9, 0xdf, 0x3d,
    0xca, 0xf4, 0x6d, 0x3d, 0xdb, 0xfe, 0x84, 0x3e, 0x95, 0x98, 0x36, 0x3e,
    0x93, 0x3e, 0xfd, 0x3c, 0x61, 0x70, 0x04, 0xbd, 0x46, 0x72, 0xe4, 0x3c,
    0xa9, 0x0e, 0x58, 0xbe, 0xe5, 0x86, 0x33, 0x3d, 0x2d, 0x46, 0x03, 0xbe,
    0x94, 0xdc, 0xf0, 0xbd, 0xaa, 0x48, 0x27, 0xbe, 0x34, 0xb0, 0x63, 0xbd,
    0x56, 0x1f, 0xb7, 0xbb, 0xcd, 0xce, 0xde, 0xbd, 0xc7, 0xb0, 0x4d, 0x3d,
    0x65, 0x11, 0x01, 0x3e, 0xf5, 0xab, 0x8a, 0x3d, 0x34, 0xe1, 0x10, 0xbe,
    0x49, 0x06, 0xff, 0xbd, 0xb6, 0xe4, 0x69, 0xbe, 0xc8, 0x48, 0x78, 0xbd,
    0x1a, 0x63, 0x2b, 0x3d, 0x7f, 0x73, 0x35, 0xbe, 0x1e, 0x01, 0xf5, 0xbd,
    0x89, 0xad, 0x6b, 0xbe, 0x6a, 0x85, 0x09, 0x3d, 0x74, 0x69, 0xf6, 0xbd,
    0x62, 0x39, 0xc9, 0xbe, 0x72, 0x00, 0x8e, 0x3d, 0xfc, 0xa5, 0x9c, 0xbe,
    0x53, 0x4e, 0x95, 0xbd, 0xc7, 0x7d, 0xae, 0xbb, 0xa7, 0x61, 0xb9, 0xba,
    0xb8, 0x9a, 0xce, 0xbe, 0x80, 0xcc, 0xd2, 0xbe, 0xcf, 0xeb, 0x5c, 0xbe,
    0x69, 0xa4, 0x0e, 0xbd, 0x12, 0xa9, 0x1e, 0xbe, 0xc9, 0x6d, 0x50, 0xbe,
    0xfc, 0xd5, 0xe6, 0xbd, 0x9f, 0x5c, 0xd0, 0xbe, 0x33, 0xcf, 0xbb, 0xbd,
    0x70, 0x66, 0xa5, 0xbe, 0x6b, 0x92, 0xfa, 0xbe, 0x27, 0xa0, 0x4b, 0x3d,
    0x5d, 0x26, 0x75, 0xbe, 0x46, 0x63, 0x8c, 0xbe, 0x57, 0x65, 0xaf, 0xbd,
    0xea, 0xd8, 0x1c, 0x3d, 0xcd, 0x4f, 0xc2, 0xbe, 0x87, 0xf0, 0x0b, 0xbf,
    0x25, 0xdf, 0xd9, 0xbe, 0x5d, 0x6a, 0x4e, 0x3d, 0xaa, 0x06, 0xf1, 0xbd,
    0x31, 0xe2, 0x60, 0xbe, 0x72, 0x6f, 0xf2, 0xbc, 0xb9, 0x4a, 0x9e, 0xbe,
    0xfb, 0xb0, 0xd7, 0xbd, 0x9f, 0xfa, 0x96, 0xbe, 0xc8, 0x14, 0x13, 0xbf,
    0xaa, 0x6a, 0x39, 0xbc, 0x7f, 0x24, 0x5a, 0xbd, 0x12, 0x36, 0xa9, 0x3d,
    0x9e, 0x86, 0x60, 0x3d, 0xbc, 0x33, 0x85, 0x3c, 0x4c, 0x72, 0xf2, 0xbe,
    0x39, 0x9f, 0xba, 0xbe, 0xc2, 0xa5, 0x68, 0xbe, 0x35, 0x06, 0xa1, 0x3c,
    0xb5, 0xad, 0x53, 0x3d, 0x3e, 0xd0, 0xa2, 0xbd, 0xfd, 0x9b, 0xaa, 0x3c,
    0x0a, 0x8f, 0xa8, 0x3e, 0x24, 0xca, 0x09, 0xbd, 0x14, 0x2c, 0x4c, 0xbe,
    0x56, 0x1b, 0xae, 0xbd, 0x9d, 0x45, 0x60, 0xbc, 0xb7, 0x16, 0x5f, 0xbe,
    0x57, 0x8f, 0x8d, 0x3e, 0x5d, 0xab, 0x50, 0xbd, 0xcc, 0x11, 0xb0, 0x3c,
    0x52, 0x21, 0xd1, 0xbe, 0xfb, 0xff, 0xb2, 0xbc, 0x9b, 0xd1, 0x14, 0xbe,
    0xfc, 0x2c, 0x7e, 0xbd, 0x39, 0x94, 0xfb, 0xb9, 0xca, 0x93, 0xca, 0xbd,
    0x0a, 0xa7, 0xfc, 0xbd, 0xf6, 0xd3, 0x7f, 0x3e, 0xd3, 0xda, 0x0b, 0xbe,
    0x8e, 0xf9, 0x99, 0xbd, 0xc5, 0xe4, 0x73, 0xbd, 0xba, 0x7d, 0xae, 0xbd,
    0x5b, 0x0e, 0x24, 0x3d, 0xcf, 0x46, 0x90, 0x3d, 0x42, 0x80, 0x88, 0xbc,
    0x93, 0x44, 0xa0, 0x3c, 0x02, 0x2c, 0x53, 0xbb, 0xb3, 0x0d, 0xdf, 0x3e,
    0xf3, 0x46, 0xc8, 0x3c, 0xc5, 0x84, 0xa4, 0xbd, 0xf8, 0x13, 0xad, 0x3b,
    0x6d, 0x41, 0xb5, 0x3c, 0xeb, 0x74, 0x5f, 0xbe, 0x67, 0x82, 0xd0, 0x3e,
    0x3c, 0xd0, 0x9c, 0xbd, 0xa0, 0x97, 0x48, 0x3e, 0x1f, 0x0a, 0x36, 0xbe,
    0xf6, 0x51, 0x4a, 0xbd, 0x4f, 0xe5, 0x20, 0xbe, 0xa1, 0x8e, 0x0d, 0xbd,
    0x70, 0x13, 0x9c, 0xbd, 0xe8, 0x43, 0xb1, 0xbb, 0xc3, 0x59, 0xa4, 0x3e,
    0x06, 0xd6, 0x10, 0x3e, 0x8e, 0x8e, 0x88, 0x3e, 0xe8, 0xa8, 0xe1, 0xbd,
    0xb3, 0x6e, 0x6b, 0xbe, 0x28, 0x96, 0x7f, 0xbe, 0xde, 0xcc, 0xab, 0xbe,
    0xb0, 0xc9, 0xa6, 0xbe, 0x60, 0x75, 0xc5, 0x3d, 0x39, 0x36, 0xea, 0x3d,
    0x53, 0x43, 0xea, 0xbe, 0xb0, 0x9d, 0x9e, 0x3d, 0x06, 0x01, 0x7c, 0xbe,
    0xb8, 0x49, 0x51, 0xbe, 0x7c, 0xad, 0xe8, 0x3c, 0xe2, 0x4e, 0xc6, 0x3c,
    0x9f, 0x1f, 0x56, 0xbe, 0x5a, 0xd7, 0x79, 0x3d, 0x62, 0x73, 0x81, 0xbe,
    0xe6, 0xc1, 0xd1, 0x3c, 0x4e, 0x1c, 0x18, 0x3f, 0x2a, 0xe7, 0xa4, 0x3e,
    0xf6, 0x80, 0x24, 0x3e, 0x06, 0xf7, 0x00, 0x3f, 0x34, 0x8e, 0x91, 0xbe,
    0x17, 0x9f, 0xf3, 0x3c, 0xc5, 0x69, 0x15, 0x3f, 0x18, 0xd8, 0xab, 0x3d,
    0x98, 0xd2, 0x55, 0x3d, 0xf1, 0x5f, 0xdb, 0x3e, 0x21, 0x48, 0x05, 0xbf,
    0xf7, 0x44, 0x65, 0xbd, 0xbd, 0x27, 0xf6, 0x3e, 0x4e, 0x58, 0xaa, 0x3e,
    0x1f, 0x87, 0xd5, 0x3b, 0x4e, 0x6f, 0xa8, 0xbd, 0x1f, 0x08, 0xd0, 0xbe,
    0x06, 0xd5, 0x76, 0x3d, 0x15, 0xf8, 0x48, 0x3e, 0x38, 0xe0, 0x0e, 0xbf,
    0xaa, 0x5c, 0xaf, 0xbd, 0xfd, 0xe2, 0xbd, 0xbe, 0x54, 0x5b, 0x2f, 0xbf,
    0x37, 0xe6, 0xd9, 0x3d, 0xd4, 0x6d, 0x89, 0xbe, 0xe4, 0xa0, 0xc4, 0x3c,
    0x76, 0x37, 0xe2, 0xbe, 0xd2, 0xf0, 0x98, 0x3c, 0xe7, 0x7a, 0xcc, 0x3e,
    0xaa, 0x3f, 0x11, 0xbf, 0x86, 0x4a, 0x3e, 0xbf, 0xae, 0xa4, 0xe5, 0x3b,
    0x62, 0x98, 0x31, 0xbe, 0xff, 0x4e, 0x80, 0x3d, 0x79, 0xe7, 0xba, 0xbd,
    0x93, 0x5b, 0xca, 0xbe, 0x3c, 0x97, 0x97, 0x3d, 0xf1, 0x41, 0x2d, 0xbf,
    0xc9, 0xa4, 0x4b, 0xbf, 0x9e, 0x2a, 0xde, 0x3d, 0xad, 0x4e, 0x84, 0xbe,
