// Example MNIST classification model,for use with TFlite Micro

#include "mnist_model.h"

// Model data tflite flatbuffer.
const unsigned char mnist_dense_model_tflite[] = {
    0x18, 0x00, 0x00, 0x00, 0x54, 0x46, 0x4C, 0x33, 0x00, 0x00, 0x0E, 0x00,
    0x18, 0x00, 0x04, 0x00, 0x08, 0x00, 0x0C, 0x00, 0x10, 0x00, 0x14, 0x00,
    0x0E, 0x00, 0x00, 0x00, 0x03, 0x00, 0x00, 0x00, 0xA8, 0x46, 0x01, 0x00,
    0x0C, 0x00, 0x00, 0x00, 0x10, 0x00, 0x00, 0x00, 0x20, 0x00, 0x00, 0x00,
    0x01, 0x00, 0x00, 0x00, 0xB0, 0x41, 0x01, 0x00, 0x0F, 0x00, 0x00, 0x00,
    0x54, 0x4F, 0x43, 0x4F, 0x20, 0x43, 0x6F, 0x6E, 0x76, 0x65, 0x72, 0x74,
    0x65, 0x64, 0x2E, 0x00, 0x0D, 0x00, 0x00, 0x00, 0x84, 0x41, 0x01, 0x00,
    0x8C, 0x3D, 0x01, 0x00, 0x10, 0x3D, 0x01, 0x00, 0x3C, 0x33, 0x01, 0x00,
    0xEC, 0x00, 0x00, 0x00, 0xE4, 0x00, 0x00, 0x00, 0xDC, 0x00, 0x00, 0x00,
    0xD4, 0x00, 0x00, 0x00, 0xC0, 0x00, 0x00, 0x00, 0x88, 0x00, 0x00, 0x00,
    0x80, 0x00, 0x00, 0x00, 0x78, 0x00, 0x00, 0x00, 0x04, 0x00, 0x00, 0x00,
    0xAA, 0xC2, 0xFE, 0xFF, 0x04, 0x00, 0x00, 0x00, 0x64, 0x00, 0x00, 0x00,
    0xFB, 0x15, 0xF6, 0xBD, 0xE5, 0xB3, 0xA4, 0x3E, 0xDB, 0xFD, 0x9D, 0x3C,
    0x92, 0x98, 0x89, 0x3C, 0x44, 0x39, 0x8D, 0x3D, 0x94, 0x2A, 0x93, 0xBD,
    0x0E, 0x91, 0x99, 0x3D, 0xDD, 0x7A, 0xC4, 0xBD, 0x00, 0xE0, 0x28, 0x3E,
    0x10, 0x78, 0xC1, 0x3D, 0xC8, 0x18, 0x00, 0x3E, 0xF8, 0x54, 0xC4, 0x3D,
    0x63, 0x99, 0x1D, 0x3E, 0x2C, 0x31, 0xC5, 0xBC, 0xE8, 0x22, 0x0B, 0x3E,
    0x3C, 0x96, 0x48, 0x3D, 0xC7, 0xE2, 0x68, 0x3E, 0x07, 0xF2, 0x08, 0x3B,
    0xD4, 0x1B, 0xEB, 0x3D, 0x54, 0xB0, 0xAF, 0x3D, 0xA3, 0x2D, 0x1D, 0x3D,
    0x82, 0xC2, 0xA5, 0x3E, 0xC2, 0x40, 0x5E, 0x3E, 0x66, 0xC8, 0x4D, 0x3D,
    0xA2, 0xB9, 0x6D, 0xBC, 0xC0, 0xBA, 0xFE, 0xFF, 0xC4, 0xBA, 0xFE, 0xFF,
    0x22, 0xC3, 0xFE, 0xFF, 0x04, 0x00, 0x00, 0x00, 0x28, 0x00, 0x00, 0x00,
    0xE9, 0x09, 0x21, 0x3D, 0xC4, 0x9B, 0xE4, 0xBD, 0x95, 0x83, 0x10, 0x3E,
    0x8E, 0x9D, 0xCC, 0xBD, 0xE5, 0x81, 0xCD, 0x3E, 0xF7, 0x29, 0x5A, 0x3D,
    0xA9, 0x7C, 0xE6, 0xBC, 0x58, 0x3F, 0xA8, 0x3D, 0x58, 0x1E, 0x74, 0x3E,
    0x91, 0x32, 0x02, 0x3E, 0x56, 0xC3, 0xFE, 0xFF, 0x04, 0x00, 0x00, 0x00,
    0x04, 0x00, 0x00, 0x00, 0x01, 0x00, 0x00, 0x00, 0x0C, 0xBB, 0xFE, 0xFF,
    0x10, 0xBB, 0xFE, 0xFF, 0x14, 0xBB, 0xFE, 0xFF, 0x72, 0xC3, 0xFE, 0xFF,
    0x04, 0x00, 0x00, 0x00, 0x40, 0x32, 0x01, 0x00, 0x82, 0xBE, 0xD5, 0x3D,
    0xF0, 0xF2, 0x6D, 0x3C, 0x03, 0xBD, 0x21, 0x3C, 0x37, 0xAE, 0x13, 0x3D,
    0x95, 0x3F, 0x73, 0x3D, 0x0B, 0xF6, 0xB6, 0x3B, 0x76, 0x12, 0x05, 0xBE,
    0x57, 0xEB, 0x46, 0x3D, 0xAF, 0xFA, 0x1A, 0x3C, 0xDF, 0xF8, 0x57, 0x3D,
    0xBB, 0xC0, 0x0D, 0x3E, 0x52, 0x75, 0x9C, 0x3D, 0x50, 0x15, 0x46, 0xBD,
    0x0A, 0x8C, 0x7D, 0xBD, 0x56, 0x2F, 0x37, 0xBD, 0xC3, 0x73, 0x8F, 0xBD,
    0xB8, 0x5C, 0x17, 0xBD, 0xF3, 0x53, 0x00, 0x3E, 0xAB, 0x00, 0x5F, 0xBD,
    0x98, 0xC6, 0x84, 0x3C, 0x47, 0x31, 0xED, 0xBD, 0x0D, 0x75, 0x1A, 0x3C,
    0x03, 0xC3, 0x9C, 0x3D, 0x5D, 0xAA, 0xF7, 0xBC, 0x0C, 0xED, 0x1B, 0x3B,
    0x27, 0x4A, 0x0F, 0xBE, 0x76, 0x5B, 0xCB, 0x3D, 0x5A, 0x9B, 0x06, 0x3E,
    0x36, 0x54, 0x03, 0x3E, 0xC6, 0x2A, 0x22, 0xBE, 0xAE, 0x29, 0x8F, 0xBD,
    0xFD, 0x66, 0xFB, 0xBD, 0xC5, 0xAF, 0x89, 0xBD, 0xB0, 0x6D, 0xEF, 0x3C,
    0xBF, 0x27, 0x5A, 0xBC, 0xE1, 0x75, 0xD7, 0xBD, 0xA5, 0x93, 0xF8, 0xBC,
    0x1F, 0x55, 0xB7, 0xBD, 0x51, 0xFF, 0xE9, 0x3C, 0x07, 0x31, 0x40, 0xBE,
    0xD5, 0x10, 0x4B, 0xBD, 0x5B, 0x7F, 0x0E, 0xBE, 0x02, 0x88, 0x23, 0x3E,
    0x93, 0x70, 0x84, 0x3E, 0x73, 0xBE, 0x86, 0xBD, 0xEE, 0xC1, 0x1F, 0xBE,
    0x0D, 0x10, 0x1C, 0xBE, 0xF3, 0xFE, 0x83, 0x3D, 0xA5, 0xBC, 0x74, 0xBD,
    0x0F, 0xD5, 0x23, 0xBE, 0x1F, 0xCD, 0x1E, 0xBD, 0x7C, 0x09, 0x9E, 0xBD,
    0x81, 0x3D, 0x03, 0x3D, 0xEF, 0xD8, 0x71, 0xBD, 0x69, 0xA2, 0xC5, 0xBC,
    0x53, 0x4F, 0x3F, 0xBD, 0x55, 0x91, 0x37, 0xBE, 0x6E, 0x8E, 0x34, 0x3D,
    0x27, 0x28, 0xDE, 0xBD, 0xC3, 0x35, 0x01, 0xBD, 0xF7, 0x4C, 0x3F, 0xBE,
    0x43, 0x43, 0x01, 0x3C, 0xFE, 0x15, 0xAB, 0x3D, 0xD0, 0x3C, 0xDE, 0x3D,
    0x81, 0xFE, 0xA7, 0xBD, 0x18, 0x46, 0x45, 0xBE, 0xE4, 0xB8, 0xE6, 0xBD,
    0xDA, 0x51, 0xC3, 0xBD, 0xF4, 0xB0, 0x94, 0xBD, 0x83, 0x1F, 0x03, 0xBC,
    0xEE, 0xD4, 0x31, 0x3E, 0x83, 0x0D, 0xFE, 0x3D, 0x6F, 0x18, 0x5B, 0x3E,
    0x5E, 0x77, 0x76, 0x3E, 0x58, 0x90, 0x3E, 0x3E, 0x5F, 0x19, 0x90, 0x3E,
    0xA4, 0x4D, 0x38, 0xBD, 0x0D, 0xDD, 0x9E, 0xBD, 0xE5, 0xE7, 0x69, 0x3D,
    0xEC, 0xB1, 0x78, 0xBD, 0xD8, 0x07, 0x10, 0x3E, 0x69, 0x8F, 0xBD, 0xBC,
    0x38, 0x7E, 0x83, 0xBD, 0x12, 0x9C, 0x22, 0x3D, 0x9F, 0xC7, 0x80, 0xBD,
    0x4E, 0xD7, 0x23, 0x3E, 0x43, 0x82, 0x37, 0x3E, 0x13, 0x9D, 0x5E, 0x3E,
    0x46, 0x02, 0x07, 0x3E, 0x1F, 0x7A, 0xA5, 0xBE, 0xA8, 0x98, 0xF9, 0xB9,
    0xB0, 0xC8, 0x3F, 0x3E, 0x8C, 0xA2, 0xC4, 0xBD, 0xE5, 0x64, 0x06, 0x3D,
    0xAE, 0x63, 0xBF, 0xBE, 0x1A, 0xCE, 0x00, 0xBF, 0x06, 0xB3, 0x7D, 0x3D,
    0x8B, 0x9D, 0x25, 0xBC, 0xE5, 0xBD, 0x96, 0xBE, 0x07, 0x4A, 0x6E, 0xBD,
    0x59, 0x96, 0xAE, 0xBB, 0xC1, 0xF1, 0x14, 0xBD, 0xE1, 0x21, 0x3D, 0xBD,
    0x8C, 0xEF, 0xF8, 0x3D, 0x99, 0xDB, 0x10, 0xBE, 0x27, 0xD4, 0x7E, 0xBE,
    0x84, 0x28, 0x94, 0xBD, 0xB9, 0x11, 0x85, 0xBD, 0x18, 0x5A, 0xB9, 0x3D,
    0x2A, 0x4A, 0x1F, 0xBC, 0xEB, 0x02, 0x9D, 0x3B, 0x84, 0x4A, 0x03, 0x3E,
    0x4D, 0x97, 0x4B, 0xBC, 0x60, 0x54, 0x68, 0x3D, 0x81, 0x07, 0x8F, 0x3E,
    0x34, 0x54, 0x00, 0xBE, 0x6A, 0xFE, 0x3E, 0xBE, 0xE2, 0xA0, 0x74, 0xBD,
    0x02, 0x8E, 0x86, 0xBD, 0x56, 0xCA, 0x41, 0xBE, 0xD7, 0xF3, 0x77, 0xBE,
    0x8E, 0x31, 0x3E, 0xBE, 0x4C, 0x14, 0x99, 0xBE, 0x1F, 0x34, 0xCC, 0xBD,
    0xBE, 0x6C, 0x15, 0xBD, 0x0C, 0x03, 0xE9, 0x3D, 0x11, 0x7B, 0xB1, 0x3C,
    0xD1, 0x17, 0x15, 0x3D, 0xAD, 0x60, 0xD6, 0x3A, 0x22, 0x2C, 0x37, 0xBD,
    0x67, 0x1E, 0x11, 0xBD, 0x6E, 0xD1, 0xC8, 0x3D, 0x36, 0x42, 0x25, 0xBE,
    0xF4, 0x6A, 0x35, 0xBE, 0x19, 0x6B, 0x61, 0xBE, 0x5B, 0xB8, 0x8A, 0xBC,
    0x72, 0x52, 0x64, 0x3D, 0xB5, 0xCC, 0x81, 0xBD, 0x70, 0x6D, 0xC0, 0x3C,
    0x1A, 0x03, 0x61, 0x3D, 0x05, 0xDB, 0x82, 0xBC, 0x2B, 0xAC, 0xB8, 0xBD,
    0x9B, 0x1F, 0x34, 0x3E, 0x7B, 0x94, 0x0E, 0xBE, 0x9F, 0xC2, 0x27, 0xBC,
    0xE9, 0x9B, 0x47, 0xBD, 0x23, 0x1F, 0x3C, 0x3E, 0xAC, 0x7A, 0xF0, 0xBD,
    0xBB, 0x68, 0xA4, 0xBE, 0xF6, 0x85, 0x85, 0xBE, 0x37, 0xD4, 0xCD, 0xBD,
    0xFE, 0xB1, 0x43, 0xBE, 0x93, 0x29, 0x24, 0xBC, 0x38, 0x39, 0x2D, 0x3D,
    0x5F, 0x24, 0xD8, 0x3D, 0x81, 0xFA, 0x49, 0xBD, 0x88, 0xEA, 0x1A, 0x3E,
    0x38, 0x42, 0x6A, 0x3D, 0x2C, 0xB9, 0x82, 0x3C, 0x07, 0x50, 0x33, 0xBE,
    0xA5, 0x0B, 0x94, 0xBE, 0xE5, 0x2C, 0x8C, 0xBE, 0xF9, 0x41, 0xC0, 0xBE,
    0xF5, 0xC1, 0x4F, 0x3C, 0xEE, 0xA0, 0x9A, 0x3D, 0x8B, 0x7B, 0x6B, 0xBE,
    0x02, 0x56, 0x38, 0x3C, 0xB9, 0x97, 0xAB, 0xBD, 0x8A, 0xB5, 0xE7, 0x3D,
    0x75, 0x86, 0x69, 0x3B, 0x39, 0x2A, 0x3A, 0xBE, 0xB5, 0xEE, 0x6E, 0xBE,
    0xBB, 0x7A, 0xA4, 0xBD, 0x57, 0x5F, 0x79, 0xBD, 0x18, 0x6A, 0x05, 0x3E,
    0x7D, 0xC4, 0x98, 0xBE, 0x38, 0x24, 0xA3, 0xBE, 0x1C, 0x1E, 0x42, 0xBE,
    0xA9, 0xEB, 0x80, 0xBE, 0xD2, 0x99, 0xD4, 0x3D, 0x0E, 0x60, 0x02, 0xBE,
    0x78, 0x98, 0xB0, 0xBD, 0x82, 0xF2, 0x76, 0x3D, 0x50, 0x5E, 0xAB, 0x3B,
    0x14, 0x37, 0x04, 0x3E, 0xB5, 0xD9, 0x0A, 0xBD, 0x23, 0x23, 0x20, 0xBC,
    0x2B, 0x50, 0x21, 0xBE, 0x88, 0x7A, 0x93, 0xBE, 0xD7, 0x91, 0x03, 0xBD,
    0xA5, 0x0E, 0x44, 0x3E, 0xD3, 0xAF, 0xA4, 0xBD, 0x0E, 0x7E, 0xEB, 0x3D,
    0xB3, 0x55, 0x82, 0xBD, 0x7A, 0x6E, 0x94, 0xBD, 0x32, 0xC0, 0xC6, 0x3C,
    0x70, 0xF1, 0x4C, 0xBB, 0xDF, 0xEE, 0xB1, 0xBD, 0x1A, 0xE7, 0xB0, 0xBE,
    0x16, 0x9B, 0x91, 0xBE, 0x9B, 0xB0, 0x00, 0xBE, 0x43, 0x1C, 0x22, 0x3E,
    0xCA, 0x1E, 0x61, 0xBE, 0x22, 0xD9, 0xBB, 0xBD, 0x3D, 0x27, 0xCA, 0xBD,
    0x35, 0xFA, 0x28, 0xBE, 0x25, 0xB1, 0xB8, 0x3D, 0xF7, 0x6A, 0xC1, 0xBD,
    0x28, 0x04, 0xBD, 0x3C, 0x18, 0x15, 0x0A, 0x3D, 0x95, 0x0B, 0x49, 0x3E,
    0xB1, 0x74, 0x17, 0x3D, 0xD6, 0x23, 0x35, 0xBA, 0x3C, 0x10, 0x69, 0x3D,
    0x25, 0x13, 0x61, 0x3C, 0x4C, 0x23, 0xF4, 0xBD, 0x19, 0x58, 0x4A, 0xBC,
    0xC9, 0x38, 0x21, 0xBE, 0x85, 0xB1, 0x6C, 0x3D, 0x75, 0x2D, 0xFA, 0xBD,
    0x34, 0x3B, 0xE6, 0x3C, 0x02, 0x4B, 0x61, 0xBE, 0x0C, 0xE8, 0x7D, 0xBB,
    0xD1, 0x36, 0x0E, 0xBE, 0x2E, 0xC6, 0x84, 0xBC, 0x3C, 0xA4, 0xBC, 0xBB,
    0x05, 0x34, 0x87, 0xBC, 0x7C, 0x15, 0xE8, 0xBA, 0x27, 0xC0, 0xF5, 0x3C,
    0x22, 0x3B, 0x9D, 0xBB, 0xA5, 0xF8, 0x05, 0x3D, 0xEA, 0x3C, 0x2F, 0x3D,
    0x11, 0x2E, 0xD7, 0xBD, 0xD6, 0x36, 0x10, 0xBE, 0x6C, 0xB5, 0x08, 0xBE,
    0xDD, 0x59, 0x4F, 0xBE, 0x8B, 0x03, 0x73, 0xBD, 0x0D, 0xDA, 0x06, 0x3E,
    0xE5, 0x48, 0x25, 0x3E, 0x79, 0xB4, 0x31, 0x3E, 0x6A, 0x08, 0x14, 0x3C,
    0xB2, 0x18, 0xC5, 0xBD, 0x42, 0x57, 0xE2, 0xBD, 0x74, 0x42, 0x52, 0xBE,
    0x0D, 0x2A, 0x47, 0xBD, 0x45, 0x91, 0x80, 0xBD, 0x17, 0x49, 0x1F, 0x3E,
    0x94, 0x5D, 0xDB, 0xBB, 0xAB, 0x76, 0x94, 0x3D, 0x7F, 0x78, 0xF8, 0xBD,
    0x58, 0x03, 0x54, 0x3E, 0xCE, 0x9F, 0x9E, 0xBD, 0x33, 0xCE, 0x59, 0x3E,
    0xE2, 0x58, 0x80, 0x3D, 0xFF, 0xDA, 0x34, 0xBD, 0x5C, 0xD3, 0x44, 0x3D,
    0x8A, 0x98, 0xAB, 0xBC, 0x7E, 0x01, 0xA3, 0x3D, 0x65, 0x51, 0x0A, 0xBD,
    0x72, 0x6F, 0x60, 0x3D, 0x0C, 0x19, 0xCF, 0xBC, 0x34, 0x43, 0xB0, 0xBD,
    0x18, 0xDF, 0xF9, 0xBD, 0x5F, 0x2B, 0x66, 0x3A, 0x7C, 0x54, 0x25, 0xBE,
    0xA6, 0x40, 0x0F, 0x3E, 0xF5, 0x20, 0x7B, 0x3D, 0xCB, 0xDD, 0x16, 0x3E,
    0x1D, 0x39, 0x11, 0x3D, 0x8E, 0x3E, 0x02, 0xBE, 0x5B, 0x15, 0x60, 0xBE,
    0x24, 0x4C, 0xCD, 0xBC, 0x03, 0xAE, 0x7B, 0xBE, 0x19, 0x13, 0xA6, 0xBB,
    0xEF, 0x75, 0x3A, 0xBE, 0x69, 0x3F, 0x74, 0x3D, 0x5D, 0xAC, 0x29, 0xBD,
    0x7C, 0xD5, 0x86, 0xBC, 0x68, 0xF2, 0x1B, 0x3D, 0xEA, 0x8E, 0x48, 0x3E,
    0xF9, 0x35, 0xE1, 0x3D, 0x82, 0x97, 0x5D, 0xBD, 0xD0, 0x77, 0x57, 0x3E,
    0x4A, 0x74, 0x72, 0xBE, 0x13, 0xCC, 0xB8, 0x3D, 0xB6, 0x23, 0xAA, 0xBC,
    0xA1, 0x80, 0x9D, 0x3D, 0xA8, 0x7B, 0x81, 0xBD, 0xDD, 0x5E, 0xB6, 0xBC,
    0x2F, 0x87, 0xFE, 0xBC, 0x67, 0xE7, 0xA5, 0xBD, 0x99, 0xF5, 0xCD, 0xBD,
    0x7F, 0x3E, 0xE7, 0x3C, 0x9D, 0x2F, 0xFF, 0x3D, 0x8D, 0xD8, 0x80, 0x3E,
    0x34, 0xB8, 0x15, 0x3E, 0xB9, 0xE6, 0x04, 0xBE, 0xD9, 0x7A, 0x1F, 0xBC,
    0xF6, 0x5B, 0x71, 0xBE, 0xC1, 0x4A, 0x36, 0xBD, 0xD8, 0xC1, 0x32, 0xBD,
    0x40, 0xAC, 0x29, 0x3E, 0x56, 0x92, 0xD3, 0xBC, 0xF3, 0x75, 0x5C, 0xBE,
    0x7B, 0xA7, 0x40, 0xBE, 0x33, 0x31, 0x11, 0x3D, 0xDB, 0x07, 0x3C, 0x3E,
    0x5A, 0x49, 0xDE, 0x3E, 0x43, 0xD6, 0x8B, 0x3D, 0x4B, 0x2D, 0x0B, 0xBA,
    0x98, 0xCC, 0x11, 0x3D, 0xDD, 0x6B, 0x4A, 0xBD, 0x53, 0xA3, 0xDA, 0x3D,
    0x72, 0xFE, 0x16, 0x3E, 0x55, 0xDE, 0x57, 0x3D, 0x15, 0x47, 0x6C, 0xBD,
    0xD9, 0x6F, 0xA4, 0xB9, 0x93, 0x19, 0xA5, 0xBD, 0x7F, 0xC6, 0x44, 0x3D,
    0x05, 0xA4, 0x98, 0xBC, 0xC1, 0xA9, 0xC8, 0xBD, 0x6D, 0x4F, 0x3B, 0x3E,
    0x53, 0x12, 0xB6, 0x3B, 0x17, 0x4B, 0x82, 0x3C, 0x9E, 0xA4, 0x1D, 0xBD,
    0xFE, 0xFF, 0x0E, 0xBC, 0x0D, 0x97, 0x85, 0xBE, 0xB7, 0x31, 0x90, 0x3D,
    0x13, 0xDA, 0x8A, 0x3D, 0x24, 0x76, 0x59, 0x3D, 0xA1, 0xE3, 0x8E, 0x3C,
    0x31, 0xFC, 0xE3, 0xBC, 0xAF, 0x76, 0x9C, 0xBE, 0xEC, 0xCA, 0x14, 0xBE,
    0x9D, 0xF3, 0xC5, 0x3D, 0x18, 0xFD, 0x1C, 0x3E, 0xF1, 0xF5, 0x88, 0xBC,
    0x05, 0x0F, 0x2C, 0xBC, 0x78, 0xFB, 0x59, 0xBD, 0xA0, 0x49, 0xC3, 0x3D,
    0x9D, 0xB3, 0x50, 0x3D, 0x78, 0xF4, 0x30, 0x3E, 0xAD, 0x25, 0x9D, 0x3B,
    0x5D, 0xD9, 0x5A, 0x3D, 0xA1, 0xE0, 0x3F, 0x3E, 0xF9, 0xFB, 0x2D, 0x3C,
    0x15, 0xD6, 0x45, 0x3C, 0x9C, 0x0F, 0x60, 0x3C, 0xC1, 0x3D, 0x76, 0x3D,
    0x6A, 0x99, 0x20, 0x3E, 0x36, 0x1C, 0x70, 0x3E, 0x47, 0x43, 0x8C, 0x3D,
    0x49, 0x93, 0x41, 0xBD, 0x1D, 0x2F, 0xD4, 0xBD, 0x7B, 0xBC, 0x46, 0xBD,
    0xA5, 0xC3, 0xAE, 0xBD, 0x76, 0x51, 0x6C, 0x3E, 0x89, 0x8E, 0x21, 0xBD,
    0xD6, 0x6B, 0xA0, 0xBB, 0x5D, 0xC0, 0xB0, 0x3C, 0xDA, 0xF5, 0x18, 0x3E,
    0xD8, 0x97, 0xD1, 0xBD, 0x08, 0xB9, 0xCE, 0xBE, 0x81, 0xC3, 0x7A, 0xBE,
    0x02, 0x73, 0xA2, 0x3D, 0x4D, 0xE4, 0x42, 0x3D, 0x5E, 0x65, 0x0A, 0xBD,
    0x1C, 0x41, 0x81, 0x3E, 0x0B, 0xFA, 0x86, 0x3D, 0x92, 0x67, 0x15, 0xBB,
    0x36, 0xEB, 0x06, 0xBE, 0xE4, 0x7A, 0xAC, 0x3C, 0x95, 0x58, 0x7A, 0x3D,
    0x95, 0x68, 0xB3, 0xBD, 0x9D, 0x95, 0x24, 0xBD, 0x71, 0xA3, 0x65, 0xBD,
    0xFE, 0xE4, 0x63, 0x3D, 0x96, 0x77, 0xF1, 0xBD, 0x60, 0xB5, 0x0E, 0x3E,
    0x9E, 0x56, 0x99, 0xBC, 0x6A, 0x1C, 0xA0, 0x3D, 0xE6, 0xDF, 0xBE, 0xBD,
    0xA9, 0xF2, 0x1D, 0xBD, 0x66, 0xE5, 0x3A, 0x3E, 0xE4, 0x32, 0x2B, 0x3E,
    0xA6, 0x57, 0xDF, 0x3D, 0x5E, 0x64, 0x1D, 0x3D, 0xE3, 0xF5, 0xB0, 0xBD,
    0x42, 0x23, 0x2E, 0x3D, 0xEE, 0xCF, 0x50, 0xBD, 0x7F, 0x75, 0xA6, 0xBE,
    0xAA, 0xBF, 0xF8, 0xBD, 0x99, 0xCA, 0x81, 0xBD, 0x15, 0xA6, 0x43, 0xBE,
    0x86, 0x3C, 0x42, 0x3E, 0xD8, 0x5F, 0xB3, 0x3E, 0x15, 0xDA, 0xF3, 0xBD,
    0xD9, 0xD7, 0x14, 0x3E, 0x6B, 0xC8, 0x03, 0xBE, 0x34, 0xDC, 0xFD, 0xBD,
    0x3E, 0x68, 0xBD, 0x3D, 0x09, 0x22, 0x28, 0x3E, 0xCC, 0x55, 0xF5, 0xBD,
    0xAD, 0x67, 0xC9, 0xBD, 0x17, 0xBC, 0xA2, 0xBD, 0x51, 0x30, 0x0D, 0x3D,
    0xED, 0xED, 0x20, 0x3E, 0x50, 0x59, 0x90, 0x3D, 0xEA, 0x5E, 0x8F, 0xBD,
    0x02, 0x50, 0x0D, 0xBD, 0x04, 0x4A, 0x73, 0xBB, 0x9A, 0x61, 0xDE, 0x3C,
    0xBE, 0x1C, 0x07, 0xBD, 0xBC, 0x87, 0x08, 0xBD, 0xF2, 0xED, 0xE9, 0xBD,
    0x63, 0xCE, 0x6E, 0x3E, 0x4F, 0x4F, 0xC8, 0xBC, 0x6E, 0x2A, 0x7C, 0xBD,
    0x03, 0x42, 0x79, 0xBD, 0x6A, 0x17, 0x37, 0xBE, 0x27, 0xA9, 0xA2, 0xBD,
    0x48, 0x10, 0xD0, 0x3D, 0x02, 0xB0, 0xA8, 0x3D, 0x22, 0xD2, 0xD6, 0xBC,
    0x80, 0x8D, 0x55, 0xBE, 0xE6, 0x9F, 0x9D, 0xBD, 0x11, 0xB8, 0x86, 0xBD,
    0x07, 0x72, 0x2B, 0xBE, 0x32, 0xAE, 0xAA, 0xBD, 0x47, 0x62, 0x72, 0xBD,
    0x87, 0x11, 0xEA, 0xBC, 0xC8, 0xCF, 0x1B, 0x3D, 0xB5, 0x1F, 0x65, 0x3D,
    0x6E, 0x2A, 0x5C, 0x3D, 0xE2, 0xC9, 0x0D, 0xBD, 0xF0, 0xD5, 0x5E, 0xBD,
    0x77, 0xE5, 0x98, 0x3D, 0x84, 0x06, 0x81, 0x3D, 0x6C, 0xDE, 0x6F, 0x3D,
    0x2C, 0xD7, 0xAB, 0xBD, 0x7F, 0x75, 0x0A, 0xBD, 0x93, 0x2F, 0x61, 0x3D,
    0xE0, 0x3F, 0x0D, 0x3E, 0x51, 0xC9, 0x8B, 0x3D, 0x29, 0x36, 0x9E, 0x3D,
    0xFB, 0xA3, 0x18, 0xBB, 0x51, 0x0C, 0xEF, 0xBC, 0xA6, 0x19, 0xDB, 0xBD,
    0xF3, 0x78, 0xFF, 0xBD, 0xA4, 0x84, 0xD2, 0x3D, 0xED, 0x05, 0x21, 0xBE,
    0xEF, 0x00, 0xA0, 0xBD, 0x6A, 0x57, 0xD8, 0xBD, 0xE3, 0x5E, 0x32, 0xBB,
    0xB2, 0xB5, 0xAC, 0xBB, 0xCC, 0x80, 0x51, 0x3C, 0x66, 0xE0, 0x4C, 0x3D,
    0xE2, 0x5F, 0x20, 0xBD, 0x00, 0x85, 0xF0, 0x3C, 0xAE, 0xBB, 0xCB, 0x3D,
    0x66, 0x6E, 0x14, 0x3D, 0xA7, 0xF5, 0x11, 0xBD, 0xF9, 0xBD, 0xE4, 0x3D,
    0x3B, 0xD5, 0xC0, 0xBD, 0x47, 0xAC, 0x96, 0x3D, 0xFD, 0x06, 0x52, 0xBE,
    0x7A, 0x0B, 0xAE, 0xBD, 0xE3, 0x19, 0x7D, 0xBD, 0xD5, 0xA5, 0x9C, 0xBD,
    0x0B, 0x87, 0x21, 0xBD, 0x2D, 0xDF, 0xCF, 0xBD, 0x9D, 0x8A, 0x41, 0x3D,
    0x9B, 0xD2, 0x20, 0x3E, 0x4F, 0x92, 0xDD, 0xBD, 0xFC, 0x18, 0x6E, 0x3C,
    0x3D, 0x06, 0xF9, 0x3D, 0xB3, 0xD5, 0xCC, 0x3C, 0x81, 0xB8, 0x2C, 0x3E,
    0xB1, 0xE9, 0xA1, 0x3D, 0xB8, 0xEE, 0x0D, 0x3D, 0x39, 0xF4, 0x87, 0xBE,
    0xFD, 0x18, 0x78, 0xBE, 0xD3, 0x7B, 0xCE, 0x3B, 0x91, 0x08, 0x46, 0xBD,
    0xED, 0x9F, 0xA7, 0xBD, 0x10, 0x29, 0x4A, 0xBD, 0x50, 0xAC, 0xCD, 0x3B,
    0x87, 0xA7, 0x8E, 0xBD, 0x94, 0x0B, 0xE1, 0x3D, 0x81, 0x57, 0xD8, 0xBD,
    0x14, 0x11, 0x51, 0x3D, 0xE3, 0xD4, 0xF6, 0x3D, 0x53, 0x0D, 0xBB, 0xBC,
    0xFC, 0x7F, 0x48, 0xBE, 0xF7, 0x43, 0x08, 0x3D, 0x6F, 0x59, 0xFC, 0xBD,
    0x58, 0xFE, 0x2E, 0xBE, 0xD9, 0x22, 0x95, 0x3D, 0xFB, 0x59, 0x01, 0xBE,
    0x85, 0xAF, 0xE6, 0xBE, 0x8F, 0x07, 0x12, 0x3B, 0x7E, 0xEE, 0x82, 0xBE,
    0x4B, 0xB9, 0x07, 0x3E, 0xE6, 0xFF, 0x5C, 0xBD, 0x84, 0xB8, 0xF8, 0xBC,
    0xCD, 0x2D, 0x1A, 0xBD, 0xF3, 0xC4, 0xFE, 0xBD, 0x19, 0xCA, 0x51, 0x3C,
    0xD4, 0x5A, 0x6F, 0xBD, 0x22, 0xE6, 0x8D, 0xBE, 0xEC, 0x63, 0xD4, 0xBD,
    0xFB, 0x95, 0xAF, 0xBD, 0x26, 0xEE, 0x34, 0xBD, 0x1B, 0x0D, 0x99, 0xBC,
    0x4B, 0xDA, 0x97, 0x3D, 0x1E, 0xE9, 0x72, 0xBE, 0x65, 0x32, 0x2E, 0x3C,
    0xCA, 0x12, 0x58, 0x3D, 0x25, 0x46, 0x3F, 0x3B, 0x3D, 0xAB, 0x11, 0x3D,
    0x3C, 0xA7, 0xE1, 0xBD, 0x72, 0x77, 0x87, 0x3D, 0x2D, 0x69, 0x70, 0xBD,
    0xBE, 0x76, 0xB1, 0x3D, 0xBD, 0x9C, 0xD9, 0xBD, 0xA5, 0x85, 0xF7, 0x3B,
    0x62, 0x3D, 0x96, 0xBE, 0x4A, 0xE6, 0xB0, 0xBE, 0xC3, 0xEB, 0x41, 0xBE,
    0x53, 0x4A, 0xEE, 0xBD, 0xB4, 0xFE, 0x56, 0x3D, 0x00, 0x24, 0x81, 0x3D,
    0x74, 0x1B, 0xC6, 0x3D, 0xF9, 0x97, 0x63, 0xBD, 0xD9, 0x52, 0x73, 0x3E,
    0xB9, 0xF9, 0x1F, 0x3E, 0xA7, 0x08, 0x7F, 0xBD, 0xC1, 0x5C, 0x96, 0xBE,
    0x1B, 0x63, 0xD3, 0x3B, 0x75, 0x17, 0xA5, 0xBD, 0x07, 0x26, 0x14, 0xBE,
    0xB2, 0xD7, 0x88, 0xBC, 0x87, 0xAD, 0x15, 0xBC, 0x3F, 0x87, 0x93, 0x3C,
    0x9E, 0x01, 0x0F, 0x3D, 0x60, 0x6F, 0x98, 0xBB, 0x01, 0xDF, 0x60, 0x3D,
    0xAF, 0xBC, 0x06, 0xBD, 0xBD, 0x25, 0x49, 0xBC, 0x71, 0x2F, 0x68, 0xBE,
    0xBF, 0x37, 0x15, 0x3C, 0x12, 0xEE, 0xE1, 0xBD, 0x0C, 0xF2, 0xF1, 0x3D,
    0xEC, 0xEC, 0x35, 0xBE, 0x1E, 0x2E, 0x09, 0xBE, 0xBF, 0x8A, 0xA1, 0xBE,
    0x51, 0x00, 0xF6, 0xBD, 0x5C, 0xBF, 0x16, 0x3E, 0xF2, 0x37, 0x02, 0x3E,
    0x7F, 0x9A, 0x30, 0x3D, 0x15, 0x59, 0xA1, 0xBC, 0xC4, 0xBF, 0x76, 0xBD,
    0xEF, 0x3A, 0x3B, 0x3E, 0xFA, 0x5F, 0x85, 0x3D, 0x1F, 0x7E, 0xA9, 0x3D,
    0x23, 0x26, 0xE6, 0x3D, 0xB0, 0xDE, 0x7D, 0xBD, 0xC6, 0xBD, 0x3D, 0xBE,
    0x76, 0x98, 0x1C, 0xBE, 0xC9, 0xFF, 0x02, 0xBE, 0xB0, 0x2C, 0xFD, 0x3C,
    0x21, 0x72, 0xBC, 0xBD, 0xF8, 0x74, 0x9F, 0x3D, 0xFA, 0xE7, 0xEA, 0x3D,
    0x13, 0xED, 0x0F, 0xBB, 0xA6, 0x30, 0x6F, 0xBD, 0x0C, 0xD7, 0x9C, 0x3D,
    0x6F, 0x0B, 0x1D, 0x3E, 0x4E, 0x25, 0xBB, 0x3D, 0x16, 0xFE, 0x88, 0x3D,
    0xC7, 0xD8, 0x32, 0x3D, 0x44, 0x85, 0xCD, 0xBA, 0xA4, 0x5C, 0x3D, 0xBE,
    0xAF, 0xE5, 0x0B, 0xBE, 0xAF, 0x77, 0x46, 0xBC, 0xE5, 0x40, 0x9B, 0x3C,
    0x15, 0xEE, 0xED, 0x3D, 0xE6, 0x26, 0xB8, 0x3D, 0xA4, 0xF4, 0x9A, 0x3D,
    0x5E, 0x1C, 0x07, 0xBC, 0xE8, 0x08, 0x6F, 0x3E, 0xE9, 0xD6, 0x1B, 0xBE,
    0xB6, 0xA1, 0xB8, 0xBD, 0x4E, 0x6D, 0x78, 0x3C, 0x53, 0x76, 0x46, 0x3D,
    0x2E, 0x47, 0x2D, 0xBC, 0xEF, 0x75, 0x34, 0xBD, 0xED, 0xA8, 0x2F, 0x3E,
    0xFC, 0xFF, 0x00, 0x3B, 0x7E, 0x5E, 0xBA, 0x3D, 0x35, 0x5B, 0x56, 0xBD,
    0x4E, 0x7F, 0xE8, 0xBC, 0xF8, 0x2A, 0x93, 0x3D, 0x87, 0x10, 0x9B, 0xBD,
    0x8F, 0x52, 0xBC, 0x3C, 0x8E, 0xC1, 0x42, 0x3B, 0xBA, 0xC5, 0xFC, 0x3D,
    0x20, 0x88, 0x69, 0xBC, 0x26, 0x36, 0x0B, 0x3E, 0x2A, 0x14, 0x48, 0x3E,
    0x4C, 0x7C, 0x8F, 0xBD, 0x2A, 0x0C, 0x74, 0xBE, 0x0E, 0xF7, 0x4D, 0xBE,
    0xED, 0x51, 0x29, 0x3E, 0x08, 0x5A, 0xC4, 0x3D, 0x7E, 0xD4, 0x12, 0xBA,
    0x8E, 0xAA, 0xF7, 0xBD, 0x85, 0xE4, 0x0D, 0xBE, 0x98, 0xDE, 0xB8, 0x3D,
    0x65, 0x35, 0x2E, 0xBC, 0x78, 0xA6, 0xA8, 0xBE, 0xCD, 0x3D, 0xC1, 0xBD,
    0x53, 0x09, 0xED, 0x3D, 0x58, 0xB3, 0x53, 0xBD, 0xE6, 0x48, 0x09, 0xBB,
    0xBB, 0x24, 0x56, 0xBD, 0x7B, 0xD0, 0xCA, 0xBD, 0xDB, 0x1C, 0x20, 0xBE,
    0xEB, 0x15, 0x0B, 0x3D, 0xD2, 0xC6, 0xBB, 0x3C, 0x34, 0x33, 0x3F, 0x3D,
    0x38, 0xC6, 0x1E, 0x3E, 0x05, 0x62, 0x80, 0x3B, 0x80, 0xE4, 0x0C, 0x3D,
    0xE4, 0xC1, 0x9E, 0x3D, 0xE4, 0xAB, 0xC9, 0xBC, 0x5F, 0x26, 0x14, 0x3E,
    0xF9, 0x32, 0x8A, 0x3E, 0x60, 0x28, 0xA8, 0x3C, 0x4B, 0x8C, 0x1C, 0xBE,
    0xD4, 0xD9, 0x40, 0xBD, 0x46, 0x6D, 0x8D, 0x3E, 0xDD, 0x13, 0x2A, 0x3E,
    0x19, 0x3F, 0xBF, 0xBD, 0xFB, 0x35, 0x3F, 0x3E, 0x88, 0x15, 0x54, 0x3D,
    0xC7, 0x1E, 0xDC, 0xBD, 0xEB, 0xCD, 0x04, 0xBE, 0xB7, 0x37, 0x0C, 0xBE,
    0x01, 0x44, 0xA0, 0x3C, 0x9D, 0x10, 0x71, 0x3D, 0x42, 0x9F, 0x80, 0xBE,
    0x66, 0xF8, 0x7F, 0xBE, 0xF1, 0xD3, 0xB6, 0xBC, 0x79, 0x69, 0xF2, 0xBD,
    0x36, 0x58, 0x07, 0xBE, 0x1E, 0xE8, 0x1C, 0x3E, 0x97, 0x7A, 0x20, 0xBD,
    0xEA, 0x69, 0x1A, 0xBD, 0xAE, 0x99, 0x05, 0x3E, 0x00, 0x8D, 0xF6, 0x3D,
    0xEC, 0x12, 0x1C, 0x3E, 0xCC, 0xE2, 0x98, 0x3D, 0xA7, 0x4D, 0xA2, 0x3D,
    0xC4, 0xDD, 0x00, 0xBE, 0x5F, 0xEA, 0xF6, 0x3D, 0x27, 0xEC, 0x15, 0x3D,
    0xBF, 0x26, 0x2F, 0xBE, 0x03, 0x69, 0xDE, 0x39, 0xCC, 0x1B, 0x21, 0xBC,
    0xB9, 0xD5, 0x35, 0x3E, 0x73, 0xE4, 0x34, 0xBE, 0x77, 0xC6, 0x76, 0xBD,
    0x27, 0x2F, 0x25, 0x3C, 0xEB, 0xA2, 0x97, 0x3D, 0x28, 0x21, 0x73, 0x3C,
    0x0E, 0xE8, 0x00, 0x3D, 0x1A, 0x87, 0x8F, 0xBD, 0x9C, 0x71, 0xA4, 0xBC,
    0x9E, 0x9C, 0x5F, 0x3D, 0x73, 0xA1, 0xBE, 0x3D, 0x87, 0x32, 0x8A, 0xBD,
    0x33, 0x27, 0x6A, 0xBC, 0xCD, 0x2B, 0xFD, 0x3D, 0xD3, 0xDD, 0xC1, 0xBD,
    0xC0, 0x9A, 0x5F, 0xBE, 0xDA, 0xA4, 0x8C, 0x3C, 0x5A, 0x7B, 0x0A, 0x3D,
    0x37, 0x5F, 0xA5, 0xBD, 0xA1, 0x7C, 0x62, 0x3C, 0x19, 0x31, 0x84, 0xBD,
    0x30, 0x3A, 0x65, 0x3D, 0x15, 0x56, 0xD1, 0x3A, 0xC4, 0xBA, 0x97, 0xBC,
    0xAB, 0x17, 0x26, 0x3D, 0x8F, 0x4B, 0x63, 0xBE, 0x89, 0x4E, 0xA2, 0x3D,
    0xC3, 0x87, 0xBA, 0xBC, 0xDE, 0x08, 0xD9, 0x3D, 0x7C, 0x1F, 0xB9, 0x3D,
    0xFF, 0x13, 0x7C, 0x3D, 0xFD, 0xD6, 0xE5, 0x3D, 0x63, 0xFA, 0xEE, 0xBD,
    0x02, 0xB7, 0xD1, 0x3C, 0x0D, 0x7B, 0x2A, 0xBE, 0xCF, 0xB9, 0x4D, 0xBC,
    0x4E, 0xD5, 0x04, 0xBE, 0xCC, 0xFD, 0x81, 0xBD, 0xAF, 0x1F, 0x2E, 0xBD,
    0xCE, 0xCA, 0x71, 0x3D, 0x00, 0x58, 0x95, 0xBE, 0xE9, 0xD1, 0x3B, 0xBE,
    0xE6, 0x13, 0x2F, 0xBE, 0x7F, 0xB0, 0xE0, 0xBD, 0xF6, 0xFF, 0xFF, 0xBD,
    0x97, 0x23, 0x59, 0xBE, 0x69, 0x7C, 0x1C, 0xBF, 0x7C, 0x55, 0x4A, 0xBE,
    0x8E, 0x63, 0x2C, 0x3E, 0x29, 0xA7, 0xE9, 0x3D, 0x17, 0xB0, 0xDE, 0x3C,
    0x14, 0x66, 0x0C, 0xBE, 0x07, 0x39, 0xCC, 0x3D, 0x17, 0x76, 0xB4, 0xBC,
    0x07, 0xA0, 0xE8, 0xBB, 0xC9, 0x00, 0x60, 0xBB, 0xC3, 0xD9, 0xF3, 0xBC,
    0x52, 0x6A, 0x75, 0xBD, 0x90, 0x49, 0xF8, 0xBD, 0xCE, 0xF3, 0xA8, 0x3D,
    0xCB, 0xAF, 0x99, 0xBD, 0x1C, 0xC5, 0xF7, 0xBB, 0xE3, 0x92, 0xEB, 0x3C,
    0x09, 0x11, 0xE2, 0xBD, 0xCA, 0x67, 0x4A, 0x3C, 0x8F, 0xB5, 0xD7, 0xBD,
    0xC1, 0x3D, 0x11, 0xBE, 0x47, 0x7E, 0xC8, 0xBD, 0xFC, 0xEF, 0x39, 0xBE,
    0x1B, 0xA4, 0xB8, 0x3D, 0x34, 0x9A, 0x6E, 0xBE, 0x02, 0x8D, 0x88, 0xBE,
    0x7F, 0x00, 0x64, 0xBE, 0xF4, 0x95, 0x26, 0x3D, 0xC4, 0xF7, 0x75, 0xBE,
    0xB6, 0xA2, 0x37, 0x3D, 0xD0, 0x37, 0x65, 0x3D, 0xD0, 0xAB, 0x58, 0x3D,
    0xAA, 0x73, 0x02, 0xBE, 0xDA, 0x4D, 0x74, 0xBD, 0xD8, 0x4E, 0xAF, 0x3D,
    0x7B, 0x32, 0x94, 0x3C, 0x2F, 0xC7, 0x20, 0xBE, 0x8F, 0xFC, 0x7E, 0xBD,
    0xD6, 0x12, 0x47, 0xBE, 0xDA, 0x33, 0x95, 0x3C, 0x00, 0x2D, 0x9B, 0xBD,
    0xE3, 0x82, 0x86, 0xBD, 0x8B, 0x9E, 0x72, 0x3C, 0x39, 0xCD, 0x85, 0x3D,
    0xD0, 0x67, 0x0F, 0x3E, 0x2D, 0xDB, 0xC6, 0xBD, 0xA7, 0x81, 0x93, 0x3D,
    0x71, 0xE8, 0x11, 0xBE, 0x7F, 0x3E, 0xBD, 0x3D, 0x6F, 0xDD, 0xC0, 0xBD,
    0x33, 0x5A, 0x32, 0x3E, 0x7B, 0x17, 0xAB, 0xBD, 0xE5, 0x10, 0x0A, 0xBE,
    0x48, 0xB1, 0x05, 0xBD, 0xCF, 0x0A, 0x06, 0xBE, 0x59, 0x73, 0x4C, 0x3E,
    0x7B, 0x8E, 0xA2, 0x3D, 0x73, 0x15, 0x3D, 0x3E, 0x16, 0x7D, 0x38, 0xBE,
    0x65, 0xDC, 0x40, 0x3D, 0x92, 0x23, 0x9F, 0x3D, 0x3E, 0xFA, 0x10, 0xBD,
    0xF2, 0x62, 0x22, 0x3E, 0x18, 0x72, 0x23, 0xBC, 0x4F, 0x5F, 0x82, 0xBD,
    0x37, 0x0C, 0x45, 0x3E, 0x2F, 0x7E, 0x09, 0x3E, 0x18, 0xF4, 0x20, 0xBE,
    0x9B, 0xFA, 0x47, 0x3E, 0x8F, 0x55, 0xE9, 0xBD, 0x52, 0xC1, 0xF5, 0xBC,
    0x90, 0x60, 0xF0, 0xBD, 0x97, 0x37, 0xE4, 0xBD, 0xC8, 0x37, 0x53, 0x3D,
    0x1F, 0x01, 0x84, 0xBD, 0x90, 0x8A, 0x58, 0x3C, 0x47, 0xED, 0x96, 0x3D,
    0xDD, 0x6D, 0x01, 0x3D, 0xA8, 0xEB, 0x76, 0xBD, 0x8F, 0x63, 0xA3, 0xBB,
    0x9F, 0xDE, 0x01, 0x3E, 0xBB, 0x2B, 0x57, 0xBD, 0x87, 0x6D, 0x76, 0xBD,
    0x56, 0x95, 0xBE, 0xBD, 0xD4, 0xE7, 0x18, 0xBD, 0xDB, 0x71, 0x44, 0x3E,
    0x21, 0xF7, 0x97, 0xBC, 0x67, 0x9B, 0x85, 0xBD, 0x27, 0x75, 0x3C, 0xBE,
    0x1D, 0x4F, 0x5E, 0xBA, 0x3F, 0x77, 0xCB, 0xBD, 0x60, 0x64, 0xB0, 0x3D,
    0xAF, 0x62, 0x41, 0xBE, 0xF4, 0x45, 0x83, 0xBC, 0xAF, 0x37, 0x1E, 0xBD,
    0x4A, 0xF9, 0x83, 0xBC, 0xCC, 0xF3, 0x17, 0xBD, 0x7C, 0x13, 0xAA, 0xBD,
    0x91, 0x4A, 0x02, 0x3E, 0xEB, 0x76, 0xB6, 0x3D, 0x98, 0x91, 0xA6, 0xBD,
    0x59, 0xF7, 0x93, 0x3C, 0x7E, 0x7D, 0xEE, 0xBD, 0x8E, 0xA6, 0x08, 0xBE,
    0x45, 0xE6, 0x42, 0xBE, 0x1C, 0x17, 0x63, 0x3D, 0x91, 0x23, 0xB0, 0xBD,
    0x19, 0xE8, 0xEA, 0x3C, 0x6D, 0x94, 0x0B, 0xBD, 0x15, 0x8A, 0x8E, 0xBD,
    0xD6, 0x2A, 0x08, 0x3E, 0x57, 0xC6, 0x4E, 0xBE, 0xA9, 0x58, 0xBA, 0xBD,
    0x59, 0x48, 0x91, 0xBD, 0x8D, 0x59, 0xFD, 0xBA, 0x55, 0x39, 0x73, 0x3D,
    0xA4, 0xFC, 0x82, 0xBD, 0xFF, 0xC7, 0x18, 0xBE, 0x64, 0x57, 0xAA, 0xBD,
    0x47, 0xE5, 0x40, 0xBA, 0xC4, 0xF3, 0x20, 0xBD, 0x13, 0x71, 0x00, 0x3E,
    0x51, 0x35, 0x80, 0x3D, 0x2D, 0x7F, 0x07, 0xBD, 0x52, 0x3F, 0x84, 0xBD,
    0x0A, 0xAE, 0xFA, 0x3D, 0x81, 0x58, 0x6E, 0xBC, 0xB2, 0x4F, 0x3D, 0xBE,
    0xBD, 0xE8, 0x58, 0xBE, 0xAC, 0xE5, 0x96, 0xBD, 0x8A, 0xBB, 0xEF, 0xBD,
    0x22, 0xFC, 0xCD, 0xBB, 0x1E, 0x65, 0xCE, 0xBD, 0xC5, 0x74, 0x1E, 0xBE,
    0x82, 0xF0, 0xD3, 0xBE, 0xCC, 0x1B, 0x85, 0xBE, 0x72, 0x80, 0x7F, 0xBE,
    0x1A, 0xAF, 0x02, 0xBE, 0xDF, 0x5D, 0x20, 0xBE, 0x59, 0x20, 0x92, 0xBE,
    0x7A, 0x47, 0x50, 0xBD, 0x49, 0x59, 0xF0, 0xBC, 0x6B, 0xA2, 0x06, 0xBE,
    0x6B, 0x46, 0x81, 0xBD, 0x4B, 0x10, 0x20, 0xBE, 0xAC, 0x7C, 0x31, 0xBE,
    0x24, 0x81, 0xA7, 0x3D, 0xDB, 0xEB, 0x5A, 0xBD, 0xDC, 0xC1, 0xEF, 0x3C,
    0x90, 0x28, 0x11, 0xBE, 0xE3, 0x4C, 0x91, 0x3D, 0x94, 0xAA, 0xBD, 0xBD,
    0x8B, 0xB1, 0x2C, 0x3E, 0x67, 0xA0, 0xC1, 0x3D, 0x7C, 0x94, 0x88, 0xBD,
    0x1B, 0xDE, 0xEE, 0xBE, 0x7C, 0xA4, 0x36, 0xBE, 0x25, 0x4B, 0x79, 0xBD,
    0x86, 0x13, 0x56, 0xBE, 0xE8, 0x07, 0xB3, 0xBE, 0xD9, 0xAA, 0xE5, 0xBE,
    0x1C, 0xC3, 0x5C, 0xBE, 0x2A, 0x6A, 0xD9, 0xBD, 0x40, 0xDC, 0x53, 0xBD,
    0x77, 0x7B, 0xEC, 0xBD, 0x84, 0x22, 0x7E, 0xBE, 0x53, 0x5F, 0x4F, 0xBD,
    0x52, 0xAC, 0xC5, 0x3B, 0x25, 0x6F, 0x87, 0xBD, 0x02, 0x4F, 0xFE, 0xBD,
    0x70, 0x9B, 0xBF, 0x3D, 0x4A, 0x21, 0xF0, 0xBD, 0xE2, 0x74, 0x87, 0xBC,
    0xE8, 0x30, 0x34, 0x3D, 0x96, 0x4F, 0x37, 0xBC, 0x25, 0x15, 0x98, 0xBE,
    0x95, 0x8B, 0xE1, 0x3B, 0xEE, 0xE7, 0x20, 0x3E, 0x3C, 0x3F, 0x03, 0x3E,
    0xCB, 0xC8, 0x1D, 0x3E, 0x99, 0xAA, 0x3A, 0xBE, 0xF5, 0x64, 0xE8, 0xBD,
    0x3C, 0x85, 0xDB, 0xBB, 0x6D, 0x19, 0x45, 0x3E, 0x80, 0x37, 0x8B, 0x3D,
    0xD1, 0x1B, 0x6B, 0xBE, 0x5C, 0x9A, 0x84, 0xBD, 0x5F, 0xE5, 0x45, 0x3D,
    0xBC, 0x76, 0x30, 0xBD, 0xF3, 0xA9, 0x1C, 0xBE, 0x3F, 0xCB, 0x97, 0xBC,
    0x4F, 0xCC, 0x5D, 0x3D, 0x4F, 0xEB, 0x1F, 0xBC, 0x61, 0x00, 0x4C, 0x3D,
    0xFA, 0xFB, 0xA6, 0xBD, 0x63, 0x5F, 0xD4, 0x3C, 0x15, 0xAC, 0x8E, 0x3C,
    0x2E, 0x65, 0xCC, 0x3C, 0x0E, 0x94, 0x3D, 0xBD, 0x93, 0x37, 0x0A, 0xBE,
    0xD0, 0x9B, 0x6C, 0x3D, 0xC4, 0x1D, 0x58, 0xB9, 0x61, 0x9D, 0x72, 0x3D,
    0x3C, 0x25, 0x9C, 0xBD, 0xAD, 0xAB, 0x51, 0x3E, 0x38, 0xAB, 0xA3, 0x3D,
    0xDA, 0xD0, 0xAD, 0xBC, 0x48, 0x40, 0x09, 0xBE, 0x7D, 0x49, 0xB9, 0x3D,
    0x2B, 0x0D, 0x04, 0x3E, 0x2B, 0x61, 0x9B, 0xBE, 0x07, 0xBE, 0xB5, 0x3E,
    0x04, 0x50, 0x30, 0xBE, 0xA0, 0x64, 0x41, 0xBC, 0xE6, 0xB8, 0x14, 0xBE,
    0xD6, 0xD7, 0x5D, 0x3D, 0x07, 0x81, 0x88, 0x3D, 0x2A, 0xD8, 0x38, 0xBD,
    0x0A, 0x11, 0xC5, 0xB8, 0x7F, 0x57, 0xED, 0xBB, 0x9E, 0xAE, 0x1B, 0x3E,
    0x3C, 0xDD, 0x15, 0xBD, 0x62, 0x2F, 0x84, 0x3C, 0x8E, 0xB7, 0x57, 0x3D,
    0x9F, 0x17, 0x86, 0xBD, 0xC2, 0x63, 0xCE, 0x3C, 0x81, 0xA8, 0xB6, 0x3D,
    0xAC, 0xE7, 0x19, 0xBC, 0x19, 0xB5, 0x0B, 0xBD, 0x1B, 0x72, 0xA8, 0xBD,
    0xD1, 0x8E, 0x82, 0x3D, 0x93, 0x80, 0xB3, 0x3D, 0x7E, 0xB0, 0xC3, 0xBD,
    0x29, 0x36, 0x15, 0x3E, 0xAD, 0xF8, 0x1D, 0xBD, 0x24, 0xCC, 0x12, 0x3E,
    0x01, 0x81, 0x07, 0xBC, 0x9A, 0xF1, 0x0E, 0x3E, 0xD7, 0x4D, 0xE3, 0xBC,
    0x55, 0xEF, 0xA9, 0x3D, 0x9F, 0x22, 0x93, 0xBE, 0x8B, 0xFB, 0x09, 0x3E,
    0x31, 0xE3, 0xE2, 0x3C, 0x59, 0x45, 0xB9, 0xBD, 0x4F, 0x12, 0x6B, 0x3C,
    0x51, 0x66, 0xC8, 0xBC, 0xC4, 0xE0, 0xCB, 0x3B, 0xD7, 0xF3, 0x72, 0x3C,
    0x70, 0x38, 0xAB, 0x3C, 0xDF, 0x97, 0x0D, 0x3D, 0xA4, 0xE3, 0x8B, 0xBC,
    0xAD, 0xDC, 0x98, 0x3D, 0x0D, 0x1E, 0x3F, 0xBB, 0x4C, 0x07, 0x0D, 0x3E,
    0x69, 0x34, 0x3F, 0xBB, 0x39, 0x00, 0x5D, 0x3D, 0x9A, 0x25, 0xAD, 0x3D,
    0xF0, 0x0F, 0x6B, 0x3C, 0xB8, 0x93, 0xF7, 0x3D, 0x2D, 0x35, 0xB4, 0x3D,
    0xF9, 0xB3, 0xAB, 0x3D, 0x38, 0xBD, 0x58, 0x3D, 0x16, 0x3D, 0x92, 0x3C,
    0x8B, 0x98, 0xD9, 0x3C, 0x18, 0xC2, 0xA6, 0x3B, 0xCE, 0x40, 0xCD, 0xBD,
    0xA8, 0x67, 0x4B, 0x3D, 0x7A, 0x14, 0x97, 0x3D, 0x5A, 0x99, 0x0D, 0x3D,
    0x24, 0x47, 0xC5, 0x3D, 0x9F, 0x86, 0xAA, 0xBC, 0xC9, 0x90, 0xC1, 0xBD,
    0xC7, 0xAC, 0x1E, 0x3B, 0x57, 0xE3, 0x32, 0xBD, 0xD6, 0xCA, 0xCB, 0x3C,
    0x0E, 0xE5, 0xE0, 0xBC, 0xE8, 0x3D, 0xBF, 0x3D, 0xE4, 0xE0, 0xF2, 0x3C,
    0x3B, 0xD7, 0x45, 0xBD, 0x19, 0x36, 0x26, 0x3D, 0xB9, 0xAA, 0x4C, 0x3D,
    0x66, 0x71, 0x2E, 0x3D, 0xC3, 0xAB, 0x2D, 0x3D, 0xE6, 0xF5, 0xB3, 0x3D,
    0xD6, 0x86, 0xCD, 0x3D, 0x20, 0xB2, 0x42, 0x3C, 0x52, 0xBD, 0x6D, 0xBC,
    0x3A, 0x0D, 0x1B, 0x3E, 0x11, 0xD2, 0x82, 0x3E, 0x66, 0xB8, 0x55, 0x3E,
    0xF2, 0xDD, 0x3D, 0x3D, 0x67, 0x25, 0xAC, 0x3D, 0x36, 0xB2, 0x83, 0xBE,
    0x00, 0x81, 0xA5, 0xBE, 0xBD, 0x0B, 0x2C, 0x3D, 0xA7, 0x16, 0x8A, 0x3E,
    0x61, 0x13, 0x9E, 0xBB, 0x42, 0x03, 0xEB, 0x3D, 0x36, 0x19, 0x6E, 0xBD,
    0x24, 0x80, 0xAF, 0xBD, 0xD7, 0x98, 0x16, 0x3C, 0x6B, 0x0F, 0xFB, 0xBD,
    0xFA, 0xE0, 0x7F, 0x3D, 0xEB, 0x34, 0x55, 0xBD, 0xD2, 0x61, 0xCD, 0x3C,
    0x34, 0x40, 0x12, 0xBD, 0x32, 0x45, 0x27, 0xBE, 0x72, 0x0B, 0x25, 0x3D,
    0xAD, 0x80, 0xDF, 0xBC, 0x05, 0xE8, 0x10, 0x3C, 0x5E, 0xE7, 0xA3, 0x3D,
    0x7E, 0xA2, 0x8B, 0xBC, 0xF3, 0x2C, 0xBC, 0xBD, 0x2A, 0x85, 0x2B, 0x3E,
    0xE9, 0x21, 0x32, 0x3D, 0x9F, 0x99, 0xDF, 0x3D, 0x4A, 0xC3, 0x19, 0x3E,
    0xFC, 0x61, 0xAC, 0x3E, 0x9A, 0xCE, 0x9C, 0x3E, 0x4C, 0xBF, 0x53, 0x3E,
    0x68, 0xD7, 0x89, 0x3D, 0x4A, 0x4D, 0xDC, 0xBD, 0x7D, 0x8C, 0x9F, 0xBE,
    0x2B, 0xF0, 0xDA, 0x3D, 0x32, 0x66, 0x81, 0xBD, 0xF8, 0x18, 0xD9, 0x3D,
    0x05, 0x84, 0x08, 0xBD, 0x87, 0xA3, 0x19, 0xBD, 0x3C, 0x70, 0x39, 0xBD,
    0x37, 0x2C, 0x5B, 0xBD, 0x73, 0xCD, 0x0C, 0xBE, 0x75, 0x06, 0xE1, 0xBD,
    0xCD, 0x0B, 0xE7, 0xBD, 0xAA, 0x3C, 0xF7, 0xBD, 0x2A, 0x68, 0x0F, 0xBE,
    0x38, 0xE6, 0xBD, 0xBC, 0x05, 0xA7, 0x56, 0x3C, 0x4F, 0x73, 0xBB, 0x3D,
    0x4E, 0xF4, 0xE6, 0x3C, 0xA2, 0xF1, 0x0D, 0x3D, 0xBB, 0x14, 0xC1, 0x3D,
    0xF5, 0x90, 0xBC, 0x3B, 0x6C, 0xDE, 0x15, 0x3D, 0x57, 0xA8, 0x93, 0xBC,
    0x73, 0x59, 0x85, 0x3C, 0x67, 0x77, 0xDE, 0x3D, 0x89, 0xDB, 0xF9, 0x3C,
    0x06, 0x8C, 0x35, 0xBE, 0x4F, 0x03, 0x22, 0x3C, 0x8F, 0xFF, 0xDE, 0xBD,
    0x72, 0x7C, 0xCB, 0x3D, 0xD1, 0x83, 0xEF, 0x3C, 0x8A, 0x4A, 0xA4, 0x3C,
    0x0B, 0x63, 0x8A, 0xBC, 0xDD, 0xEF, 0xE1, 0xBB, 0xB8, 0xA6, 0x68, 0xBD,
    0x44, 0x58, 0x9B, 0xBD, 0x19, 0x72, 0x14, 0xBE, 0x82, 0x1D, 0xA7, 0xBD,
    0x5C, 0xC6, 0x8B, 0x3D, 0x47, 0x4A, 0x21, 0xBD, 0x45, 0x23, 0x6C, 0xBD,
    0x50, 0xD3, 0xFD, 0xBD, 0x23, 0x3B, 0xDB, 0x3C, 0xBA, 0xFF, 0x2D, 0xBC,
    0x47, 0x59, 0xA5, 0x3C, 0xB9, 0x28, 0xF7, 0x3C, 0xE9, 0x00, 0xDB, 0x3C,
    0x14, 0x33, 0x27, 0x3C, 0x9F, 0x13, 0x6D, 0x3D, 0xC9, 0x4B, 0x90, 0x3D,
    0x76, 0xCD, 0x6A, 0x3D, 0x64, 0x8E, 0xC2, 0x3C, 0x16, 0xCA, 0x5A, 0x3E,
    0x3F, 0x78, 0xFB, 0xBD, 0xF8, 0xB1, 0xF4, 0xBC, 0x5F, 0x21, 0x22, 0xBD,
    0x5D, 0x19, 0xD3, 0xBE, 0x39, 0x81, 0x22, 0xBE, 0xBC, 0xE0, 0x33, 0xBE,
    0x72, 0x74, 0xE4, 0xBD, 0x0C, 0x7B, 0x51, 0xBE, 0x6A, 0xD7, 0x8D, 0xBD,
    0x2D, 0xD1, 0x01, 0x3D, 0x64, 0x26, 0x1B, 0x3E, 0x75, 0x3E, 0x50, 0x3C,
    0x89, 0x1E, 0x24, 0x3C, 0x26, 0x54, 0xF9, 0xBB, 0x75, 0xF0, 0x3A, 0x3E,
    0x79, 0x3F, 0x4E, 0x3C, 0xB8, 0xBA, 0x0D, 0x3E, 0xDB, 0x25, 0x9D, 0x3A,
    0xEA, 0x70, 0xD4, 0x3D, 0xC7, 0xA5, 0x86, 0xBC, 0x9E, 0x83, 0x5F, 0xBD,
    0xC4, 0x1C, 0x34, 0x3D, 0x6C, 0x57, 0x81, 0xBC, 0xFC, 0x20, 0xE5, 0xBD,
    0x10, 0x82, 0x1D, 0xBD, 0x97, 0xC3, 0x51, 0xBE, 0x40, 0x75, 0x84, 0xBE,
    0xC5, 0x3D, 0x57, 0xBC, 0x61, 0x24, 0x1A, 0x3E, 0xC3, 0xB4, 0x67, 0x3E,
    0x76, 0x22, 0x7A, 0xBD, 0xB1, 0xEE, 0xFC, 0xBD, 0x8A, 0x67, 0x63, 0x3E,
    0x3C, 0x2F, 0x49, 0x3E, 0x7C, 0xEF, 0x30, 0xBB, 0xFC, 0xF2, 0xFA, 0x3D,
    0x1E, 0xC9, 0x8A, 0xBA, 0xA7, 0x43, 0x7D, 0xBD, 0x02, 0x02, 0x22, 0xBD,
    0x4F, 0x1D, 0x91, 0xBC, 0x22, 0xE1, 0x67, 0x3E, 0x1E, 0xC9, 0x54, 0x3E,
    0xB2, 0xE0, 0x22, 0x3E, 0x9F, 0xDC, 0x01, 0x3E, 0xE0, 0x96, 0xE0, 0x3D,
    0x44, 0x27, 0xDB, 0x3D, 0x32, 0xF9, 0x63, 0xBD, 0x0E, 0x3C, 0xFD, 0x3D,
    0x1A, 0xB4, 0xED, 0x3D, 0x68, 0x08, 0xC1, 0x3D, 0xB7, 0x4C, 0xC8, 0x3D,
    0x5F, 0x91, 0x6A, 0x3D, 0xD6, 0x37, 0x0A, 0x3D, 0x0A, 0x38, 0x83, 0xBC,
    0x8E, 0x23, 0x18, 0xBE, 0xC8, 0x4E, 0x13, 0xBE, 0x8A, 0x35, 0x8B, 0xBC,
    0x12, 0x18, 0x40, 0xBD, 0x3F, 0x68, 0xED, 0xBB, 0x62, 0x72, 0x95, 0xBD,
    0xD5, 0x5F, 0x25, 0xBD, 0x3D, 0xA0, 0xEE, 0x3B, 0x83, 0x99, 0xB8, 0x3D,
    0xFF, 0x01, 0x99, 0xBD, 0xF3, 0x11, 0xCD, 0x3D, 0x88, 0x4E, 0x42, 0x3E,
    0x67, 0x41, 0x52, 0x3E, 0xEE, 0x93, 0xCB, 0x3D, 0xE5, 0xB6, 0x2A, 0x3E,
    0x69, 0x52, 0x95, 0x3D, 0x4D, 0x72, 0x26, 0x3E, 0xFD, 0xDF, 0xC2, 0x3D,
    0x1C, 0xA5, 0xB9, 0x3D, 0xCE, 0xF0, 0xA8, 0x3C, 0xD4, 0x60, 0xE4, 0x3D,
    0x1A, 0xA9, 0x05, 0x3D, 0x1D, 0xA0, 0x16, 0x3D, 0xB9, 0x41, 0xFC, 0x3D,
    0x13, 0x72, 0x15, 0x3E, 0xBF, 0xF4, 0x9E, 0x3D, 0xBA, 0x40, 0xB7, 0x3D,
    0x74, 0xB8, 0x5E, 0xBE, 0xDE, 0xC7, 0x84, 0xBE, 0x81, 0xD5, 0xDE, 0xBD,
    0x99, 0x32, 0xC1, 0xBB, 0x72, 0x2A, 0x8B, 0xBA, 0xD4, 0x92, 0x84, 0xBD,
    0x48, 0xD1, 0x61, 0xBD, 0x1B, 0x28, 0xA8, 0xBE, 0xD0, 0xCA, 0x07, 0x3E,
    0x88, 0x34, 0x73, 0x3E, 0x04, 0xEA, 0x56, 0x3E, 0x47, 0xA3, 0xE2, 0x3D,
    0x01, 0x32, 0x2D, 0x3E, 0xC2, 0x62, 0xD9, 0x3D, 0x77, 0x36, 0x1C, 0x3E,
    0x67, 0x03, 0x0D, 0x3E, 0x4D, 0x4D, 0x41, 0xBC, 0x91, 0x5A, 0x55, 0x3E,
    0x93, 0x4E, 0xEA, 0x3D, 0x8A, 0x21, 0x0B, 0x3D, 0xF3, 0xE7, 0x52, 0x3D,
    0xB8, 0x56, 0x8A, 0x3D, 0xFF, 0x15, 0x13, 0x3B, 0x5A, 0xAF, 0xBE, 0x3D,
    0xA5, 0x62, 0x20, 0x3D, 0x3E, 0x78, 0xA4, 0x3D, 0x84, 0xD9, 0xBE, 0x3D,
    0x9D, 0x1B, 0x09, 0x3C, 0x14, 0xA6, 0x4E, 0xBD, 0x51, 0x83, 0x9B, 0xBE,
    0x2C, 0x4F, 0x06, 0xBD, 0x3B, 0xE3, 0x47, 0xBE, 0xED, 0x5E, 0x4D, 0xBD,
    0xF6, 0x76, 0xC8, 0x3D, 0x6A, 0x9E, 0x5A, 0x3C, 0xD5, 0x5D, 0x91, 0xBD,
    0xEA, 0x65, 0x7E, 0x3D, 0x23, 0x5C, 0x36, 0x3E, 0x48, 0x53, 0x20, 0x3E,
    0x30, 0x58, 0x06, 0x3E, 0x2C, 0xF5, 0x5C, 0x3E, 0x33, 0xB9, 0x11, 0xBD,
    0x06, 0x5A, 0xDE, 0x3D, 0x1A, 0x90, 0x16, 0x3E, 0x11, 0xD1, 0xB0, 0x3D,
    0x9A, 0xA4, 0xAC, 0x3D, 0x1C, 0xD4, 0xE3, 0x3C, 0xEA, 0x6E, 0x89, 0x3C,
    0x48, 0x70, 0x3E, 0x3D, 0x5E, 0x62, 0x14, 0x3E, 0x83, 0x84, 0x3E, 0x3E,
    0xD9, 0x9B, 0xBE, 0x3D, 0x89, 0xB2, 0xD1, 0x39, 0x38, 0x99, 0xB0, 0xBD,
    0xB0, 0xAA, 0x85, 0x3C, 0xCA, 0x12, 0xCD, 0xBD, 0x98, 0xB1, 0x41, 0x3A,
    0x9A, 0x0F, 0x1B, 0xBE, 0x36, 0xAF, 0x87, 0xBD, 0xBA, 0x0C, 0xB7, 0x3E,
    0xA5, 0x80, 0xEB, 0xBC, 0xFD, 0x6B, 0xD6, 0x3D, 0x96, 0x14, 0xCF, 0x3D,
    0x31, 0x08, 0xBA, 0xBC, 0x29, 0xC9, 0x86, 0x3D, 0x2D, 0xD8, 0x3B, 0x3E,
    0x8E, 0x49, 0x83, 0x3C, 0x02, 0x53, 0x54, 0x3D, 0xD2, 0x1E, 0xB5, 0xBC,
    0x13, 0xE1, 0xDC, 0x3D, 0xE1, 0x71, 0xB0, 0xBD, 0x41, 0x66, 0x7F, 0x3D,
    0x3D, 0xE5, 0x11, 0x3D, 0xF2, 0x51, 0x40, 0x3D, 0x41, 0x44, 0xB6, 0xBD,
    0x9A, 0xDA, 0x80, 0xBA, 0xE7, 0xD8, 0xA9, 0x3D, 0x29, 0x6D, 0x34, 0x3E,
    0xDD, 0xF7, 0x06, 0x3E, 0x51, 0x31, 0xEC, 0xBC, 0xFB, 0xDE, 0xB3, 0x3C,
    0x9A, 0xB1, 0x16, 0x3E, 0xD7, 0x0F, 0xCD, 0xBD, 0x65, 0xAA, 0x19, 0xBE,
    0xBD, 0xCC, 0x40, 0xBD, 0x2B, 0x4C, 0xEC, 0xBD, 0xD9, 0x6F, 0x36, 0xBE,
    0xF1, 0x5F, 0x28, 0x3D, 0x39, 0x6F, 0xAF, 0xBD, 0xFF, 0x87, 0x35, 0xBC,
    0x3A, 0xF0, 0xF3, 0x3D, 0xCF, 0xE8, 0x0C, 0x3E, 0xE6, 0x21, 0x07, 0x3D,
    0x39, 0xD4, 0xA1, 0x3C, 0xC2, 0x2E, 0xD9, 0xBC, 0xD9, 0xF3, 0x7F, 0x3C,
    0x6C, 0xDA, 0xCD, 0x3C, 0x6A, 0xE8, 0x9B, 0x3D, 0x38, 0x34, 0x42, 0x3D,
    0xE6, 0x35, 0xB5, 0xBC, 0xE9, 0xBE, 0xA6, 0x3C, 0x7E, 0xBE, 0x40, 0x3D,
    0x8B, 0xF7, 0xFE, 0x3C, 0xAF, 0x45, 0x37, 0x3C, 0x51, 0x13, 0x14, 0x3D,
    0x52, 0x4D, 0x08, 0x3E, 0x82, 0xC5, 0x13, 0x3E, 0x8D, 0xBF, 0xB3, 0x3D,
    0xE5, 0xE1, 0x83, 0xBD, 0x6D, 0x69, 0x69, 0x3C, 0xB6, 0xA7, 0x14, 0xBE,
    0x2B, 0xFF, 0x53, 0xBB, 0xD5, 0x92, 0x05, 0xBE, 0x06, 0x1E, 0x41, 0xBE,
    0xDD, 0x15, 0x1A, 0xBE, 0x58, 0x1E, 0xE8, 0x3D, 0xCA, 0xCB, 0xEF, 0xBD,
    0x10, 0x4F, 0xF5, 0xBE, 0x86, 0xEC, 0x4D, 0x3D, 0xA0, 0x7D, 0xF5, 0x3D,
    0x5A, 0x10, 0xF6, 0xBC, 0x13, 0xCB, 0xAB, 0x3A, 0xA5, 0xB9, 0x56, 0x3D,
    0xBF, 0x1C, 0xC3, 0x3D, 0xC3, 0x76, 0x23, 0xBE, 0xAE, 0xE5, 0xC7, 0xBB,
    0x5B, 0x11, 0x55, 0xBD, 0x85, 0x11, 0x15, 0xBC, 0x3B, 0x75, 0xA9, 0x3D,
    0xB7, 0xAD, 0x29, 0x3D, 0x60, 0xD0, 0x95, 0xBD, 0xAC, 0x3A, 0xD2, 0xBD,
    0xEF, 0xB0, 0xF9, 0x3D, 0xE1, 0x08, 0x92, 0xBB, 0xDD, 0x1F, 0xE5, 0x3C,
    0x21, 0x0D, 0xB8, 0xBC, 0xB4, 0x58, 0x9D, 0xBD, 0x1A, 0xDF, 0x24, 0xBD,
    0xE6, 0x6B, 0x07, 0x3E, 0xDB, 0xFF, 0xDA, 0xBD, 0xC1, 0xC2, 0xB0, 0xBD,
    0x9F, 0x00, 0xA0, 0xBE, 0x96, 0xC6, 0x18, 0xBE, 0x76, 0xE8, 0x57, 0x3E,
    0xB3, 0xBF, 0x1E, 0xBE, 0x88, 0x82, 0x27, 0x3C, 0x86, 0xD5, 0x3D, 0xBE,
    0x9F, 0x77, 0xCB, 0x3D, 0x2E, 0xD0, 0x83, 0xBC, 0x9E, 0x7F, 0x82, 0xBD,
    0x8D, 0xA3, 0xFF, 0x3C, 0xC9, 0xB0, 0x15, 0xBD, 0x85, 0xD4, 0xA4, 0xBD,
    0x0E, 0x75, 0x18, 0x3D, 0xB1, 0xC7, 0x6A, 0xBD, 0x46, 0x18, 0x2D, 0xBE,
    0x25, 0x4D, 0xBA, 0x3B, 0x47, 0x3E, 0x84, 0xBD, 0xA3, 0xC4, 0xFE, 0xBD,
    0x73, 0x4F, 0x72, 0x3B, 0x9D, 0xED, 0xD4, 0xBC, 0x09, 0xC0, 0x0B, 0xBD,
    0xBC, 0x13, 0x07, 0xBC, 0x7D, 0x2D, 0xD5, 0x3C, 0x61, 0x22, 0xCE, 0x3D,
    0xBA, 0xD7, 0xAA, 0x3B, 0xCF, 0x1C, 0xF9, 0xBC, 0xE7, 0x0E, 0x84, 0x3B,
    0x7A, 0x8A, 0x5B, 0xBE, 0x5B, 0x61, 0xF9, 0xBD, 0x9B, 0x81, 0x0E, 0xBE,
    0x51, 0x4E, 0xB4, 0xBD, 0x21, 0x70, 0x8B, 0xBC, 0xD8, 0x2F, 0xAD, 0xBC,
    0x89, 0xD9, 0x76, 0x3E, 0x79, 0x40, 0x97, 0x3D, 0x44, 0x65, 0xE6, 0xBD,
    0x3C, 0xA5, 0xD1, 0x39, 0xAC, 0x44, 0x81, 0x3B, 0xBD, 0x11, 0xB2, 0xBD,
    0x63, 0xF9, 0xD0, 0xBC, 0x86, 0x70, 0xD8, 0x3C, 0x51, 0x23, 0x00, 0xBE,
    0x43, 0x8F, 0x61, 0xBC, 0xF8, 0x2F, 0xC3, 0x3D, 0x6C, 0xDC, 0x55, 0xBE,
    0x3F, 0xF8, 0x10, 0xBC, 0x52, 0xBC, 0xC3, 0xBD, 0xF2, 0x61, 0xA3, 0xBD,
    0x0E, 0x9E, 0x49, 0x3C, 0xC0, 0x5D, 0x93, 0xBD, 0xC0, 0x79, 0xC6, 0xBC,
    0xDD, 0x94, 0xC9, 0xBD, 0xF3, 0xC3, 0xC8, 0xBD, 0xAE, 0xB7, 0xB9, 0xBD,
    0x26, 0xCF, 0x37, 0xBD, 0xE2, 0x9C, 0xA6, 0xBC, 0xFA, 0xEA, 0x7D, 0xBD,
    0x4D, 0xFE, 0x02, 0xBE, 0x3F, 0x4F, 0x3E, 0xBE, 0x4D, 0x49, 0x5C, 0xBC,
    0xD7, 0xBD, 0x97, 0x3A, 0x17, 0xAA, 0x08, 0x3D, 0xFE, 0x42, 0xA6, 0xBD,
    0x9F, 0x93, 0xD9, 0xBD, 0x7F, 0x45, 0x21, 0x3D, 0xCD, 0x46, 0x1C, 0xBE,
    0xB8, 0xFF, 0x9F, 0x3D, 0xB5, 0xD4, 0x1F, 0x3D, 0x20, 0xA4, 0x94, 0xBD,
    0xB9, 0x83, 0x2D, 0x3D, 0x48, 0x89, 0x5C, 0xBE, 0xB2, 0xC7, 0x93, 0xBD,
    0xC6, 0x12, 0xB0, 0x3D, 0xE7, 0x96, 0x89, 0xBD, 0xDB, 0xAE, 0x00, 0xBE,
    0x95, 0xC7, 0x76, 0xBD, 0x8B, 0x6F, 0x11, 0xBE, 0x89, 0x04, 0xB8, 0x3C,
    0x80, 0xCD, 0xBF, 0xBD, 0xDE, 0x52, 0xB6, 0xBB, 0x24, 0xBC, 0x29, 0xBE,
    0x8B, 0xE5, 0x58, 0x3D, 0xB1, 0x57, 0x7D, 0xBD, 0xB9, 0x78, 0xCF, 0xBD,
    0x99, 0x7E, 0x16, 0xBE, 0xE2, 0xB1, 0x2D, 0xBC, 0xCD, 0xFD, 0x8A, 0xBE,
    0x64, 0xCF, 0xA4, 0x3D, 0xE9, 0xF7, 0xA0, 0xBD, 0x82, 0x0A, 0xFE, 0xBD,
    0x89, 0xA5, 0x66, 0xBE, 0x6D, 0x50, 0x62, 0xBC, 0xEF, 0xA8, 0x18, 0x3D,
    0x07, 0x72, 0x0C, 0xBD, 0x7C, 0x61, 0x1B, 0xBD, 0xD5, 0x88, 0xA4, 0x3D,
    0x50, 0x11, 0x37, 0xBD, 0xF8, 0x4B, 0x56, 0x3C, 0x6B, 0x9C, 0x09, 0x3E,
    0x7F, 0x97, 0x6B, 0x3D, 0x08, 0x89, 0x7B, 0x3C, 0xBC, 0xA7, 0xC1, 0x3D,
    0xAD, 0x1E, 0x7F, 0xBD, 0xBF, 0x31, 0x0D, 0x3D, 0xFA, 0x3E, 0xC0, 0xBD,
    0xA5, 0xB2, 0xCC, 0xBC, 0x3B, 0x9B, 0xD3, 0xBD, 0xA1, 0x4F, 0xBA, 0xBD,
    0x02, 0xCD, 0x23, 0xBD, 0x6E, 0x01, 0x9A, 0xBD, 0x10, 0x48, 0x8B, 0xBD,
    0x2C, 0x87, 0x89, 0xBD, 0x4F, 0x70, 0x07, 0xBE, 0x74, 0x29, 0x76, 0xBD,
    0x7D, 0x39, 0x62, 0xBE, 0x89, 0x97, 0x14, 0x3E, 0x3F, 0x42, 0xE6, 0xBC,
    0xEA, 0x33, 0xEC, 0x3C, 0x6D, 0xCE, 0xC4, 0xBD, 0xB6, 0x0C, 0x0D, 0x3E,
    0xC1, 0x8F, 0x2B, 0x3D, 0x35, 0x9B, 0x01, 0xBE, 0xA4, 0xE6, 0x2F, 0xBB,
    0x35, 0x70, 0x25, 0xBD, 0x8C, 0xA5, 0xCA, 0x3D, 0x09, 0xA1, 0xAD, 0xBD,
    0x0D, 0x9E, 0xDB, 0xBC, 0x47, 0xF7, 0x13, 0x3E, 0x45, 0x9F, 0xE4, 0xBC,
    0xA6, 0x78, 0xAA, 0x3C, 0x68, 0xCF, 0x8E, 0x3D, 0x6C, 0x96, 0x4B, 0xBD,
    0x89, 0xEE, 0x76, 0x3C, 0x21, 0xEC, 0x17, 0x3D, 0xFC, 0x79, 0xE8, 0xB9,
    0x52, 0x6B, 0xE6, 0xBC, 0xE4, 0xA5, 0xA8, 0x3C, 0xB7, 0x98, 0x2E, 0xBD,
    0xDD, 0x0F, 0xE5, 0xBD, 0x9E, 0xC9, 0x9B, 0x3D, 0xA3, 0x81, 0x08, 0xBE,
    0xFE, 0x75, 0x08, 0x3D, 0xA8, 0xAD, 0x5B, 0xBE, 0x9F, 0x55, 0x35, 0xBE,
    0x0F, 0xCA, 0x52, 0xBC, 0x2B, 0x89, 0x0F, 0x3E, 0xF1, 0x92, 0x90, 0xBE,
    0x15, 0x46, 0x30, 0x3E, 0xCA, 0xBB, 0x9A, 0xBD, 0x75, 0xEA, 0x1B, 0xBE,
    0xDF, 0xA7, 0xE5, 0x3D, 0x4F, 0xDE, 0x96, 0xBD, 0x65, 0xD0, 0x83, 0xBD,
    0x85, 0x96, 0x18, 0x3D, 0x61, 0x23, 0xBD, 0x3C, 0x68, 0x11, 0x48, 0x38,
    0x6A, 0xC3, 0x9C, 0x3D, 0x3E, 0xCB, 0x80, 0x3D, 0x7A, 0xE3, 0xC3, 0xBD,
    0x61, 0x66, 0x46, 0xBD, 0xAB, 0x71, 0x8A, 0x3D, 0x8A, 0xAB, 0xB3, 0xBD,
    0x6A, 0xDA, 0xC4, 0x3B, 0xB9, 0xF5, 0x8C, 0xBC, 0x35, 0xBA, 0x0A, 0x3E,
    0x1A, 0x04, 0x7A, 0x3D, 0x69, 0xD8, 0x94, 0x3D, 0xC8, 0x80, 0x80, 0x3E,
    0xA7, 0xC8, 0xA7, 0x3B, 0x14, 0xFC, 0x1A, 0xBE, 0xCE, 0xA9, 0x97, 0xBD,
    0xDC, 0x6E, 0x10, 0x3E, 0x07, 0x9B, 0x82, 0xBD, 0x61, 0x5B, 0x23, 0xBE,
    0xD8, 0x48, 0x77, 0xBD, 0xDC, 0x01, 0xD9, 0xBD, 0xCC, 0xB9, 0x53, 0x3A,
    0xB3, 0xFE, 0x8F, 0x3D, 0xB2, 0x62, 0x13, 0xBE, 0xA5, 0x79, 0x48, 0xBE,
    0x12, 0x48, 0x57, 0xBD, 0x65, 0x40, 0x0A, 0xBE, 0x52, 0x47, 0xB7, 0xBD,
    0x8D, 0x4A, 0xF5, 0xBD, 0xB9, 0x0B, 0x35, 0xBE, 0x65, 0x81, 0x32, 0xBD,
    0xDA, 0x85, 0xC6, 0xBD, 0x0B, 0x60, 0xF9, 0xBD, 0x4F, 0x9E, 0xFA, 0xBB,
    0x72, 0x54, 0x1A, 0xBE, 0xB5, 0x65, 0xF8, 0xBC, 0x0F, 0x20, 0xCF, 0xBD,
    0x6D, 0x29, 0xE3, 0xBD, 0xD1, 0x5C, 0x99, 0x3B, 0x21, 0xFA, 0x3A, 0xBE,
    0xE3, 0x15, 0x0E, 0x3E, 0xB5, 0xD7, 0x68, 0xBE, 0xFC, 0x66, 0x1D, 0x3D,
    0xC4, 0xF2, 0x4B, 0xBE, 0xDB, 0x16, 0xDE, 0x3B, 0x37, 0x8B, 0xF6, 0x3D,
    0x3E, 0x5C, 0x4A, 0xBD, 0x10, 0x5E, 0x60, 0xBD, 0xB5, 0x79, 0x2E, 0xBE,
    0x0E, 0x63, 0x89, 0x3E, 0x26, 0xDD, 0xA1, 0x3E, 0xAC, 0x2D, 0xC2, 0x3E,
    0xE2, 0xE2, 0xEB, 0x3D, 0xBA, 0x47, 0x37, 0xBA, 0x05, 0x04, 0xAC, 0x3C,
    0xCC, 0x05, 0x73, 0xBC, 0x17, 0xF9, 0x0D, 0xBE, 0x60, 0x06, 0x23, 0x3E,
    0xF4, 0xE2, 0x38, 0xBD, 0x50, 0xDA, 0x18, 0x3E, 0xA2, 0x22, 0x5D, 0xBC,
    0x90, 0x5D, 0xF3, 0xBD, 0x97, 0x6E, 0xE3, 0xBD, 0x37, 0xC1, 0x80, 0xBD,
    0xC3, 0xEC, 0x09, 0xBE, 0x73, 0x77, 0x71, 0x3D, 0xDC, 0x7A, 0x19, 0x3E,
    0xFE, 0x28, 0x28, 0x3E, 0x40, 0x7D, 0x78, 0x3B, 0x87, 0x39, 0xB5, 0xBD,
    0xC9, 0x10, 0x22, 0xBE, 0x9F, 0xA0, 0xA8, 0xBD, 0x76, 0x51, 0x12, 0xBE,
    0xF2, 0xD3, 0x74, 0xBD, 0xC8, 0xFC, 0x4D, 0xBD, 0x30, 0x92, 0xC6, 0xBD,
    0xD3, 0xDE, 0xDD, 0x3D, 0x9A, 0xA9, 0x37, 0xBE, 0xD7, 0x0B, 0x2C, 0xBD,
    0x42, 0xBA, 0x9F, 0x3C, 0xC6, 0xAF, 0x63, 0xBD, 0x41, 0x6A, 0x5C, 0xBD,
    0x03, 0x32, 0x94, 0xBD, 0xD4, 0xF6, 0x2F, 0x3C, 0xC9, 0x55, 0x4E, 0xBE,
    0x34, 0x65, 0x3E, 0x3D, 0x84, 0xED, 0x87, 0x3C, 0xCA, 0x2F, 0x28, 0x3D,
    0xF7, 0xB9, 0x9D, 0x3D, 0x2C, 0x0C, 0xCF, 0xBD, 0xA7, 0xFC, 0x08, 0xBE,
    0xE1, 0x3E, 0x98, 0xBC, 0x9D, 0x13, 0x67, 0x3D, 0x56, 0x4B, 0x56, 0xBD,
    0x2A, 0xB9, 0x81, 0xBD, 0xE1, 0x7B, 0x55, 0x3E, 0xB0, 0x42, 0x44, 0x3E,
    0xC2, 0xE6, 0xED, 0x3C, 0x97, 0x95, 0x40, 0x3C, 0x43, 0x39, 0xD1, 0x3B,
    0x58, 0xA4, 0xDD, 0xBD, 0x13, 0x69, 0x2F, 0xBC, 0xAF, 0x1B, 0x88, 0x3D,
    0xC7, 0xD2, 0x1D, 0x3E, 0x98, 0xCF, 0x28, 0x3E, 0x7F, 0x25, 0x04, 0x3E,
    0x73, 0x83, 0x3C, 0x3C, 0x08, 0x8A, 0x69, 0xBD, 0x77, 0xF0, 0x3E, 0xBD,
    0x9F, 0x19, 0x6D, 0xB9, 0x1F, 0x21, 0x50, 0x3D, 0x7B, 0xC0, 0xA2, 0xBC,
    0x9D, 0xB6, 0x00, 0xBD, 0x50, 0x86, 0xDD, 0xBD, 0x6E, 0xF8, 0x08, 0xBE,
    0xAF, 0x8B, 0x81, 0x3D, 0xFB, 0xEC, 0x1D, 0xBE, 0x50, 0x2A, 0x91, 0x3C,
    0x83, 0x28, 0x33, 0xBE, 0xCF, 0x7F, 0xC1, 0x3D, 0x57, 0x3A, 0xF9, 0x3D,
    0x1F, 0x80, 0x5D, 0xBC, 0xFF, 0x43, 0x15, 0x3E, 0x93, 0x06, 0x93, 0xBD,
    0x95, 0x50, 0x97, 0xBD, 0xD8, 0xBA, 0x58, 0xBB, 0x5B, 0xCA, 0xBC, 0x3D,
    0x1B, 0x65, 0x9F, 0x3D, 0x8B, 0x2D, 0x82, 0x3C, 0xB3, 0x2D, 0xAA, 0x3C,
    0x9B, 0x22, 0xCF, 0xBC, 0xBE, 0x32, 0x9E, 0x3D, 0x8B, 0x96, 0x49, 0xBC,
    0x22, 0xDA, 0x91, 0xBC, 0xDF, 0x73, 0x97, 0xBD, 0xCA, 0x1B, 0xD2, 0xBC,
    0x4A, 0x0B, 0x20, 0x3E, 0x9E, 0x8A, 0xAF, 0xBD, 0x6B, 0xAB, 0x29, 0xBE,
    0xA1, 0x84, 0xC3, 0xBC, 0x92, 0x29, 0x42, 0xBE, 0xE4, 0x3A, 0x87, 0xBE,
    0xA6, 0x8F, 0x2B, 0xBD, 0x51, 0x0F, 0x88, 0x39, 0x5E, 0xB6, 0x11, 0xBE,
    0x5A, 0x55, 0x87, 0xBD, 0x0B, 0x17, 0xBA, 0x3D, 0xE3, 0xDF, 0x50, 0xBD,
    0xBF, 0xB0, 0x07, 0x3C, 0x7C, 0x62, 0x10, 0xBE, 0xF5, 0x4E, 0x96, 0x3D,
    0xC9, 0x6D, 0xDB, 0xBD, 0x78, 0x57, 0x15, 0xBE, 0x45, 0x84, 0xE5, 0x3C,
    0x52, 0xD7, 0xAC, 0xBC, 0x64, 0x04, 0x8F, 0xBD, 0x97, 0x2E, 0x60, 0xBD,
    0x38, 0xE6, 0xD0, 0x3D, 0x53, 0xA1, 0x85, 0xBC, 0x82, 0xF6, 0xF0, 0xBD,
    0xE7, 0x7A, 0xFC, 0xBC, 0x6C, 0x44, 0x1E, 0xBE, 0x71, 0x6C, 0x0A, 0xBE,
    0x6D, 0x1D, 0x97, 0x3D, 0x33, 0x1C, 0xCE, 0xBD, 0xFB, 0x02, 0xF0, 0x3C,
    0xDA, 0x2A, 0x35, 0x3E, 0x46, 0x6A, 0x9B, 0xBC, 0xD7, 0x65, 0x1E, 0x3D,
    0x80, 0x99, 0xA3, 0xBE, 0x56, 0x73, 0x26, 0xBE, 0x05, 0x07, 0xAE, 0xBE,
    0x80, 0x17, 0x11, 0xBE, 0x95, 0x35, 0xDE, 0xBD, 0x4C, 0xF5, 0x0B, 0xBE,
    0x2B, 0xFD, 0xE0, 0x3D, 0x9F, 0xE6, 0xF5, 0xBC, 0xB2, 0x34, 0x08, 0xBE,
    0x3D, 0x13, 0x9B, 0xBD, 0xEB, 0x10, 0xFF, 0xBD, 0xBB, 0x64, 0x34, 0xBC,
    0x16, 0x96, 0xE7, 0x3D, 0xBD, 0x38, 0x7D, 0x3E, 0x6D, 0x2B, 0x13, 0xBE,
    0xB4, 0x51, 0x27, 0x3E, 0xB5, 0xE5, 0xE3, 0x3D, 0x8A, 0x3B, 0xA1, 0x3C,
    0x8C, 0x7F, 0xCA, 0xBA, 0xE0, 0xD2, 0x51, 0xBE, 0x3B, 0x93, 0xDE, 0xBD,
    0xC5, 0xF6, 0xDB, 0x3C, 0xD0, 0x7E, 0x9F, 0xBE, 0x8E, 0x76, 0x94, 0xBE,
    0x79, 0xCD, 0xFF, 0x3D, 0x84, 0x12, 0xAA, 0x3D, 0x57, 0x25, 0xA6, 0xBD,
    0x40, 0x5B, 0x25, 0xBD, 0x0D, 0x3F, 0xFE, 0x3C, 0x06, 0x1A, 0xAA, 0xBD,
    0x78, 0xED, 0xE2, 0xBE, 0x0D, 0xB2, 0x78, 0xBE, 0x42, 0x68, 0x5A, 0xBE,
    0xBD, 0xEB, 0x9A, 0xBE, 0xB5, 0x35, 0x7F, 0xBE, 0x8B, 0x88, 0x3E, 0xBD,
    0x43, 0xAF, 0x1F, 0xBE, 0xE9, 0x5E, 0xC1, 0xBD, 0xC3, 0x46, 0xE3, 0x3C,
    0x5F, 0x0F, 0x3F, 0xBE, 0x14, 0xE3, 0x44, 0x3E, 0x78, 0x09, 0x14, 0x3E,
    0xED, 0xF7, 0x3F, 0xBC, 0xC5, 0xBE, 0xC6, 0xBD, 0x91, 0x72, 0x2E, 0x3D,
    0x05, 0xAA, 0xF9, 0xBD, 0x6B, 0x44, 0x50, 0x3D, 0x69, 0xFB, 0x67, 0xBE,
    0x9F, 0x66, 0xC2, 0x3C, 0x94, 0xC4, 0x75, 0xBE, 0x5C, 0xE6, 0x05, 0x3E,
    0xAF, 0x52, 0xCD, 0x3C, 0x86, 0x81, 0x41, 0x3E, 0x17, 0x5B, 0x03, 0xBD,
    0xCA, 0x3C, 0xC2, 0xBD, 0xCD, 0xC3, 0x34, 0xBD, 0x43, 0x26, 0xDC, 0x3D,
    0xB5, 0x5F, 0x10, 0xBE, 0xB8, 0xDE, 0xA0, 0xBD, 0xB3, 0x27, 0x91, 0xBE,
    0xB0, 0x13, 0xD0, 0xBE, 0x9B, 0x90, 0xBD, 0xBE, 0x91, 0x0F, 0x8D, 0xBE,
    0xA6, 0xE0, 0x15, 0xBE, 0x63, 0x62, 0xBE, 0x3B, 0x64, 0x75, 0x27, 0xBA,
    0x02, 0x76, 0xEB, 0xBD, 0x5C, 0x33, 0x58, 0x3D, 0x71, 0xAE, 0x2F, 0x3E,
    0xD8, 0xDB, 0x78, 0xBC, 0x57, 0x9F, 0x0E, 0xBE, 0x62, 0x60, 0xBA, 0xBC,
    0x43, 0xDA, 0x24, 0x3E, 0xFF, 0xF8, 0x2A, 0x3E, 0x0E, 0xA0, 0xB1, 0x3C,
    0x08, 0x28, 0x9D, 0x3C, 0x4F, 0x6B, 0xF6, 0x3D, 0x85, 0x69, 0x76, 0xBC,
    0x5F, 0x0A, 0x40, 0x3E, 0x93, 0xB3, 0xDA, 0x3D, 0xD2, 0xC5, 0x60, 0x3D,
    0x47, 0x63, 0xA7, 0xBC, 0xE6, 0xA6, 0x15, 0x3E, 0xF6, 0x73, 0x7E, 0x3C,
    0x35, 0xD2, 0x0C, 0x3E, 0x0D, 0xCB, 0x3C, 0x3E, 0x58, 0xEA, 0x16, 0xBD,
    0x3F, 0x6C, 0x2E, 0x3D, 0x88, 0x8D, 0xFF, 0xBD, 0xEF, 0xD1, 0xEE, 0xBD,
    0xEE, 0xE7, 0xB8, 0xBE, 0xCA, 0x79, 0xD6, 0xBD, 0x6D, 0x16, 0x5F, 0xBE,
    0x33, 0xEE, 0xFA, 0xBD, 0x68, 0xB5, 0x64, 0xBD, 0x28, 0x39, 0xE7, 0x3C,
    0x8F, 0x15, 0x0A, 0xBE, 0x0D, 0xCF, 0x87, 0xBD, 0x0C, 0xE7, 0x47, 0xBD,
    0x6D, 0xAA, 0x16, 0xBD, 0x63, 0x0A, 0xC3, 0x3C, 0x11, 0x31, 0x2B, 0xBE,
    0xAB, 0x8A, 0xBD, 0xBC, 0xEA, 0x39, 0x81, 0x3D, 0xA0, 0xA1, 0x79, 0x3D,
    0x30, 0x08, 0x54, 0x3C, 0xCA, 0xE7, 0x49, 0x3D, 0x29, 0x3D, 0xFA, 0xBC,
    0x8B, 0x70, 0x89, 0x3D, 0x50, 0x9A, 0xE4, 0x3D, 0xD1, 0xC4, 0x1A, 0x3E,
    0x10, 0x22, 0x27, 0x3D, 0x13, 0x3F, 0x0C, 0x3D, 0x87, 0x09, 0x9D, 0xBD,
    0x95, 0x93, 0xB6, 0xBD, 0xFE, 0xE0, 0xBA, 0xBC, 0x91, 0x92, 0x86, 0xBE,
    0x36, 0xC7, 0x8D, 0xBD, 0x72, 0x1A, 0xAE, 0xBE, 0xA7, 0x02, 0x3E, 0xBE,
    0xB8, 0xDE, 0xFC, 0xBD, 0x1E, 0x11, 0x8F, 0x3D, 0x60, 0xB5, 0xE9, 0xBD,
    0x5C, 0x1B, 0x03, 0x3D, 0xFE, 0x4B, 0xBA, 0xBD, 0xF9, 0xFD, 0x15, 0x3E,
    0xD1, 0x10, 0x90, 0x3D, 0xAD, 0x77, 0x05, 0xBE, 0xE1, 0x6D, 0x92, 0x3D,
    0x3B, 0x77, 0x10, 0x3D, 0xDA, 0xE4, 0xC2, 0xBD, 0x80, 0x16, 0x68, 0xBD,
    0x30, 0x7B, 0x2F, 0xBE, 0xDB, 0x56, 0xE9, 0xBD, 0xA5, 0x50, 0xF0, 0x3C,
    0x67, 0x2F, 0xB3, 0x3C, 0xB2, 0x97, 0xDD, 0xBD, 0x08, 0xC1, 0x01, 0xBD,
    0x3E, 0x38, 0x1E, 0x3D, 0xFC, 0xFB, 0x70, 0x3D, 0x4B, 0xB2, 0x55, 0xBD,
    0xC7, 0x59, 0x6C, 0x3D, 0x80, 0x56, 0x83, 0x3C, 0xCE, 0x6C, 0xA7, 0x3B,
    0xA8, 0xF5, 0x01, 0x3D, 0x08, 0x32, 0x61, 0xBE, 0xA0, 0x73, 0x99, 0xBE,
    0xDC, 0x3F, 0x0A, 0xBE, 0x63, 0x93, 0xAF, 0xBD, 0xC3, 0xC3, 0x1C, 0x3D,
    0x3F, 0x8E, 0x28, 0xBE, 0xB1, 0xC5, 0x56, 0x3D, 0x15, 0x0D, 0xD2, 0xBD,
    0x3A, 0x68, 0xD2, 0x3D, 0xFF, 0xC4, 0x37, 0xBE, 0x10, 0x52, 0x58, 0xBE,
    0x22, 0x44, 0x0E, 0x3E, 0x66, 0x8F, 0x96, 0x3C, 0x80, 0xCB, 0x1D, 0xBE,
    0xEE, 0x81, 0x73, 0xBC, 0xEB, 0x14, 0xEE, 0x3C, 0x30, 0x85, 0x11, 0xBE,
    0xF4, 0x2B, 0x12, 0xBD, 0x35, 0x8D, 0x50, 0x3C, 0xF3, 0xAB, 0x0D, 0xBE,
    0x89, 0x86, 0x52, 0x3C, 0xF2, 0x87, 0xB2, 0x3A, 0xFF, 0xCC, 0x47, 0xBD,
    0x56, 0x83, 0x43, 0x3E, 0xAE, 0xDE, 0xDC, 0x3D, 0xBB, 0x1B, 0xF4, 0x3D,
    0x18, 0x2E, 0x9A, 0x3C, 0xF3, 0x19, 0x40, 0xBE, 0xE1, 0x0D, 0x0E, 0xBE,
    0xB4, 0xDF, 0x24, 0xBE, 0x81, 0x18, 0x3C, 0xBE, 0x98, 0x38, 0x30, 0xBE,
    0x5E, 0xB1, 0x30, 0xBE, 0x3D, 0xFD, 0xBB, 0xBC, 0x20, 0x15, 0xB6, 0xBD,
    0xC0, 0xDE, 0x52, 0xBD, 0x36, 0xAB, 0xD5, 0x3C, 0x44, 0x9B, 0xB5, 0xBE,
    0x19, 0x98, 0x41, 0xBE, 0x75, 0x37, 0x41, 0xBC, 0xDC, 0x5C, 0x25, 0xBE,
    0x32, 0xA7, 0x17, 0xBE, 0x2D, 0x3D, 0xF6, 0x3C, 0x49, 0x8F, 0x93, 0xBD,
    0xA6, 0xD0, 0xC2, 0xBD, 0x1E, 0x5D, 0x16, 0x3B, 0x35, 0x33, 0x81, 0x3D,
    0x36, 0xDF, 0x53, 0x3D, 0x48, 0x8C, 0x77, 0xBD, 0x21, 0x8D, 0x05, 0xBD,
    0x9C, 0x53, 0xFE, 0xBB, 0xE1, 0x66, 0x18, 0x3E, 0x12, 0x85, 0xC1, 0x3D,
    0x88, 0x93, 0x59, 0x3E, 0x04, 0x52, 0x04, 0xBD, 0x65, 0x3F, 0x02, 0xBD,
    0xDD, 0xFA, 0xF6, 0xBD, 0xFC, 0x96, 0x6D, 0x3B, 0x14, 0x52, 0x80, 0xBE,
    0x87, 0xE0, 0x5B, 0xBE, 0x96, 0x33, 0x22, 0x3D, 0x45, 0x81, 0xCC, 0xBD,
    0x81, 0x26, 0x60, 0xBE, 0x09, 0x0E, 0x0D, 0x3E, 0x47, 0x1B, 0x46, 0xBD,
    0x3A, 0x3A, 0xE6, 0x3D, 0x46, 0x23, 0x15, 0xBE, 0x77, 0x07, 0x60, 0x3D,
    0x80, 0xC7, 0x12, 0x3D, 0xF3, 0x15, 0x31, 0x3C, 0x08, 0x10, 0x0F, 0xBE,
    0xF9, 0x78, 0x49, 0xBE, 0xF6, 0x68, 0xEF, 0x3C, 0xF2, 0x21, 0xCD, 0x3D,
    0x87, 0x9F, 0x10, 0x3C, 0xDB, 0x8B, 0x1B, 0xBD, 0x2D, 0xA3, 0xE1, 0xBD,
    0x61, 0x8D, 0x9E, 0x3C, 0xB2, 0x92, 0x0D, 0x3D, 0xB6, 0xD0, 0xDF, 0x3D,
    0x01, 0xED, 0x22, 0x3E, 0x17, 0x94, 0xCE, 0x3D, 0x6D, 0xF9, 0x63, 0x3C,
    0xAC, 0x8C, 0xC7, 0xBD, 0x52, 0xC8, 0x68, 0xBE, 0x58, 0x65, 0x10, 0xBC,
    0x93, 0xED, 0x46, 0xBD, 0xF6, 0x43, 0x82, 0xBD, 0xC7, 0xA2, 0x83, 0xBE,
    0x76, 0x62, 0xC3, 0xBD, 0x29, 0x7D, 0xF6, 0x3D, 0xF2, 0x21, 0x6E, 0x3E,
    0x29, 0x1B, 0xF0, 0xBD, 0x46, 0x3A, 0x3D, 0xBD, 0xAE, 0x04, 0x5C, 0xBE,
    0xC3, 0xBF, 0x09, 0x3D, 0x52, 0x14, 0x83, 0xBC, 0x1F, 0x90, 0x6B, 0xBD,
    0xE7, 0x3E, 0xC0, 0xBE, 0x93, 0x56, 0x5C, 0x3E, 0x42, 0x65, 0xAC, 0x3D,
    0xE5, 0x84, 0x6D, 0x3D, 0x3D, 0xB7, 0xA4, 0xBC, 0x8B, 0x7D, 0x80, 0xBD,
    0x82, 0x1F, 0x2A, 0xBD, 0x35, 0x83, 0x2B, 0x3E, 0xDE, 0x1C, 0x05, 0x3D,
    0x63, 0x34, 0xC7, 0xBA, 0xDF, 0xD4, 0x05, 0xBC, 0x17, 0x09, 0x01, 0x3E,
    0xB6, 0x5E, 0x08, 0x3E, 0x34, 0xCC, 0xA4, 0xBD, 0x15, 0xF1, 0xEC, 0xBD,
    0x26, 0xF1, 0x87, 0xBD, 0x87, 0xD4, 0xF0, 0xBD, 0x2E, 0x43, 0x61, 0xBE,
    0xAE, 0x9E, 0x0D, 0xBE, 0x10, 0xE5, 0x1B, 0x3E, 0xDF, 0xCD, 0xB1, 0x3D,
    0x14, 0x53, 0x1E, 0xBD, 0x6F, 0x97, 0x06, 0x3E, 0x48, 0x94, 0xDB, 0xBD,
    0x33, 0x87, 0x27, 0xBD, 0xBC, 0x7D, 0x9F, 0xBC, 0xFD, 0x6B, 0x1F, 0xBE,
    0x69, 0x78, 0x3A, 0x3E, 0x0F, 0xE0, 0x45, 0xBE, 0x1E, 0x69, 0x8B, 0x3D,
    0xF4, 0xB8, 0x35, 0x3E, 0x56, 0x20, 0x91, 0xBE, 0x07, 0xCC, 0x8E, 0xBD,
    0x9A, 0xDD, 0x83, 0xBD, 0x7C, 0x6E, 0xC6, 0xBD, 0x2C, 0x19, 0xB5, 0xBD,
    0x27, 0x12, 0xC5, 0xBD, 0xCC, 0x2A, 0xA3, 0x3D, 0x1B, 0x32, 0x46, 0x3E,
    0xC6, 0xB3, 0x33, 0x3D, 0x32, 0x2B, 0x16, 0xBD, 0x56, 0x6A, 0xFD, 0xBD,
    0x79, 0x4F, 0x6C, 0xBD, 0x62, 0xD3, 0x3C, 0x3C, 0x93, 0xBB, 0x80, 0xBD,
    0x0B, 0xBB, 0xC9, 0xBD, 0x84, 0x83, 0xC9, 0xBD, 0x59, 0x22, 0xF6, 0x3D,
    0xDB, 0x35, 0x6C, 0xBD, 0x02, 0x29, 0x0F, 0x3E, 0x0D, 0x21, 0x15, 0x3D,
    0x3F, 0xEA, 0x26, 0xBE, 0x5A, 0xD0, 0x9E, 0xBE, 0x3E, 0xE2, 0xAE, 0x3B,
    0x5B, 0x9C, 0xE4, 0xBD, 0x31, 0x2F, 0xFE, 0x3B, 0xFE, 0x13, 0x38, 0xBE,
    0xB2, 0x4E, 0xE4, 0xBD, 0x11, 0xEA, 0x2B, 0xBE, 0xDE, 0x13, 0x34, 0xBE,
    0xA3, 0x87, 0x37, 0xBE, 0x20, 0x54, 0x6B, 0xBD, 0xEF, 0xA7, 0x58, 0xBD,
    0x42, 0xDC, 0x0F, 0xBE, 0xFA, 0xE9, 0x84, 0xBD, 0xD7, 0x2D, 0x0B, 0x3E,
    0x94, 0xAD, 0xE9, 0x3D, 0x40, 0xE6, 0x2F, 0x3C, 0x94, 0xCE, 0x49, 0xBB,
    0xA4, 0x9A, 0x01, 0x3D, 0xE5, 0xB9, 0x04, 0xBE, 0xD3, 0xA3, 0x95, 0xBD,
    0xBB, 0xCC, 0x1F, 0x3E, 0x94, 0x49, 0x91, 0xBD, 0x51, 0xA6, 0x45, 0x3D,
    0x62, 0x23, 0x29, 0xBE, 0x75, 0xE9, 0x68, 0x3D, 0x83, 0xBF, 0xD6, 0xBC,
    0x66, 0xFE, 0xA8, 0x3E, 0x44, 0xE3, 0xA5, 0x3E, 0xCE, 0x27, 0x30, 0x3E,
    0xF0, 0x4F, 0x3A, 0x3C, 0x3D, 0x66, 0xB2, 0xBC, 0x31, 0xD2, 0x01, 0xBD,
    0xB8, 0x7A, 0x96, 0x3D, 0xB1, 0x90, 0x48, 0x3E, 0x59, 0xC2, 0xB1, 0x3D,
    0xE3, 0x46, 0x60, 0xBE, 0x54, 0x04, 0x26, 0xBE, 0xA5, 0x0C, 0x14, 0xBE,
    0x8C, 0x47, 0x15, 0x3E, 0xDC, 0x2E, 0x53, 0x3D, 0xAB, 0x97, 0xC4, 0xBD,
    0xB6, 0x03, 0xA4, 0x3D, 0x5A, 0xAC, 0x13, 0x3D, 0xDF, 0xB8, 0x19, 0x3E,
    0x8E, 0xED, 0x7A, 0x3C, 0xF2, 0x1A, 0xF4, 0xBD, 0x39, 0x14, 0x98, 0x3D,
    0x4A, 0x4A, 0x0C, 0x3E, 0x07, 0xEC, 0x07, 0xBE, 0x7E, 0x9A, 0xB5, 0x3C,
    0xDC, 0x2F, 0x28, 0xBE, 0x8D, 0x77, 0x6B, 0xBD, 0x0C, 0x33, 0x1E, 0x3D,
    0x93, 0x96, 0xB5, 0x3B, 0x79, 0xD2, 0x45, 0x3E, 0xF5, 0xE2, 0xD8, 0x3E,
    0x11, 0xFA, 0xA6, 0xBC, 0x9B, 0x5A, 0x2A, 0xBD, 0xCB, 0x44, 0x37, 0x3D,
    0x6D, 0xF8, 0xC6, 0x3D, 0x96, 0xAD, 0x88, 0x3E, 0x1A, 0x85, 0x5C, 0x3D,
    0x83, 0xD7, 0x0B, 0x3D, 0x84, 0x7F, 0x1D, 0xBE, 0x8B, 0xEA, 0xCE, 0xBD,
    0x76, 0x95, 0x63, 0xBE, 0x4C, 0xE4, 0x0A, 0x3E, 0x78, 0x4D, 0xB2, 0x3D,
    0xBD, 0x18, 0xF1, 0xBD, 0xD0, 0xA2, 0xED, 0xBC, 0x08, 0xAC, 0xC6, 0x3D,
    0x3C, 0x01, 0x93, 0x3C, 0x98, 0xB0, 0xE0, 0x3C, 0x82, 0xC5, 0xFA, 0x3D,
    0x27, 0x03, 0x9B, 0x3D, 0x36, 0xEA, 0xD1, 0xBD, 0xAA, 0x5E, 0x2B, 0xBD,
    0x82, 0xE0, 0x14, 0x3E, 0xDB, 0x56, 0x3D, 0x3E, 0xCF, 0xE1, 0x81, 0xBD,
    0x6E, 0xC4, 0x36, 0x3E, 0xFA, 0xF4, 0x34, 0xBC, 0xB3, 0x0A, 0x79, 0x3B,
    0x3C, 0x13, 0x71, 0x3E, 0x97, 0xC2, 0x09, 0x3D, 0x15, 0x3E, 0x62, 0x3D,
    0x78, 0x79, 0x08, 0x3E, 0xF2, 0xAD, 0xD1, 0x3D, 0x0E, 0xEE, 0xA5, 0x3D,
    0x5B, 0x32, 0x2A, 0x3E, 0x23, 0xAF, 0x8B, 0xBD, 0x2E, 0xB2, 0xCA, 0x3D,
    0x80, 0x42, 0x89, 0xBD, 0x7F, 0x5F, 0x81, 0xBD, 0x36, 0x25, 0xF6, 0x3D,
    0xC5, 0x2E, 0x05, 0x3B, 0xAC, 0xB2, 0x1E, 0xBD, 0xA0, 0xBE, 0x5A, 0xBD,
    0x01, 0x9B, 0x0F, 0x3E, 0x24, 0x6B, 0xAC, 0x3C, 0xF0, 0xB4, 0xC1, 0xBD,
    0xA8, 0xA8, 0xBC, 0xBC, 0xC3, 0x51, 0x97, 0xBD, 0x42, 0xFE, 0x63, 0xBD,
    0x29, 0x0C, 0x80, 0x3D, 0x12, 0xC7, 0x1F, 0x3E, 0x6E, 0xB4, 0x2D, 0xBB,
    0xD3, 0x09, 0xF2, 0x3D, 0x16, 0x9A, 0x29, 0x3E, 0x6D, 0x35, 0xA9, 0x3D,
    0xF9, 0xD1, 0x2F, 0x3D, 0x99, 0x9D, 0x12, 0x3E, 0xAD, 0xD6, 0x18, 0x3D,
    0xEB, 0xB2, 0x87, 0x3D, 0xA9, 0x63, 0xAE, 0x3D, 0x4E, 0x9D, 0xB9, 0x3C,
    0xDD, 0xB7, 0xF4, 0xBC, 0x90, 0xE3, 0x53, 0x3E, 0x22, 0x9E, 0x12, 0x3D,
    0x9A, 0x2A, 0x21, 0x3D, 0x36, 0x94, 0x9F, 0x3D, 0x36, 0xFA, 0xA7, 0x3D,
    0x03, 0x72, 0x38, 0xBD, 0x27, 0xAA, 0x71, 0x3C, 0xCC, 0x05, 0xC2, 0xBD,
    0x4F, 0xAA, 0x2B, 0x3D, 0x75, 0x9C, 0xE1, 0x3D, 0x62, 0xD0, 0x23, 0x3E,
    0x14, 0xD4, 0xD3, 0xBD, 0xE8, 0xE5, 0x12, 0x3E, 0xB2, 0x61, 0x1F, 0xBD,
    0xB2, 0xAC, 0xFD, 0x3D, 0xB4, 0x9E, 0xCD, 0xBB, 0xEF, 0x03, 0xF6, 0x3D,
    0x6F, 0x74, 0x5C, 0x3D, 0x94, 0x80, 0x88, 0x3B, 0x87, 0xC2, 0x0B, 0x3E,
    0x7D, 0x2D, 0x8E, 0xBD, 0x8F, 0x65, 0xCE, 0xBA, 0xA4, 0x6C, 0x64, 0x3E,
    0x2C, 0x45, 0xD3, 0x3D, 0x7F, 0xE5, 0x02, 0x3E, 0xBD, 0x56, 0x03, 0xBD,
    0x3D, 0xA2, 0x9C, 0xBD, 0x46, 0xEC, 0xD6, 0xBD, 0x59, 0x79, 0x8F, 0x3D,
    0x2C, 0x9C, 0x71, 0x3D, 0xC5, 0xB1, 0xB5, 0xBD, 0xBA, 0x8B, 0x04, 0x3D,
    0x94, 0xD3, 0x8C, 0xBC, 0x6A, 0xE7, 0x0A, 0x3D, 0xF0, 0x7B, 0x72, 0x37,
    0x04, 0x63, 0x06, 0xBE, 0xC2, 0x5A, 0x03, 0xBE, 0x78, 0x7A, 0xD8, 0xBD,
    0x40, 0xF0, 0x81, 0xBD, 0xCA, 0x13, 0x89, 0x3D, 0xBD, 0x55, 0xC6, 0xBC,
    0xF0, 0x23, 0xA2, 0xBC, 0xD8, 0x9C, 0x1A, 0x3D, 0xA9, 0x1E, 0x9A, 0x3D,
    0x87, 0xE8, 0xA3, 0x3D, 0x3E, 0x0F, 0xBD, 0x3B, 0xF5, 0x92, 0xC9, 0xBC,
    0xA1, 0xB7, 0xD6, 0x3D, 0x7F, 0xB1, 0x2C, 0x3D, 0xD4, 0x65, 0x97, 0xBD,
    0xAE, 0x3B, 0xD1, 0x3D, 0xDB, 0x94, 0x1F, 0x3E, 0x22, 0x2F, 0xAF, 0xBD,
    0x4A, 0xFF, 0x0D, 0xBC, 0x10, 0x13, 0xB0, 0xBD, 0x45, 0x3E, 0xCD, 0xBD,
    0xA1, 0x3C, 0xB4, 0x3C, 0xC5, 0xFF, 0x1D, 0xBD, 0xCC, 0x00, 0x1A, 0xBE,
    0xA5, 0xB3, 0x4C, 0x3E, 0x1E, 0x26, 0x08, 0xBE, 0x39, 0x27, 0x01, 0x3D,
    0xEF, 0x2C, 0x79, 0xBD, 0x5C, 0x38, 0xDF, 0x3C, 0xC0, 0xBF, 0x56, 0xBE,
    0xC1, 0x5C, 0x1D, 0x3D, 0xB1, 0x9B, 0x03, 0x3D, 0xC3, 0x18, 0x99, 0x3D,
    0x8A, 0x61, 0x13, 0x3E, 0x6B, 0xE2, 0xCA, 0x3D, 0x6C, 0x26, 0x97, 0x3C,
    0xE3, 0x0F, 0x33, 0xBE, 0x40, 0xB8, 0xDF, 0x3D, 0x80, 0x17, 0xD6, 0x3C,
    0x62, 0xEE, 0xCA, 0x3D, 0x2A, 0xA5, 0x45, 0x3E, 0x66, 0x65, 0x32, 0xBC,
    0x7B, 0xDB, 0x37, 0x3E, 0x69, 0xF7, 0x90, 0x3E, 0x10, 0x1B, 0x05, 0xBC,
    0xB5, 0x58, 0x04, 0xBD, 0x66, 0x51, 0x12, 0x3E, 0x92, 0x89, 0x99, 0x3D,
    0xC4, 0xA7, 0x20, 0x3E, 0x3C, 0x06, 0x41, 0xBD, 0xC6, 0x3A, 0xE0, 0x3C,
    0xE6, 0xF2, 0x12, 0xBE, 0xBA, 0x8D, 0x91, 0x3D, 0x30, 0x9E, 0xED, 0x3B,
    0x3F, 0x5E, 0xC4, 0xBD, 0xF2, 0x78, 0x0E, 0x3E, 0xE5, 0x82, 0x39, 0x3D,
    0xF6, 0xD0, 0x58, 0x3D, 0x96, 0xFD, 0x0E, 0xBE, 0x08, 0x20, 0x50, 0xBD,
    0x8E, 0x40, 0x2D, 0x3D, 0x22, 0xB8, 0xBC, 0xBB, 0xC1, 0xE1, 0x2D, 0x3E,
    0xAD, 0xEC, 0x21, 0x3C, 0x1B, 0xD8, 0xE2, 0xBD, 0xFF, 0x88, 0x40, 0xBD,
    0x74, 0x11, 0xD0, 0x3C, 0xD1, 0x96, 0x94, 0xBD, 0x76, 0x07, 0x81, 0x3D,
    0x94, 0x88, 0x90, 0xBD, 0xAB, 0x6E, 0xE4, 0xBB, 0x0D, 0x80, 0xCB, 0x3D,
    0xD1, 0xD3, 0xBA, 0x3A, 0x9E, 0x5A, 0x03, 0xBE, 0x8F, 0x2F, 0x26, 0xBE,
    0x06, 0x2D, 0x19, 0x3E, 0x9F, 0xC5, 0xF8, 0x3D, 0xBA, 0xD6, 0xA6, 0xBD,
    0x29, 0xF1, 0x79, 0xBC, 0xDA, 0xD5, 0xB2, 0x3C, 0xC2, 0x04, 0xA8, 0xBD,
    0x7C, 0x30, 0xA9, 0xBD, 0x2D, 0x29, 0x00, 0xBD, 0x9A, 0x87, 0x2E, 0xBC,
    0x20, 0x87, 0xA3, 0xBC, 0xBF, 0xD9, 0x42, 0xBD, 0xD0, 0x29, 0x4C, 0xBE,
    0x1C, 0x6F, 0x16, 0x3D, 0xBF, 0x7C, 0x13, 0xBE, 0x40, 0x58, 0xCD, 0xB6,
    0x2D, 0xCB, 0x1C, 0xBE, 0xCC, 0xCE, 0x44, 0xBD, 0x63, 0x6C, 0xD5, 0xBD,
    0x13, 0x0D, 0xA8, 0xBD, 0x04, 0x30, 0x0F, 0xBE, 0xC1, 0x48, 0xD2, 0xBD,
    0x0A, 0x0D, 0xDC, 0x3C, 0x67, 0xB9, 0x74, 0xBD, 0xEA, 0x3D, 0x38, 0xBE,
    0x95, 0x8B, 0x77, 0xBD, 0xF5, 0xCE, 0x2B, 0xBE, 0x61, 0xDC, 0xA2, 0xBD,
    0xAA, 0x4F, 0x21, 0xBE, 0x74, 0xC5, 0xBC, 0x3B, 0xFC, 0xAE, 0x82, 0xBD,
    0x20, 0x5C, 0xC3, 0xBB, 0x53, 0x52, 0x0D, 0x3D, 0x38, 0x85, 0xD8, 0x3A,
    0x39, 0x67, 0x11, 0x3C, 0x09, 0x80, 0x61, 0x3D, 0x9E, 0xCB, 0xE5, 0x3D,
    0x3F, 0xB1, 0x98, 0xBD, 0x0E, 0x22, 0x18, 0xBC, 0x25, 0x7E, 0xBE, 0x3D,
    0xCE, 0xC2, 0xD2, 0xBB, 0x2D, 0xF3, 0x59, 0xBC, 0xE7, 0x0E, 0x0B, 0xBD,
    0x91, 0x86, 0x66, 0xBD, 0xFF, 0x8A, 0xE0, 0xBD, 0x5C, 0x25, 0xA4, 0x3C,
    0xA8, 0x4D, 0x2D, 0x3E, 0xB8, 0x05, 0x39, 0x3E, 0xA1, 0x02, 0xDB, 0xBD,
    0x01, 0xF8, 0x0F, 0xBC, 0xC4, 0x32, 0xD3, 0x3D, 0x3F, 0xEF, 0x8A, 0xBD,
    0xEB, 0x05, 0x1D, 0xBD, 0xEC, 0xF0, 0x4D, 0xBD, 0xEF, 0x1E, 0x2D, 0xBE,
    0x73, 0x43, 0x20, 0x3D, 0x84, 0xB6, 0x92, 0xBC, 0x96, 0x2B, 0x12, 0xBD,
    0x75, 0x66, 0x37, 0xBE, 0x82, 0x86, 0x74, 0x3D, 0x3E, 0x40, 0x68, 0xBD,
    0x1E, 0x13, 0x34, 0xBD, 0x2D, 0x89, 0xC3, 0xBD, 0xBA, 0x74, 0xC7, 0xBD,
    0xCD, 0xE8, 0x77, 0x3D, 0x17, 0x7F, 0xCA, 0x3D, 0x20, 0xAD, 0x74, 0x3D,
    0x89, 0x72, 0x4B, 0xBD, 0x3F, 0x8E, 0x25, 0x3B, 0xC6, 0x3E, 0x9D, 0xBD,
    0xFD, 0xE2, 0x74, 0xBD, 0x86, 0x57, 0x4B, 0xBB, 0xB5, 0xB4, 0x22, 0xBE,
    0x7D, 0xA8, 0x87, 0x3D, 0xB8, 0xCB, 0xF7, 0x3C, 0xB6, 0xBD, 0x89, 0xBC,
    0x8E, 0xFD, 0x2E, 0x3E, 0x3C, 0x29, 0x80, 0x3C, 0xCE, 0x52, 0xC9, 0xBA,
    0x1F, 0xE3, 0x8A, 0x3D, 0x74, 0xB5, 0x3F, 0xBE, 0x92, 0xE4, 0x3D, 0xBE,
    0xA7, 0x70, 0xCD, 0xBD, 0xF8, 0x8A, 0xA9, 0xBD, 0xB5, 0xDF, 0x69, 0x3C,
    0xDC, 0xB5, 0x9A, 0x3D, 0xFB, 0x4F, 0x0E, 0x3E, 0xF0, 0x57, 0x3A, 0x3C,
    0x2F, 0x86, 0xA2, 0x3D, 0x17, 0x2F, 0xBF, 0xBD, 0xED, 0x1D, 0x14, 0x3E,
    0xCD, 0xC4, 0x9E, 0xBD, 0xFF, 0x3C, 0x55, 0x3E, 0xF8, 0x69, 0x62, 0xBD,
    0xB3, 0x87, 0x41, 0x3E, 0x96, 0x53, 0x97, 0x3D, 0x96, 0x3A, 0x8B, 0xBD,
    0xF5, 0x38, 0x0F, 0xBD, 0x4B, 0x31, 0x63, 0xBD, 0xC8, 0x93, 0x7D, 0xBE,
    0x24, 0x93, 0x06, 0x3D, 0x1F, 0xDF, 0x0D, 0xBE, 0xDC, 0x79, 0x35, 0x3B,
    0x90, 0x96, 0x0B, 0xBE, 0xEA, 0x7E, 0x80, 0x3D, 0xD1, 0x91, 0x4B, 0xBD,
    0x8B, 0x37, 0x10, 0xBE, 0x43, 0xAE, 0x8E, 0xBC, 0xAC, 0x59, 0x0E, 0x3D,
    0x86, 0x68, 0x84, 0x3D, 0x96, 0x4F, 0x85, 0xBD, 0x9A, 0x63, 0x9D, 0x3C,
    0x6F, 0xC4, 0x0E, 0x3D, 0x38, 0x6B, 0xB7, 0xBD, 0x1A, 0x1D, 0x2C, 0x3D,
    0x55, 0xE4, 0x23, 0x3C, 0x11, 0x29, 0x7E, 0xBD, 0x29, 0xEA, 0x3F, 0xBE,
    0xF7, 0x15, 0xEB, 0x3C, 0xCE, 0xD3, 0x59, 0xBD, 0xFF, 0x16, 0xF1, 0xBD,
    0xF6, 0xB0, 0x60, 0xBE, 0xD9, 0x53, 0x28, 0x3D, 0xCE, 0xF8, 0x8D, 0xBE,
    0x7E, 0x2D, 0x4E, 0xBE, 0x9D, 0x18, 0xBA, 0xBD, 0xEB, 0x76, 0x09, 0xBE,
    0xDB, 0x0E, 0x4B, 0xBE, 0xA5, 0x26, 0x46, 0xBD, 0x6C, 0xB6, 0x26, 0xBE,
    0x2C, 0x08, 0x5C, 0xBE, 0x9E, 0x91, 0xF4, 0xBD, 0xCF, 0x55, 0x84, 0x3B,
    0x9D, 0x84, 0x8B, 0xBD, 0x27, 0xF7, 0x6C, 0xBE, 0x40, 0x3A, 0x4E, 0xBE,
    0xF9, 0x26, 0x88, 0x3D, 0xFE, 0xBE, 0x0A, 0xBE, 0xD7, 0xD1, 0x38, 0xBD,
    0xB8, 0xAD, 0xE0, 0x3D, 0x5F, 0x5D, 0x4B, 0x3E, 0x0C, 0x19, 0xA2, 0x3D,
    0x6C, 0xBD, 0x13, 0xBE, 0x0F, 0xFF, 0xDC, 0xBD, 0xFD, 0xB5, 0x34, 0x3E,
    0x31, 0x35, 0xC2, 0xBD, 0x41, 0x18, 0xFB, 0x3D, 0x7D, 0x9F, 0x0E, 0x3E,
    0x4F, 0xC0, 0x34, 0x3D, 0xBB, 0x92, 0xA4, 0xBD, 0xB1, 0x14, 0x10, 0x3B,
    0x71, 0xF5, 0xF0, 0xBD, 0x92, 0xBD, 0xFF, 0xBC, 0xFA, 0xE2, 0x9A, 0xBC,
    0xEF, 0x1A, 0x2F, 0xBD, 0x7E, 0x87, 0x02, 0xBD, 0xFC, 0xA4, 0xE7, 0xBD,
    0x99, 0xE3, 0xD1, 0x3D, 0xF1, 0xC0, 0x01, 0x3E, 0xFA, 0x33, 0xE8, 0xBD,
    0x4C, 0xFE, 0xB3, 0x3D, 0x06, 0xED, 0x27, 0x3D, 0x23, 0xFE, 0x0E, 0x3C,
    0x87, 0x4F, 0xFC, 0xBD, 0x86, 0xDB, 0xAF, 0xBC, 0x3C, 0x65, 0x13, 0x3D,
    0x18, 0x85, 0x84, 0xBD, 0xF7, 0x59, 0x0F, 0xBE, 0xFE, 0x63, 0x93, 0xBD,
    0x62, 0x88, 0x80, 0x3D, 0x53, 0xE7, 0x8A, 0xBD, 0xB8, 0xA3, 0x35, 0x3E,
    0xB2, 0xFD, 0x26, 0x3D, 0x5B, 0x3E, 0xE5, 0x3A, 0xAF, 0xD5, 0xB0, 0xBD,
    0xC6, 0x6E, 0x13, 0xBD, 0xC0, 0xDF, 0xF8, 0xBD, 0x40, 0x2A, 0xD1, 0x3D,
    0xAA, 0x70, 0x76, 0x3C, 0x60, 0xD5, 0x7F, 0xBD, 0xA7, 0xB2, 0x5D, 0xBD,
    0xAC, 0x4E, 0x24, 0xBD, 0xFD, 0x50, 0xB2, 0x3D, 0x43, 0x35, 0x03, 0x3E,
    0x55, 0xDF, 0x81, 0x3C, 0x11, 0x1A, 0x0C, 0xBE, 0x72, 0x79, 0x22, 0xBA,
    0x40, 0x68, 0xE4, 0x3A, 0x51, 0x71, 0x24, 0xBD, 0x95, 0x10, 0xC2, 0x3C,
    0x1A, 0x89, 0x47, 0x3E, 0xC2, 0x20, 0x13, 0x3E, 0x40, 0x88, 0xF5, 0x3C,
    0x83, 0x4A, 0x7B, 0x3C, 0xB7, 0x4B, 0x78, 0x3D, 0x47, 0xFB, 0x5D, 0xBC,
    0x25, 0x71, 0x16, 0x3D, 0x68, 0xBE, 0x62, 0xBD, 0xC8, 0x9A, 0xED, 0xBD,
    0x97, 0xFE, 0x0D, 0xBE, 0x79, 0x6E, 0x09, 0xBE, 0x1B, 0x4E, 0x71, 0xBD,
    0xC7, 0x5E, 0xA0, 0xBD, 0xAF, 0x08, 0x5B, 0x3D, 0x2A, 0x0D, 0x2C, 0x3C,
    0xE3, 0xB9, 0xC4, 0xBD, 0x67, 0x4F, 0x05, 0x3E, 0x58, 0x3C, 0x76, 0xBD,
    0x00, 0xB8, 0x76, 0x3B, 0x37, 0x5B, 0xE7, 0xBD, 0x3A, 0x84, 0x14, 0xBD,
    0x07, 0x3B, 0x93, 0x3C, 0x39, 0x54, 0xC9, 0x3C, 0xE7, 0x1A, 0x1E, 0x3E,
    0x63, 0x82, 0x82, 0x3D, 0xE8, 0x2C, 0x44, 0xBE, 0x80, 0xD7, 0x1D, 0x3E,
    0xD3, 0x91, 0xD7, 0x3B, 0x0B, 0x53, 0xAD, 0xBD, 0x88, 0xB0, 0x74, 0x3D,
    0x33, 0x1D, 0x4D, 0x3D, 0xF8, 0x49, 0x40, 0x3D, 0x53, 0x21, 0x67, 0xBD,
    0x23, 0xE4, 0x1B, 0xBD, 0x70, 0x72, 0xC2, 0xBC, 0xD7, 0xD3, 0x0C, 0xBE,
    0xF3, 0xF3, 0x4C, 0x3B, 0x85, 0x70, 0x42, 0xBE, 0xFC, 0x9F, 0x3C, 0x3E,
    0xFF, 0x76, 0x56, 0x3D, 0x54, 0x52, 0xBF, 0xBC, 0x4B, 0x5D, 0x9A, 0x3D,
    0xF9, 0x83, 0x2B, 0xBD, 0xFF, 0x45, 0xBD, 0xBD, 0x17, 0xD3, 0xD6, 0xBD,
    0xE7, 0x71, 0xCA, 0x3C, 0x84, 0x75, 0x32, 0xBE, 0xE5, 0x36, 0xA4, 0xBC,
    0xA6, 0x9F, 0x16, 0x3E, 0xCB, 0x8F, 0xA6, 0x3D, 0x3A, 0x73, 0xFA, 0x3C,
    0x2C, 0xDA, 0x00, 0x3E, 0x0F, 0xB3, 0x31, 0xBE, 0x25, 0x94, 0x02, 0xBD,
    0xCF, 0x9D, 0x9E, 0xBD, 0xD2, 0x8A, 0x52, 0xBD, 0xCB, 0x48, 0xD8, 0xBD,
    0x5A, 0x54, 0xAA, 0xBB, 0xCA, 0xDB, 0x34, 0x3E, 0x94, 0x94, 0x34, 0x3B,
    0xCD, 0x96, 0x58, 0xBD, 0xFC, 0x10, 0x0D, 0xBD, 0x6C, 0xC0, 0x90, 0x3D,
    0xE9, 0x02, 0x84, 0xB9, 0xE3, 0x85, 0x0B, 0xBD, 0x76, 0x08, 0x80, 0xBD,
    0x0A, 0xA8, 0x49, 0xBE, 0x04, 0xD7, 0xB4, 0x3D, 0xDB, 0x74, 0x5B, 0xBE,
    0xFA, 0x12, 0xB0, 0x3D, 0xA3, 0x2E, 0x59, 0xBE, 0x47, 0x63, 0x78, 0xBC,
    0x56, 0xCE, 0x29, 0xBE, 0x80, 0x3D, 0xB8, 0xBD, 0xB6, 0x25, 0xDB, 0xBD,
    0xD6, 0x0B, 0x95, 0xBC, 0x61, 0xFB, 0xFD, 0xBD, 0x05, 0x02, 0xAF, 0x3C,
    0xBB, 0x5B, 0xB0, 0x3C, 0xF7, 0x07, 0xFB, 0x3C, 0x0A, 0x2D, 0x09, 0x3E,
    0xCA, 0xA2, 0xEA, 0x3D, 0x78, 0x0D, 0x1E, 0xBD, 0x67, 0x96, 0xDE, 0xBD,
    0x7E, 0xFC, 0x97, 0x3D, 0x38, 0x83, 0x9B, 0xBD, 0x80, 0x1C, 0xB3, 0xBC,
    0x24, 0xCD, 0x13, 0xBD, 0x4B, 0x5E, 0xCE, 0xBC, 0x97, 0x7F, 0x29, 0xBB,
    0xA3, 0xE1, 0x24, 0x3E, 0x6B, 0x30, 0x89, 0xBD, 0x95, 0x72, 0x6A, 0xBD,
    0xD5, 0x4E, 0x8E, 0x3E, 0x22, 0x89, 0x4C, 0x3E, 0x1A, 0xCB, 0x1E, 0xBD,
    0x41, 0x37, 0xDC, 0xBD, 0x3E, 0xB4, 0xED, 0xBD, 0x21, 0xA1, 0xA0, 0xBD,
    0x35, 0xC1, 0x9F, 0x3C, 0x4A, 0x17, 0x05, 0xBE, 0x19, 0x18, 0x39, 0xBE,
    0xC7, 0xF7, 0xC6, 0xBD, 0xD5, 0x05, 0x5A, 0xBE, 0xF6, 0x98, 0x00, 0xBE,
    0x6E, 0x08, 0x93, 0xBD, 0x63, 0x95, 0xF5, 0xBD, 0xC1, 0x38, 0x19, 0x3E,
    0x40, 0x6F, 0x1F, 0xBE, 0x8A, 0x13, 0xE3, 0xBD, 0x68, 0x6C, 0x97, 0x3C,
    0x54, 0xF2, 0x71, 0xBC, 0x7A, 0x1D, 0xF2, 0xBC, 0xB6, 0xB3, 0x77, 0xBE,
    0x55, 0x27, 0x27, 0xBE, 0x23, 0x93, 0x12, 0xBE, 0x00, 0x75, 0xA6, 0xBD,
    0x69, 0x2D, 0x45, 0xBD, 0xFB, 0x96, 0x04, 0x3E, 0x29, 0x3B, 0xAA, 0xBB,
    0x98, 0x1B, 0xAE, 0x3E, 0xA5, 0xEF, 0x80, 0x3D, 0xD4, 0xD0, 0xA3, 0xBE,
    0xFE, 0xAD, 0x05, 0x3E, 0xE6, 0x75, 0x32, 0x3E, 0xEF, 0x54, 0xB2, 0x3D,
    0x10, 0x42, 0x5D, 0x3D, 0xEA, 0xDA, 0xDF, 0x3A, 0xA4, 0x48, 0x9D, 0xBD,
    0xBD, 0xB9, 0x75, 0xBD, 0x78, 0xBA, 0x99, 0xBD, 0xFA, 0xFE, 0xAB, 0x3C,
    0xED, 0x3A, 0xB2, 0x3D, 0x98, 0x1B, 0x58, 0xBD, 0xA0, 0x85, 0x75, 0x3D,
    0x90, 0x9C, 0xA3, 0xBB, 0xBD, 0x04, 0x2E, 0x3D, 0x57, 0x40, 0xA7, 0xBD,
    0x1D, 0xB0, 0x8C, 0x3D, 0x9E, 0xF5, 0xDC, 0xBC, 0x73, 0x09, 0x59, 0xBD,
    0x28, 0x86, 0x96, 0x3C, 0x8D, 0x44, 0x9A, 0x3D, 0x3A, 0xEA, 0x4B, 0x3E,
    0x42, 0xA6, 0xDA, 0x3D, 0x42, 0xA0, 0xDF, 0x3B, 0xFF, 0x20, 0x91, 0xBC,
    0xCB, 0x71, 0x5B, 0x3E, 0x0F, 0x96, 0x99, 0x3D, 0xB5, 0x0D, 0x5E, 0x3E,
    0x16, 0x51, 0x2A, 0x3E, 0x60, 0xE4, 0x87, 0x3D, 0xF8, 0x45, 0x20, 0x3D,
    0x5A, 0xD3, 0xD4, 0xBB, 0xEB, 0x45, 0x9C, 0xBD, 0xDD, 0x71, 0x22, 0x3D,
    0xA8, 0x13, 0x3C, 0x3D, 0x72, 0x06, 0x0B, 0x3D, 0x7E, 0x0C, 0xA6, 0x3D,
    0x7F, 0x92, 0x88, 0xBD, 0x8C, 0xBE, 0x00, 0xBE, 0x8D, 0xF4, 0xC2, 0x3D,
    0xD1, 0x91, 0xC7, 0x3D, 0xB6, 0x75, 0x26, 0x3D, 0xD9, 0x06, 0xE1, 0xBC,
    0x2A, 0x76, 0x84, 0xBD, 0xF9, 0x9B, 0x19, 0x3C, 0xE6, 0xAE, 0x14, 0x3D,
    0x79, 0x11, 0x3C, 0x3D, 0x34, 0x62, 0x21, 0xBE, 0x80, 0x0C, 0x8E, 0x3E,
    0xB1, 0x9A, 0xA1, 0x3D, 0x77, 0x88, 0x8F, 0xBE, 0x2B, 0x99, 0x10, 0xBD,
    0x18, 0x95, 0x4A, 0x3D, 0xFC, 0xA8, 0xE0, 0x3D, 0xB5, 0xC6, 0xA4, 0x3E,
    0xCF, 0x7B, 0x05, 0x3E, 0x8D, 0xED, 0x62, 0x3D, 0x7C, 0x2C, 0xA7, 0x3C,
    0xCF, 0x66, 0xC9, 0x3D, 0x0D, 0x2F, 0xBC, 0x3B, 0x95, 0xB0, 0x34, 0x3C,
    0x1B, 0xD2, 0x5F, 0x3D, 0x69, 0x83, 0x0B, 0x3E, 0x60, 0xD6, 0xB7, 0xBC,
    0xA4, 0x85, 0xBB, 0x3C, 0x30, 0x44, 0xE7, 0x3D, 0xCA, 0x6B, 0x8C, 0xBD,
    0x98, 0x6C, 0x5E, 0x3C, 0x4B, 0xBA, 0x3D, 0xBD, 0xE1, 0x56, 0x78, 0x3C,
    0xF6, 0x98, 0x41, 0xBD, 0xCD, 0xAA, 0x70, 0x3B, 0xCA, 0x76, 0xBC, 0xBD,
    0x53, 0xFD, 0x79, 0x3D, 0x0C, 0xB4, 0xC5, 0xBD, 0xC7, 0x1E, 0xD4, 0x3D,
    0xB8, 0xCD, 0xA2, 0x3E, 0xBB, 0x62, 0x93, 0x3E, 0xB3, 0x6E, 0xA0, 0x3E,
    0x03, 0x6F, 0x39, 0xBC, 0x93, 0x88, 0x68, 0xBB, 0x20, 0xC4, 0x2A, 0x3E,
    0x74, 0xFE, 0x31, 0xBC, 0xF9, 0xFA, 0x5F, 0x3D, 0xD0, 0x31, 0x3E, 0x3D,
    0x3A, 0xC0, 0x65, 0x3C, 0x86, 0x25, 0xCA, 0x3D, 0x9F, 0x4B, 0x33, 0xBE,
    0x4A, 0xCE, 0xB3, 0x3D, 0x01, 0xD9, 0x89, 0x3D, 0xF5, 0x3F, 0x9C, 0xBD,
    0x9C, 0xC9, 0x04, 0x3E, 0x52, 0xD7, 0x48, 0xBD, 0x16, 0x75, 0xEA, 0x3D,
    0x60, 0xCF, 0x2D, 0xBE, 0x06, 0x40, 0x91, 0x3D, 0x14, 0xAB, 0xCA, 0x3D,
    0x24, 0xC5, 0x1F, 0x3D, 0x1E, 0x8D, 0x58, 0xBD, 0xC5, 0x8E, 0xB4, 0x3D,
    0x64, 0x51, 0x92, 0x3B, 0x75, 0x49, 0x57, 0xBD, 0x14, 0x67, 0xC2, 0xBD,
    0xA4, 0x47, 0xC6, 0xBD, 0x42, 0x84, 0x49, 0x3D, 0xA5, 0xA1, 0xA6, 0x3E,
    0x12, 0x71, 0x17, 0x3E, 0x33, 0x26, 0x5C, 0x3C, 0xD5, 0xEA, 0xD7, 0xBC,
    0xB4, 0x0F, 0x4F, 0x3E, 0xE3, 0x6C, 0x90, 0x3D, 0xFC, 0x37, 0xB0, 0x3D,
    0x80, 0x95, 0x2A, 0xBE, 0xEB, 0x08, 0x83, 0x3B, 0x91, 0x55, 0xC4, 0xBB,
    0xD2, 0x6A, 0x31, 0x3E, 0xA8, 0x9D, 0x19, 0xBD, 0xCA, 0xF1, 0x6B, 0x3D,
    0x67, 0x35, 0x59, 0xBD, 0xDE, 0x69, 0x53, 0x3D, 0x27, 0xA0, 0x42, 0x3D,
    0x1A, 0xF7, 0x68, 0x3D, 0xA2, 0x30, 0x50, 0xBB, 0x29, 0x74, 0xB8, 0x3D,
    0xB7, 0xCB, 0x08, 0xBC, 0xF7, 0x1B, 0xC2, 0x3D, 0xC7, 0x63, 0x5C, 0xBD,
    0xE6, 0x9D, 0x2D, 0xBD, 0x1C, 0x97, 0xA8, 0xBD, 0x44, 0xDC, 0x88, 0x3D,
    0x43, 0x9B, 0x2B, 0xBE, 0x89, 0x87, 0xBE, 0xBD, 0x2D, 0xED, 0xF1, 0x3D,
    0x2A, 0xF2, 0x94, 0x3C, 0xFB, 0xE9, 0x87, 0x3E, 0x45, 0xC5, 0x52, 0xBD,
    0x60, 0x1C, 0x89, 0x3D, 0x79, 0xBC, 0x48, 0xBE, 0x27, 0x14, 0x55, 0x3D,
    0xC1, 0x7C, 0x06, 0xBC, 0x5D, 0xE5, 0x92, 0x3C, 0x98, 0x9D, 0xA1, 0x3D,
    0xF1, 0x8C, 0xCE, 0x3D, 0x54, 0xD5, 0x4E, 0xBC, 0xB1, 0x5A, 0xDC, 0x3D,
    0x91, 0xB3, 0xAD, 0xBD, 0x45, 0x75, 0x42, 0xBD, 0x15, 0x4B, 0xA0, 0x3C,
    0x63, 0xD7, 0x10, 0xBD, 0x58, 0xA5, 0x06, 0x3E, 0xEE, 0x88, 0xA9, 0x3D,
    0xBA, 0x48, 0x26, 0xBD, 0x0F, 0x77, 0xBB, 0xBD, 0x10, 0x14, 0xF3, 0x3C,
    0x75, 0x57, 0x73, 0xBD, 0x03, 0xE5, 0xA4, 0xBC, 0x8E, 0xD1, 0x2E, 0xBB,
    0x96, 0x8B, 0x9B, 0x3D, 0xD9, 0x34, 0x43, 0xBE, 0xE6, 0x03, 0xA6, 0x3D,
    0x9B, 0x5A, 0x72, 0x3D, 0x51, 0xF2, 0xA3, 0xBE, 0x60, 0xAF, 0xD8, 0x3C,
    0xBF, 0xCA, 0x1F, 0x3D, 0x95, 0x7F, 0x85, 0x3D, 0x5B, 0xF1, 0x3C, 0xBE,
    0xF9, 0x7C, 0xA0, 0x3E, 0x25, 0xBA, 0x1F, 0x3D, 0x98, 0x58, 0xD3, 0xBD,
    0x29, 0xC9, 0x1F, 0x3E, 0xD1, 0xF9, 0x85, 0xBB, 0xEE, 0x70, 0x8F, 0x3D,
    0x19, 0xF5, 0x22, 0xBE, 0xB8, 0x95, 0x13, 0xBC, 0xF7, 0x1D, 0x00, 0xBD,
    0x9F, 0xD6, 0x56, 0xBD, 0xB8, 0x41, 0x82, 0x3D, 0xFA, 0x7C, 0xD4, 0xBD,
    0x26, 0x6B, 0x5F, 0xBD, 0x36, 0xA0, 0x17, 0x3C, 0x1A, 0x60, 0xBB, 0xBD,
    0x81, 0xD4, 0x61, 0xBE, 0xC3, 0x7F, 0x0E, 0x3D, 0x7C, 0x6A, 0x80, 0x3D,
    0xD0, 0xAC, 0xF0, 0xBC, 0xD9, 0xB6, 0xF4, 0x3C, 0x06, 0xDF, 0x0C, 0x3B,
    0x58, 0xFC, 0x5D, 0xBE, 0xFD, 0xD3, 0x8A, 0xBD, 0xD2, 0x14, 0xD0, 0xBC,
    0xD7, 0x7F, 0x14, 0x3D, 0xCE, 0x66, 0x74, 0x3B, 0x40, 0x57, 0xED, 0xBD,
    0x06, 0x7D, 0x67, 0xBD, 0x33, 0xBE, 0x84, 0x3E, 0xA4, 0x0D, 0xA0, 0xBD,
    0xAC, 0xD0, 0x3B, 0x3D, 0xCA, 0x00, 0xF9, 0xBC, 0x78, 0xCA, 0x3F, 0xBD,
    0x7E, 0xCE, 0x92, 0xBD, 0xF9, 0x68, 0x96, 0xBD, 0x13, 0x43, 0xFF, 0x3C,
    0x70, 0xB1, 0x5F, 0xBD, 0xFF, 0x29, 0x92, 0xBD, 0xDA, 0xE9, 0x3C, 0x3C,
    0x4C, 0x4B, 0xC3, 0x3D, 0x23, 0xA5, 0x2A, 0xBE, 0x6B, 0xAB, 0xD8, 0xBC,
    0x09, 0x45, 0xBC, 0x3D, 0x49, 0xCD, 0x19, 0x3D, 0x91, 0x91, 0x0B, 0xBE,
    0xC3, 0x82, 0xD6, 0x3C, 0x85, 0x44, 0x10, 0x3D, 0xF6, 0x90, 0xBA, 0x3D,
    0xB7, 0x9A, 0x5C, 0x3E, 0x57, 0x5B, 0xE9, 0xBD, 0xE5, 0x88, 0x82, 0x3D,
    0x9F, 0x52, 0x91, 0x3E, 0x2A, 0xA5, 0xFA, 0xBB, 0xB7, 0x92, 0x73, 0x3D,
    0xE2, 0x77, 0x15, 0xBE, 0xF3, 0xE7, 0x59, 0xBE, 0xDE, 0x22, 0xEA, 0xBD,
    0xCD, 0xB0, 0x4B, 0x3C, 0x5B, 0x98, 0xD1, 0x3C, 0xF0, 0x7D, 0x26, 0x3D,
    0x5A, 0x72, 0x45, 0xBA, 0x1A, 0xED, 0x15, 0xBD, 0xE9, 0x2D, 0xDD, 0xBC,
    0x77, 0xFC, 0x59, 0x3D, 0xCB, 0xF0, 0x6C, 0xBD, 0xFC, 0x0A, 0xB6, 0x3C,
    0xBA, 0x20, 0x5B, 0xBC, 0x31, 0x2D, 0x73, 0x3E, 0xDB, 0x01, 0x06, 0x3D,
    0x88, 0xE1, 0xD6, 0xBC, 0x1A, 0xC3, 0x89, 0xBD, 0xCE, 0x9F, 0x5C, 0x3A,
    0x92, 0x8A, 0x09, 0xBE, 0xA1, 0x85, 0x55, 0xBD, 0x62, 0x2C, 0xEB, 0xBD,
    0x04, 0x7C, 0x9C, 0x3D, 0xE7, 0xFC, 0x15, 0x3E, 0xDD, 0xB3, 0x4A, 0xBE,
    0x5E, 0xD6, 0x57, 0xBD, 0xE1, 0x63, 0xBE, 0x3D, 0xAC, 0x35, 0x79, 0x3D,
    0xE5, 0x03, 0x82, 0xBE, 0x0E, 0x87, 0xBC, 0xBD, 0x4A, 0x92, 0x33, 0xBE,
    0x71, 0x1F, 0x0C, 0xBE, 0x9D, 0xFB, 0x8C, 0xBD, 0x49, 0x6E, 0x1A, 0x3D,
    0xC2, 0x55, 0xED, 0x3C, 0xB9, 0xB3, 0xCD, 0xBD, 0x83, 0xC6, 0x0A, 0xBD,
    0x5B, 0xE9, 0x8D, 0x3D, 0xF5, 0x16, 0x00, 0xBD, 0xA7, 0x07, 0x05, 0x3E,
    0x4D, 0x8C, 0xBB, 0x3D, 0x7E, 0x5E, 0x3C, 0x3E, 0xDC, 0xBE, 0x19, 0x3E,
    0x02, 0xF5, 0xA9, 0x3A, 0x04, 0x8B, 0xC6, 0xBD, 0x55, 0x4B, 0x07, 0xBE,
    0x2F, 0xC4, 0x42, 0xBD, 0x61, 0xB1, 0x0E, 0xBD, 0x8F, 0x59, 0xCA, 0x3B,
    0xC5, 0x80, 0x53, 0xBD, 0x8F, 0x59, 0x61, 0x3C, 0xF6, 0xC9, 0x42, 0x3D,
    0xB9, 0x46, 0x3D, 0x3E, 0xDA, 0x36, 0xF5, 0xBC, 0x73, 0xA5, 0x91, 0x3E,
    0x17, 0xD1, 0xDE, 0xBD, 0x43, 0x50, 0x12, 0x3C, 0xBF, 0x04, 0x12, 0xBE,
    0x13, 0x44, 0xF1, 0xBD, 0xAD, 0xA6, 0xD7, 0xBB, 0xE3, 0x28, 0x02, 0x3E,
    0x28, 0x79, 0x12, 0xBD, 0xF3, 0x70, 0xA2, 0x3D, 0xD4, 0x62, 0x80, 0x3D,
    0xF7, 0xF2, 0xF4, 0x3D, 0xDE, 0x30, 0xE9, 0x3D, 0xF6, 0x53, 0x81, 0xBD,
    0x7B, 0xA5, 0xEF, 0x3D, 0x75, 0x7B, 0xA6, 0x3D, 0x44, 0x3C, 0xE8, 0x3D,
    0xC8, 0x8F, 0xDE, 0x3D, 0x45, 0xC5, 0x4A, 0xBD, 0x75, 0x63, 0x26, 0x3D,
    0xE3, 0x64, 0x8D, 0xBD, 0x06, 0x88, 0xBD, 0xBA, 0x91, 0xCF, 0x74, 0xBE,
    0xE1, 0x0F, 0x28, 0x3B, 0xA7, 0x81, 0xA0, 0x3D, 0x8F, 0x93, 0x5B, 0x3C,
    0xDD, 0xDB, 0x77, 0x3D, 0x87, 0x4C, 0xA8, 0x3D, 0x52, 0xA8, 0x4E, 0x3B,
    0x67, 0x98, 0x6E, 0x3D, 0x5A, 0x8E, 0x52, 0x3D, 0xF6, 0xFF, 0xDD, 0xBD,
    0xFA, 0xBB, 0x36, 0x3E, 0xCB, 0x7A, 0xA2, 0xBC, 0xB4, 0xD9, 0x53, 0x3E,
    0x77, 0x04, 0xD5, 0xBD, 0xF2, 0x3C, 0x8A, 0x3B, 0x03, 0xA0, 0x89, 0xBC,
    0x46, 0x7B, 0xDE, 0xBC, 0xC9, 0x45, 0x10, 0x3C, 0x0D, 0x3B, 0xD4, 0x3D,
    0xEF, 0x69, 0x4C, 0x3E, 0x54, 0x7D, 0x85, 0x3D, 0xEA, 0x5F, 0x30, 0x3E,
    0xEA, 0x39, 0x51, 0x3E, 0x06, 0xD3, 0xAC, 0x3D, 0x92, 0x02, 0x02, 0xBD,
    0xDB, 0x8D, 0x89, 0x3C, 0xA4, 0x42, 0xFD, 0xBD, 0xB7, 0xE4, 0x6E, 0xBD,
    0xFE, 0x37, 0xB3, 0xB9, 0x40, 0x46, 0x9F, 0x3D, 0xB3, 0x08, 0xCF, 0xBC,
    0x1E, 0x36, 0xBE, 0xBD, 0xFA, 0x23, 0x19, 0x3E, 0xED, 0x99, 0x81, 0x3E,
    0x6F, 0xA2, 0xFE, 0xBD, 0x41, 0xC3, 0xE6, 0xBB, 0x62, 0xFD, 0x49, 0xBB,
    0x55, 0xB4, 0x7E, 0x3D, 0x6C, 0x7A, 0x04, 0xBE, 0xFC, 0xD5, 0xAD, 0x3D,
    0xA5, 0xD3, 0x1D, 0xBE, 0x6B, 0x1D, 0x4C, 0xBE, 0x4F, 0xC2, 0x56, 0xBE,
    0x42, 0x53, 0xB4, 0xBD, 0xC8, 0x32, 0xC1, 0xBC, 0xF7, 0xB7, 0x82, 0x3C,
    0x7D, 0xDE, 0xAB, 0x3D, 0x61, 0x26, 0x27, 0x3E, 0x18, 0x29, 0x76, 0x3E,
    0xF3, 0xAC, 0x7F, 0x3D, 0x57, 0x8C, 0xF4, 0x3D, 0xE0, 0x1B, 0x16, 0x3D,
    0x68, 0xF1, 0xB1, 0xBC, 0xBC, 0x17, 0x19, 0x3D, 0xD4, 0x24, 0x1B, 0xBE,
    0xB2, 0xB4, 0xD4, 0x3D, 0xE8, 0xB2, 0x46, 0xBD, 0x78, 0xF0, 0x37, 0xBD,
    0x16, 0x62, 0x19, 0x3D, 0xCE, 0xAE, 0x46, 0x3E, 0xB7, 0xB7, 0x82, 0xBD,
    0xB2, 0x64, 0xE4, 0x3D, 0xD9, 0xDE, 0x8C, 0xBE, 0x34, 0x43, 0xEA, 0xBD,
    0x2B, 0xB0, 0x3C, 0xBE, 0x42, 0x6D, 0x64, 0xBD, 0xA6, 0x0B, 0xF1, 0x3C,
    0x59, 0xDE, 0x8C, 0x3E, 0xC8, 0x43, 0xFC, 0x3C, 0x2A, 0x72, 0x97, 0xBE,
    0x8A, 0x16, 0x90, 0xBE, 0x9D, 0x39, 0x9C, 0xBE, 0xB3, 0x56, 0xC1, 0xBD,
    0xEA, 0xA9, 0xA3, 0xBE, 0xC7, 0xEA, 0x76, 0xBE, 0x81, 0xF9, 0x0A, 0xBE,
    0x8B, 0x81, 0xDC, 0xBD, 0x11, 0xD2, 0xA3, 0xBD, 0x07, 0x97, 0x1A, 0xBC,
    0x5F, 0x45, 0x06, 0xBD, 0xA3, 0xD5, 0xB8, 0xBD, 0x52, 0x2F, 0x9F, 0xBD,
    0x34, 0xCD, 0xEB, 0xBC, 0x2D, 0x06, 0x4C, 0xBC, 0x34, 0x4F, 0x13, 0x3D,
    0xDE, 0xB5, 0x11, 0x3D, 0x02, 0xED, 0x64, 0x3D, 0x8C, 0xB9, 0x80, 0x3D,
    0x74, 0x09, 0xEE, 0x3D, 0x8B, 0xEC, 0xD6, 0x3C, 0xB5, 0xB8, 0xCA, 0xBB,
    0x83, 0xD5, 0xAC, 0x3E, 0x53, 0x26, 0xD4, 0xBD, 0x15, 0xF2, 0x7A, 0x3E,
    0x46, 0xB8, 0x9E, 0x3E, 0xFC, 0xD7, 0x8D, 0x3E, 0x09, 0x38, 0x0F, 0x3D,
    0x4C, 0x96, 0x85, 0xBE, 0xB5, 0xB9, 0xAD, 0xBE, 0xC4, 0x28, 0xD3, 0xBE,
    0x04, 0x2A, 0xBC, 0xBE, 0x4A, 0xEB, 0x01, 0xBF, 0x17, 0x56, 0x00, 0xBF,
    0x6B, 0xEA, 0x00, 0xBF, 0xF1, 0x5B, 0x01, 0xBF, 0xD0, 0xBE, 0xE7, 0xBE,
    0x5C, 0x41, 0x90, 0xBE, 0x2D, 0x11, 0x07, 0xBE, 0x93, 0x59, 0x0D, 0xBE,
    0xF9, 0x70, 0x8A, 0xBD, 0x57, 0x67, 0xE6, 0x3D, 0x8A, 0xD1, 0xE3, 0x3C,
    0x60, 0x93, 0x39, 0x3D, 0x89, 0x02, 0xC0, 0x3D, 0x1B, 0x23, 0x66, 0xBD,
    0xAF, 0x80, 0x69, 0x3D, 0x5E, 0x9B, 0xB6, 0x3C, 0x09, 0x9C, 0x99, 0x3C,
    0xE6, 0x19, 0x9F, 0x3C, 0x7F, 0x5D, 0xB4, 0x3E, 0x41, 0xF0, 0x91, 0xBD,
    0x43, 0x35, 0x99, 0xBD, 0x2B, 0x23, 0x19, 0x3E, 0x92, 0xF1, 0x6C, 0x3C,
    0xC9, 0xC1, 0x02, 0xBE, 0xFC, 0x10, 0x98, 0xBE, 0x84, 0xB9, 0x0B, 0xBE,
    0xF7, 0x89, 0x91, 0xBE, 0xD9, 0x69, 0x81, 0xBE, 0x0E, 0x71, 0xA1, 0xBE,
    0x14, 0x39, 0xBF, 0xBE, 0xBA, 0x12, 0x7C, 0xBE, 0x5F, 0x4D, 0x98, 0xBE,
    0x22, 0x1B, 0x86, 0xBE, 0x48, 0x7F, 0x80, 0xBE, 0x0A, 0x88, 0x80, 0xBE,
    0x2E, 0x99, 0x50, 0xBD, 0x96, 0x67, 0x02, 0x3D, 0xF2, 0x70, 0x16, 0xBE,
    0x07, 0x0D, 0xEE, 0x3D, 0x50, 0xD6, 0x86, 0xBD, 0x3C, 0x63, 0x33, 0x3D,
    0xE8, 0xF7, 0xA0, 0xBC, 0xD1, 0xC8, 0x6C, 0x3D, 0x6E, 0x5F, 0xB6, 0xBD,
    0x64, 0x2A, 0xB1, 0x3D, 0x5D, 0xC3, 0x16, 0xBE, 0xC2, 0xBE, 0xDB, 0x3B,
    0x7D, 0x34, 0xA4, 0xBD, 0x2C, 0x1D, 0x10, 0xBE, 0x6E, 0xB8, 0x90, 0x3C,
    0x83, 0x4B, 0x25, 0xBE, 0xFB, 0xB6, 0x1E, 0x3C, 0xEB, 0x37, 0x80, 0x3E,
    0xE1, 0xD7, 0xBF, 0xBD, 0x87, 0x12, 0xA1, 0xBD, 0x99, 0xD2, 0xB0, 0xBD,
    0x45, 0xF5, 0xAF, 0xBC, 0xE9, 0x02, 0x5A, 0xBC, 0x31, 0x56, 0xF3, 0xBD,
    0xFC, 0xEF, 0xCE, 0xBC, 0x07, 0x4E, 0x3F, 0xBD, 0x65, 0x82, 0x2B, 0xBC,
    0x5A, 0xD7, 0xAB, 0x3D, 0x98, 0x07, 0x2F, 0xBE, 0xA1, 0x92, 0x63, 0xBD,
    0x89, 0x94, 0x26, 0x3D, 0xF7, 0xDA, 0x71, 0xBB, 0x02, 0x90, 0x6A, 0x3C,
    0xDF, 0x5E, 0x27, 0x3D, 0x0A, 0xF0, 0xCE, 0x3C, 0x6E, 0x2C, 0x2D, 0x3D,
    0xEF, 0x36, 0xAD, 0x3C, 0x33, 0x5D, 0x96, 0x3D, 0x66, 0xAE, 0x64, 0x3D,
    0x6F, 0x52, 0xBF, 0xBC, 0xB6, 0x12, 0x05, 0x3D, 0x6F, 0x9A, 0x25, 0x3C,
    0x84, 0x20, 0x94, 0x3E, 0x9C, 0xD8, 0xCA, 0x3D, 0xCF, 0xCF, 0x12, 0x3E,
    0x9F, 0xC6, 0x7A, 0x3E, 0xEC, 0x87, 0x7A, 0x3D, 0x98, 0x9E, 0xE7, 0xBB,
    0x68, 0xF8, 0x87, 0x3C, 0xA7, 0x56, 0xE4, 0x3D, 0x0D, 0x25, 0x9F, 0x3D,
    0x8D, 0xAF, 0x75, 0x3D, 0x9C, 0x85, 0x1B, 0x3E, 0x53, 0x88, 0xCF, 0x3C,
    0x32, 0xB2, 0x52, 0x3E, 0x74, 0x9C, 0x10, 0x3E, 0x89, 0x94, 0x88, 0x3D,
    0xB7, 0x9D, 0xAA, 0xBD, 0x28, 0xDF, 0xA8, 0xBD, 0x58, 0x18, 0xD3, 0xBC,
    0x9F, 0x0C, 0x1D, 0x3E, 0x61, 0x00, 0xBF, 0x3D, 0x88, 0xC8, 0xE9, 0xBB,
    0x38, 0x30, 0xA3, 0xBC, 0xBA, 0x99, 0x5D, 0x3D, 0x62, 0x6F, 0xB0, 0x3C,
    0xEC, 0x42, 0xCF, 0xBC, 0x51, 0xE0, 0x42, 0x3D, 0xDF, 0xE6, 0xD6, 0xBD,
    0xA5, 0xCE, 0xEE, 0xBB, 0x22, 0x12, 0x0D, 0x3E, 0xC5, 0xBF, 0xC7, 0x3E,
    0x45, 0xCD, 0x9A, 0x3E, 0xEC, 0xDF, 0x45, 0x3D, 0xC3, 0x55, 0x53, 0x3E,
    0x12, 0xCE, 0xDE, 0x3D, 0x81, 0xEC, 0x9B, 0x3D, 0x73, 0xF8, 0xCA, 0x3D,
    0x4F, 0x35, 0x03, 0xBD, 0x4A, 0x18, 0x59, 0x3E, 0x33, 0x39, 0x11, 0x3D,
    0x96, 0x3C, 0x81, 0x3D, 0x97, 0x04, 0x8D, 0xBD, 0x54, 0xEA, 0x38, 0xBD,
    0xB5, 0xD3, 0xCF, 0x3D, 0x41, 0x61, 0xAE, 0xBC, 0xD1, 0xA9, 0x1A, 0xBD,
    0xD9, 0x30, 0x26, 0xBD, 0xB9, 0x9E, 0xAF, 0xBD, 0x34, 0x3F, 0x2E, 0x3D,
    0xB3, 0x9F, 0x0C, 0x3D, 0x3C, 0x06, 0x3A, 0x3D, 0x6A, 0xC1, 0x8A, 0x3D,
    0xB1, 0xAD, 0x87, 0x38, 0xE0, 0x0A, 0x30, 0x3D, 0x28, 0x34, 0x8E, 0xBD,
    0x73, 0xCA, 0x3B, 0x3B, 0x80, 0xBD, 0xD0, 0x3D, 0xE8, 0x21, 0x6D, 0x3B,
    0xFA, 0x52, 0x8A, 0x3E, 0xD0, 0x10, 0x86, 0x3E, 0x24, 0x61, 0x8B, 0x3E,
    0x91, 0xAB, 0x7E, 0x3E, 0x15, 0x45, 0x97, 0x3E, 0x9D, 0x01, 0x08, 0x3E,
    0x51, 0xEB, 0x03, 0x3E, 0xF5, 0xCE, 0x19, 0x3E, 0x70, 0x74, 0x39, 0x3D,
    0xB9, 0xFB, 0x80, 0x3D, 0xA7, 0xCB, 0x08, 0x3E, 0x53, 0x02, 0xF9, 0xBC,
    0xE6, 0x84, 0x12, 0x3D, 0x34, 0x24, 0x12, 0x3C, 0x54, 0xC5, 0x8E, 0xBD,
    0xEB, 0x28, 0xE0, 0xBD, 0x82, 0x1B, 0x44, 0xBD, 0xCC, 0x64, 0x4F, 0xBE,
    0x87, 0xD7, 0x2C, 0xBD, 0x0E, 0x4B, 0xBB, 0xBD, 0xCE, 0xC4, 0xC5, 0xBD,
    0xD3, 0x33, 0x27, 0xBE, 0xD4, 0x82, 0xC6, 0xBC, 0xB9, 0x47, 0x5B, 0x3D,
    0xC9, 0xE1, 0xC1, 0x3D, 0x60, 0x10, 0xC0, 0x3D, 0x87, 0xA9, 0x9A, 0xBD,
    0xAF, 0x1B, 0x30, 0x3D, 0xF5, 0xBB, 0xE5, 0xBD, 0x8D, 0xA9, 0xA9, 0x3E,
    0xBE, 0xFF, 0x03, 0x3F, 0x81, 0xD0, 0x26, 0x3E, 0x72, 0x89, 0x36, 0x3E,
    0xE3, 0x0D, 0x54, 0x3E, 0xE6, 0x75, 0x09, 0x3E, 0x8E, 0xE7, 0xC8, 0x3D,
    0x24, 0xDF, 0x67, 0x3E, 0x64, 0x1B, 0x5C, 0x3D, 0x0A, 0x56, 0xE1, 0xBB,
    0xDC, 0x33, 0xA2, 0x3D, 0x41, 0x5A, 0x8A, 0x3D, 0x76, 0xDD, 0xC8, 0xBB,
    0xD0, 0xAB, 0x4B, 0xBB, 0x4B, 0x43, 0x10, 0xBD, 0x53, 0x91, 0x91, 0x3D,
    0xA1, 0x95, 0x43, 0xBE, 0x78, 0x6E, 0x27, 0xBE, 0x5D, 0x51, 0xEE, 0xBD,
    0xB9, 0x9A, 0x07, 0xBE, 0x1B, 0x81, 0x16, 0xBE, 0x66, 0x28, 0xC9, 0xBC,
    0x7B, 0x71, 0x01, 0x3D, 0x08, 0xCE, 0x9A, 0x3C, 0x1D, 0xEA, 0x50, 0xBD,
    0x93, 0xCD, 0x90, 0xBD, 0xD3, 0x53, 0x0B, 0x3D, 0xE6, 0x1C, 0x0D, 0xBE,
    0x1D, 0x41, 0x49, 0xBE, 0x75, 0x78, 0xEF, 0x3D, 0xC1, 0xDB, 0xA1, 0x3E,
    0xEB, 0xF3, 0xB6, 0x3E, 0x95, 0x22, 0x71, 0x3E, 0x31, 0xF5, 0x37, 0x3E,
    0x5C, 0x4D, 0x6F, 0x3D, 0x73, 0xF9, 0x99, 0x3D, 0x34, 0xF5, 0x19, 0x3E,
    0xA5, 0xD3, 0x0B, 0x3E, 0xF1, 0x77, 0xA4, 0x3D, 0xB0, 0x0D, 0x0F, 0xBE,
    0x17, 0x85, 0x3F, 0x3C, 0x08, 0x8B, 0xBA, 0x3D, 0x92, 0xE3, 0xAD, 0xBB,
    0x42, 0x6B, 0xCB, 0xBD, 0xDB, 0xBE, 0xDA, 0x3D, 0x5D, 0xBC, 0x2A, 0x3B,
    0x6F, 0x3E, 0x38, 0x3E, 0xFD, 0x75, 0x6E, 0x3E, 0xAE, 0x27, 0xE1, 0x3D,
    0xE7, 0x55, 0x46, 0x3E, 0x92, 0x3C, 0x26, 0xBD, 0x60, 0xE9, 0x33, 0xBE,
    0xE8, 0xD5, 0xB9, 0xBD, 0x06, 0x57, 0xCA, 0x3D, 0x73, 0x6B, 0xA5, 0xBC,
    0x03, 0x97, 0x40, 0x3E, 0x15, 0xBE, 0x47, 0x3D, 0xF7, 0xCD, 0xEA, 0x3D,
    0x85, 0x3A, 0xB3, 0x3E, 0x68, 0x13, 0x7A, 0x3E, 0xEB, 0xD8, 0x8B, 0xBB,
    0xD6, 0xD5, 0x97, 0x3C, 0xC2, 0x8B, 0xCC, 0x3D, 0xFA, 0x03, 0x1E, 0x3E,
    0x56, 0x7F, 0x10, 0xBE, 0x65, 0xD2, 0x08, 0x3E, 0x2E, 0x6C, 0x6A, 0x3E,
    0x9D, 0xDA, 0x00, 0x3E, 0xDD, 0x8E, 0x88, 0xBD, 0x0D, 0x91, 0x63, 0x3E,
    0x63, 0x97, 0x42, 0x3E, 0xB8, 0xEB, 0xCC, 0x3E, 0x5C, 0xE4, 0x16, 0x3E,
    0xE0, 0x3B, 0xCE, 0x3D, 0xBE, 0x82, 0x2E, 0x3E, 0xBB, 0xF3, 0x40, 0x3E,
    0x01, 0x5B, 0x26, 0x3E, 0xC5, 0x35, 0xC1, 0xBC, 0x1E, 0xAD, 0x35, 0xBD,
    0xB8, 0x43, 0x36, 0xBD, 0x9E, 0xA7, 0x1C, 0x3E, 0xBA, 0x54, 0x00, 0xBC,
    0x7A, 0xC9, 0xAC, 0xBD, 0xEE, 0x8E, 0x36, 0xBD, 0x90, 0xA7, 0x07, 0xBE,
    0xDA, 0x3F, 0x19, 0xBE, 0x66, 0xD6, 0x7D, 0xBB, 0xCD, 0x2E, 0x3A, 0xBD,
    0x24, 0x45, 0xD4, 0xBD, 0xF5, 0x8C, 0x19, 0xBE, 0x16, 0xFD, 0x2D, 0xBE,
    0x4A, 0xB6, 0xA7, 0x3E, 0x6C, 0xFA, 0x72, 0x3D, 0xDA, 0x80, 0x3B, 0x3E,
    0x42, 0xB1, 0x54, 0x3D, 0xD6, 0x51, 0xA2, 0x3D, 0xE0, 0x9F, 0x6E, 0x3D,
    0x52, 0x8C, 0xC7, 0xBD, 0x97, 0xF6, 0x16, 0xBD, 0x0C, 0xF0, 0x0E, 0xBE,
    0x2E, 0x9E, 0x81, 0xBD, 0xD7, 0x6D, 0x32, 0xBE, 0xC3, 0x42, 0x48, 0xBE,
    0x4B, 0x17, 0x76, 0xBE, 0x22, 0x49, 0xAB, 0xBD, 0xBF, 0x33, 0x77, 0x3D,
    0xF7, 0xF4, 0xC5, 0xBD, 0x49, 0x18, 0x9A, 0xBC, 0x62, 0xDA, 0xAF, 0xBD,
    0x70, 0x9D, 0xCE, 0x3D, 0x0D, 0x72, 0xA5, 0xBD, 0xBF, 0x91, 0xFC, 0xBC,
    0x65, 0x54, 0xE1, 0xBC, 0xFF, 0x64, 0x82, 0xBD, 0x9B, 0xF2, 0x3B, 0xBE,
    0x6E, 0x50, 0x20, 0x3E, 0xB7, 0xF4, 0xBC, 0xBC, 0x9F, 0x41, 0x02, 0xBD,
    0x5C, 0x78, 0x97, 0x3C, 0x83, 0xA7, 0xE6, 0xBD, 0x64, 0x52, 0x98, 0x3D,
    0x36, 0x71, 0x13, 0x3C, 0x19, 0x01, 0x46, 0xBD, 0x2C, 0xB0, 0x86, 0xBD,
    0x91, 0x31, 0x24, 0xBD, 0x55, 0xCB, 0xE6, 0xBD, 0xCA, 0x40, 0x05, 0x3E,
    0x9D, 0xD0, 0x13, 0xBD, 0x86, 0x5F, 0x38, 0x3D, 0x54, 0x06, 0x83, 0xBC,
    0x65, 0xCB, 0xE3, 0x3D, 0xBD, 0x84, 0x7A, 0x3C, 0x2A, 0x2F, 0x5C, 0xBD,
    0xB2, 0xF0, 0xE4, 0x3D, 0x0B, 0x72, 0x35, 0xBD, 0x08, 0x79, 0xC9, 0xBC,
    0x33, 0xFC, 0x94, 0x3D, 0xD8, 0xFD, 0xF8, 0x3D, 0x49, 0x27, 0x22, 0xBC,
    0x55, 0x83, 0xE7, 0x3D, 0xA6, 0xF7, 0x2B, 0xBD, 0xC7, 0xF7, 0x29, 0x3D,
    0x39, 0xD3, 0x5D, 0x3D, 0x92, 0x59, 0xBF, 0x3D, 0x67, 0x9A, 0xFA, 0x3C,
    0xDB, 0x50, 0x32, 0x3D, 0xAC, 0x8A, 0x52, 0x3D, 0x9A, 0xFE, 0xEE, 0x3D,
    0xC9, 0xE5, 0x80, 0x3E, 0xE6, 0x8F, 0x9F, 0x3E, 0x60, 0x97, 0xEA, 0x3D,
    0xEF, 0xA6, 0x29, 0x3E, 0xAB, 0x08, 0x0E, 0xBD, 0xD3, 0xB2, 0xAC, 0xBC,
    0x1A, 0xE8, 0xCC, 0x3D, 0xD5, 0x13, 0x9A, 0x3C, 0x39, 0x85, 0x89, 0xBD,
    0x77, 0xD7, 0x10, 0xBC, 0x9B, 0xC7, 0x10, 0xBE, 0xC1, 0xE6, 0x17, 0xBE,
    0x18, 0xE2, 0xB2, 0x3D, 0x70, 0x5D, 0x4B, 0x38, 0xB2, 0x88, 0xB4, 0xBC,
    0x9F, 0xDC, 0x26, 0x3E, 0xC0, 0x39, 0x2E, 0x3E, 0x9D, 0x06, 0x13, 0x3E,
    0x01, 0xE1, 0x40, 0xBE, 0xE8, 0x9C, 0xA6, 0xBC, 0x98, 0x91, 0xB0, 0xBC,
    0xAB, 0x08, 0x23, 0x3E, 0xF1, 0xEE, 0xF4, 0xBD, 0xAB, 0x4A, 0xB4, 0xBD,
    0xD4, 0x06, 0x18, 0xBE, 0x5A, 0x3E, 0xD5, 0xBD, 0xFC, 0x21, 0x59, 0xBD,
    0xF7, 0x47, 0xB2, 0x3C, 0x60, 0xEA, 0x05, 0x3D, 0x4D, 0xA7, 0x35, 0x3D,
    0xD8, 0x13, 0xF3, 0xBB, 0xBE, 0x57, 0x4B, 0x3C, 0x90, 0x5C, 0x3E, 0x3E,
    0x8E, 0x4A, 0xA3, 0x3D, 0x4A, 0xD3, 0x78, 0xBE, 0x90, 0xCA, 0x26, 0xBE,
    0x98, 0xFB, 0x80, 0x3D, 0x0F, 0xF5, 0xB4, 0x3D, 0x6E, 0xB5, 0x29, 0x3C,
    0xBF, 0xE6, 0x37, 0x3E, 0xB3, 0x82, 0x02, 0x3D, 0xE4, 0x0D, 0xDD, 0xBD,
    0x1F, 0x69, 0x0B, 0x3C, 0x42, 0x59, 0xAA, 0x3C, 0x38, 0x46, 0x14, 0xBD,
    0xE8, 0x0E, 0xFA, 0x3D, 0x7A, 0x2C, 0x21, 0x3E, 0x65, 0x6C, 0xBC, 0x3C,
    0x74, 0xF3, 0x13, 0x3E, 0x5C, 0x10, 0xC7, 0xBD, 0xF3, 0xA5, 0xA9, 0xBD,
    0x70, 0xFD, 0x25, 0xBD, 0x06, 0x72, 0xD8, 0x3D, 0xDE, 0x91, 0x12, 0x3E,
    0xDC, 0x0D, 0xB1, 0x3D, 0x54, 0x39, 0x10, 0xBE, 0xB4, 0x2A, 0x74, 0xBD,
    0xC4, 0x25, 0x1F, 0xBC, 0x85, 0x92, 0x82, 0x3E, 0x87, 0xAD, 0x3F, 0x3D,
    0x65, 0x46, 0xC0, 0xBB, 0xEC, 0x00, 0x86, 0xBD, 0x4E, 0xEC, 0xAC, 0xBC,
    0x87, 0x73, 0xDA, 0x3D, 0x9C, 0xAF, 0x71, 0xBD, 0x74, 0xC0, 0x29, 0xBC,
    0xF9, 0x51, 0x31, 0x3D, 0xBB, 0x97, 0x1C, 0xBD, 0xDF, 0xD7, 0xF5, 0x3D,
    0x1B, 0x32, 0xEF, 0x3D, 0x5B, 0x6C, 0xE4, 0x3D, 0x7B, 0xB8, 0x11, 0xBC,
    0xDE, 0xD6, 0x89, 0x3D, 0x52, 0x49, 0x0F, 0x3E, 0xE3, 0x15, 0x77, 0xBD,
    0x76, 0x56, 0x05, 0x3E, 0x6C, 0x09, 0xE6, 0x3D, 0xE4, 0x91, 0x69, 0xBE,
    0x28, 0x56, 0xF5, 0xBD, 0x44, 0x49, 0x62, 0xBD, 0xF5, 0xB4, 0x94, 0x3D,
    0x8C, 0x18, 0x88, 0x3D, 0x66, 0x75, 0x2E, 0x3D, 0x7F, 0x8B, 0xAD, 0x3D,
    0x82, 0x3E, 0xC2, 0xBD, 0xF8, 0x95, 0xAB, 0xBD, 0x0A, 0x8C, 0x12, 0x3D,
    0xCC, 0x0F, 0xCA, 0xBB, 0xCE, 0x25, 0x1F, 0x3D, 0x22, 0xF9, 0xDE, 0x3D,
    0xA1, 0x00, 0x49, 0x3D, 0x60, 0x93, 0xF9, 0x3D, 0x56, 0xAA, 0xE8, 0x3D,
    0x7F, 0xB5, 0xCB, 0x3D, 0xF1, 0x15, 0x72, 0xBE, 0x68, 0xBB, 0x39, 0x3D,
    0xC7, 0xED, 0xE8, 0x3D, 0x4A, 0xA7, 0x81, 0x3D, 0x06, 0xC3, 0xCE, 0x3D,
    0x77, 0xCE, 0xB5, 0xBD, 0x11, 0x17, 0x87, 0xBD, 0x78, 0x81, 0x84, 0xBD,
    0x08, 0x61, 0x6B, 0x3C, 0xBB, 0x68, 0x25, 0xBD, 0xCE, 0x51, 0x00, 0xBE,
    0x1B, 0xDA, 0x8A, 0xBE, 0x70, 0xD4, 0xFD, 0x3D, 0x96, 0x74, 0x5D, 0xBD,
    0x0C, 0xD4, 0x66, 0xBD, 0xE0, 0x66, 0x71, 0x3D, 0xD5, 0x83, 0x8C, 0x3D,
    0xBF, 0x6F, 0x07, 0x3E, 0x76, 0x36, 0xAB, 0x3C, 0xBC, 0x75, 0x83, 0xBD,
    0x3C, 0x00, 0x79, 0x3D, 0x72, 0xDA, 0x00, 0x3D, 0x3F, 0x8A, 0x02, 0xBD,
    0xE1, 0x89, 0x15, 0x3C, 0x3B, 0xDF, 0x64, 0xBD, 0x5C, 0x6B, 0xC8, 0x3C,
    0xFA, 0x92, 0x84, 0x3C, 0x49, 0x1D, 0x83, 0x3D, 0x33, 0x89, 0xE1, 0x3C,
    0x10, 0x02, 0x43, 0x3C, 0xB6, 0x13, 0xC0, 0xBC, 0x28, 0x53, 0xD8, 0xBD,
    0x9E, 0x5B, 0xD2, 0x3D, 0xBE, 0x0C, 0x3E, 0x3E, 0x51, 0x41, 0x94, 0x3E,
    0x9F, 0xF2, 0x9F, 0x3D, 0x60, 0x28, 0x32, 0x3E, 0x86, 0xCA, 0x00, 0x3E,
    0x42, 0x2A, 0x10, 0xBE, 0xF7, 0x04, 0xC1, 0xBD, 0x43, 0x83, 0xCB, 0x3D,
    0x02, 0x08, 0xA7, 0x3B, 0x39, 0x7F, 0x6E, 0x3D, 0x64, 0xB0, 0x8A, 0x3D,
    0x2E, 0xE0, 0x37, 0xBD, 0x51, 0x79, 0xFB, 0xBC, 0xF0, 0x9C, 0xE9, 0xBD,
    0x89, 0x14, 0x72, 0x3C, 0x39, 0x28, 0x7B, 0x3D, 0xA9, 0xBC, 0x62, 0x3D,
    0x22, 0xD3, 0xF0, 0xBB, 0x3E, 0x95, 0x83, 0xBD, 0xB8, 0x48, 0xAE, 0x3D,
    0xA0, 0x2A, 0x72, 0xBD, 0x16, 0xDE, 0xF1, 0x3C, 0x91, 0xDB, 0xD7, 0xBD,
    0x08, 0x11, 0xEE, 0xBB, 0xD2, 0x4B, 0xBA, 0xBD, 0x2C, 0xBD, 0x4B, 0xBE,
    0xD6, 0xD8, 0xA3, 0xBE, 0xA9, 0x02, 0x29, 0x3D, 0xA5, 0x82, 0xF4, 0xBC,
    0xD3, 0x5E, 0xE9, 0xBB, 0x7B, 0x70, 0x14, 0xBD, 0xCA, 0x78, 0x02, 0xBD,
    0x7B, 0x4D, 0xB3, 0x3D, 0x69, 0xF9, 0xB6, 0xBE, 0x9A, 0x45, 0x34, 0xBE,
    0x84, 0xA5, 0x10, 0x3E, 0x34, 0x35, 0x5B, 0x3D, 0xB8, 0x9E, 0xC3, 0x3D,
    0x7B, 0x7D, 0x44, 0x3D, 0xAB, 0x3D, 0xC8, 0x3D, 0x06, 0x43, 0x1C, 0x3E,
    0xBF, 0xA2, 0x38, 0x3E, 0x03, 0x39, 0x34, 0xBE, 0x17, 0x4E, 0x5C, 0x3D,
    0x2F, 0x0D, 0x1E, 0xBE, 0x3B, 0x26, 0x5E, 0x3D, 0x52, 0x12, 0x87, 0x3C,
    0xF3, 0x17, 0xB3, 0x3D, 0x41, 0x5E, 0x73, 0x3D, 0xB8, 0x09, 0xC3, 0x3C,
    0xC1, 0x23, 0x8A, 0x3C, 0x6D, 0x66, 0xF1, 0xBC, 0x07, 0x0E, 0x04, 0x3D,
    0x1B, 0x46, 0xA2, 0xBD, 0xA4, 0x51, 0x85, 0x3E, 0xB1, 0x00, 0xBF, 0xBC,
    0xC4, 0x71, 0x05, 0xBE, 0xF0, 0xCD, 0x07, 0xBE, 0x3F, 0x3E, 0xD1, 0xBD,
    0x49, 0xD0, 0xC2, 0x3D, 0x31, 0x57, 0x99, 0x3E, 0xEB, 0x04, 0x90, 0xBE,
    0xE6, 0x18, 0x46, 0xBE, 0x4B, 0x13, 0x96, 0x3D, 0xEC, 0xEF, 0x81, 0xBD,
    0x21, 0x5B, 0xD0, 0x3C, 0xEA, 0x41, 0x2C, 0x3E, 0x0D, 0x2B, 0xB6, 0x3D,
    0xFD, 0x08, 0xD0, 0x3D, 0x7A, 0x3F, 0xA1, 0x3D, 0x20, 0xBE, 0xB0, 0xBC,
    0x65, 0x74, 0x87, 0x3D, 0xE3, 0xB4, 0x58, 0x3D, 0x03, 0xAD, 0x55, 0x3E,
    0xBA, 0x03, 0x24, 0x3D, 0xC3, 0x06, 0x4B, 0xBD, 0x95, 0x74, 0xE7, 0x3D,
    0x87, 0xD8, 0xAC, 0x3C, 0x9E, 0x28, 0x8B, 0x3D, 0xE0, 0xF2, 0x5A, 0x3D,
    0x58, 0x3F, 0x04, 0xBC, 0x37, 0x44, 0x5B, 0x3D, 0x66, 0x03, 0x98, 0x3E,
    0x4D, 0xE0, 0xBD, 0x3D, 0x02, 0xC8, 0x49, 0xBE, 0xE1, 0xEC, 0x74, 0x3D,
    0x8E, 0x35, 0xCE, 0x3D, 0xA5, 0x8B, 0x28, 0xBD, 0xE4, 0xCD, 0x5A, 0xBE,
    0xAA, 0x65, 0x06, 0xBE, 0xB2, 0x2A, 0x26, 0xBD, 0x1A, 0x38, 0xFF, 0xBD,
    0x6B, 0x26, 0xA6, 0xBD, 0x5E, 0xE7, 0x3D, 0xBD, 0xED, 0x72, 0x42, 0xBD,
    0x83, 0xAD, 0x79, 0x3D, 0xA8, 0x97, 0x0F, 0x3E, 0x14, 0x14, 0x32, 0x3D,
    0x47, 0x19, 0xAD, 0x3D, 0xD3, 0x43, 0xB9, 0xBD, 0x2C, 0x55, 0xC2, 0x3C,
    0x4C, 0x9B, 0xCF, 0xBD, 0xAA, 0xFE, 0xB6, 0xBC, 0xE7, 0x89, 0xD3, 0x3C,
    0x74, 0xF7, 0x34, 0x3E, 0x28, 0xB8, 0x69, 0x3D, 0x59, 0x0D, 0xCC, 0x3C,
    0xFC, 0x81, 0xF9, 0x3B, 0x23, 0x04, 0xA9, 0xBC, 0x67, 0x42, 0x97, 0x3D,
    0x04, 0xF8, 0x0F, 0x3D, 0x74, 0x09, 0xC5, 0x3C, 0x40, 0x6E, 0xF3, 0xBD,
    0xD3, 0x22, 0xD9, 0x3C, 0x9B, 0xC1, 0x94, 0xBD, 0x07, 0x52, 0x3D, 0x3E,
    0xD7, 0x22, 0x69, 0xBD, 0x57, 0xE9, 0x01, 0x3E, 0x41, 0x16, 0x23, 0xBD,
    0x2A, 0x7B, 0xD1, 0x3C, 0x16, 0x31, 0xE8, 0x3C, 0x62, 0x0D, 0xB8, 0xBB,
    0xF2, 0x72, 0x01, 0x3E, 0x61, 0xBA, 0x5D, 0x3E, 0x9A, 0xDD, 0xE0, 0x3B,
    0x47, 0x97, 0x86, 0x3D, 0x25, 0x4E, 0x90, 0xBE, 0x9A, 0xBA, 0x26, 0x3C,
    0x50, 0x76, 0x7B, 0xBE, 0x74, 0x06, 0xE3, 0xBD, 0xB2, 0x5A, 0x3C, 0x3C,
    0xAB, 0x2B, 0x41, 0x3C, 0x68, 0xB1, 0xB9, 0xBC, 0xB2, 0xD7, 0xBB, 0x3B,
    0x19, 0x4E, 0x8F, 0x3D, 0x13, 0xC9, 0x69, 0x3D, 0x42, 0x63, 0xE8, 0xBD,
    0x88, 0x2A, 0xC8, 0xBD, 0x2C, 0x24, 0xC4, 0x3B, 0x46, 0x8D, 0xCC, 0x3D,
    0x8F, 0x3A, 0x60, 0xBD, 0xE4, 0x25, 0x15, 0xBE, 0xB0, 0x62, 0x11, 0x3E,
    0xD3, 0xAD, 0x6B, 0x3C, 0x4F, 0xAD, 0x78, 0xBD, 0xF7, 0x39, 0x09, 0xBE,
    0x2A, 0xE1, 0x06, 0xBE, 0x24, 0x2C, 0xD2, 0x3D, 0x3C, 0x47, 0x2E, 0x3D,
    0x32, 0x6F, 0xDA, 0x3D, 0x7B, 0x19, 0x2D, 0x3E, 0xF3, 0x08, 0x09, 0x3D,
    0xA1, 0x22, 0x91, 0x3D, 0x13, 0xDB, 0x81, 0x3D, 0x72, 0xB6, 0x08, 0xBE,
    0x21, 0xB7, 0x5B, 0xBE, 0x4B, 0x4F, 0x11, 0xBD, 0x54, 0x88, 0x7C, 0xBD,
    0xCA, 0x6C, 0x07, 0xBE, 0x41, 0xD2, 0xDE, 0x3D, 0xC3, 0x8D, 0x07, 0x3C,
    0x1F, 0x7E, 0x99, 0x3D, 0x94, 0x78, 0x66, 0x3D, 0xCF, 0x8A, 0xA1, 0xBC,
    0x87, 0x65, 0x31, 0x3D, 0x5C, 0x58, 0x0B, 0x3E, 0x19, 0x45, 0xA3, 0x3D,
    0x93, 0x96, 0x4D, 0x3E, 0x7A, 0x3C, 0x1B, 0xBE, 0xC1, 0x06, 0x89, 0xBE,
    0x13, 0x84, 0xE6, 0x3D, 0xCF, 0x00, 0xCD, 0xBD, 0xBE, 0xD4, 0x4D, 0xBE,
    0xB0, 0x92, 0x83, 0xBE, 0xC6, 0xE2, 0x13, 0xBE, 0x9D, 0xF3, 0x9F, 0x3D,
    0x0D, 0x36, 0x65, 0x3E, 0x18, 0x2D, 0x6F, 0xBC, 0x11, 0x18, 0x35, 0x3E,
    0x6B, 0x27, 0xA6, 0x3D, 0xFE, 0xB5, 0x03, 0x3D, 0x23, 0x25, 0x4F, 0x3D,
    0x7F, 0xE1, 0x9F, 0xBE, 0xAE, 0x30, 0xF5, 0xBD, 0xC1, 0xBD, 0x2C, 0xBE,
    0x41, 0xEE, 0x1B, 0xBE, 0xED, 0xAD, 0x88, 0xBC, 0x1D, 0x15, 0x5D, 0xBD,
    0x69, 0x1F, 0x49, 0xBD, 0xC8, 0x24, 0xC4, 0xBD, 0x09, 0x2C, 0x2C, 0x3E,
    0x11, 0xD5, 0xD8, 0xBC, 0xA1, 0x0B, 0x1F, 0x3E, 0x08, 0x9B, 0x13, 0x3D,
    0x93, 0xCB, 0x47, 0x3C, 0xE6, 0x15, 0x6D, 0x3D, 0x43, 0x2C, 0xF4, 0xBD,
    0x4F, 0x12, 0x7C, 0xBE, 0x10, 0xD2, 0xF7, 0x3D, 0x1B, 0x18, 0x30, 0xBA,
    0x2D, 0xD3, 0x8D, 0xBC, 0x44, 0x08, 0xE3, 0xBD, 0xA9, 0x62, 0x9F, 0xBC,
    0x27, 0x29, 0xEE, 0x3D, 0x97, 0xA9, 0x2C, 0x3E, 0x0E, 0xD3, 0x9C, 0xBD,
    0x68, 0xC3, 0x9E, 0xBD, 0x78, 0x10, 0x13, 0x3E, 0x3D, 0x3C, 0x9E, 0x3D,
    0x38, 0xDE, 0x58, 0xBD, 0x17, 0x3E, 0x2E, 0xBE, 0xD4, 0xBB, 0x10, 0xBE,
    0x00, 0xDE, 0xFD, 0xBD, 0xD7, 0xA7, 0x26, 0xBE, 0xC8, 0xBF, 0x27, 0xBE,
    0x00, 0xBF, 0xAF, 0xBD, 0x4E, 0xFF, 0x74, 0x3D, 0x15, 0xBE, 0xD5, 0x3D,
    0x51, 0x96, 0x86, 0xBD, 0xC1, 0xDC, 0x95, 0x3D, 0x75, 0x15, 0xC8, 0x3C,
    0x26, 0x23, 0x37, 0x3E, 0x7D, 0x20, 0x17, 0xBD, 0x3C, 0x3A, 0x0A, 0x3E,
    0x82, 0xCC, 0xBC, 0xBD, 0xF1, 0xD4, 0x75, 0xBE, 0xF3, 0xCE, 0xC2, 0x3C,
    0x51, 0x97, 0x22, 0x3C, 0x04, 0x91, 0xCB, 0x3D, 0x75, 0x23, 0x58, 0xBD,
    0x93, 0xF7, 0x2E, 0xBD, 0x94, 0x68, 0x10, 0xBD, 0x19, 0xE6, 0x1B, 0x3C,
    0xE6, 0x2D, 0x4D, 0x3E, 0x75, 0x13, 0x89, 0x3D, 0xDA, 0xB2, 0x00, 0x3E,
    0x17, 0x14, 0x9B, 0xBD, 0xC4, 0x2A, 0xCE, 0xBD, 0xC6, 0x55, 0x01, 0x3E,
    0x24, 0x1A, 0x15, 0xBE, 0xED, 0xF1, 0xBE, 0xBD, 0x0C, 0xF8, 0xE4, 0xBB,
    0x03, 0x7E, 0x11, 0xBD, 0x21, 0xDC, 0x72, 0x3D, 0xCC, 0x2C, 0xC1, 0x3D,
    0x5B, 0x63, 0xCD, 0x3D, 0x4F, 0x4A, 0x17, 0xBE, 0x75, 0x56, 0x04, 0x3E,
    0xE9, 0x96, 0xF0, 0x3C, 0x30, 0x36, 0xD1, 0xBD, 0xAE, 0x0B, 0x48, 0x3E,
    0xC2, 0xE6, 0x9D, 0x3E, 0x42, 0x7A, 0x12, 0xBD, 0x31, 0xF8, 0x04, 0x3D,
    0x11, 0x9D, 0x1F, 0x3E, 0x25, 0xFA, 0xAF, 0xBD, 0x6A, 0x78, 0x0F, 0x3E,
    0xAD, 0xBB, 0xB2, 0xBC, 0xC7, 0x02, 0xDC, 0xBD, 0xB3, 0x1C, 0xC3, 0x3D,
    0xA5, 0xF0, 0x8F, 0x3D, 0x4A, 0x3A, 0x16, 0x3E, 0xB0, 0xBC, 0xC2, 0x3C,
    0xAD, 0x82, 0xD1, 0xBD, 0x78, 0xD1, 0x8F, 0x3D, 0xC9, 0x5C, 0x58, 0xBD,
    0x35, 0xAB, 0x09, 0xBD, 0x2A, 0x3F, 0x98, 0x3D, 0x9D, 0xD8, 0x04, 0x3C,
    0x0A, 0x22, 0xC9, 0xBE, 0xE3, 0xC6, 0x38, 0xBE, 0x81, 0xFD, 0xB0, 0xBD,
    0x04, 0x23, 0x92, 0xBD, 0x14, 0x83, 0xF3, 0xBD, 0xA3, 0x48, 0x0D, 0x3C,
    0xC1, 0x97, 0xA6, 0x3D, 0xCE, 0x39, 0xE6, 0xBB, 0xFC, 0xEC, 0xBC, 0x3D,
    0x9D, 0xDB, 0x9A, 0xBD, 0x66, 0x72, 0xB3, 0xBD, 0x78, 0xD0, 0x85, 0xBD,
    0xFD, 0xBB, 0xB5, 0xBE, 0x04, 0x04, 0xF2, 0x3C, 0x28, 0x6D, 0x24, 0x3E,
    0xD0, 0xC7, 0x4F, 0x3D, 0x9F, 0x0B, 0x1F, 0x3E, 0x15, 0xE1, 0xD9, 0xBC,
    0x04, 0xB4, 0x99, 0x3C, 0x0B, 0xDD, 0x10, 0x3E, 0x38, 0xEA, 0x57, 0x3D,
    0x39, 0xB3, 0x1A, 0x3E, 0x7F, 0x4A, 0x27, 0xBD, 0x34, 0xF8, 0x05, 0xBD,
    0x22, 0xD2, 0xF7, 0xBD, 0xA9, 0xD2, 0x26, 0xBD, 0x15, 0x95, 0xB0, 0xBD,
    0x80, 0xF0, 0xA5, 0xBE, 0x01, 0xBA, 0xA2, 0xBD, 0x8F, 0xCC, 0xFD, 0xBD,
    0x07, 0x38, 0x7A, 0xBD, 0xF8, 0xF2, 0xB7, 0x3D, 0xE8, 0x74, 0x80, 0x3D,
    0xE7, 0xC8, 0xD6, 0x3D, 0xF8, 0x81, 0x8F, 0xBB, 0xEE, 0xC8, 0x59, 0x3E,
    0x3B, 0xC8, 0x3C, 0xBE, 0x3E, 0x97, 0x21, 0x3E, 0x34, 0x35, 0xB3, 0x3D,
    0x56, 0xD0, 0xF7, 0xBD, 0xFB, 0xD4, 0xAC, 0xBE, 0x20, 0x1D, 0x48, 0xBE,
    0x44, 0x18, 0xC1, 0x3D, 0xB7, 0x94, 0x42, 0x3E, 0x1A, 0xA3, 0xCC, 0xBA,
    0x5C, 0xCE, 0x04, 0x3C, 0x5D, 0x69, 0x38, 0x3E, 0x7A, 0x6A, 0x89, 0x3D,
    0xB2, 0x5D, 0x4B, 0x3D, 0xBB, 0x14, 0x4D, 0xBC, 0xDE, 0xE5, 0x59, 0xBD,
    0xDE, 0x2D, 0xEC, 0x3C, 0x30, 0x1D, 0xFE, 0xBD, 0x91, 0x3D, 0xBB, 0xBC,
    0x6E, 0x55, 0x44, 0xBE, 0xE0, 0xD2, 0x3D, 0xBD, 0x68, 0x59, 0x59, 0xBE,
    0xCD, 0xD7, 0x3B, 0xBD, 0xA3, 0x66, 0xB0, 0xBD, 0x95, 0x1E, 0x59, 0xBB,
    0x6E, 0x4C, 0x0A, 0x3D, 0xA5, 0xAF, 0x92, 0x3C, 0x59, 0xAA, 0xE6, 0xBC,
    0xBB, 0x98, 0x1E, 0x3E, 0x0D, 0xC5, 0x71, 0xBB, 0x97, 0x05, 0x99, 0xBD,
    0x55, 0xFA, 0xBE, 0xBD, 0xFC, 0x3A, 0xA3, 0xBC, 0xA4, 0xA9, 0xF4, 0xBE,
    0xC6, 0x30, 0xC4, 0x3D, 0x15, 0xF5, 0xD4, 0xBD, 0xF7, 0x69, 0xCD, 0xBC,
    0xC0, 0x65, 0x13, 0x3E, 0xDB, 0x2E, 0xFD, 0xBC, 0x7D, 0xDC, 0xEA, 0x3C,
    0xEA, 0x2D, 0x8A, 0xBD, 0x30, 0xF0, 0xD7, 0x3D, 0x59, 0x54, 0x6D, 0x3D,
    0xF4, 0x83, 0x32, 0xBC, 0x51, 0x33, 0x4C, 0x3D, 0x78, 0x41, 0x2A, 0x3E,
    0x68, 0xF2, 0x6A, 0x3C, 0x9A, 0x64, 0x0B, 0xBE, 0x0F, 0x64, 0x41, 0xBE,
    0x5B, 0x92, 0x23, 0xBE, 0x97, 0xEC, 0x36, 0xBE, 0xFA, 0x2D, 0x77, 0x3E,
    0x62, 0xAF, 0x83, 0x3E, 0x89, 0xC5, 0x16, 0x3D, 0x32, 0xC3, 0x9B, 0x3D,
    0x03, 0x92, 0x4C, 0xBD, 0xB1, 0xA6, 0x7D, 0x3D, 0x1B, 0xE6, 0x15, 0xBD,
    0x09, 0x6F, 0xAD, 0x3D, 0x80, 0xD2, 0x81, 0xBD, 0x4C, 0xF1, 0xC3, 0xBE,
    0x70, 0x9C, 0x51, 0xBE, 0x13, 0xAE, 0x9E, 0x3D, 0x8F, 0x93, 0x61, 0x3D,
    0x9B, 0x39, 0xF8, 0xBC, 0x5B, 0x68, 0x51, 0xBC, 0x92, 0x73, 0x1D, 0xBD,
    0x30, 0xE6, 0x95, 0xBB, 0x80, 0xAB, 0xF1, 0xBB, 0x30, 0x03, 0x73, 0xBD,
    0x11, 0x49, 0xDD, 0xBA, 0x62, 0x43, 0x84, 0x3A, 0x2B, 0x16, 0x3E, 0xBD,
    0x6E, 0x57, 0xB9, 0x3D, 0x76, 0x7E, 0x95, 0x3C, 0xC1, 0xA0, 0x61, 0xBD,
    0xD8, 0x19, 0x17, 0xBE, 0x3A, 0x30, 0x38, 0xBC, 0x7C, 0xD3, 0x22, 0xBE,
    0xD3, 0xD7, 0xEC, 0xBC, 0xC8, 0xB4, 0x06, 0x3D, 0xB1, 0xF6, 0x96, 0x3D,
    0xA1, 0xDF, 0x02, 0x3E, 0x5B, 0x7A, 0xA1, 0x3D, 0x77, 0xE3, 0x02, 0x3E,
    0xDA, 0x93, 0xFF, 0xBD, 0xE4, 0x2E, 0xB2, 0x3D, 0xC6, 0x74, 0x24, 0xBD,
    0xDA, 0x25, 0x01, 0xBF, 0xE6, 0xFE, 0xDD, 0xBD, 0x47, 0x3D, 0x60, 0x3D,
    0xFA, 0xF2, 0x31, 0x3E, 0xC3, 0x6A, 0x36, 0x3E, 0xBB, 0x92, 0xE9, 0xBD,
    0xF0, 0xE1, 0xCF, 0x3C, 0xE4, 0xA8, 0x92, 0xBB, 0xC1, 0x7D, 0x65, 0x3D,
    0xCC, 0xC5, 0xB1, 0xBD, 0xBD, 0xFF, 0xC1, 0xBC, 0x55, 0xB0, 0xAC, 0x3D,
    0xB4, 0xBA, 0xE4, 0x3D, 0x1C, 0x08, 0xEF, 0x3D, 0xCA, 0xAF, 0xBF, 0xBD,
    0x38, 0x77, 0x9A, 0xB9, 0xEF, 0x29, 0x51, 0x3C, 0x38, 0xD6, 0xB3, 0xBD,
    0xF3, 0xEA, 0xEA, 0x3D, 0x72, 0xED, 0x77, 0x3D, 0x52, 0x1F, 0xFB, 0x3D,
    0x9B, 0xC2, 0x09, 0x3E, 0x27, 0xE9, 0x47, 0xBE, 0x61, 0x8E, 0x09, 0xBE,
    0xD0, 0x96, 0xE1, 0x3D, 0xCF, 0xB6, 0xFD, 0x3C, 0xD0, 0xB8, 0x0B, 0x3D,
    0x83, 0x8A, 0x7D, 0x3E, 0x4A, 0xA6, 0xB5, 0xBE, 0x62, 0xB4, 0x7D, 0x3D,
    0xA3, 0x0A, 0xDD, 0x3C, 0x97, 0x54, 0x26, 0xBD, 0x80, 0xAF, 0xCA, 0xBD,
    0x8A, 0x36, 0x9F, 0xBE, 0xF7, 0x4E, 0x04, 0xBE, 0xA0, 0xD5, 0x6C, 0xBD,
    0xA0, 0x0C, 0x6A, 0xBD, 0x0B, 0xD7, 0x66, 0xBD, 0x27, 0xAE, 0x99, 0xBD,
    0x03, 0x87, 0xC8, 0xBD, 0x8A, 0xC6, 0x96, 0xBC, 0xBE, 0x41, 0x76, 0xBD,
    0xC2, 0x22, 0xA3, 0x3D, 0x6A, 0x8B, 0x6E, 0xBD, 0x1E, 0x40, 0x7F, 0x3D,
    0x86, 0xD2, 0xBC, 0x3B, 0xE6, 0x5B, 0x9A, 0x3D, 0x1C, 0x39, 0x3D, 0x3C,
    0xB9, 0xD7, 0xDE, 0xBC, 0x1F, 0xA9, 0xF6, 0xBC, 0xD0, 0xE1, 0x27, 0x3E,
    0x00, 0xA8, 0x4E, 0xBD, 0xC0, 0xC4, 0xF8, 0xBD, 0xB4, 0x6A, 0x87, 0xBD,
    0xF6, 0x36, 0x61, 0x3E, 0x5F, 0x2E, 0x07, 0x3E, 0x84, 0x11, 0xF2, 0xBD,
    0xEC, 0xB3, 0x5E, 0x3E, 0x1A, 0xCD, 0x3B, 0x3E, 0xA9, 0x66, 0xD2, 0xBC,
    0x9C, 0x37, 0xA5, 0xBD, 0x50, 0x6C, 0x0C, 0xBE, 0x32, 0x6F, 0x94, 0xBE,
    0xE6, 0x30, 0x91, 0xBE, 0x0B, 0x01, 0xBB, 0xBD, 0x7A, 0x8D, 0x8A, 0x3D,
    0x5A, 0xDA, 0xBF, 0xBC, 0x27, 0xA5, 0xE6, 0x3B, 0x64, 0xDE, 0xE0, 0xBC,
    0x67, 0x7A, 0x19, 0x3C, 0xA1, 0x13, 0x9B, 0xBD, 0x04, 0x3A, 0x9C, 0x3D,
    0x7D, 0x94, 0x09, 0x3D, 0x04, 0x88, 0x8F, 0x3D, 0x85, 0x48, 0xCA, 0x3D,
    0x79, 0x49, 0xDB, 0x3D, 0xEC, 0x13, 0xD3, 0x3C, 0x0C, 0x8F, 0x03, 0x3E,
    0xBA, 0xB1, 0xE5, 0x3C, 0x28, 0xE8, 0x93, 0x3D, 0xF3, 0x4E, 0x2F, 0x3D,
    0xDA, 0x0F, 0x1E, 0x3E, 0x95, 0x34, 0xB7, 0xBC, 0x6D, 0x1A, 0x75, 0x3C,
    0x2A, 0x41, 0x20, 0x3B, 0xD2, 0x22, 0x26, 0x3C, 0x5D, 0xF6, 0x9C, 0xBC,
    0x79, 0x2C, 0x01, 0xBE, 0x76, 0xAF, 0x83, 0x3D, 0xBF, 0x55, 0x57, 0xBD,
    0x1B, 0x6C, 0x3E, 0xBE, 0x4C, 0xA2, 0x0B, 0xBE, 0x10, 0xB1, 0x50, 0xBE,
    0xD8, 0x23, 0x52, 0xBE, 0x95, 0x50, 0x95, 0xBE, 0xFC, 0xC3, 0xFF, 0xBD,
    0x00, 0x1C, 0x6C, 0x3C, 0xB7, 0x0B, 0xB1, 0xBD, 0x32, 0xD7, 0xA1, 0x3D,
    0x26, 0xCB, 0x7B, 0xBC, 0xD3, 0x18, 0xF2, 0x3D, 0x99, 0x35, 0x8D, 0x3D,
    0x8E, 0xE2, 0xBA, 0xBD, 0x9E, 0xD3, 0x8E, 0x3D, 0x8F, 0x54, 0x63, 0xBD,
    0x03, 0x9F, 0x4B, 0xBD, 0x9B, 0xAB, 0xC9, 0x3B, 0x48, 0x7F, 0x1B, 0x3E,
    0x31, 0x8B, 0x54, 0xBE, 0x6D, 0x6E, 0x21, 0xBE, 0x37, 0xB1, 0x74, 0x3C,
    0xF1, 0x13, 0x68, 0xBB, 0x38, 0x0E, 0x0E, 0xBE, 0xF6, 0x1C, 0x3C, 0xBD,
    0xFA, 0xE2, 0x23, 0xBD, 0x13, 0x0E, 0xBA, 0x3D, 0x93, 0xC6, 0xAF, 0x3D,
    0x49, 0x74, 0xAF, 0xBD, 0x19, 0x7E, 0xDB, 0xBE, 0xD3, 0x00, 0x1C, 0xBE,
    0x21, 0xDB, 0x66, 0xBE, 0xA1, 0xD9, 0xEE, 0xBD, 0x5D, 0xCC, 0x31, 0xBD,
    0x1B, 0xF6, 0x26, 0x3E, 0x0C, 0x77, 0x84, 0xBD, 0x8F, 0x27, 0x44, 0x3E,
    0xAD, 0x7D, 0xE3, 0x3B, 0xF5, 0x0F, 0xF9, 0xBD, 0x99, 0xEE, 0xD9, 0x3D,
    0xD9, 0x59, 0x85, 0x3C, 0x45, 0xA7, 0xC8, 0x3D, 0xF3, 0x0E, 0x3B, 0xBD,
    0x4F, 0xFF, 0x36, 0x3D, 0xD9, 0xAE, 0x63, 0x3D, 0x40, 0xE8, 0xC1, 0x3D,
    0x34, 0x7F, 0x6A, 0x3E, 0xF9, 0xB5, 0x39, 0x3E, 0xAB, 0x5C, 0x6B, 0x3D,
    0xC6, 0x1E, 0x7A, 0x3D, 0xC2, 0x4D, 0x92, 0xBE, 0x8C, 0x37, 0x1F, 0x3D,
    0xE7, 0x64, 0xAC, 0xB8, 0xEF, 0x4C, 0xE2, 0xBD, 0x9D, 0x5F, 0x28, 0x3D,
    0xF9, 0x21, 0xDB, 0xBD, 0x94, 0xF9, 0x00, 0x3E, 0xB4, 0xA0, 0x93, 0xBD,
    0x64, 0x98, 0xCB, 0x3D, 0x5B, 0x2F, 0x86, 0xBD, 0x18, 0xA7, 0x0A, 0x3E,
    0x15, 0x09, 0xB5, 0x3D, 0xE3, 0x96, 0x74, 0xBD, 0x8E, 0x22, 0x19, 0x3C,
    0x2C, 0x05, 0xC8, 0xBC, 0x1A, 0x7E, 0x0C, 0x3D, 0x58, 0xEB, 0x95, 0xBD,
    0x69, 0x5C, 0x21, 0xBE, 0xEF, 0x7F, 0xD1, 0xBC, 0xA2, 0x5B, 0x46, 0xBD,
