node {
  name: "bf16_scalar"
  op: "Const"
  attr {
    key: "dtype"
    value {
      type: DT_BFLOAT16
    }
  }
  attr {
    key: "value"
    value {
      tensor {
        dtype: DT_BFLOAT16
        tensor_shape {
        }
        half_val: 0
      }
    }
  }
}
node {
  name: "bf16_vector"
  op: "Const"
  attr {
    key: "dtype"
    value {
      type: DT_BFLOAT16
    }
  }
  attr {
    key: "value"
    value {
      tensor {
        dtype: DT_BFLOAT16
        tensor_shape {
          dim {
            size: 2
          }
        }
        half_val: 16964
        half_val: 17485
      }
    }
  }
}
node {
  name: "double"
  op: "Const"
  device: "/device:CPU:0"
  attr {
    key: "dtype"
    value {
      type: DT_DOUBLE
    }
  }
  attr {
    key: "value"
    value {
      tensor {
        dtype: DT_DOUBLE
        tensor_shape {
          dim {
            size: 2
          }
          dim {
            size: 3
          }
        }
        tensor_content: "\000\000\000\000\000\000\360?\000\000\000\000\000\000\000@\000\000\000\000\000\000\010@\000\000\000\000\000\000\020@\000\000\000\000\000\000\024@\000\000\000\000\000\000\030@"
      }
    }
  }
}
node {
  name: "x"
  op: "Const"
  device: "/device:CPU:0"
  attr {
    key: "dtype"
    value {
      type: DT_FLOAT
    }
  }
  attr {
    key: "value"
    value {
      tensor {
        dtype: DT_FLOAT
        tensor_shape {
          dim {
            size: 2
          }
          dim {
            size: 3
          }
        }
        tensor_content: "\x00\x00\x80\x3F\x00\x00\x00\x40\x00\x00\x40\x40\x00\x00\x80\x40\x00\x00\xA0\x40\x00\x00\xC0\x40"
      }
    }
  }
}
node {
  name: "y"
  op: "Const"
  device: "/device:CPU:0"
  attr {
    key: "dtype"
    value {
      type: DT_INT64
    }
  }
  attr {
    key: "value"
    value {
      tensor {
        dtype: DT_INT64
        tensor_shape {
          dim {
            size: 2
          }
          dim {
            size: 3
          }
        }
        tensor_content: "\x01\x00\x00\x00\x00\x00\x00\x00\x03\x00\x00\x00\x00\x00\x00\x00\x02\x00\x00\x00\x00\x00\x00\x00\x05\x00\x00\x00\x00\x00\x00\x00\x04\x00\x00\x00\x00\x00\x00\x00\x07\x00\x00\x00\x00\x00\x00\x00"
      }
    }
  }
}
node {
  name: "z"
  op: "Const"
  device: "/device:CPU:0"
  attr {
    key: "dtype"
    value {
      type: DT_INT32
    }
  }
  attr {
    key: "value"
    value {
      tensor {
        dtype: DT_INT32
        tensor_shape {
          dim {
            size: 2
          }
          dim {
            size: 3
          }
        }
        tensor_content: "\x01\x00\x00\x00\x03\x00\x00\x00\x02\x00\x00\x00\x05\x00\x00\x00\x04\x00\x00\x00\x07\x00\x00\x00"
      }
    }
  }
}
