saved_model_schema_version: 1
meta_graphs {
  meta_info_def {
    stripped_op_list {
      op {
        name: "Const"
        output_arg {
          name: "output"
          type_attr: "dtype"
        }
        attr {
          name: "value"
          type: "tensor"
        }
        attr {
          name: "dtype"
          type: "type"
        }
      }
      op {
        name: "Identity"
        input_arg {
          name: "input"
          type_attr: "T"
        }
        output_arg {
          name: "output"
          type_attr: "T"
        }
        attr {
          name: "T"
          type: "type"
        }
      }
      op {
        name: "MergeV2Checkpoints"
        input_arg {
          name: "checkpoint_prefixes"
          type: DT_STRING
        }
        input_arg {
          name: "destination_prefix"
          type: DT_STRING
        }
        attr {
          name: "delete_old_dirs"
          type: "bool"
          default_value {
            b: true
          }
        }
        attr {
          name: "allow_missing_files"
          type: "bool"
          default_value {
            b: false
          }
        }
        is_stateful: true
      }
      op {
        name: "NoOp"
      }
      op {
        name: "Pack"
        input_arg {
          name: "values"
          type_attr: "T"
          number_attr: "N"
        }
        output_arg {
          name: "output"
          type_attr: "T"
        }
        attr {
          name: "N"
          type: "int"
          has_minimum: true
          minimum: 1
        }
        attr {
          name: "T"
          type: "type"
        }
        attr {
          name: "axis"
          type: "int"
          default_value {
            i: 0
          }
        }
      }
      op {
        name: "PartitionedCall"
        input_arg {
          name: "args"
          type_list_attr: "Tin"
        }
        output_arg {
          name: "output"
          type_list_attr: "Tout"
        }
        attr {
          name: "Tin"
          type: "list(type)"
          has_minimum: true
        }
        attr {
          name: "Tout"
          type: "list(type)"
          has_minimum: true
        }
        attr {
          name: "f"
          type: "func"
        }
        attr {
          name: "config"
          type: "string"
          default_value {
            s: ""
          }
        }
        attr {
          name: "config_proto"
          type: "string"
          default_value {
            s: ""
          }
        }
        attr {
          name: "executor_type"
          type: "string"
          default_value {
            s: ""
          }
        }
      }
      op {
        name: "Placeholder"
        output_arg {
          name: "output"
          type_attr: "dtype"
        }
        attr {
          name: "dtype"
          type: "type"
        }
        attr {
          name: "shape"
          type: "shape"
          default_value {
            shape {
              unknown_rank: true
            }
          }
        }
      }
      op {
        name: "RestoreV2"
        input_arg {
          name: "prefix"
          type: DT_STRING
        }
        input_arg {
          name: "tensor_names"
          type: DT_STRING
        }
        input_arg {
          name: "shape_and_slices"
          type: DT_STRING
        }
        output_arg {
          name: "tensors"
          type_list_attr: "dtypes"
        }
        attr {
          name: "dtypes"
          type: "list(type)"
          has_minimum: true
          minimum: 1
        }
        is_stateful: true
      }
      op {
        name: "SaveV2"
        input_arg {
          name: "prefix"
          type: DT_STRING
        }
        input_arg {
          name: "tensor_names"
          type: DT_STRING
        }
        input_arg {
          name: "shape_and_slices"
          type: DT_STRING
        }
        input_arg {
          name: "tensors"
          type_list_attr: "dtypes"
        }
        attr {
          name: "dtypes"
          type: "list(type)"
          has_minimum: true
          minimum: 1
        }
        is_stateful: true
      }
      op {
        name: "Select"
        input_arg {
          name: "condition"
          type: DT_BOOL
        }
        input_arg {
          name: "t"
          type_attr: "T"
        }
        input_arg {
          name: "e"
          type_attr: "T"
        }
        output_arg {
          name: "output"
          type_attr: "T"
        }
        attr {
          name: "T"
          type: "type"
        }
      }
      op {
        name: "ShardedFilename"
        input_arg {
          name: "basename"
          type: DT_STRING
        }
        input_arg {
          name: "shard"
          type: DT_INT32
        }
        input_arg {
          name: "num_shards"
          type: DT_INT32
        }
        output_arg {
          name: "filename"
          type: DT_STRING
        }
      }
      op {
        name: "StatefulPartitionedCall"
        input_arg {
          name: "args"
          type_list_attr: "Tin"
        }
        output_arg {
          name: "output"
          type_list_attr: "Tout"
        }
        attr {
          name: "Tin"
          type: "list(type)"
          has_minimum: true
        }
        attr {
          name: "Tout"
          type: "list(type)"
          has_minimum: true
        }
        attr {
          name: "f"
          type: "func"
        }
        attr {
          name: "config"
          type: "string"
          default_value {
            s: ""
          }
        }
        attr {
          name: "config_proto"
          type: "string"
          default_value {
            s: ""
          }
        }
        attr {
          name: "executor_type"
          type: "string"
          default_value {
            s: ""
          }
        }
        is_stateful: true
        is_distributed_communication: true
      }
      op {
        name: "StaticRegexFullMatch"
        input_arg {
          name: "input"
          type: DT_STRING
        }
        output_arg {
          name: "output"
          type: DT_BOOL
        }
        attr {
          name: "pattern"
          type: "string"
        }
      }
      op {
        name: "StringJoin"
        input_arg {
          name: "inputs"
          type: DT_STRING
          number_attr: "N"
        }
        output_arg {
          name: "output"
          type: DT_STRING
        }
        attr {
          name: "N"
          type: "int"
          has_minimum: true
        }
        attr {
          name: "separator"
          type: "string"
          default_value {
            s: ""
          }
        }
      }
    }
    tags: "serve"
    tensorflow_version: "2.14.0"
    tensorflow_git_version: "unknown"
    stripped_default_attrs: true
  }
  graph_def {
    node {
      name: "Const"
      op: "Const"
      attr {
        key: "_output_shapes"
        value {
          list {
            shape {
              dim {
                size: 150
              }
              dim {
                size: 150
              }
            }
          }
        }
      }
      attr {
        key: "dtype"
        value {
          type: DT_DOUBLE
        }
      }
      attr {
        key: "value"
        value {
          tensor {
            dtype: DT_DOUBLE
            tensor_shape {
              dim {
                size: 150
              }
              dim {
                size: 150
              }
            }
            tensor_content: "`\250S-\322\210\346?\021\261\230\257\371\257\340?\301\244\352\345g\221\346?\006\231\202C\203#\342?\241\001AY7\240\355?\031\275\343\257\231\272\340?X6B\007s\006\306?\364\216\221\020\241\'\303?\022\273\025\211)\010\336?\330[\324\264\201\231\323?\357\010\212\342\230\037\347?\240\272\301Fe\033\344?\3029J\332\352.\343?\2648\250\3644\034\317?\206\341\225\036\302\331\330?\200t\364\331Z\327\214?\364\341\007\n\201\002\350?b2\254e\243\006\327?\240ra\\\004#\255?\016\247\200\0006\362\334?z\203\247\034\253d\354?\320@pj\240\337\325?JM\251<\340\370\334?JQ{\352=w\330?\214\317D\r\267\314\336?\020\343!\237\026\300\336?\350\333\235\231r6\305?3l\223\335\343\323\347?\300z\344\275j\300\251?\201\345\321\227P\\\344?\031\030$\225\031\302\356?t\351d4\266D\315?\362\306m\265\254\037\354?\206\361\305F\324\002\343?\337\224\201\217\252\211\341?\302T\205x\271\205\345?!D7\244w\311\352?>U\244\250\333\260\330?@\2650\377 \360\271?\200#{\327H\032\206?\224\341\252\022\016\010\317?\024x\360l\215k\356?\300\263\234tb\230\206?Hbo\003\220<\320?`X\350\222H\202\256?\355\337\272\376Re\355?d\222bo}\365\340?\010\340*H\3636\352?\214;\2522\221\\\311?\305+\264\333\236\326\354?\225\257\272\270\242\026\342?\257\341V\245j\325\351?\300>\220\350\235\341\272?\226\\\n6\231_\335?h\323\323\200\220\366\344?\310P\000\351\353\255\330?i\233a\344\352\356\356?\'\365\371\206\330l\340?Ne\357\327\3001\323?\240\216\327_u8\260?x\224\220U\314\240\320?\256\177\267\346\234\n\334?+\302\250>\251\247\340?\214\352\273\013\263\274\322?\002\3351R\334v\347?J\343e\r\342\232\325?\230(\024\2345p\327?\362q\251\300;\346\345?Q\033\263\"y\320\346?\270\r\327\200i\347\302?\352\252\376i\252s\340?\252&\177,\253\r\332?*R]]\016\032\344?!\206{\017\226\026\353?\212S!\333!\247\325?\373U%\354\246\351\347?\230s\00607\212\306?2\355\376\323\343\315\325?\330%\252\212\332\313\333?\370\032.\244\267o\344?\224\212\324\371\264\300\331?\307\363\241\366\322\237\340?\250\275\000S9\373\301?\2449\254\237\025\323\316?\266\360mQ\264\016\327?Tof\271\267l\354?\341\234\036\301\311\314\347?\320\352FQ\tv\264?\005\250\300b\376\203\342?\000\026\366\351\034\372\335?\253\224\337 \370\266\343?\003\342nG\263\274\341?\214\233\200\032\264\331\351?o\'\253#2{\346?N\252\240p\323\236\343?\324\366\311\364\007\367\301?Z\234\361W6/\335?\"\020\002\307\260\357\344?\2562a\306\203s\323?PEG\003L\213\256?8\035\275$\253n\276?\310\305\315\306\n=\310?8\267\034\341w\315\314?p0\363\373x\205\276?Me\253\226\332\252\345?\3168\310M)\367\325?\036DE\220\344Z\326?\240\321G3\256x\250?r\233 \\$\374\323?ZN\367,\334d\357?l\212b\024\242\350\333?\366\213\206\005M4\342?a\254\273\355E?\357?\240u\026a>\374\271?\025\023\354G\305I\344?\177\340\332\272\237\230\346?2JJ\010>\264\350?d\032\276\263\350k\324?z\224\346\303\244j\327?8\205\237\244V\376\355?\246\371\363b#\r\321?`I\342\023\\4\307?\340\220\\c\307[\347?\004m\312\301\370\214\331?R\372E\331\034\206\336?\226c\2617K\360\351?\270\312\214\272\026\274\267?a\276\370az\007\353?\345n\364\321$[\345?b\366c\333\274\325\335?\021\n\232\0045O\342?`vl%\376\356\274?Y\254\363\014\256`\354?k\2025\t\266/\341?l\211\245\325\014{\344?&\350\033W|%\347?\306\260qD\274!\327?\0104c\000\334h\344?!\010\322L\364\001\356?\301\357:\023\302\304\351?\241ip1/\256\351?4H2j\352\321\326?FVN\224\335\273\324?oc\240=V\236\350?U\212h\212Wf\357?\350v\356M\325u\341?\010]\344\016\200Y\310?\370\355\271\371\217m\332?(\231\312\2514\270\263?\333w\367\036\333\224\342?0\375M\240\326\301\355?4\364\311\317\342\313\331?\200L\321\356O\356\237?\202J\032#Uv\345?6\206~j\010\357\345?@\343|\003\217,\261?\020\362\314o\n\226\346?t\030\024A{\013\303?\n%\230NQ\034\356?\222^I\033tN\345?\356\037\364T\177\363\323?`\322\277)\207\250\242?\214\325\233Wp\022\303?\303\360\213\241\311\200\351?\336\025\020\265\'\372\322?\374\225\257\'\273_\326?\314\006\010v\223\037\302?4\340\213\366\255\271\326?j<\335\005\005|\327?`J2\016\336\357\235?H\t\274\323\023\032\331?\000DVCL\033\315?\213\256\240\007\004\n\347?V=I\277\303\033\335?\2170\n\256\200K\355?@\231\257,\036\021\335?\370\345[7j#\306?\374\215\r\031iE\321?\374\374\357\235\263\'\321?\221\203\003\023\306?\354? 7\250\016g\013\274?h\250=\321d/\356?\031~\374V\016\233\340?t<\247~\313F\346?X\031\353\2008\252\353?P\364\033X\232\360\303?+((\241\023\360\341?\363\305\217\013&\235\342?\372\333\242\005~\025\345?\rO\277fe\211\350?\267\353\313B\303\315\351?\273\333K\251Y`\357?\332\324\375\367\310\034\345?\000\347\030\311\251\255\245?\235\231\376\010\'l\341?\317W\231\207q\366\342?uN7\336\351\017\344?$z\334\326I\013\337?~\361D\250\216\361\341?;\230O\371j\301\353?X\336\017\037\340\244\277?H\032^\021!\241\310?\266 xM\036 \337?\327\276\023\377\240\207\345?Wp\031\300\344=\341?\226\335\037\320E\003\340?b\331O\3301\313\325?0\373\\\377}\304\303?~lI\201\231)\334?\370x\n\320\261\266\325?C\353\342qB\260\356?\240\251\223\315\n\371\352?\222\362+\304\273V\326?\340f\322\334\370\357\234?\000\274\n\245`\324\\?\214}Yz\247\363\314?\202\2645P\352\327\354?\244Vv\321\372X\356?\230\312\003\032\372\376\321?\274\352\332\014\325s\306?8\263\370\322\016X\347?\215\240\3432.b\351?\202\277\361=\005#\340?\2721j4S\362\330?\207u\237\035\315\006\350?\231\374\231\0075=\355?\310\257fb\222`\320?NwJ~fB\332?x\255^\247\242\030\347?T\310 \341{\021\335?x`\335\031\207\274\321?\374\3254\240\355\342\336?T\203\247\024<\336\340?\240\212c\264\247\360\221?\022\316\352\340n\227\351?:\336|\377 \274\350?\013\230\2577\261\350\345?$>\375\255y\225\340?\267\017aLp\203\341?\234=\311\332\317\273\330?X\204\254\326\217\r\336?\320\257\337\325\366\335\256?\\\363\264\231\313\"\331?b\2620\026\361\315\352?-4\203\'\241k\347?nYg\366\006^\350?X5/X\224W\350?P(\010\363\004a\341?\220Q\'\240\010\332\273?\360R\232k\2229\336?\200\273\243Bg\321\267?\350\316FP\347(\332?\372\367\220\307\"\354\351?l\300\240\311\237\223\306?@\315c\264\007\250\246?\014\026\243\007B\314\336?P%\037\221B\357\343?c\034u\210\206e\357?\360\377\334}^\311\267?\"\311\032\305\330\364\351?HQ\253\213\251\225\351?\016\250\251\335\245\253\342?\017\2149\267\241\314\345?\272`\265k\316\013\320?\347\260OP\317\330\342?HvQs\302h\274?:Df\226\262\312\327?\236\235\004\260hE\332?\340\324\356A\245d\244?\300\245\270\270\217\234\302?/\227\3576(;\354?\005\014?\213!\315\342?$R\365\322\254\034\300??\020\255\354\264\307\343?\310S\200\207\221\376\313?\324\205iE\262\026\314?8\246\007\254\313-\325?<\001\274\331\0025\352?^\003\207\374JR\355?\304\034\242\n\355>\336?\371\2423\024\"\273\342?f\321\356\335\262\355\334?8\315\212\344\351W\345?\236b0\322\225\240\340?\034]\313\261\000\025\350?\340\370\255V(\265\241?\256\035\245\006\237*\347?p\250x\334\214 \264?U7\252p\310Z\343?\031\275j\321M\261\341?\264\362\262\217\324\311\323?\207)X?\007\363\345?dv\370m\207\356\353?pd\337\002[\203\325?_,MN\032a\356?$\244\227j\360\223\323?\355a\335\006\267\303\353?\010\361\351B\231\r\310?\340\017\321\177\2117\304?4n\342\345!\276\322?\336J\257y\224\201\350?\017\026\365OO\207\345?\250N7\313\222(\356?\250\325QMK\372\315?}\365\373\331\036\305\353?\266veT\202\365\352?\252\316\n\266\234~\332?\340T\001\027+\324\327?\234\375\240%\233\220\330?\014!f\373Qd\357?\0009k\372\374$\243?\244\t\022T\t\231\333?\351:@\362F\371\341?\002\035\305\007\223\364\320?\330\222\324\277\\\325\324?J8\002\200\305\333\346? \212tJ\346&\340?\250\260\014&\025\'\314?\300\277\"\031\355\300\254?+\016\220\236*c\347?\361\261\023\360\254\361\354?fe\331\203\025\032\326?hL\344\312\331\344\267?\323Yt\273\365\350\346?\254!{\352g\224\343?\316\375\236\222u\035\337?\217\314F\373Tt\353?\350\242o\317\204^\346?\314\353\357\262\276\331\340?\254\276{\3219!\315?\305\272@\370\376\337\347?0\251~\324\314\010\254?\000n\335\n\274C\334?\350\360\373\352\377\224\276?%\236\320\2759\201\351?\210\306AWq\232\306?L\302\301\256\345\350\334?`\332\305K\274.\242?\202dU\307\320\274\327?D\331\322\026\365U\314?%\177\237\005\331X\340?\321\360\357\353\243\344\353?P\026\314\013&\327\252?d\304\364$\024\255\346?\255\263\331\024^&\350?\025siS\000\023\353?$\203\213\222\206\374\311?kIg\266\326\240\357?c\031\022\354\322\372\346?H\344 9\0078\314?s\304\330\211\270\240\343?\026\250\305\232\316\333\322?\254\327\266VY\370\310?\267\375)v\210\207\357?\214\222\001\231m`\314?6p\302g\354\341\342?\360\265|+\305\215\300?\";\340\372\354<\342?\016\307\006\363\372\331\327?\360\315d\003\375\324\257?~\364\001\3347O\343?<_\n\316\264\262\301?\3524\253\322\255\234\342?6\020x \216V\342?\277\260I\252+\204\351?p\036\263f\360I\326?\352\263P$K\373\330?\207F\224\000\324\340\352?\3676O]\313\301\342?\202;\372\000[\327\332?L<\307\2433+\321?8$\023\"?n\327?\250\314\340\226\363I\322?\210c\t\264\024\244\344?2\375\233B\"\224\357?4T\201^)\000\302?dfu\317tZ\311?N3\300\2167I\321?\244\251B\341\361\305\304?\200\330\" \350E\357?\203\003\325\2725K\357?c\022\227?\036\316\353?L\231+\001\223i\354?\350\035\247\323\\\236\355?\236m\335af\334\352?\363\334L\2472\026\340?\370\354\223\317\354\244\312?\266\033\301D\327\206\323?4d)\260xw\325?|S\013\000\036g\340?Q\021K?\356~\340?\360\317\311\022\240C\357?\272\221D\332\222\340\332?\226\366\301\277\352\332\336?E\230T\277\320^\345?\274_\031\026\215\322\317?fy\016\3300\204\337?[\322c\214\334<\344?jb\017\357\021^\324?\274\227e\002\322\227\347?\370\005]\242^\t\345?\375\366\037\2630~\346?\206D\026\241\035\034\356?\270 \257\"\202-\317?/\341\276\306H\374\342?\260\034\020\317\r\"\337?\230\231]\021\245\223\271?C\272E|Z\264\352?0\302\000\276\245\242\340?\223\362\225W3\271\355?\344%\257\354$\037\333?\330\246\371jM\254\306?\200\257\320\333J\354\351?\300\254\311\206^5\227?\364y7\301\316.\307?\314\232W\tF\021\307?T+P&\326\250\352?\360G\3128\226\342\247?\262\214\007\016\017\335\340?|\270hH+{\330?K)\373\331\235B\340?0\313\313\0248M\262?\343\322\240m\203\251\355?x\307\333)\022s\322?\317o\t>\376<\341?\255P|\025Q\374\345?\'\320\037\230\250!\357?\356\343\002gV\366\344?d\021\340\001\007\332\334?\020=\221\330\336\335\352?`\2538B\251\324\225?\360\177\017:K\246\335?\202\316\366\265\004\245\347?\326\230\352\244Z\242\335?T\270\0176~\345\307?\220\3209\311\206\007\273?\204\"\r.\275\375\343?\023\352\003;\376}\340?\024u\266\223M\343\344?@h\3242\365\340\333?\251\n\240V\202\002\343?\261\334\'[w\247\340?Pn\331;\347a\262?\235y%\367\251\331\344?\014c \003\035\364\334?x\307\007\n\274\014\262?\374\023\300\362\226\323\350?\320\225\355\177$\333\333?})z\257\370\364\352?\333F\356\357\200\024\342?\244$\027\272\376o\342?\360\327\231\365\375\272\354?\000\266hU\246\324\341?\200N\036[\010\202\347?\227\025\303\353\223t\357?`\220\237\311\237R\300?~y\375\006\354\n\333?8\2353\'\360\375\324?`\004c\363\354\274\325?@~=66\202\332?\251A\274\251\214Y\342?J0\247c\201\225\341?\340\'t\315\354\217\264?@9\010\316\201/\216?%\374\224\3037\233\344?<\341\037\013{\232\354?\320\017\363\373~H\270?\311[\313\322}-\351?s\246\005;\325k\350?\210\251\252\r\334`\335?z\371\203\327\315H\354?\320\330$K\272U\336?\022\224\301R\236\336\341?\360\022\320on\025\345?\360\201c\244/\303\350?\264\247\327P\313\225\336?\237T\266\r\006\245\352?\272\"\262\256(D\355?\325\254\365\033\243\n\354?\024\307p/jV\316?V\332\210\312\212\343\324?\327\366N~\212\237\357?\200\025\252\263\371\036\207?\224wVd9\013\325?\250g\356\221f!\263?\300|\343\330\220\334\331?\362\037)\215\373\227\335?\372\360\000\212\302\244\346?\274~g\223\257\324\332?\024s\255WE\250\346?`b>xO\263\262?eR\007\367\273\233\341?/\330\326\361\312\037\347?\315h\316I\213\275\340?\300\373[gEk\305?2?I\021\262f\347?\250\377(\347\311\332\314?\300Q?o\240\315\274?\323~1\254-p\343?X\277&\tuL\271?\025\327\376\034j\217\347?\010\224\341\343\244U\264?\310n\233~\336\337\322?\337\343F\202\023\303\345?`[\225\010!\371\304?\211s\254\013\024G\345?\024\222\006\314\340\020\300?;\244\255\356\270\324\347?\020#\353\360\371\301\246?\\\000\013\240(\022\330?\276\331i\214\312\017\344?\345\346\000W\313i\353?\360MD\247\005\003\320?\030\201i\3634\344\313?\254B\031k\023\310\304?\030\316\030\215\204\335\267?#\233EM\230\344\354?bi\363u$\240\333?<\373\377D}G\310?\\%\003]\026\270\357?\224\005o67?\342?\342\020s\247k\"\325?\374_\324\343}q\313?%\236\234:\301\300\350?\000\010<=\000j\350?\230\3253\000\301\353\301?\244\367D\214\232\022\337?\364\ne\374\030\331\346?\213\342\225\372\n^\346?\274\260%\351V\010\340?x\220\353Q\347\330\304?\203v\200\266r\374\345?\242\375%8J\273\334?\007\245-U\362|\352?H\262\236f\2065\350?F\300\017\362\255\245\356?\212r\334\320C!\324?x\311\034D\037\362\303?/\207CE?x\342?,L\301d\275:\335?\342\335\330\031I\021\335?\237\342\001P\204\032\344?\010\241dYX~\327?\320\366\272\355\236z\304?\000\3667B6l\\?q\271\331\354c\301\341?\006<\226\337\254\342\354?\200\006k\025\2207\263?\001\361#\000\252i\346?\265\025\3546\367\017\340?\266\001\201\330\315\257\337?P\010\374!\n\372\327?@\267\3463\313x\211?wg/\336\363&\340?\346P\275zh\267\332?\264\230M[0\234\323?\365\244\303O\261W\343?\222\203\235\016\274\271\341?\277<\014k&\000\340?\230p\267J\315T\264?\230\364u\225\256\271\342?\314;\031\002\034\234\331?\240\373\236\217\372\230\333?\252\317A\217r\000\331?\000C\037\247\354r\325?\007V\013\374y/\345?\014\006\377\236j\353\331?\365\027\033\317\031\216\344?T\300\204$D\244\305?\000\343\237\272#\376\250?(\323N\277>O\345?A\275\036\343\037\375\346?|0\007m\020&\340?\214\277\336\001\247\313\314?\250\272\301\302\327\261\270?\372\365\037\034x$\346?B\260\370\212\346u\331?\270TLY\316\223\331?\270\341\300`\324P\304?\2721>\233D\037\341?\274\344+\257\204D\337?\225\005\036\205\034\037\356?\201]\221\237?\016\351?s\205\267\201\314\330\354?.@Re\253\r\327?\360T&\025\315\327\317?fd\021\242\360I\352?\200\362W\261\366\355\342?H\267\305$\313?\356?\347\206\241`\275\010\344?\340\314\177\344\017\230\235?\304\016T\252\207\031\330?\362\213\227$\331W\356?:\017C\205MT\323?\373\205\004\232X\366\350?@E\231\002\302O\357?z\3457\266\260\214\337?\205\210\037\265\210M\343?D\372\2760b6\343?r\362W\267k\333\341?>*\236an\244\353?\177\372fS\361R\344?N.\322\026\026t\321?\321\246\032\340\235\261\343?\000\373.\206\0312\261?\254\200k68[\331?L\256\225\036\006\t\347?%\023-QQ\252\356?z\021\3365\355\316\336?\221\260\225F<*\343?\366\035\300\344]G\356?\323\023t\021?\341\344?? \323\310\023\203\341?\200\216\331n8{\230?\010\334X\315\255]\300?qImhT\205\355?\302V\016\265el\323?\373\356\350\323\323\032\350?JeL{\205s\340?\006\027v\271\353\245\345?\377g\252<\032\376\341?R\213U\327\r\337\346?\240w\255\256r.\305?`\221X\270\240\\\264?0\3065.\365&\300?;\245`\266\025\203\341?\177|0\211\273\357\347?\0271TE\272\326\353?\250\226\n\036j\270\301?(\332\2610\033\352\300?\350\027BQ\215J\350?\235\t`\0307\225\353?\213\355\241E\"C\342?F\247\301\212\202\217\335?tXE*?P\314?\025\276?k\216\n\354?\311%\272\034\003\373\353?w\213\337=\276|\351?p\273\034k\227Z\304?\337=\023\267\230\241\353?`\376\004P\030\226\345?\3204\233\r\0258\306?T\343\204.)`\356?\326\355,\376\027P\333?{+\336\252\332\346\347?\300\270;\225\327\306\252?\000\023\275W+\r\247?h?\303\332\341\252\343?\324\214J\264x\032\344?\000\246P\354\312\024\205?\2729\326\220w\001\321?\230\t\367\354\355\325\304?h\310\234\233\tc\310?\355\003\254\223L\217\353?\314\"{\235\365\377\355?]\324\307\351^\205\355?\242_\224\023iu\344?X\316 \026\320\301\347?EVW\036E0\354?E\373>\366\211\357\344?\210a\272\353\350,\341?|\020\247\217\024\347\315?\275\210\244\226\226t\343?p\351\242\266\246\377\246?\032`\262\302\214C\352?\300\020\331\t\304\371\333?@\222 \370\204n\302?\240\346LQH}\245?\300\016eNYX\331?`Q;\201\031\272\223?\020XX\364\2661\254?\000\214\'*\"\352x?\024\343Z\336\352+\303?\240es*\026\316\253?rX1]\365\340\353?\320\247,\030\237\374\240?\252s*\303~\312\336? \255\216(\274O\317?L\335\267\373\375\301\310?\215\207i\225\024\020\346?\314\322\361\322\364\375\356?\244\222\2564>\320\323?\240\374\005\307\265\343\267?5;\216\206j\272\352?\230\\\323g\362G\323?P\226\367-:\317\271?\265\317\305\025\240\226\340?$\326\336]\311\252\326?\320\376\275&$i\303?\n[\231\316\374\372\357?\000\026\030GW\377\230?0\200\237\315~\326\276?\032\215\243\215^n\353?\370\225*\025\310\307\342?_\177\324v\371\325\346?2\364\371RB\231\320?|\344\331\266D\264\344?\310]w\301\270|\340?\321\000l\262\233\271\341?\033\260\023\246F\001\345?i\233s\233\3000\347?lw\364jMB\300?\316~\277\027}D\351?;yTV(S\354?\000~\t\036@\276\334?\233\237Muh;\351?\021\213\2437F\257\347?R\375,p\266\247\351?\356\354\277\354w\032\322?\234\306Ru\0009\301?}!\252\244 \021\354?0B\322.B\265\300?|/2\203\340\370\330?P\335N18\227\253?8\353\242\262\203\t\324?\350v\n\334\264\204\337?rTY=\303\300\345?\300\365*\277\272\365\266?\022\271\373\307Sn\346?\376\354]]\226\326\320?\320\207iU\234\311\345?\303\017,\321\236\336\343?(\303mb\022;\271?\3325\362\017K\236\332?\016Z\376I:n\336?\330$\266\307\232K\324?\214\0374\357\330M\330?\220\026kq\221\261\322?\301\241K\2017g\350?~\211IL\2463\320?\004\344\030\030\036\365\333?.\325n\311@h\354?\017\217\264~;\r\357?\216;\224\206\240\235\357?\330\212\302c\323y\341?\303\271u\345\371\323\347?4\262|\336L7\337?@\345\030\332\375\376\241?\224R\255\333+\360\311?\362\320\201\305\235\214\327?\010Q~\326\255\331\307? x\250|I{\277?\341g\376DIo\345?\300\205\353E\027T\332?X\352\357V)\002\330?\034\250\351uk\001\336?$\263]$wR\300?\250&\2147W\210\356?\250\017\030\362\311E\346?j\n!\253\201\230\342?}9:\375g\361\356?#\\\342\203\3503\341?H5\371\002;\254\263?(\306\234\205\346\373\312?\305u\"\247\314\222\351?\360M\232;;\321\274?\000\3373x\356\035\271?\354\3724;\300=\331?\222\347Q\023\236\027\343?\250\"|\327A\306\337?\360:\354l\253\013\312?\n\001?\332\332\326\356?!%\257\274N\361\346?|\360*\271\304\033\330?\317\006J\256F\003\353?Ak72|\267\345?\2416\335V\216:\347?\204o/\337V\305\341?\344\320(Z\332\310\341?2\252y\370\000\260\357?H\220\317\332\375\013\303?I>\261J\302\004\341?z\235\215\200w\t\322?\301\253\232\271\331\347\357?\002\243\271\356Ku\352?{\304\356\266\307I\350?\010Is\316\263_\305?p,\264\321)\023\332?VyBm&g\320?\210\311\216g \304\321?r\265\343\037\360\357\332?F\026\271!\345;\350?g\251\214\276Z\206\344?\3424[\241\265.\355?\253nG\266\276\316\350?4\243;\266\310\275\335?x\310\262\364^\001\353?8<\tU\361m\305?\2626t\342\216-\353?,\347\223,\273\034\314?\376\262\200J:\347\351?\366\325D\371Y\310\356?dE\324\330e6\333?\2260\024!\350{\356?!:\265\361%\266\347?H\'\247\271\266\365\332?@\212\274A\341-\320?\013\336\314k7\373\344?\301\006]\240\307\301\353?\304V\214o\306\352\316?\314\315\253\237\270c\345?\000\357\215\376\r&e?\242g\331\334|L\320?\342\356\227a\006C\350?\224\374\305Z;8\343?\352\222_\354jX\355?%~\"\270\036\363\346?t\202\206F\353\327\343? \234\323o\006;\324?\355\'5s\372.\357?}\021W\004V\271\342?\202,\224s\216\220\351?\266\215\001\3700\245\320?\277\237\316\273\302\204\346?\332\rv^i\260\337?\302y|m\230!\320?Pb\331Z\273&\311?\330,lg\324\024\276?\007\n_\03780\354?\354\312$\036\022\311\344?\301O\321\312\0105\355?\340d\200<\375o\271?\2258(\324\300\033\351??\250G\247\2400\354?p\251|S\267\267\300?\306MRFCF\346?\211O\027\373\371t\355?D\321g\234!X\327?\200M\023(\276\277\324?P\251\207\021\375\225\241?\000\026i{y\r\307? \024_\276L\246\357?dG\212\302\022\350\335?\033V\303\010\277\216\347?\244\254\007\272CP\343?=2\350\245}\022\347?NW\331\257\020p\356?\275V\245\214\355\273\350?u\324(\270\376\362\340?$pe)\321\270\341?p\354D\252\210.\332?\345\305{\354\213K\350?\367J\354\340\031\367\343?c\353\033\331\346\335\357?\3723d\216\030\314\353?h,\207\321\226\004\275?\322\036 /\201\304\356?0\266C\006\243\352\264?\255\331\223\331\233r\353?`S~u\323-\306?md\250\221\277\276\353?\320\026\357\316\232\376\354?\200\267n\236\271ru?\304\277\360\034qj\306?\214\362\264\234\337\256\350?\310\342\266d\316\236\331?\3747\345\253\231(\337?#\032d\034\374\275\343?\367RK\366<\030\357?t\316F\262?o\353?\024\334Z<\203\035\341?X~\230y\303\036\303?P\024\266\276\304:\274?\300h\353Y\332h\332?~\302Xun\237\320?\341\251\250\323\350\371\355?\316\003\250C\267\361\326?\200\036\306\272k\322\256?\224\264\3105)\177\322?uP\334\002UR\353?\362\014\341hp\222\336?\307\330\260;\203\341\340?\327Y\314q\3402\351?\000\013e\306\331\362\202?\024\023\236\025q\307\325?\222\251!\246\273\255\320?\036Z9\2015Q\347?F=\254CMX\344?\330\253bO=+\357?8\302\206\206\204u\313?\213\233\365C\006\276\352?y5\331U\377\326\341?\363\356\nb\322\244\353?\315\200\334r\013\200\342?\002\351\326\217\210\353\356?P,E-\010a\275?\232\001S#\255\210\332?5\347s\035\272\331\347?4\345\341\000\300\214\310?\364=E+{\300\337?`\225\203f\376\206\244?<?\007\342rC\332? \';xD\367\276?\000B\r\361!w\302?\223&\342\006I1\344?\277\365\255\245\360b\352?\244.\215\265H\320\321?<%\352\2455\242\323?}\343\207U\371B\344?5\335\352\2035G\344?\240\'hOh\364\222?|Zrdg]\327?\350\322\320Y\371\316\354?\200n[\r\361y\233?@\303}\233\245\344\212?\310\306\336T\243\277\352?*\004\344\233\317\r\326?\306,\341\356\\\313\345?XE_N\267\234\321?\210\"\t\324\036\274\343?\230\230\261\254\177j\350?\247%_~,\251\340?d\345\327(~\n\333?\232\261X\025\250\331\345?b\002\252\234\275\350\331?RZ\324\374\006g\346?M\337\324e\347\257\351?\260(\262a\031>\336?\300\32610<%\346?\210\367\3647J\273\357?\004\275\351\250\2753\335?\202W\275\2459\326\321?\370\010\364\272_\245\312?\363\315%wz\033\341?\363\001\241\373\252\233\350?\240Q7\353&\303\313?\263>\304\035\272L\356?ld\275v\307\216\352?.9yA31\325?\263K\251\034\335\246\343?\272\314\347\311Pc\333?\210\363\276t\240}\327?:\327yG\304V\356?\346\303l\024\340\303\325?@\231\002gP\321\263?\263H\230\242\305\205\345?V\263\256\227\323\'\321?\212\220\370cj\345\327?\204\030W\003\352\\\310?\000G\000\020\022\232\222?\356\002Z\2137n\351?\242+\333\216>j\351?\024\025\177\234w\221\341?n\362\027\240\240\350\340?^?JX\275\305\324?\000\233\312\363/\371u?x\006\215\323\200\341\352?\260\227\222\204\304\030\303?P\036\223~t\006\254?\014\306C\320\315\367\336?\350\006)es^\261?\2428\034\255<J\345?\235\253\222s\030K\340? \027\342\241Y+\225?ae\2067t\355\355?\346\215\311\373\301\275\346?TJ\016&\277\324\300?\223\017\301\354\026$\344?\270%\360\352l\230\347?\270a\225\265\324^\353?\241\202\261O\020g\340?\270\225\177h[\213\310?\273hq\232\024\355\351?b\214\240\031 -\327?0\032\017\232\352\014\323?@\331A\264\332(\306?n\272\035\022di\355?H\247\003D|:\317?\2558B\277\346\315\346?\3119f0\261\305\343?\320\357H\206\377o\325?\023\323\271\037\304q\345?!\276\234\356\240\257\347?\003}9\236UH\344?|`\020\001#u\301?\220GX\021Qg\271?\320\327\037\256\346\306\276?zQ\373\026\3715\321?KD\321\247\033O\357?\210\205\255\230D=\341?\220e46\014\360\265?X\333\017_\341\262\347?\262\343j\317a\364\352?\300\276\220Jg\n\320?>\204\311$\325*\324?d\350~\204e\311\316? \311\265\035\262#\254?(^\331,\334k\354?$\223\364\233B\232\311?P\360\305\r\261@\251?$p\267r\311\022\343? \244!\341?`\253?o\324\355^w\276\352?\036\347\n\227\250\254\352?$\216\345\343\336*\303?\004r\203Ge\364\335?X\272-Q\013\000\266?:\2528\356!Q\354?wL\351\022\330U\344?\2306\r\214<>\323?\323\356 y,\271\352?]\346@9g\324\343?\306\272Q\217\266.\321?\220\246_\"Q\035\331?\320(\274\251k\304\317?\267Y\222r\311\263\345?\347\352\262\332\341\353\345?\314\226\276\376\354\244\312?Dh\322C\230F\306?E\321O\234/\022\353?6Z\344:F\221\352?(\207\034\013\350N\276?\327\320W\031\305\177\352?\332/\334nu\220\351?\000N\253\300X\356\311?H\322\025%\304\254\265?\204\234\264\234\224G\320?\030<\212hE\373\337?\371\224[k\010\256\352?\350I\327\014\232F\342?\"\243\227%\017\252\355?@\335}4\013\373\273?C\372jH\030\332\346?\317\220\364n\350H\340?tW\360\277;\n\324?\260\0318\343|\"\330?\000\231\231O2\014u?\000\2178\343_\347\247?\300\262\000g\260\314\341?\324wU\005KE\305?\240\250\252\377\363\272\344?G\323\030\013\210n\356?\205\036\244\353w\230\340?\222\273\354KOA\320?@\340\2460,Z\243?6|\315\023\322\244\337?\002CPEzm\322?\016\206[~ I\357?<|*\030=2\312?u\270.P:\267\346?\277\370\007\252\321K\351?8\036l`\201\017\344?\000\235\307|\215N\273?V\206-#6\002\320?\t\006\2153\314\225\344?\240\363)\231\376,\311?\002\243,\250\035\306\326?\335\310\005\305gx\353?q\261\034d\257\221\342?o\344\321\257j\300\343?W\342\370e\315\241\357?\n\235\013V:Q\327?]\273\205D\256\321\347?\002\005A\314\234\005\324?\273\315\271\300]\223\343?h\3233\315\270@\325?\376|@\016?Y\335?P\351\253\036\335;\346?\220\323\022\354\365X\305?=)\303d\220%\342?\267m\036a@\030\340?\372\013Lv\3123\331?b\"\253\335\323%\355?~\330\266h\220b\353?\226\',\"\254\273\322?\306\037\323\267\000\021\357?4\205P\254\002\026\357?@m\313\275\031\347\204?A\313\275\212\374\217\344?n\250\262\034g.\345?\002\361v\202\013%\337?[\2525\274\204\244\357?\250\216P\255\204\256\274?\311\325\302\232\337\246\357?\376\027\311.\247|\345?lgUlh\233\331?\300-q\241\210\305\237?\2164e\002\335$\331?\215\271\360C\231\203\357?\360\026\222\237\003\235\326?n\024\225~\374\340\356?\247X\000W\013T\357?;\361\205M<\223\345?E,\217\307{\010\347?h\272\311\2414\226\342?\'6\022\010\371\364\357?%\220)\003\313\224\354?`\272\223\034\201\206\302?k\231h\324\301\274\340?T\277E\250M\346\300?\230\332\245\250\246\314\345?\034\213\307\005\275\220\343?\034\037[\021\271\003\341?\030\010\356\377.s\312?\232B\325\217\027\005\354?\214\\K\317\343\216\305?\347a>\247f\033\342?S\346\236\234\027T\343?v\000\204\262\270\\\345?\t\201\331W@\217\351?;\005\250\251T\001\340?\346\367#f\320=\333?\310\007\215\026\025[\274?\362}(\337\307\235\357?\212\031\353\007\220\271\333?\316\014@n\261\344\356?\200\343v\016\266\243\227?\023\203`|\217\314\345?A\225\234\'\247\374\341?\200\364\272T\324a\340?\350\264\303\370\252\226\324?\235\023B\266\\\261\340?C\252\334\254\236S\347?\365\203<\375\222\314\343?\034\002\334\376\277\026\350?\337\013\246\217\335\263\357?\214\236\2225\363 \341?\025\216\300\361>\254\356?\036\003\237u~\354\323?8\031\210\222\262\374\345?M\252\027\341q9\354?co\211.\360\347\351?\230\266\r\307s\322\356?\224\377\325n\363P\353?\300\002\222\2063\245\306?\207HE\004\010\341\355?|\331\335\237\370u\337?\250\242U\254\026e\265?0\302\363\030\221\225\306?@\177\026F\312\036\206?\365\274r\327}1\344?\003\262\010\255\221%\357?\024\372\037\306\014\276\343?\010\002\371h\300p\347?\323\233,]t\000\352?\265)\306`\226\267\344?\010\372\037fvf\322?p,\"\210\222$\242?\204\023\364\206\223\261\350?\311]y+V\213\347?A\034\246\277\335$\342?\203\001Is\214\205\357?\242\366_\303\220y\350?\010i\'e\320\353\315?\340I\317m\346\264\332?o\\_\255\000\n\352?\265\355I\t\3627\345?\273\3505X(\372\357?\306\"!\212\227\241\335?X\021\316\266\016\216\325?\210\0070\226\241S\306?]6\2116\233\300\340?\300\352$\333\373Y\273?\017\007\026g\356\004\355?P\317Qv\3319\250?\375\352\030[\357\310\355?\007$\005\333\312\316\343?\237~\315\321vN\340?\331F\232O\025\240\345?\010\360\252_\254\014\353?0\033\275\262!(\323?X\207\031\303\300g\356?\275\242\261\rJ\260\346?\343\025\222=\304\312\343?\234\260\231\215\362w\317?\200\207\'\026\222\300\203?@\277\377/\220\200\252?\306R\207\237k\036\327?\205\332VN\005\337\353? )\017?M\243\233?_Z&\265\r\371\340?\364-]j\316\307\337?L?\204\010[\304\330?RF\254\346;\366\324?a\000Pb.k\350?.\374\341*Q\r\355?\357\236\306\305\344\333\347?Na\231\363\037\372\345?\236R\345\214\314\257\322?\241mU3\005\037\346?\275.\360\n\"\317\353?\254J\371\037P\311\336?207mV\325\323?-\377\246#\342(\350?6\345*\317\027+\346?R\337\243\334\033>\343?\304\n\017\2520\317\340?[\227\206\034\365\225\347?l\344\306\361\'\n\314?\344\330\323\253}7\310?\214D\027-`i\347?\002\302\256\304\375\376\352?\010\367 E=\241\313?i\326t\330\242\001\346?\206z\306\205\2658\332?\261\tJ\272\203\376\341?\200\362z\260!o\216? \177\255\277L\302\346?\236\354\373\'\311\277\327?Sm*\313\225H\343?.\311D}f\032\350?X\034N\377\264o\276?\320\277S\360\335w\262?\362\313z\317S\254\344?\001\010\247\324\367\243\351?8\021\266\353\301\206\327?\327\234P\265\\\353\355?L\364\022(\334\304\331?\224\014\302{\250\346\305?\001\214\236\351\355\032\353?X\251s^Z\305\303?d)Ml$\247\321?j\033\243\':\373\350?\363tOk^\222\357?\370\274y\210\357\307\357?(\210P\3600`\265?B\324>&\327\022\350?>7#\212\201\325\326?fd\000V\366\273\356?i:\331%A\311\342?\004\2752\273\014\367\333?\230\255\203T\262Y\261?k\034N\345]\003\346?\002H,\240U\200\344?V\343\r\261\\\215\341?\026?\222\300\362\361\340?\341\277\217VgK\345?\365\005\372*=\317\355?h\350#\350k8\275?\247[\025\247f\020\352?\254\354\303\371\373\021\300?\233,\307\230\271\243\351?\004R\247\230\265\376\323?\324\2376o\341\365\331?\036\261\244y\277\235\321?`\\k\337_]\266?@vO\231It\352?\215\036A\376\364o\352?L\207m\240\017T\310?\214+\034\371\271\006\317?0\337\023\326s\236\354?P\351\353\320a\327\257?\002\206\262K\334\005\351?D\260\302\230\250b\352?*y\013\333U\211\331?\276\323\001F\336\330\344?\240\373%\364\222\201\255?Z\r+\251\343(\357?\n<\274io\313\320?x17\014\027\377\327?\270F\350;\350\233\307?\"\306~\245\307\345\351?\212\33127PN\342?H\343O\243\2265\331?/\304\000\330M\020\340?+j\033\274Y\017\354?\204\201\347\006~h\342?`\361\3442\251\t\331?\340\312\362+\367\241\254?>\005DL\036\311\350?\024}X\205\\\326\355?\300\020\322iD#\236?\370u\001?\357\005\265?\217\262\360\2004\312\344?H\'\234\266\300\336\351?p\006F\302-\340\322?\362J\361\205\017\317\323?|h\325Kb\377\300?\325\245v\035\032{\344?\336\007f\006_s\322?\310Z\277\005o\010\305?\376H8\241\370\267\354?/\344u\322\354\013\342?\320\030\202\255M\257\305?\335/3\312\002\315\356?\271\2743\254up\341?\264\246\350\362NU\320?\317!N\344\371|\344?,Y\263\275d\322\335?\337\354\311\201\256\311\350?\224\335\026y\022y\321?\016,.\342\020\376\330?P\274\226*\250\325\267?}\330\363\013\353\312\355?\356\006(\t\2060\344?\231I\222\243\264\320\352?\245\274\337\200L\004\352?\240\215\300\032\372X\320?(\374-\262\267a\276?\330x\357AL\231\325?\014\316F7\242\312\325?\200\\\024*\n\226\326?\263`\254\014\206\203\344?5\177$\355$\004\354?\274+\3559\035\357\340?\356\307\216\205\260\335\342?S\362\363\263\2356\345?\241r:\264\277r\345?Dcp\206\251k\313?\253\375m\000\212\251\342?\374h\201(\214\t\357?]\333\234;\332\204\350?\3760\3126\240\326\330?\307\326\314\321\256\016\357?\361\204<\026]\216\344?i]\'\327\177b\351?\241\260\3603\214O\347?\354\362\001\270R\374\315?Js2B\260\006\344?\376\3220tTT\340?\312\t\341\202\340\271\353?\266\372\205\231\274G\353?\214a\230\371\313\267\313?6\237\243o\244D\346?\256\275l\267G&\351?{\302.\220t\230\340?\334B\320\202^\226\345?\366\276z\203\271\301\350?7\344\261\332n\342\344?\002G\357O\253\316\320?t\343\010\262\030\031\352?\030+\323\314\212\301\320?\014\364\342\212\212\320\305?\244\352~!o\233\347?t\202GyI\357\347?<a\rq\310\345\304?t\346K\266\235C\327?\242\201-\024v\277\356?\346F\313A\214\310\350?\224\221vT}\032\356?\316\364t{\177\253\323?;\305\316\306Q\000\357?`\2127\"DX\247?\032\020/\370\317\376\321?1rp\300\233\025\354? \014\350\010\\=\333?\361\017\013=b\'\353?4W?\347<\231\323?\257`\342\344\241\216\340?\350\330wZ7&\352?\000\2602Jrr\223?\220\213q\337\345\364\276?`\361@\033/w\300?\242\257\034C\355\337\341?1;\311\272\223p\346?\310\241\030\212\370\221\356?p\266\'\264\000\324\346?p\232\304\236i\256\311?<\336}\245\201W\355?\210`\227<\300\353\345?\210V\231>\216\036\331?\275;#\300%\235\353?\030\243\243?]\001\343?\246~\"\270\352\233\350?[\214Y\231\235w\342?\250$\342\304\224k\263?8\261\333\240\310\306\307?\302\301\177\271\260\202\355?T\002\004\220W|\327?\340z\204\226&\313\301?\254\213A\360\036\251\322?0\325f\226\244\350\351?\270S\262\023\007\265\314?\364\306L?R\232\332?\346\264\003\263\242\323\334?\014R\267\256C\000\345?\033\230~\016U\000\357?\271N\226\301\250\214\355?h\356s:\241\254\260?=\2062\270o\233\356? %vb\203\336\251?\335\2718\3145_\352?X\322\246=\236P\332?\374\211\361|)i\357?\307 \263\264c)\346?\331\001U1\345z\343?\236\264~nl\302\351?\267\316\260\354\215Z\342?Hqe\037i\352\357?p\226\276VT\240\260?(\3506\366H\003\266? B\355\330e\245\225?\036\245\200\024ff\353?A;N\2709\265\345?\000\217\315\221\356\273\243?\224\264\201\365\241F\312?\251\006\357\341\215\367\353?&\231\353w\225\246\324?W\025\020\230L\335\346?\242p\013pX\217\334?\200\014=?{Y\210?@\240zy\263_\257?|\025\210\326n\357\343?\335/\242s\023@\352?\272\215\231\177*\001\321?\335\245c-\262h\344?\007|\003\272\210\223\342?\371\r\255\001\334\024\354?\274\212J\277>E\323?\374\362\027\357:0\312?\222\343\206\233\236W\353?Z\251\013@\030\366\325?\352Er\323\345_\325?\352\215|\303\001\364\345?\3557\220\262\237\377\355?l\256\226z\235\363\354?\273&6\036\341\177\357?\360i\334\303\246\266\333?\310\004\2545\307\311\356?\'\301R\343\223\332\345?\244\373\304\034\2005\331?\000=\331|\234\331j?\344#\306Z\2533\356?\276\307\233en\023\340?\\\231Z\201Z\334\316?\321O\2278\311\336\342?\235\201\224x\261\257\346?\000\332\0242\332(\255?\215\234\277\000\243\267\357?\0141q\310\203\244\323?\375\177\337h\276\273\354?\260/\317p\n\265\267?L\200\241\271\306r\322?\2753LG\367@\357?\220\364!d\345k\337? r\363\033\t5\311?\236g\006\323\254\"\352?x\225\013\354\231\025\357?\200\225&\nPg\300?`/\267j\343\212\353?\230A\232u\330\036\351?(\177\010\243\2246\337?h|=\302\252\256\330?\022%H\356zU\352?8JcE\232b\342?\300\2468\302)\013\322?\337\337C\t\226\317\344?B\213\271\354\3364\357?\240\311g\230C\365\222?\3463\206\310\277.\326?\270z\231\016\345\216\265?\261]\216\323)\330\345?x\263\210\225\207*\342?\375iO\257\237\313\351?\031\340\233C;V\355?\366\227\355\244\266\212\346?\2205\221\361\274\374\312?\372\202WC\351V\354?d\334C\266\333\340\311?2#\215\007\323K\357?\022J\253\211\251\t\320?s\244\261g\330\225\351?\204\033\214\020 `\321?F\t\367\324y\307\321?\326\337\205c>\037\340?{\373\200\342\230\020\357?e,C?+\314\341?\000\240kQQ%\214?\260\240\033\333\006\241\332?D\354\264&:?\324?\232\374\312\215u\264\320?&\262\265\027\336L\357?\320\333\237\\_\363\316?\304\231\345\r\261\337\342?\212\307l\367\017\354\355?\000Y\001.\357\230\275?\026\255\373BK\262\334?\360h\260\363\352*\311?\370\366~D\2038\302?F\246q|n\273\353?\364\240\2609\252\223\317?\201\232\345\030\322\253\351?\004\245\241/n\272\323?p\035\002\245\221\033\310?\274\342\377\241\017:\306?2\024\034D( \356?P\252\315|:\224\261?\227\323g\274cM\354?\000\263nTr\303\330?\362L\027X0)\340?\270K6\357\253s\352?)E\207\036X\207\346?\234\321\212QV\346\321?\321`\037\352U8\352?H(\334\204\324\322\264?}:\312rWI\344?\230\005\366s\2448\343?\3410\320sK-\346?uY\024$\216\242\342?\242\203\316\206\317\017\345?x\241D1\360 \333?\220\373u[\"\240\300?\210^\241\356\246;\313?\002\2003P\203J\326?bzL&?]\347?\334\251[)\330/\340?\007:\345\261\t6\340?-\353\321\302\303\005\342?\264\301l\343\303\003\332?D\334@e6\244\313?\373>O\240\006\362\346?f\231\3543\267\020\351?\030\330\314\336\304N\322?>\271\365\322\213\361\353?\034\262&>U\212\334?G\320\252B;\220\356?\254\t\233H\351L\307?\356\271S\330\236\354\345?\213\021x\267\206\313\340?\200K\375\272\205\"\202?\320\036\222?$\031\343?\030?\345\332\201\243\354?\024\000r[\236\023\306?\345\361\350\314t\267\357?\310\212\306\303B\266\335?\230\274\235v%\202\276?>\211\366\241\362d\355?\332\nQ\213Q\351\333?\230|\216+o^\343?\306*\270\216\214\035\345?\200Zo\250v\017\217?\300\325\273<\346!\213?`\372\036\321Ho\277?\t\340\266:>\342\351?@\351z\247x~\351?k\376\214p\002\303\343?\032\256\306\312\271v\333?HH\340\2270 \314?\222\205\302\367\262\027\351?\237Kg\242o=\355?0\246\205\2245\356\302?\357u\310x(\234\343?\3710\232\202\363\304\344?\240\317:lO>\241?B\313\030\014mQ\330?\316\222\321\242U\016\322?.\017\333?\245T\357?9S\007\215%\330\350?\034\357\205\215F\305\317?\242\251[*\217\020\352?hi\211\0134\322\332?:`L\326\201S\356?\270\324\266\254\345\336\335?H,\234\3552D\317?\350\343p\003\365\343\331?L\366!\022\233\362\334?yMJ\344\255\333\346?\355\033\215\265\263\027\355?L\361\002126\315?\362\243E\363\311\030\356?1\2420\357\214\353\351?\376l\202:\227\340\344?0\344\373\334\214\200\326?\216\206\265;:\232\351?\207T\217p\n\320\347?\224\030\366R\343\216\300? \273|=\341\337\266?t\204\320\3502\375\303?\200Z\233O{\037\323?\212c\335O\010\260\353?{\374\324\341\216\031\355?8D\027+\026\016\352?K\321\352\257\007\235\352?\203\276\313bLU\344?Xdi^p\301\323?\276b\205\345#\025\320?\324\203\026x\024\365\345?.O\264\003\032t\353?\\\034\007\273M\013\345?\335\310\010oU\274\344?\244\247R~\266\232\301?yw\016\236\np\356?\205\275\2169\321\030\341?\210#\317k\347J\267?\2521!z`\362\347?(:\346?3X\330?\333\362\001\261D\017\347?\344\004\342\375\207\016\353?r\331\264G\336\363\353?\236\333H\177\244Z\330?\264\256\275n\2057\345?\310\232\"R\346w\357?\314\225\005\014s\316\347?`\270l\233P\036\346?\252\251\006\355\357\253\354?\200\n:\225\270+\237?jL\033\300\252\337\321?\n\314l7$\232\344?\017\320\256\220\370\234\344?\247e\237\246Vk\351?j\227\330\217Z\363\355?\3358\275\237\036\261\345?,\240\220J\266\002\340?\220\303\026`+\253\273?\274\3579\033\251\233\341?\220\2044Y]\372\310?\302%\252NI\275\350?\220\327R!\225\307\323?$BR\234GZ\322?\365(\324\253\027\214\345?|\031u\273\361e\324?f\371`&\255\034\341?\367~\226\204d\\\356?\2000,\367!\200\221?\254\001\003\256}3\341?K\3330<\2317\343?(\020H\367 \377\276?,\221\236\363\251\017\315?\020\034\343\352g\307\250?\250\235\004\021\2715\275?\220\0361\016>\340\253?$\323\3431\321\005\334?\000r\'X\253UY?r\354P\025eE\333?\0304\223\252\206\351\345?\2358\252\226\203\201\352?.\212\232\323b^\352?\200\247\250\t\334S\261?\317\377\034\224\"\021\352?\370\313=\232\266a\356?\260D\002\306s!\271?7\204\213t\306\274\351?\272\2212\003\265\353\345?\230\216\236\222h\006\324?H\356\033 VM\323?\300\252\361\023\000o\244?\204\034}Q\232\256\344?\351\243\262\031\272c\350?n\034\234\206\315\353\330?\340\256\322\032\3351\354?\300\227\314\330\016e\263?\014v\300\0034-\351?ST\367o&\370\351?`F\234\214\356t\333? n\340\207t\357\241?\016\315\266\231\327L\336?\265\354u\226\346\335\344?\277)\300m\260\334\346?\307\272,\03592\352?\334\315\346\361+\345\331?\3405\266\202\315\005\301?4\272@\334[a\303?\200v\343x\027\236\250?e\206\"\354ic\353?\244nM\306\037o\305?\366#(\317\216f\344?\344\001\327\276\350\273\315?\\\250\217\320>B\306?j\0311\207\254\270\334?\374\262\330l\032\317\320?\253\000\036\332S\264\343?\316\272\177{\313l\341?]h~\365\370\335\351?P\327\307\335\036\335\337?\023|\356\352\302\256\347?iB\n\330-|\346?\335\203\304=9\217\353? \r\203$\212\261\224?\331\355L_L\250\341?4\031\365\327C\316\330?\000\233\204&\362X\256?@\302/\323Ue\205?]\335]\341\237\264\354?\370\205\270\230<\275\335?H\335\264\036`\261\312?\342\335\n\tr\211\353?\356@Z\353.\363\341?\300\272\034\256\2145\331?pv\306#\324\032\320?8\364i\020\037:\354?\230\201\260k\036\010\267?.e\323B\036\326\326?c\301\353\036UI\353?x\211\334]\253\007\261?\240W\206\222wj\323?g\351\377{R\321\351?\204\341REtj\316?\377\226\377\003}%\346?\360\212\006;\035\374\263?\365n/\316;Q\355?/\216\036\240\3473\341?\267\003\357\262\330\037\353?\224j\351\244NN\350?{\32116\003\373\350?0D\031\317-\302\322?N\315Z\342<\331\325?\016x\031\217\346\013\322?\240\212@gSC\354?\200\323\275Z\266\265\251?Y\177\241dSC\347?|\340,\242\215\313\352?\370\366\266\236\033_\333?+\033um\363d\341?\036\033\253q\277t\324?\330\3669\305W\207\326?\206\340\217\336z~\321?\343wd\367\330\030\345?\017\215\0231\347\014\356?\035N@\261uC\346?z\256\266\021\016{\323?\224q\250(\211\206\322?oO\200\347Z\222\356?H\230\256\352\224\320\300?r\234>\222\346\321\350?\014\313\266\222:[\356?\006YN\034\235\230\327?\030*`F@\327\306?3\246\371\307}\361\351?\312yn\017\267\332\324?\221\215 \370F\270\350?/U\030\006\r\322\342?P2\002\215\246\212\346?P\213n\211\034\351\313?\240d\247\311\\\277\351?\230\3362\002U\233\271?<\336\307\333\023\014\351?\006Y\227\346\016\325\355? B\035\t\210\275\223?\030\035V\253z\302\356?\005\004\3258\rS\354?\236\000;\217:\016\331?\240?\037\200\272+\355?N,\355\336\331/\354?\316!\016\366?\n\350?\360\007\224\277\331_\301?$\020\314\246\026\373\336?\232\323\331$\n\246\334?\215\213\353\334\307I\342?F\260u\376B\003\345?\300\250\312V\220\246\341?\000\243\202\375\024\335\314?\264q\275\331f\250\317?#\245:\212}R\357?\226\200\003\036\213\302\341?\231\203\220\232A\245\347?\346\203Hx\273\353\324?\010\r\200v\273\221\275?@?\\cJ\277\335?WM\377h\364\315\346?HL\016\272\020\206\275?\t\316\035\321\363\n\352?IO\036\375\252\274\353?\354\367\031m\013\027\313?\017\357\224BE\271\356?\316\264\037X\212\004\347?\311I\r)Z\261\343?\266\0145\275\235\325\321?\245*\313\344\273H\343?\246\t\325F\301\007\350?(\316\254p?L\317?\276\3658\261\340\377\336?$\265\311F2\243\352?\025\332\231\005\256\323\345?+\036\226\244F\235\341?\347\360\204H_]\354?\265\033\314\235\033\303\343?7~M\343,c\351?*\005G\311ef\356?\342{j\341\335\003\355?`\025\246\022\270\357\255?\323\303\202l\262H\344?\375Wd\310~n\357?h\345S\267\374\315\275?.\032`{\251z\346?r\354=\t\223\036\334?|\323m\243\355E\324?X)\213\037\272\263\260?\363Y\037\0310\356\345?|\311\031y|\315\330?\352nE]\010\373\357?\232\177d\3629\356\323?\335\265\n@/\376\356?C\356\224\375\203\366\351?\352\r\300\002wx\356?\342\377\250t\261\363\320?\352saF\325\201\351?\323z\264\225S\233\344?T\370\210\222A\354\340?\331GRQ\355P\357?L!\020/\250w\354?\322\275\364\222\320]\323?jJ\3751U\337\341?\325\260U\253\316O\346?p\210\332\036](\270? \024St=\201\264?|\251\272,zY\357?\260/\rK\213\330\355?\3642k\253\272\335\314?\340\2718\363\304\034\351?H\265\200V\301\305\310?@c\000!s\260\350?$g@\030\315}\343?:[Avj#\340?\260\362\241\357\346\307\352?\363\310\374\217\342d\340?*m\367\204M\272\354?\213+g\225SS\355?\207y\257\267i\277\354?p4F\'\225)\272?\030\3733\375\274\306\327?\210\275%\037\036\234\351?D\202\232\340\374\262\324?$\r1\367&\236\352?\341\277\002\373\\\374\350?>\347w\362|h\355?~\\\224\276\364\023\357?\274.\336=\026<\332?\342\020\325\263\230,\321?1\350\372\337\371\303\357?\311\257W\326\367\365\346?V-\006\004\r\345\354?\266\266\317%\306b\345?\000N7\347Q\322\210?\022 \274\351\355g\337?`\212\372\302\367\007\270?\234\305\354\2229H\345?\270\336\013=\256\324\355?J\262\225,\320:\336?\317\275\262\203\227\016\346?\310\233\"\274\312\321\326?\300\254\330\021`\332\351?2\360\251\307\236\207\323?@\260\256w\251\352\215?\325\276\375\242\013\266\345?T\326_\371U\232\315?\007*&)z\275\357?\364\021\375\036Q\247\313?\013kfW\312\356\346?0\213\244J\266\275\330?\247\276dA\022j\342?Hl }\360\371\322?h\275U,\213\201\317?\300\241\364\003\271K\343?$\001\361\200\354\353\303?0\204w\250\321\037\351?\021\t\300\333\227`\347?\224w\t\243mu\347?h\305M\005\237\366\263?\263L*\225|H\357?\341.\277\231\271/\347?4,\363p\352\006\301?\034\300\373\227x\230\340?p!\305\322f\205\261?\213\235\276\"\233\026\343?l\343\354\373\321p\341?\214\257>s\243\004\321?\340}\315\253\321\007\256?0\305\2272W{\265?D\221\232\215\365\023\307?\224\247\366\342A\243\333?\241\316h\313\355u\354?\373x\201\037\224\004\350?.\001f\345c\022\331?\245;\247\306u\r\344?\262\275V,$@\357?P\265[\276T\236\347?\"\007\261k(<\355?\251\224/\366\362}\350?\256n\261\277-\270\357?\302\223X\246\345l\335?\020!\2049<\233\351?\022\300\307\313\342]\357?\362\303^\027\364\025\351?Apf\207\200\014\345?\242\356b\023\2277\341?\037Y\263\250\254k\346?\264H_=k\025\335?`$\301\2104\035\351?k\320\342\302\215a\343?\010h\032\3532\035\261?m\226u\364x\333\340?T\013\007\254`\364\337?\302\304\224\016\376\254\345?P\225\231\010Y/\331?\346=\334\020;\234\341?\023x\370A\335\301\354?\025\361\306\322i\206\343?\272Ke\032Y\007\354?\360d\024xfs\341?\210\247WP\236\246\276?\302\307\2653\325\304\355?\310\346Y\305\277\024\354?\225v\222\017\323\037\343?\266\347XQg\304\330?JD\232\310>\247\355?\376\245\224\335\363V\350?\224\322\333\006\326\025\313?Em\026\303\373^\350?\236\327H^\324.\323?\200c#\211\0328\242?\264\374\255\006\345\032\314?\361[\337\235\033B\346?\264\346\257b\376\216\334?\252O\327\301\303\236\350?\366,\263\010W\265\340?]s\r\030,7\357?\233y\265\345\033\263\341?\346\361\316\344\334I\347?\027\025\253\306\305\204\340?x\263\rX\375\177\350?\260!\222r\234\n\240?\354\177yAX$\327?Z\023\356\263x\303\323?_\225#\272\020\370\354?]2\252b?\200\343?\217\036\331o9\236\340?\025~\304\375\330/\353?S\016\306\332\206d\355?\336\033\005\2065\346\347?\354\200p\331|\035\341?L0\337B\016\226\307?\261\362/\356L\273\352?\240\350\374C\334\244\232?`\345\027\'\361$\314?\252\344m\005\332\371\337?\365z\213{\226\021\341?\260\241\357\310\277\257\325?,?S\225:\033\332?\370\311*\003\030X\271?\242B\270\264\314(\340?\272J \233\305\364\342?\000*\243\217\206cb?\206.\3165\n\344\331?\255\377\305c0\004\346?\211\232\346)\003\213\357?QiZ]\310\025\356?\204I\221\252\357\327\322?\242\202A\215\367\237\354?\322\247\234*E\333\333?pb\240<w\037\265?\354*E\324Y+\300?\004\350\2656\250J\306?\322_vp\264u\335?\023\2513o\255\327\352? \312\325\262\236\007\334?\2152$\222Ps\344?\213\265\032zF`\341?\224I\221\005\336@\343?\200\266\364\177\274\270\336?x.g\247\024\010\335?<\204\004\201\t%\342?\024\022\033\2175<\343?\301A\266\317T\254\345?4\244\217\0208%\335?\224\025M\224:d\313?\245\020> \220\322\341?\330\362l\364BV\332?\204%\214\036\016\367\337?\000B]\317)N\232?\340\263M#\345u\261?\224\257h7Ii\335?|\r\"\261O\367\320?\001\336\307\017\3230\350?d(\200\371\306\322\315?T\023N`\221\364\314?\202\307\037l\212\002\345?\224\030\326Z\343U\350?`\243q\226\254x\347?,\275\237I52\356?\000\235\034p\253i\240?g\267\374g,1\340?<G\373V)\235\324?D\225\003\247\315\246\347?\376\346%?\364S\355?g\301}zT\213\354?\337\322\234Kn8\357?^\246\"\366\226\325\321?\263\217\000\231\356\213\351?<\343\t*\301\351\305?L\264\1772\254\277\356?\266\355\306\005\357\271\337?R\305\365\030\332E\352?\203{\376MH\206\343?\350\321n\332\023#\345?t l\203\226H\300?\n\222\343r\355\305\355?P\322\317\355\201\315\344?\274\024-Q\260h\354? \366\027\265\204D\240?\374.\260;\236\236\311?\336\007\230?\350d\352? \3217\231#\305\337?\226\023\\\224\357q\326?f\254\210?\244W\336?\300c3\262iF\231?\210\275\n\302\327v\335?\216\250(\\\025\376\320?\210\004\201zO\210\275?]\203w\220e\311\357?\307\203\035\013\306\253\355?\337\230X\326\031\312\341?\2000dCS6\340?\374\311\265\344\023\370\317?\335\373\343\246\333\326\350?a\000\267\016\336\033\343?P\364\347\3517\262\275?\362)\220\351\271\205\321?\315P\"\215I\363\346?\024\352,Of\013\340?\250\207\227\'9\222\334?T\317\201:\014\224\346?c\24218\325\251\353?\035\202\241vMg\350?\220\341\014m\273/\342?(\036)\371\272+\334?iL\370\313\016\262\346?\360\363\2402\215f\357?C~\274[`\372\355?\374\307\353\335\007\302\317? \312\213G\024\343\336?[\361l\013\247/\342?d\260\276\026\322i\312?\016b\214\210\301\024\342?\020\027\237tw\270\266?\377Ne\024\027\363\347?Ih\354\351Dm\351?\375s\360\320#v\347?\2643\315\334?\267\341?\260\306\321\352#?\345?\363yN\224\303A\347?H\333VF<i\264?*\277\230\344\300\002\331?\300\303\270\205[\002\266?\210\357:F\025\030\350?$2\254\302\234\346\331?.\327\322\260\003h\355?\013\341\222u\253\004\347?\314E*\234\272\247\357?|\315\3672bk\332?v\336\227*\262P\334?\234\ng\n\021\220\317?\350\360T\001\214\030\344?l~\306gP\314\341?\350\361\312\020\000m\276?l2a\371P\315\331?6V\034\321i\177\344?\206j\037E\357<\342?<\001\305\230\023L\312?\356\004\366\320\263s\324?\275\250T\251\251\016\347?`\222Dm9\005\354?~\202`\362\036\003\330?\\_\225{\361\200\316?\322Z\234b\271\322\321?]\177\234#\327\221\351?\247\256F\207\206z\356? \032\341\'e\216\353?W\226\307\334u\270\357?\307\377\355\335!=\347?\244\327\347~!\366\320?[\262\255E\005b\354?\017#\213$\027\344\347?\206\210\321\257+_\321?\337\253t\305\214\236\355?C\\\200\331\3121\352?\370w\312~g\333\272?\310R\313\314\002\177\321?O\243\031xK\257\352?\302i\377\215\377\257\335?\206\200\006f\005L\334?\022*\261\037\352;\351?`\004\272n\014\203\331?\352\212\366\276M\222\336?G\027\022\312\222\036\340?\177\317\263\3567\234\342?\320\344W\013\034\260\357?\261\021\361\205fX\344?\356s\300:\353\332\356?\244\241\312g/5\304?\355_\343\2342U\351?h\247,\203\223T\357?\300D<@-k\250? \347\306\254\277\r\323?\274\262O|\356m\312?\244Fi\313\343\260\343?q\"\375\362\347\217\346?\204\374x\257\276\014\331?\222\341\202\200\023\253\357?\262\260Lg+\\\325?@\257?\034D\270\342?~\001\365\032I\242\334?H}.J\316\206\266?h\265$\026\377)\261?\246\\\263x\263\243\337?1C~\252=+\340?\014\253\321\0009\361\330?\200\305\3226\356\351\237?\211\213\222\200\177\340\357?\000\220*n\022w\220?\210/\017\346\333\005\264?\r\336\025\035|\010\352?\275v<\256\207J\356?\242S-!\227p\323?(\2438\243Y\253\357?\320\2069/\341\246\271?\206\241\246\006=\201\332?\\\221:_;\312\305?\030[\000\035\351\257\343?\260E\246$\260\244\331?g\307\352p>e\357?\\u\214\251\010\024\350?\242\343|at\335\354?\211\303v\37332\345?\213\240\274Z0\320\350?\206?t,`U\337?\031>\207\017\2661\350?\264\027En\235\345\304?\214\371Gv}\274\301?\326*\021\242\036\352\326?\333\"\026#\2421\354?\200\312\333r\306xr?T\250xi\226K\351?,Th\252N\220\331?TF\3654D\343\322?\215[\370\207q\210\356?^\263}k\255;\346?\n\261O M0\346?\300\373be\332\343\340?[\340\334\272\264\306\354?\350\335\231\016:\243\275?\261\211\214;ka\353?L\013\033\243sp\337?:\360Z\273\354\210\341?\200%\276\264\306\022w?\200M\032\351[\'\334? \333\017Rg\266\336?\342\333\231-\241&\334?d\017\2412l\241\342?H\226\212.\225\345\351?\200l\027\336B\356\266?v\365:\372\240\332\336?\2200ND\227\374\335?\345\227\260\352k\333\346?\262I0\340;\327\337?h3`A\'\017\341?\364\345\203\357E\254\341?\000\351\330\266j\272\276?J\2043\323\264\356\327?)\252\262g&\222\342?\275M\372q\356E\355?5\022\312@\260\274\346?\274\216\0031\037\013\300?\370\022\3035\313\212\315?\326\230\266n\2236\320?\346\241E\221!D\343?\240\325\327\"\343D\326?@6\360\306*$\340?bi\272\024\263\233\355?\"\026\344P?\340\357?|\363\215\374\004E\323?\214\253\304\235\370\270\343?\227\243\211\t7\245\352?Ds\n\212\033\230\343?vf}J\201g\344?D\321Q\002>\024\355?w\370\242\033\313\260\352?\353M\r\240\273R\344?\260\273,\030\255r\353?\n,\215\0037[\325?D\314\350X\r\231\346?\272g\335b\234J\354?(%\301wU\365\346?\274\277\374/\364\035\313?\276P_S8\t\330?\035\205\347\347\326\004\346?\240K\301\250\306\306\266?\230\030\371\262gQ\345?\000\2468\221\3367\352?\014N\235\030\311;\307?@\355A\257\306\340\334?\210\240\237\352\310\351\305?x\316\272IM3\326?\024\014}\250zz\333?\354\r\023\n\234P\350?\232\353ZZoF\340?\3261\223\n\255\210\351? \371Z\215\304)\302?$MQw\237m\312?\t\033\350mv\230\352?\010q\t\275\322\323\331?~\306!\277d=\322?\202\221`\221/?\352?\210o\255WJ\277\327?U\224&\235\322\212\352?\010\324\034/\342@\276?\034\026\021\177\304:\303?\026\007\204\363\226\001\345?s\330\033\360J\004\352?E\322\375\235\277\320\357?\200\271\326o>\375\267?\2445q/\332\247\312?u;\233\232\275\233\357?\242Yk\254\336.\326?\246A\245!\024@\356?b)U\311\237:\354?\224\204R\223\3557\326?\200e\3146`6s?S\025\207|\343\330\344?\214I\333Vg\361\326?\004\353\364\220\301\335\343?\342\252\010\371k/\332?\277\347\317\347U\240\355?\243\362p\271\010\006\355?L\235N\257h*\346?\203\245\243\037HH\355?\007\225\247\212X\327\357?\352\236\350\207]\257\347?\210z\246I\373\363\336?p\310\371\036\321\313\341?mk\327[\226\232\340?\374\353\005\3207\366\320?\360\317sV\247\372\273?6\341$/\230\032\354?\271Oa\362C\272\347?\350\227(\373\363\367\355?0\366<\370C,\345?\312=\017^\306\304\350?\354\245Z\334\303\254\356?\256;f4%\334\333?\220,\222~\274\026\270?\030\020\377\216\223\376\354?\356\310\215\254m7\347?\234\2603\254u\206\346?\022\257<9w\314\321?44@\031\033\352\301?\020\206{\322\307\310\267?\373\010\327&Y\025\342?$\237\2748M\246\337?\000\210\033\376\335\333{?\276B1yT\250\332?\034V\360\016\240\026\345?\344\270\265{FG\327?\304\366q\312\261\314\347?\0267\350\014\216\263\353?W\2556oq\372\344?\342\375\230q\244\037\340?\315?\020\312s\213\343?\346\315\014`%J\331?XC2\345\003j\350?\212\242\023\305\2428\354?gX\302\324\345\367\342?\337\002\327\023\256\246\341?\374\003!\n\353\221\330?\212_Q\315\033\353\357?\0204\241\352\007\275\346?[\205(\314\264\272\344?\240\024sQ\3463\336?\206\376C\300\302|\344?|\313\005\020\313\320\330?\377\365\025\243K\t\343?g9\350J\352\310\344?\330G\214\213h\252\331?\254\351!\351--\344?\322\376G\005Z\314\345?G\307G1\374I\346?PU\210\'\232\222\260?\000\267\024h\345\n\245?\250\310\325\231\306\255\341?\020\242`\017Ks\314?\032\311;\352y\235\332?Zx\020ll5\322?m\264\357\"\201\r\347?J\272{\304A\260\331?P\035\037Rm\225\245?\037L\267d\035\367\355?\014m=\216\356\300\352?\361\312\3426\362\346\355?\326\2654\205\001\320\357?\017\344\356\332\322\234\347?\370\333\233\313\244\337\351?\334m\343\260;\341\355?\032\364\266\363\332Z\355?\264[Vh\310\306\305?\320\2662\267*\230\330?\205x\275\231f\245\347?\254v\'\205\007\316\340? GNQ\017\210\226?\001a\266\340\266q\344?p\267\240|< \255?U\247\367`\025;\344?\256\311\325q\226f\355?Sk\001\004\300}\350?\310+:\253\361\237\301?\004\356Q\365O\230\312?f\003\210\032tG\325?W\273\2614\034\024\356?\274H\254\0216\360\300?z\352\252%F^\352?h\266\020\201O\005\301?\376\235\314\001\3373\327?m\246\300s\233{\357?\344\373\344\317\215Q\300?n\002|\273\275\370\331?\220\321n\220\\\265\277?K[Q:\341\235\341?&Q4\005\361\234\347?DaWJ\256\305\305?\275M\331\333\216\317\344?\334\325\365\377\014\000\331?\330\376d;\246+\356?\033(\\f\262\022\345?H@\245A\220\324\343??mBa\013\314\350?\216\355(\227\240\027\354?@2Xu7\013\343?>\333\207\320\200\270\355?\340\362\200\0334J\353?\347\241\226g\004\364\342?j\253\246\234@\035\354?V/s\314\374\252\345?\206\264`e\212\035\323?c\365\331o\352\264\345?\212\026)w\216-\353?\010\200)!\341\361\345?zf\220\313\220\021\320?P0n\361\371\020\265?;Tb&J\300\352?\202?L\005/x\344?uK1\310B\020\345?@3o\332C>\240?\037\252\254\232\n\227\356?\370Oym\306\271\335?\034\314\351\315y9\310?\000\212;\026O\026|?,E\221\212&\205\314?<\217\233XfO\337?\222y\362\307\0052\352?\354\020\201G\2028\323?\330\230\337\334-j\315?\271\033\277E\365\223\344?RA?\203\007\223\325?\240\261\245K\217\261\232?\231\253\r\010|\031\354?R\252\027\272\370s\326?d\356WwT\236\305?\334M\363\000\010f\347?F-\375\304\355\032\351?J\376\225\320\204\364\336?\305z\342!\240\007\351?\250\274\313Tu\366\315?\000J\037\262\nC\233?E\177\251\210\'\302\346?\314\304\255\273\305\240\310?{E\234@\202\325\345?\360\310l\000r-\326?\360M\354\227r2\243?\020 \026\037\246(\310?\025\314\227U_/\355?61\267\032\307\274\337?^\025\257\003\316m\354?D\212Y\006\274\341\306?\250\333\335\271Y\227\326?\300\013\267\320\332\276\306?B\214+SQ\003\325?\344\336\227\336\253\233\327?\230\340\331\037x\032\331?2x\320\024\356\374\350?4\235r\276\021\027\323?v\244\377;\223J\356?\231\023F&\236z\346?\314pWW\025\021\316?\"\243\310\351Q\311\341?\320S\201R_\025\343?,\306|t\025\324\340?M<%3\236\301\340?T\2320\366\"\243\325?\200/iG\266q\331?Y\373?\31405\341?\242\204\036\377\020\327\321?\332\017h\357\205\333\341?y\036\301hYC\344?\236w\3431?z\333?\224\207E\026\244\324\345?\200\014\203\325c\n\310?\276\235\245\262\024b\347?\027p4\353\177w\347?K\202\020*\014\301\356?X\344\037\024\"\344\327?0yxj}\347\256?\222c\3116\352\263\323?\026\217\375z\n:\324?\320\262\027\356t\327\312?<\205f\214\210\322\300?\344\242\261y\350\010\307?\230\031\033\007\234\350\311?\222\365\200e\257\313\321?)\267\025zf)\341?\252\250\203h\376\034\342?\376`w\354\\\373\320?\"\302J)\021\210\332?\207X\304V5Q\353?\200\351~J\224\223\305?\240\316So\317\304\271?^/H\343\217\273\326?\226U\215*E\010\346?\332\272\350`\026C\341?\3743\224\216;u\305?|\360\272\214{\272\343?\256\303\035[\021N\325?w\340\370*\2762\341?(\354;\265\312\270\315?\354\032\346\026\006\341\311?\003P*}\026 \354?\016:\217\255\315\211\355?t\033\006v\206\330\301?v\'\354$`\006\335?\246\241=\207\022\020\324?\244\267\332o?e\340?\000\332B\363~\215\315?l\271^\275\237S\315?\205+\2066\230\374\344?\356\016&\030\373\306\352?\220\373\335h\251\321\274?\226[\363\037i\241\357?]$n\023\272\r\346?1\027N\273\226\253\344?\234}U\350t\024\306?\342 \024%\212\237\343?*\252\210\265\001\231\332?|j\360\234\245t\320?`\277G(\036(\275?\2070e\030\363|\341?\322\021\327\006#\373\331?c \373\306}O\354?\300\261NG\r\350\307?\344\350\221\2474\030\347?3\203M\226<\261\347?D\240\025Z\256\375\302?0\342C\025e\340\240?\002\256\275\355\003\003\350?C:.\262\220\232\342?)\034\0345NH\352?\324\203\201\027\005\256\321?\364\000;\021\214&\314?~\272\254\004\ri\324?\007?g\017\351\362\343?\313\310\250\231\342\307\341?\177DOG\212\204\355?\014\3548\240l\236\311?\320\251\255\345\274\334\305?|a\265Q\361\362\346?\274\345xC\256\233\303?P\3610\350\244\374\266?\200\330\234qmz\315?R\250\341[\240\340\352?`x\227HD\021\300?\267\303>\375\322\300\357?\036^\365~#r\324?\"\201\263<\016.\324?\300\001\245?\1778\316?\226W\3227\321\275\333?\000\020\334\\\235\300\262? \177,-\274\331\273?\202`b\3063k\330?\000\225\340\263=\024\263?\272(\324\031\204\037\356?\235\313j\352\270[\353?\370\306\307\204n\231\317?\344\353J-T\364\316?(\223\322\247s\335\340?\354s\177O8\234\346?\000%+\3316-\226?,(X\315\201\263\353?tz\345\253oY\357?@\235^7\213\t\346?\277\022\337v2\246\344?\010<\352n\256\342\312?t\337o&#@\353?\241\245f\225R\310\354?x\222\346\375\3265\340?\360\354I]\324\375\305?|S}\322\032\276\331?\261\275ayM\275\346?\343\221\345\260\256\364\344?\236\376)\004_\346\341?\304\017\204|v\252\346?*\265^_\235&\351?\000\243\205\230\367\027u?\360\277!\2347\023\256?\200\363\273NE2\333?\343\200\366$u\231\347?.\211\314\360\001s\337?\275\277\177EH+\351?8R\025\245\302\352\327?\350\353\361;\207/\327?\014\313]x\255\224\321?\347\220\365\300\0308\345?R\025\010\006\3078\331?\266\210\035\225\303;\343?@UJ\201\363\340\232?\220$\235}?\326\244?\\\2241\242\354\330\315?\033+\n7N\305\344?\227\322\362E7\020\350?\310\330>\234\2623\320?\246\037\240A\234\274\354?\222\2328V\261\017\325?\300;\270\345=\177\340?J4\375\367\346\017\354?\341\331\326\336]\234\341?\300\213\275;Sy\224?8L:>\304\322\314?Ta\274\342\313\305\330?\301\310\350\2078\'\352?\373\357oT\372/\350?\3209\220\346\374\263\301?\236\350~\225\330A\342?\370*\225\335\360\241\351?\000\223\324\230\265~\341?\224h\364*\302-\337?\316TiW\2709\336?\354\213Y\"O\361\355?\230\273s\250\367\030\330?\"a\264`\226\030\326?h\307\017\352\372.\323?V\301\240\034\021\020\343?\255U\316k\363\323\354?\315\257\270m\267\031\346?\016\2077pa\006\331?\3551\237\032t\276\357?\303K\260\265(\247\352?\"\274X\272\311\r\357?\034\034t^A\315\303?\310\247\257\257s\257\335?$A\267\303&\316\331?Z\246u]\216\202\351?\244\030\004B8\346\353?\027\325\024I\027\322\347?\266O\315\\\214D\345?{\317\252\017\264\206\355?\361\017\272\031\010\333\343?\262\021\234\373\274J\326?\226\344\2320\361T\335?\226\206F\222F\210\336?\217Ph\345|\"\353?\320\264\272\270\333`\301?\000\"gW\"js?$\021\323\004z\275\324?\314\354\350 `\335\335?Y.\367\311s)\353?C\235L\272u\304\356?\017\342`\341\334p\342?X\r\305%\337L\321?j\370\257\001s.\351?\\\266\2623\0203\325?\216\'s\311\253]\352?6\033}\'d\022\344?f+\205&\370\214\327?\212\241\242\r!\031\323?\300\257\370G\001d\230?(\341\000\023\202\205\316?\350\337\037\265\035\364\273?\307u\366\344\025\005\354?j\\\255M\210\254\327?\002\362\034\301\321\031\321?Xbi\375@\335\353?x\224\035\245\207\370\322?2\202R\347\366\321\337?\024\325\277\310\350)\311?\360w\3429\207\263\345?\r\300.a\034!\353?s\247\321\035\314\014\355?W\315\304\001I\365\347?\364\351\264\241\002\362\311? )\326\357\334t\312?\200\377\342W\245\236\257?\316~\271\314\266\343\341?\272\\p\372\000\354\337?v\302\271\311c\341\357?\254\014\250\244\321\030\336?\204\347\003\206\363\000\311?\000w<\302\302\246\343?\030G<\035 t\327?\264\004\371Q\307\010\321?Gxu~w\013\357?d\253\000\035\016\030\335?\2645k4\263\305\314?\237\231\343\204\342\212\355?\205xz\243\342j\340?L\275\2651\215\330\325?\340\242p\035\n$\271?D\362\370\262e\031\344?=\332|\276V\252\355?\300\303b\340H\036\233?\004\333\351\312\302\241\340?H\004\3564\\A\321?\002\307\361\211\235X\331?G?q\374fe\352?\332Q\344B}\014\323?&:\364\367M\010\347?\030\n\\\'\214\"\353?\261\262S\020[\311\345?\204Q\\:A\326\330?\261w\351h;#\356?Qq\335\300\324K\352?\253\207S\353g\265\341?h\323k\250\367 \317?)<$\0348y\342?\214\377d\336[_\323?\204\006X6\362\263\320?\360\341\324\026\236\365\322?\301D\024\370\304`\344?\344\341\310%\241l\301?\006\257\242\361Gm\342?\3307\235\211\330\312\333?`\367\007\377DQ\335?\320\034\204\020\346\334\350?\244\204\2309\223g\333?\210&\177\004\311<\345?\022\007\310\313\267\300\346?\240\025\034Os\203\234?\320\032m\250\243f\341?\314\334\035\321\213)\343?\277u\355,\3232\344?@F\343\245[.\252?\344\335\316\267\3725\351?\220i\274Pe\214\257?@\340&\207wa\306?\005T4m\2228\345?\316S\202\025\323}\353?\360\217\026\212+]\337?(z\365\274!Y\321?Y\276\302\255\270\277\342?n\322\2503\003\356\347?`E\355\212A|\277?x&\207\005\245\265\341?\224\277\224\270\363}\344?:I\216\202\310\242\336?\332\020Ah\256\260\343?\317\r\'\360\257\020\355?\300\302\322]Q\'\236?\227\244\026T\277\371\344?\237o\273\202~\022\347?\2401i\331R\035\223?\037\260d\371jT\345?\212I\360g\232\235\322?~pX\212?\353\337?\330s=\020Jl\276?\256$\021\274\031\221\333?x\270\001\016\224\251\300?r\303\326w\2777\354?W\200\211\361\023\262\346?\264\316\374]\365z\355?\372\\\022\251\234=\335?\274}\014e\330\373\313?\000\230\232\225#\017\257?\000\033\233bt\345\200?\200\215\356\2054<\344?\210H(\352\030\351\334?\216\276\337\272\245\266\342?u\212!*\361`\356?\030\375\243~JO\344?i\271\375j2~\341?\r\347\205@=\336\345?l<\345?\346\"\335?\300:\371\375w\r\350?\265\212uPJg\342?\014cr7\266R\312?\346\310\374\345c\211\337?\307_\301\344\266\017\350?\354\317\331\3475U\350?@b\370\003\224u\337?\000\303\225\022\215\351\332?\224\237]\227UR\322?\360\272\276E\361\016\341?\374\361\025?\271\271\305?W\3027\260v\013\353?\362\223\206!\265\322\337?\270J\005\246\007\037\323?\271\300\017\204\242p\351?\306\237\327\200;&\334?\360\244\352\324\317S\250?>\355\260\205+f\355?`{i\231\277\033\306?x\037\246|Yk\327?\206\211V7vZ\327?PJ\254\335\022\211\345?\327\260\335\202\216\360\350?\017\352\021\340\235\202\341?\014\302\233<|\377\332?M\300\327=D/\355?\220\305\366\323,a\244? \205H\262$\232\324?,~\376\247\317I\331?8\347sT&\204\357?6\003\207~\357H\335?\346+5\304\200$\322?\337\371\336\375T\321\340?2\307\231j\310\220\333?|q\021\203\337\025\315?me\005\334\356\232\347?\320E\320\330\332\325\317?Tz\232c\256x\313?\320\020\323\332,\207\321?#\231\320\226\335\316\356?\244\\\340\304I\201\300?\220\001\373f\213\273\327?\264\236(\361\313?\332?\004@|\230\220&\345?\242yi\243H\220\347?h\256\373du&\306?\370f\316\2649=\322?lC\240e\317\036\356?\300[a\235)Q\252?\374V7,\014\262\316?S\232\341\210\270\026\346?\271W\025\374!\026\341?\022l\001iin\342?.\306\263\346\020\250\354?T\216\010\230\025\254\306?B\262\013\021)\270\334?\000\017\333\347\273\023\345?\344\276\264f\225\037\320?\252+b\266T@\323?W\217\230\247\345\222\356?\300\202\3422U0\244?#\311\236(\225\232\343?\2309\331\317\224\320\314?\320\375\256\236\036x\327?D\320\006\247\364\037\331?`\027\215\020\216b\264?d\230\375\235\241\257\346?\353\344\256\336\320\364\347?\000\234O\0053\225T?\332\007\372no\377\327?\320\266}\237\241\316\341?0\340;\\\370S\352?^b\222\3062\262\343?\007L\334\230\341\316\356?\333\370\222\225\240\301\344?x\313\010+\343,\326?G \303F\0105\353?\362\223\005`\231\361\337?{z\237!U\351\350?\014n}N\2078\353?*[&\010\205t\334?0\324\271\256b2\321?s\333\266|\025\233\341?\224\360\343\256T\353\325?\352J\221\344\243h\333?\346E\347~0\177\350?\276\310o\354\254k\354?\266\213g\245H\304\343?\302\245\3176\036\r\330?\274\375\272\355\312H\347?\2340\374Z\'\205\314?t\025\017\325\220l\332?\324\373\255\377\215^\326?\320\342e\270\314)\265?W\244\372N\203\r\352?\252d\277-\345.\331?FIE}kP\323?H\207h\306\220\003\320?D\333zS7\210\345?r\001\332\336@\373\323?Qa\244]\035\034\356?\030\214\331\246\220=\341?l\255\300\020:\"\313?A\251\377+Hv\342?\024\365\333\005\243\243\332?\327\351\214\314\350\333\350?\264\004x3\227\376\322?\353g-\341H\373\356?8\013\367\003a\344\332?\270\361\003z57\275?\316\'!=\272\201\320?B\227r\360\221\247\356?\000w\221Je\226\332?`~v\025\275v\302?\372\3221|\211p\347?ze\017)\364P\353?\2748\003\004\375\261\323?\210_9\307XW\312?7\330\362\321\032R\356?h\026\tP\n\247\312?\251\265;\365\353\302\346?\240\017\340\366\231\332\273?\377\376y:\023\354\354?\340\"\345;]3\343?\276\223H\303[\274\334?\026\256R\020y:\320?\271\347(h!L\340?\334{P\376\240I\356?\262(\004\212\343\034\356?\220]o@P\253\243?l\005\307\215\334\377\333?\251B\324]\233\036\352?\034\336?H\275\335\322?\250G!\2769\023\356?\353\375\256\252\360\366\345?\020\204}K0\320\346?\014>\300\237\247\277\303?\304\330\242&]y\354?^s\336\233\022\023\344?\202\3719\204\305\313\347?\026g\036\352PX\334?\037\362\244\347\2326\340?\034\346Iq\233\260\356?\310LJt\270\014\322?\313s\364\361\300\233\356?\034^\034b-m\312?\"\370)\321}\023\321?\030\021\025\266;\302\323?\262.\0030\035\362\352?t(q\312\236r\310?\300\'\244+\350\303\270?:]\204^\374%\350?\274\223\340e*-\321?\373\240b\245\252\373\350?\310\302\017\353\035\203\307?\010\337\332\345\302\211\260?\317\0375\247\354\273\346?\300O\272Y\177\013\207?F,\364\023l|\353?\333K*5(T\347?\006\033\300\223Ky\320?\366\307.\350\302\252\345?T$\335\272wP\305?\364\031\007\325\2560\306?\024\207}\272\216\266\350?hI\214\r|\322\300?\\\"\367\334@\273\346?X\253\246\337\345,\347?\310\325d\357Pz\331?X\227\255t\353V\314?\300s\213\212j*\323?<\361\230\310u\007\324?\241sU+\231\377\350?\020B\254\214\270\327\320?\320\247h\303}\016\316?\010QeM\233\214\343?`\205\345eJM\232?\317\275I$h\022\357?\010\033\265\342\230n\317?\317z\345+i?\347?v\317H\376\217\376\341?\300\257\327\322\317\320\355?P\333\3675\251\313\273?\304\254+q\336\010\310?\312V\336\276\3173\337?=\337\3657\313\246\341?\306\372\332dR\215\321?j4\200\264\216\t\343?^\020Zj\2071\340?\270\330\010H\177\001\321?T\276\313\312\3127\313?\373\220\330\236\376\316\356?v\362\231\356q\214\357?=\357\002\357\3322\351?\202p\tvm\315\343?`\246\331\237_4\316?\024\215\nO\254\215\327?\203\351\311\247\226\207\341?,&\364p\211\257\340?@\025\273\313\302\005\357?s\273\313a\331\202\341?^\316\343\260\226y\327?Ui\324\273\363B\352?\000\024\237\2573\302e?\020\025\254\256p\355\255?4K\210\357(I\343?h\3603\017?\325\334?\374a\207 \232\002\346?J\032\332\255A\356\340?\210\2721x\260 \326?\251\314i4<;\357?6Sa]3\\\326?\261W5iu\031\346?\0041\'|@U\336?G\314\301mk!\351?\206z\255mz}\323?\257\r\025c\"n\355?\262U\n\3020&\324?\214\354\346\237\0309\340?\254c6\037]\206\315?\334\316\243\372\310\225\357?\356\214\333\315\274\003\321?0\231L\245\024@\240?\300\236\314o\312\010\300?\201n\"oZD\344?@\346,<$\215\234?]\217[\337\342\264\341?$XZ\246\300l\341?\245n\025a\305\234\355?p\370\330)q\352\301?Rs~v\004\370\346?\006\323\023b\016\201\322?Q\022\305\375\020\220\355?\030+&\300\002\354\264?\321.\020\213\204\315\354?\346\017\202\215\325j\321?\374\336\350d\026s\323?\262\246\005W\211_\347?\'! \344\270r\342?\324ei\3700k\353?hl\036c. \337?\320\317\310\215@\216\323?H\210;\227\253\221\331?\266\232\226\370H\334\357?j\336\240$,\340\325?`\213\361\256\341a\327?\210\010\220\373q2\260?\237\336X\301\303\333\345?\300<\365\375Y\352\261?2/\226o\337\324\350?=\3464\223\333\334\351?Mx\206\0244\025\347?/\313\310\3441\357\343?9\231,K1\345\345?\250E\244\332-[\350?\302Te&\021M\346?\230\273\324\372\270\361\354?\334&\354\001J_\351?\204O\376+\n\245\325?B\202e `\307\330?\252\314t!\224\265\346?<xM\t\231V\315?<4v6f{\341?\360\311\321$\345\341\346?d\230\\\205\223&\322?I\307m,#\254\346?4\242#y5\007\343?\304\240\254$gQ\341?\234X\307\2736A\340?\224\353\177DP%\323?-S~\031Z\314\350?v\234\224Az \340?\304X&\303<\254\355?\346\216\216\356\271\346\352?\002x\013\312j\323\340?Y\326B\177\025\036\342?\\r\rwg\227\323?\024\323*pe3\325?\010\363j\301\020\340\344?x\314\364\tRU\352?l\211\316\327[\014\326?\262Z\277\201}n\321?P;\247P\232\023\320?V\\\275\255\357\304\346?\236z^~\240\365\320?D.b\355\000\020\325?\304\366H\036\207\216\307?8\345\312\277\213\350\324?L\020\224\356C?\324?\304V\324^sQ\350?\270\312\260e&\210\306?\260\026w;\343\013\312?\275\321\225zD\355\341?\240\001\336zZ\024\237?\216\363\000\037\203 \353?\220\346!\3552v\325?\200gU9s\374\343?\344\r\325\t\247\236\346?1\202\264-\222v\342?y\364\006\003A\305\352?\325|\017\264}\364\344?\020\010Z\017\276|\244?6\366%\021\t\243\340?\255\352\0045\242.\357?N\205\031np\251\355?X\035\251\243\205\241\277?\236\274\232K\343(\326?\200<$\325\376\264\311?\010\242\321J\265\364\273?\2020\320OF\242\326?\260\333\331Q\343\372\342?\360x1\271\211\341\261?\340pv\342\314V\306?\000\377k\017,c\231?\013Yu\327\362U\344?\233p\024z%\037\355?{\226[R\240L\354?\350):\3016\265\337?\204x\372(\207%\305?h\365soK\256\337?S\037\\\344:\251\351?\340H\303\2448a\300?\234\211\237V9\352\303?\320\010\270(7W\336?\177\246|\364\236\002\347?\001\220\031\230\256\224\351?@\266\252\247b_\216?;1\316+\030e\341?\303~\032M\031\021\350?\346\325|]\336\241\340?\230\211\313p\356\340\314?8\246\212\323p\212\356?\"}a\032e\244\324?\351`\310\373\210\317\353?\272\261\256;\327\351\344?\360qy.\211D\322?\210\036\250\361{\200\321?\215\336\361\340\002\027\355?\210\214\330\221\264\300\346?\353x\314\263\352\017\354?\200=\010p\373}\264?\351\3337C\224\033\347?aiv(\322\310\356?\263\276\032\2247C\353?\324\007\266}t\344\317?\211@9$\305>\344?\350\220\177\312\036O\327?</\361o\216\241\353?\n\352H\214\344#\324?\230\342\234[Mq\316?Z\242~\270dI\341?\2730\005X\205\001\340?h\202\242\257\301y\347?\340\351\340\005\013\335\271?_\305\033\3038\210\354?LR\300\n5l\332?tb\324\316\275@\334?\242\341\353L\030\301\322?\350\370\307\327\266!\336?Hl\224\354|\010\273??\321\031Y\335\003\356?\310\2128\257l\324\333?\0034\337\226\352\373\340?\210\355b\314\335\352\312?-\277e\204\2055\355?\352\032:\255\001\336\321?\244\266\202\026G\262\334?\372\237\257}\213K\343?U\300xH$\314\342?q\317n\313\311o\356?\235\347\334\344\256\000\343?\372\021\304>\335o\326?\374G\305\263v\336\355?\357J\203\314]O\352?\020\031\361\320\373\346\346?\371\305\322\237\301\232\350?\335d;7$K\354?\"\362\024R\013[\331?\010\0018,\274\025\331?\266\335\360\324\256\025\341?6\327\252\277\205/\324?\344\365m\262-\004\333?\246\024\251\225,\337\334?\232[t\363=\013\324?\330\217\3211\016a\345?\217\300Ut\316\336\340?K\327AC\351\007\341?\310\315\014jd\376\327?\322;\202D\037\245\337?\000P\373\371\251\362\317?\344mI\207\354\217\326?/\252\030\037*\274\346?\210\001|]\323\351\300?\236\207ve\204\331\331?\020\304\rDe&\257?lGF\360~\374\341?\342\001\231\254\222\304\320?\240\006\362>\243\"\356?\002w[oM\274\335?\366\323\2376\"U\341?\177\302\017\353\031S\344?\032\020\032\302\3006\340?Rx\341\014\250G\354??kZt\307\026\342?j]X\351h\350\335?\362S;T!u\355?\307\n\r\360\245\277\350?\373\204$7\366\020\343?\260\005\376b\323\220\346?\020\316\232\\\356\267\326?\361\376T|T\233\346?\2142\340|H!\303?\342\273d\225\211d\346?\364\006\207\353\373\267\313?H\230P\315;\243\324?\362S|\23204\340?\034\001s\021\236\325\310?\204\2069w8$\345?x\316\307\333\355\033\343?/\376;\211\306\372\346?\034\214M:\264u\332?\360\214\245\265\356\246\241?\324v3\324\313x\341?\276\315\374\312\351P\355?\254\315\242b\232\036\333?\200\002{\357\301\237\305?P\336ed7\274\256?\3520\374\311\216\345\356?P\027_\372\352\254\240?|dD\210\365u\307?@\237\206\\\2438\257?DiD\335j\227\342?\347\354\027\310\020e\354?7\006\237\321\256\211\340?->\325\374\273\252\347?,\333|\226\366\324\304?\272\001\370\306MV\322?\360P\322\330\010s\331?r)\374\346\223\177\354?A\212C\212\267\002\344?j\237\221\220l\243\350?\2764\027/\243\271\342?\024\227>\214\307{\317?\310\001w\215@\253\312?t\316XA\332\267\316?\306\213\334P-\314\326?0\006h\263!H\250?\223P\251\252\271\373\347?P\231\021P\264Z\337?sj\035\200\024\304\350?\340\227u\005\237\346\274?\343\0024\03798\352?\211Q_\356\364\205\354?P\205]\237\274\313\340?9B\344\262W\365\346?\272\003\360\267U_\337?0h\024\"\022r\346?\330\317tz\217\r\307?\256\350\352\221.\210\332?mCU\231\324\305\354?\334Tx%s\324\320? \352\202v\230\'\322?\330zbj>\010\314?\244-t\366/?\332?$\034\246\021\243\320\320?h\203\014b\0043\315?\356.\346\364[\232\322?\317\345\334\373\255\375\341?\000}Dl\242(\254?\336\326\273\353\245F\352?\271Z\254\004\242\356\351?\030\023_\377\205G\261?\000\300\302$ZZq?\270\302\331[\207M\305?\205 \245\030\224\031\354?@\275\377\020\270\002\334?\271\313\330{\030N\345?P5\255Ln\237\272?$\316a\203\311\005\344?,\032u\347\002\346\340?`\022H\371Z=\275?h\212\261\354\305E\273?\370\014J]\\\332\341?\360\365\331\006\253\366\250?f\341d\3015(\336?\306\250\t#43\353?\036\327\341\223y*\330?\340\247\375\275\222g\350?\350\360\326a\314\252\336?\350\371[\365\364I\343?B\\\277\264\001\362\356?\270\255/\266\3218\303?\016\363\322 u\337\356?0\320\007\261\247\371\256?\326A\204Y;\347\342?\227\215\272\222\233\r\341? \335!\355\305\254\303?|L\233\'N\212\354?\300\261\335\240W#\243?J\230\247Q\360B\342?\244j\325\301\202\332\304?n\023L6\030\267\332?\264O\366f\270\275\300?\310\306<\264\311<\355?D}\273%\373\305\344?\253\320\250\312\377\352\355?\025\235\2053d\226\340?\244\013\370\233\347w\332?\006F&a\235\263\345?\002\204`\331A/\327?\'_\320\337>\371\350?\230\342x\335Ze\335?\354c\207l&\377\326?\200\345\272e\271\271\246?\332\013\262\323\353\256\330?hb\016\346\333\211\337?\314-\317\222\211\220\303?\010\027\300J\006\343\334?\300\370@\256\231\205\265?1\267\320\257N\327\350?\270\372\245\3217\234\300?n\3573\312Sp\351?\240\222nM\266\304\334?\257\007\256\316Ru\345?W\035\343 \345\325\343?1\225G|\364\250\342?!\023\355\262\334/\346?\306s\352\273\266 \341?\353M\224\354jq\344?\210t\244\nP\004\302?\317\232\233m\332\006\350?$\022\001Y\250\000\330?\367\212\307\026\001l\342?\310c\217 <^\352?(\314\251o\013W\276?$\224\321/\275\250\311?H\314x\014U\266\353?2z^\363\032u\333?\305\327!y+\334\355?\337\300\256\030\3359\353?6\266\n\010\233\006\325?4\332\335\005{\345\356?\210i\033bZ\244\305?|\341\374*1\373\303?~\337i21D\331?h\033\356\277\304\340\264? \322\241YI5\240?\030<\361\373\321L\353?\001D\025|Q\331\350?\317\001`T\353\316\341?\224]/\351\221\\\341?H\216\017NI\341\325?\014\232.\242\037_\354?zj\237\006+\345\332?\360b\r\245s\352\265?Hn\300A\222b\357?I\177c3+\271\344?\235\000\250\020\244\320\354?\346\026\005\241\232\026\335?\352\222/Gr\005\346?\241\t\272\242Sg\342?\306w\237\341-A\336?9\262\302\\=[\355?\354\272\375\222z\243\310?\272\313\370S$\000\322?R\310p\224\337\255\327?\300\272\207\326\365A\275?\372-<\361\362\355\325?\216\013\005D\326\352\330?\260N\014\353v\355\312?$\257B\"\027\371\353?\256\014\010<\210z\354?8\271\371\013\016\370\271?x\001\303\241\315\353\327?\250\016\277\320\212O\300?#V\314X}\305\353?0\237\204\270\207J\335?8\0224sYY\305?\270\2753\241t\022\276?\014q\3746o)\336?L\211\021\356\221Y\330?R\024\262=\341\240\326?(C\321O\224\234\277?\215\345\241\310\3079\340?lY\241\354z\212\302?$}\373\272\010#\321?)\237\324\302\356\273\341?\270\024\010\365I\213\333?\254\211\201v\226\330\336?\266 \231\335A\317\324?S\'z\004\315\266\344?8\255\331q\342.\323?\030}\245\256l\325\341?@W 5\021\000\334?h\242\330=\257\364\345?p\205\321\t\276\331\255?\010\353\204t\364\254\272?\345\023\256\035\014\210\346?\000\372\315\303\356\205\300?\t\317Y\360\031E\347?f\t\206ii\254\350?\320I\202\341\341\026\267?\010\270\3575a\245\356?\246\364\232\343\245}\345?Vz\374\302\001\031\336?\360\367ah\374s\266?(\025\t9\246\347\341?\210\343\344\330\224\254\267?\274yX\367\301T\325?\340\212A}\304\207\265?\027\3378\354G\355\347?h\305\013\350T\302\351?P@Y:\374z\325?\266\215\256qQ\224\323?\262&\314\341C\335\342?\226\311\332\267\324d\357?\261z\250HU\222\343?\261*X\304\253\240\340?D\347(=\340\355\300?\230\247\312d\357\313\266?G\256)t1I\346?\'\353\261\263\214\327\342?\311\001\033\370(\274\356?\334\256\260\257MR\333?\024\247`\322zS\346?.z\343\260\342\244\344?\205\177\256\327e\264\340?\032/\260\237\304p\326?\240^N\233\202\265\334?\244\331\021\233\201\262\345? v\037=\024/\355?\330K\260\035\235\232\325?\233\0332\317\365\376\346?\307\017\240d\237\300\346?\257\207\260\245\210f\356?\036{!\254\244\t\347?S\036d&k\327\353?\000\017-@\245\242\317?n4\354\207Z \327?\000v\030P6\237\351?\336UJ\017h5\347?\230B\215\272\350\240\337?\362\270\333 X{\341?\014\357m\334\024g\337?p\264\306\211\327\323\271?\000\340*\276Z\267$?\240\360\300\006l\030\326?h\216A\021\233\315\321?(\341\361\026\325\220\315?\214(\216\241\317\000\351?\030%\255\311\217\213\301?x,\035q\356S\333?\220\037\303Z\024\324\242?\374\346\243\n\274\r\324?\023k\226\313\025\003\347?\377\"b\255<\243\345?#P*}\233\017\347?\362P\"7-\204\334?\355\300FR\032\305\354?\267\365\216<\335G\346?\004\007\224E\250i\301?\260\325]_\232\272\242?\332\"\266\230&\265\344?1\344\004&\324\250\355?\314a\312Q\227\325\312?\336M\033\356)A\330?\005\233\r\"\300\332\345?$\2510\306\344\306\300? \204\004_f\314\353?\242\326w\265\232\376\351?\200(\324\356\244\257\353?K;\365:\245\352\352?\370@\207\025\2753\323?\204\265D\336\016\024\337?2\322h\207\010\365\346?\002`VOCf\325?\277\201UM\001\234\343?\330\267\006vw\007\327?\212(\307\n\235F\346?\"6\006N\277\002\336?\310\277\025~\035\317\277?K\362c\227\264*\357?\276\352\260 \325G\342?D\332M\004\335\211\313?\360\334H\217jE\340?&Z\3362\032\256\341?\244\231m\014L\266\343?`\027\231\215\207\250\237?\223\030%C\255\224\354?\356W\010+P\275\353?\361`\243n\246\377\356?l\003W\321\3429\330?\364\251\233G\2324\316?\245\\BFc\221\341?\220u\224\226\026\235\301?\245T\"Y\243\265\350?\360\200\257\010K\206\265?\230j\356\227\257\316\325?\237\030>\311Jm\356?\270K\377\253\376\225\331?j&\3064O\323\346?\313\306?\332\210V\353?\273\324=C\203\214\350?\354V\327+\262\001\355?\0004{\014\276\314C?\002\236\266\270\374\r\354?\332\323\036\020z2\333?e\202\2406\361e\345?\"8jh\356\360\333?\260M\377\220U\315\353?\'M\212\252F\310\340?\304`\256K\257Z\351?\372\364\013zN0\353?\340\363\r:\266\355\236?\000\206\372\267\276\227a?\347\'\'2\332/\354?P\245{\312:\224\306?\320bl\304A@\247?\352\252W\205\"\305\327?\233yv\346zL\341?S\020|\260oF\341?\202\305\013\316%A\354?\3403\000^vE\244?\026\204\303\177)\303\343?PMj\243~\240\276?\200\000K\313\363\207\254?42O`\303\240\343?\200\234jfz\212s?\322\3202&\2202\357?\344.\254;\252\245\325?\260n<\270X\312\316?\330\216\345\027\210]\267?\305\270\324I\336B\341?P\302\320\315\300\022\340?R\024k (\206\342?\254\243\331\302+l\324?\214:7\345&\257\330?v\210\253\342\225\031\322?p\356Sg\326\347\272?\260\014\210\2240\232\274?\000\266\337\304\347V\255?\244@ho\360\262\331?F\310\353\262p/\357?\370\003\363\313jv\304?\272\r\031Sz\020\335?\246\334t6(4\325?\272\216\240R\243\022\340?\200\347\344\0253\343\302?\234\264V\363\347\240\355?\000j\031\217l\256\204?\000\032{\306R\242\257?\310\020\277\302\230]\272?\200!\212\3530y\274?\360\212T\332\014n\304?\206\033\356\014\311Y\357?\345\202(\026G\243\351?x\306\200\016\"*\301?\356\275}H\355\356\353?\036%5\\\367$\324?\031\224gO\262\363\354?\036\215Q\243in\347?>\330\303\032K\356\330?\274\362\352\335x\010\356?(\356\217\001\017\016\310?j \002\246\366\364\327?\256Il\267-G\347?\030\271\325\344\n\273\337?\222]\254\"N\347\327?\214k\270\220\352\250\357?l2\017A\0053\336?\232\311YP4*\352?x0\317\324^\255\313?\336\t%j-{\350?\010\230B\260\203\n\314?\234\331x0-\316\356?8{&.t\024\336?O\262\266\023\342\354\342?^YPJ\310\214\326?\204\023.\352\006\014\317?\004S\232\256\005]\305?\323\240\327\240\200x\350?\206\230\201\343\260Z\357?hD\322.\234\310\322?\352\305A\325B\207\351?\276f\003\377Wb\344?\000\241=\360f\315\340?\370\355\267BlK\277?\350\226\004\007\367a\270?\272\304\371\010$\257\322?\014\035\312n\314\262\315?\257\223;\256[\276\350?\206`\316\332\247\346\337?xK\234\2006\215\320?\020\2359\211\003\205\276?\214v\202\336\331W\321?\234\366H\246\024\367\310?\317\3079v\304[\356?\250V\220Y\342v\355?\344\037\007\215\017\035\355?\254\272\257\323p{\321?n\233\'R\371M\327?pV\332\306\272\374\257?\365q.L\374\245\344?\207l\313\343\036\371\352?K\303\215\350p\350\341?\354\303\210]\246D\333?\346\206\270\254\036B\355?\211\224|!6@\343?\374\263u\217\240\317\313?\235\\O\262\226\311\356?`\212\224&\203\220\334?4\005\224\n\251\222\350?n\001O\313p\021\321?\210ca\310\022c\314?dx\347\026\266^\327?\200\203\022Q\221\277\237?\204\214^\305\333v\304?\024|W\035W\330\345?\340\000c\274\275s\317?\310\372\215\217q4\353?\215\337\312\222y\303\343?~\010\260[Tj\342?\305\357\rZej\351?\340\3043\222\232\374\260?\322?\376\333e\233\343?\374\240\026](]\322?_\374c;\352N\352?j\2749=\365\224\356?0\244,\277\035\341\336?\250\322\353>F\266\344?\340\000\"\341\250\237\327?!\323\242\373\234\242\354?\224\'\217\340\010}\301? \222\232\231\021g\350?\215\031\275\364\310F\355?\334]\304^\360\000\300?\330\004\252\016l\013\303?\234\005\352\302\267\210\347?\024\032\035\254\240\366\353?\304\230{.x0\353?\304\350\320\0279\376\306?0\213\2178\263&\333?\344\266\010\372\362\364\352?X\221k\311\375/\344?#\2445\304\007\004\340?\341I3\027\277\313\350?\200\3478\367wqq?Ib\222\346Nw\346?\370VKL\352<\302?\000=\212\247\200c~?\360 !\233|\332\302?\213\262$^\310W\345?h\214\352\207\316z\261?k\200\001o\277\334\355?a!\334L\267E\353?\273\346\2665\200\254\354?9CR\245\271t\342?R6\246\253\r\370\343?P7\350\241\2710\270?=y\304\327\2667\356?l\025kf#\304\330?Y\367\312\016\306\346\356?t\233\341\325\r\331\336?\214=\006\343\016*\313?\213{\352\303\025\347\352?\342a\031H\346\257\336?\206\001\014\341\374\330\355?\340\017\3708\267n\344?[ \237\314_q\345?&\277\362\250\372\207\332?\263V:\274\374`\351?\226LYo?\207\343?\227\026\250\272\271\n\357?\210\203\347\327 \237\335?(\303\216\251n\317\317?E\277\350\263\014U\351?\336\020\021\366\315\226\323?g\303\317w\007\261\355?\030\264\310\020[\367\272?D\2358\346\270/\305?\014\227\233QxK\310?\366\257\235\257\355\201\352?\362\2429\035Z;\326?\364;j\034\240}\310?\365\n\n\237\251\254\350?\231\211r\302H\363\345?|D\022Yd\247\313?\366;\003\225N\021\353?\342\274g\277\242q\322?\302\2327\013\237\273\324?\237\227\334\275\374\225\347?\235j:F_8\342?~\177<\030\333\265\344?F3\027\355|\233\355?\360\372\261\252\014\002\325?\363\274W$\033A\342?\204\225\004Ed*\321?\340\025\315S\200\365\252?xB]H\317>\330?\0009|\202\305\031}?\370\257\362\347S\201\335?R\320p\331\224<\345?8\244:h\221\206\304?l\032y\203\336S\314?\320\0236!m\224\273?e\346\364\304~\036\340?\010.u\311k\321\274?\"P(Y8U\351?n\345Z\234\004x\346?\272\025~\302\027W\337?\350\343\363\341\277{\266?\025$\341\220\2035\352?\036\252H\303\343\177\327?K\002\'\301&\303\352?\342\354\241\177`\013\322?\266~\251:}f\355?2d\265j)f\325?r\251lH\025\n\323?\020%\005\254Z\232\324?\231%\014TLW\352?\326\327{\363\323\377\341?\022\263NQ\343 \336?+\010\324\306\270\037\355?\\\365\033\245n\266\320?\364\343\253\201\022\277\342?\330Z\272\310\370\256\262?,1M\277zS\324?\200\340\341\300\345\002\264?i\214\310\213\367\374\354?d\342\010\243D6\343?\320\037\014\214.*\243?q\337w}\033=\346?0E\'\026&\277\337?\000\204\315\227\236\004\314?n\313\034\344\347/\321?T\207}Ds\036\323?v\336P1\236\324\335?^\343\232N#\354\355?\354!\252\035\326c\333?2\256x^\307\002\345?( <\336\355\322\300?x\246\203\302\227c\307?\022\206\007\242\243\247\355?gd\211\264\336\010\343?\0344\322O\317\246\332?\237\031\345\347\226\326\354?\233z\177\247u\277\357?\3627&1\010\360\345?\227\223\241\"\355Y\340?\000\371w\022\200V\245?\213\220\340}\035$\356?p\036\211\250\214\227\257?\330\326s\354\316K\303?\315u~\270\267\365\346?\350\322\215\223\213\223\300?>\014\207\263\326\257\343?OB\n)\022\272\342?\354!\316P\305\261\306?\325\2669\006\304]\355?\351+&\372\372W\355?h\347k;\"Y\344?\202\350iZ\177u\344?\000G\013\000\377\222\273?\360\004\004\002\213s\350?\372K\236\271\330l\346?\240\243\336c\177\223\335?m\003V6\227;\353?\022\225\250m\307\034\326?\207b\236(T\222\354?\322\226\376\244\216\343\324?\\R\301GT\'\320?\232&\2727\221\002\321?\234\025mA\355\014\352?\232\355\003\345\211\232\340?\204\255\005\323+l\333?\220\317\001\365\247\237\316?\004<\220Pf\212\310?Z\323\223;\020/\330?\014^\327\251\211\010\337?\210\247\027\233\315\006\354?:V\027\032\263\362\331?0\025\010\244\027\361\246?\002\346\241\360\027\343\345?rGD~\014;\320?vf\270\347\315\035\325?\246\241\361\032.:\344?\246\207\240\303\306\334\356?HJ\nlY\271\312?\306,u\253\314\031\332? \243\352\366\t\236\321?\314n\0179cs\306?\264\020\227Z.\334\305?\240u\277#\217\350\273?\036d\336\"r\264\351?\333\000\033\025\243\314\352?\275\023q\037V\267\341?\034\023~w\342\"\354?\354\217\002\241` \354?\n\373\2377\375\240\336?\276vdX\247H\331?L_D\215\"\237\311?\260c3\254\312\324\352?\364_\246\251\310\343\303?\303\3643B\033\311\354?H\336\362\260\016\333\264?9z\017\213\352`\345?\034\357W\346\373-\333?\030~\376\t\017\265\321?$;\r\324(~\357?\231\205dF)\232\342?k\365N\004\025\332\341?\201\250\264\326\007\'\343?#Q\034\270\224\304\351?n\250II\247\254\335?F\2272\266\270I\325?\200\231~p\371Q\317?*0\230\311Gk\335?\037h\335A\333\"\354?\310\024R\026\3748\335?\2439\024\r\226a\341?8\341O\225\244%\337?\331[\023\203\3032\353?0X\354\351+\211\335?\220\002\\\322\223\333\317?$\350[X\263\022\303?j\034o\227\367s\321?\334\300I\231\207-\356?\000zZr\260\233n?\003\220t\037-y\353?\274\311pt\353\033\314?\0007\345MN\341\250?(U\263U\240W\301?\202\311\032\200\n\252\325?\223\366\314\3169\007\340?`\367\241\216\232\203\223?04\357|\224B\321?+9\035\204\332W\340?\r\275\214\022X\327\353?\024\020\353a\205\311\311?\246\310\325@\325_\354?^\344\220\316.\323\343?!t*\320\315#\345?\372J\375z\232Z\356?\270\353\341\270\020f\265?\274Ie~W\315\320?\005\337P\\\033\032\350?\251\250\322\007c\372\343?\224f\3606\237\255\303?\240($t\372=\273?;\235x\240D\345\340?\240\347\022Y1>\255?\344A\\\220nS\302?;\027c\017W\224\343?t\315*\000\312\304\330?\016\020m\210\343\357\337?`\206\263Lf\031\321?\204\227\253x\202\332\323?\301\245)i\225\327\354?\0138\244-\352s\347?\376\366`\265rF\324?\300\035c!\213\037\216?\002\030\322\216<}\343?h\327\364\363\023N\276?\245\257\213\302\337B\346?\302\223 \374\007\241\326?\000\263\013!\326z\262?\314\311\250t\023\306\332?@2w\326\"\311\303?v\331\004\036\250^\345?9\347\343\225\251e\342?>\206\331\230M\212\335?m\373\032\314\263)\357? \243\001\343\350\353\220?\010\301\275\231\316\201\322?\200\276\335\367\366\343\271?\322\025v\037\360@\346?8r\266<\224\367\345?V\'\242\366\225\322\325?St\373i!\004\343?v\"\266\344{|\336?\022\363\250\374\020\242\334?\366\206\372\032\342\321\354?\366Ycg\307\275\357?@k@\305(\215\316?\026N\330\222\274\274\357?\277_\260\307\tC\340?\277\256\266\2563\315\344?\210\254xw:\224\330?\3315DQ\237\347\341?Mxj[\032I\345?|\321\344\224D\340\304?\351\352\021e}\037\350?\314\237\232\177a\334\322?\310\004\241\325\237t\260?\032\027S\035@\000\357?\324\362u\276\242\334\343?\001\r\257\2638S\352?\006Q\355\360\233g\322?\2558\341\311\213\217\356?\223\312\344\205W8\347?\007\376\001\332\2257\356?\014|\3275\301\275\324?\276\325\207\016\206\311\326?r\225]$\233\240\334?\\\210\3334\270\345\321?\312(\323\272\363\341\344?e(]\3670B\351?\000\204#\304\232\240[?q\343)8\230z\351?\000\200G7?\320[?\244c\n\231\323\312\354?\010A_\026n\310\326?\245\225.\267\307^\357?P\207\320\005\314\252\275?\374\007rs\353\304\350?\220/\rdd\374\240?Xf\216^\242\264\310?`\366\252]\034\201\337?. \272P\272\315\344?\\$\351\333\313W\304?\000\325\203\332\213G\272?{:\257\303\377\003\345?~V\006\247\215\r\354?\256vLAF\206\344?z\303u%\263\354\334?\256|\001\\\234\255\323?\000\020\210\233^\211|?\244\314\226Py\224\321?0\265]T\341\241\257?w\301\037\246\300R\346?\210|\276\347\203\246\266?%\025\004\223\317\005\351?``\010h\'w\221?\260\301M\206b\030\325?\230\246\254\217i\240\354?\021\202\264\241\313b\353?\224\300\221\203\253\205\350?!UH1m\336\351?\260T\200\303P7\356?R^q\315f\265\320?\206[\026%\204\370\340?\000\2067F\377\036n?\344\0073G-\216\317?\260/\203q\370\315\344?^\027\224\025\250\215\325?,\375\017\317\225\332\326?\264\237\177\216zC\312?4\256W{\334J\307?\033W\270.\n1\355?|=t\326\243P\326?\n\014\250g\267\377\335?\377\315\034\tp\204\352?\344\"\025\210\304f\320?\240,0\303p\001\230?\346$\310\233c\237\324?EK\327\311\3451\346?\036\365\266(Q\200\344?\344\212\345\324\001n\322?\303\245<\203\363u\347?y\366\363\270\232\250\354?\\]\332\0045\014\305?F\213\n\321C\333\331?V\350\n\275\003\221\340?\224\227\233\025\372\231\312?\217`2\326\014B\343?^rOE>\204\327?\322\034Od5\347\354? P\203\362\0100\323?\367\325\205\036&Y\343?\272 \301\257\004k\334?\261\372\377\213\212\326\344?\263\331\205\210G\216\341?t\335\217\321\216\006\350??A\2779\343\250\346?\017D\230\310\332\271\343?\255\0046p\373o\346?\246=:\322J \321?\003\367\360F\'\220\350?\226\242\227}\213\"\324?\2150\374\251]!\350?\354I\306\370+[\312?\215/\362\nl\256\346?\306a\352\263\201\331\343?\036J.\212\247\240\336?!\3675\363( \354?8[5\341z\345\337?\3346\216|\014\340\351?\332vW\331\355\274\352?V\201\215\365\216\264\350?^\376\272\360-\002\351?M\312\226[\036\351\355?\206B\177\224~Q\326?\200\230\3670l\362\215?\260\210\205\306\223R\345?\223\222\371\226\\\006\342?\305\244b\343\266\274\347? ~\333\273\3625\225?\317\257?\257~y\344?L\325\336\026\023?\304?8P\356a@\332\322?-h\271S\\\375\352?~(\355\220Y\342\331?[uZJ\262\227\346?f\013r%dt\337?\204W\'\\\314z\332?@\375*\354\032h\221?*\375\253\375\305y\336?\225\357`\231\300;\346?r\3338\004\014\272\345?\320\277\r\331P\036\326?\304\204\360\\\014\014\320?X\204\236\266\230\350\352?\266\337q\225\307\351\332?b \355\253f\261\353?x\367\374\361\340\037\311?\222Z\216\323\377\245\335?_J\320\346:\217\341?L\n\201\323lH\342?\371\206\247iH\002\341?\242\264\017\234\210%\324?~M\214om\324\323?H&F1\001\254\335?\350\310q\227z\010\274?\202=Uu\230\201\347?\370\325 |a{\306?\277\262\236\257\212c\345?m\006\230\304~\222\342?:&\031B\242\304\322?\301\330\365V\336S\341?\256(T+\243\211\320?\000D\030p\214\310\306?\332\273mF\321x\336?\240\376\342\200\004o\227?\370\317\210\304\240!\270?\230\302e\211e;\310?\243\232\231\2126\221\340?\000\'\3010wY\241?8y(\370\226\357\337?p 2\360\033\352\303?;\274Z/*\311\357?\323\006\201\2756\317\344?\003wB0\256\342\346?\240\247\2766\256\227\340?Fe<*\315\016\335?`\257\224\2104|\267?\275P\307\310\031\376\344?p\264\335q\311\031\273?~8\241\275=q\322?\300\303\340\213\034\346\330?p\016\237\'7\234\277?\340D\005\200\222\363\310?LB\307\370t\337\311?\200\014\304\230\307\261w?\253^\301\336\022\362\342?\210t\n\302E\007\350?\344Ho#\223\376\317?\274C\375q\031\355\334?@\227\337Ah\025\265?\030\320%\034\027\032\264?\301x\0356\223_\357?o\337Bw\230\222\351?\026!\320\300\371\267\355?\3202\226>\234\375\317?\330\000\261\246\364\300\303?[Q\"\312\376\002\346?(\300\002\340\315\002\337?m\223\343p\244n\355?\316\214\371\252\351\177\345?\334*\356\264\317\262\312?`.c\025\231E\274?\2107\310\021M\035\272?>.\2248`\323\351?\203\264\224V\361\200\357?|v\367h\020\252\354?\376\024\026\302^@\342?p{\2511\"\010\265?\350\210\023\316\215\"\320?\252\312\230\264\360\225\351?X,R{\262\367\354?\010/\214\365^/\305?tOhg\254\207\341?6\300\240\251\014\227\331??q\341k\002:\356?~\370\2445P7\327?b\014\034\347-\256\354?\007/\005\242\333\365\343?\263\271G\364P\227\351?mv<Q\323g\340?\036\000\332\335\033\214\356?\006\202\373\203\325\273\357?\3320\311\245\372\222\321?`z\231j\nU\244?yL%s\212\310\355?8x\245\274\'m\346?\240\254\237\224\306\356\301?\2575\002x\2265\340?(d\371*\351,\357?fP\377\222\360\342\346?\\\220\314t\360\236\344?\350A#Y \270\265?\3176qs?\356\340?\024\350*\020\204Z\305?\231q\026\314\377\201\351?\002\341\253\331b5\337?\344\222\267\023\264R\317?Dcz\331\260\237\325?\000\316A<\001E\273?0\007^\357g\376\336?\304\367\377\242\010\036\304?\000\201Axuc\350?\320\204\247\212\006[\317?y)y\242\317\336\357?ZX$o\361`\336?\26694\304K\344\325?\002\245\247\336\366\207\353?\200!\375\010\004R\256?\236\277\313joP\322?\354F\221\020\003\n\320?&V\323\262-\367\350?X;\324\237\264x\330?\272\247C_\322a\341?\346\375&\207\022n\357?\364R\330\n\357\324\342?x\r\214\014\337\034\332?\030\345\025\244xh\304?\221\220\277\201[\352\340?\200\346\3242\033}\354?Lc\r\276\250,\324?>,\267\370=\315\323?V\263\237\206\251\212\331?\242\017\371\365lg\350?\370\024\255$\007\241\261?\016\031\314O\2055\336?0\362\010\277Rq\254?\036\342\262\'\266\343\347?Py/\2448\357\345?d\370]\314\303\037\306?\234\220U)\245\220\336?\240\300\337S_4\220?\210\272.\250\241{\303?\360\035s+\376\027\356?Fq\274<\315\313\343?\267\330\013\353~\255\346?\027\366\020\235\215\030\344?\n\372\252\334x\326\322?\013\244\035\352\r\022\355?x\273\034b\325\257\335?!\371\r\254.\240\343?M\226@\243(L\346?L\177q\245\220\026\327?\313t9i\201\006\352?8\334.\020|D\300?\240\263\tu\327\361\334?\304\212\206\027\275\010\311?\340z\312VVb\220?)\262Y-\017\273\345?\347\021\014;\320\212\354?,\327\311\263\324Z\325?\242\257\204$\240\206\352?\034~\000b\365\220\310?$\370\251<M\017\345?\032\0058$D\037\337?6\375|!\301d\352?\362\033\242\221\201\212\351?\220\205R-,\212\336?\301\206\025\303\364\273\345?\232\005\212IA\202\353?@7\r\261\361\315\211?\340\271Sx\006\234\357?\000\262\244v4\220z?\264J\346\030pc\344?\320\332\264\307\202\025\354?\202\035\344\014,i\333?\\\256\202\2111\325\302?\370;_\352\244?\322?\034E9j\314\335\331?\\\305\333\201\024+\325?\035\02188>\n\347?\343\033#{\"|\344?\244I\006B\374\201\342?\336\257\3149\025\273\353?\227\031\361\215!\026\356?\331B\021\246\n\260\351?\340j|\244\376K\274?Pk7H\244^\335?6\372Q\035\320\332\324?\"\035\021\260n\321\322?\300H$>\213,\205?\261\204\355XE\315\347?\273\023\273j\203\326\344?\243w\342\032\232\252\340?\267\353\232\255_\350\351?h\002\001\223\323K\342?\240M\265\335C\266\350?\016\327?T\367\221\350?\036\306\311E\347\377\346?\342\332\215\262\245y\332?td\235\320\222\307\310? p\323$\276o\224?\204\025\212s\307\246\331?\214\247M\377`\277\343?D\327k\234\202n\345?F`\344n\362\027\351?\016\002\254\"\322\316\345?\374\007]\005\326\263\306?`K\277\350\253\363\270?\337\036\261\354m\037\355?\210\237=^({\357?Z#/\315\326\004\343?\252\366\326b\010\375\335?>H^lh\332\323?\210\274\323?L\262\343?\300\271U\002 \004\304?Xh3\200Q\331\345?*\010I\366(\352\326?[\334\252\3418\025\342?\240F:\356A\261\227?hb\240\370\315\232\312?2\306:\026\303\017\343?\"\'\241\316OO\341?<\263j\246\201\r\357?\274XE\025\007\233\324?\270i\225P3\372\300?)a\301.]\r\344?&5.\311n\311\342?\252]\020\336~Q\343?s\314=\221\271\\\353?D\373\234\325h\035\340?\3360\300\347\005l\345?\2724\315\237\364\177\343?E\215}\365x\007\341?d\214#\263\2220\302?\314kj\352\311\234\350?,\310\227\214}\003\355?`\237\236\032\320\345\235?\000\337\t\226W\256p?kN\314b\317\336\342?\302Y\235\033\307\206\330?\352\354\310L\347\227\343?\346\243\031\265Bo\351?,`V~\013s\334?F.+N\226\330\346?0\3213\030\305!\277?\200\022\363\030\031\367\252?\321\321\330x\2533\355?\320B\323\302g\363\247?\350\215!\274\013a\306?|\nk\266C\t\352?\361Y:\217\360\360\351? \231#\26290\266?\320/\007\270\366F\323?\260^e\357\240\376\301?>\006\250\363\342\014\347?&\271\266l\200g\350?\374Z\027\274K$\345?=\363\277\235\024\372\342?\352[9Y@\201\344?\242\351\324\237$\311\343?\003\364\230&R\375\356?`\326\rlk\271\330?Q\026\367\307\204O\343?\240@f\030T@\275?(\217Se\022\202\353?\374\223\037\364\257?\332?\230u/0O\302\327?m\325\274\003$\214\355?\244\266p\315Cm\323?\252\370\260\000\337\356\340?\370\004\261\366\362=\341?v\n_Il\353\346?\002\206\032X,\343\325?\361?\306 ,\216\343?X\242\345\236y\304\357?\300hhd\273\345\307?\332U\202n*\033\325?\242\363\326\204o;\342?4\222J\255\324F\320?S\336\254\221\356j\357?n.#\003\340,\356?\005\216,L3\030\357?x}p\n\363\n\340?\030j\3117) 