/* Copyright 2019 The TensorFlow Authors. All Rights Reserved.

Licensed under the Apache License, Version 2.0 (the "License");
you may not use this file except in compliance with the License.
You may obtain a copy of the License at

    http://www.apache.org/licenses/LICENSE-2.0

Unless required by applicable law or agreed to in writing, software
distributed under the License is distributed on an "AS IS" BASIS,
WITHOUT WARRANTIES OR CONDITIONS OF ANY KIND, either express or implied.
See the License for the specific language governing permissions and
limitations under the License.
==============================================================================*/

// Automatically created from a TensorFlow Lite flatbuffer using the command:
// xxd -i mnist_model.tflite > mnist_model_data.cc
// See the README for a full description of the creation process.

#include "tensorflow/lite/experimental/micro/examples/mnist_digits/mnist_model_data.h"

// We need to keep the data array aligned on some architectures.
#ifdef __has_attribute
#define HAVE_ATTRIBUTE(x) __has_attribute(x)
#else
#define HAVE_ATTRIBUTE(x) 0
#endif
#if HAVE_ATTRIBUTE(aligned) || (defined(__GNUC__) && !defined(__clang__))
#define DATA_ALIGN_ATTRIBUTE __attribute__((aligned(4)))
#else
#define DATA_ALIGN_ATTRIBUTE
#endif

// model data from xxd -i  model_quant.tflite > model_quant.cc
extern const unsigned char g_mnist_model_data[] = {
  0x1c, 0x00, 0x00, 0x00, 0x54, 0x46, 0x4c, 0x33, 0x00, 0x00, 0x12, 0x00,
  0x1c, 0x00, 0x04, 0x00, 0x08, 0x00, 0x0c, 0x00, 0x10, 0x00, 0x14, 0x00,
  0x00, 0x00, 0x18, 0x00, 0x12, 0x00, 0x00, 0x00, 0x03, 0x00, 0x00, 0x00,
  0xe0, 0x7d, 0x00, 0x00, 0x10, 0x00, 0x00, 0x00, 0x1c, 0x00, 0x00, 0x00,
  0x2c, 0x00, 0x00, 0x00, 0x0c, 0x00, 0x00, 0x00, 0x01, 0x00, 0x00, 0x00,
  0xa4, 0x00, 0x00, 0x00, 0x01, 0x00, 0x00, 0x00, 0x6c, 0x00, 0x00, 0x00,
  0x0f, 0x00, 0x00, 0x00, 0x54, 0x4f, 0x43, 0x4f, 0x20, 0x43, 0x6f, 0x6e,
  0x76, 0x65, 0x72, 0x74, 0x65, 0x64, 0x2e, 0x00, 0x07, 0x00, 0x00, 0x00,
  0x40, 0x00, 0x00, 0x00, 0x34, 0x00, 0x00, 0x00, 0x2c, 0x00, 0x00, 0x00,
  0x24, 0x00, 0x00, 0x00, 0x18, 0x00, 0x00, 0x00, 0x10, 0x00, 0x00, 0x00,
  0x04, 0x00, 0x00, 0x00, 0xd6, 0x82, 0xff, 0xff, 0x24, 0x00, 0x00, 0x00,
  0x88, 0x82, 0xff, 0xff, 0xe2, 0x82, 0xff, 0xff, 0x48, 0x01, 0x00, 0x00,
  0x94, 0x82, 0xff, 0xff, 0x98, 0x82, 0xff, 0xff, 0xf2, 0x82, 0xff, 0xff,
  0x8c, 0x7c, 0x00, 0x00, 0xa4, 0x82, 0xff, 0xff, 0x05, 0x00, 0x00, 0x00,
  0x31, 0x2e, 0x35, 0x2e, 0x30, 0x00, 0x00, 0x00, 0x5c, 0xff, 0xff, 0xff,
  0x08, 0x00, 0x00, 0x00, 0x06, 0x00, 0x00, 0x00, 0x13, 0x00, 0x00, 0x00,
  0x6d, 0x69, 0x6e, 0x5f, 0x72, 0x75, 0x6e, 0x74, 0x69, 0x6d, 0x65, 0x5f,
  0x76, 0x65, 0x72, 0x73, 0x69, 0x6f, 0x6e, 0x00, 0x0c, 0x00, 0x14, 0x00,
  0x04, 0x00, 0x08, 0x00, 0x0c, 0x00, 0x10, 0x00, 0x0c, 0x00, 0x00, 0x00,
  0x20, 0x00, 0x00, 0x00, 0x14, 0x00, 0x00, 0x00, 0x08, 0x00, 0x00, 0x00,
  0x64, 0x7c, 0x00, 0x00, 0x01, 0x00, 0x00, 0x00, 0x00, 0x00, 0x00, 0x00,
  0x01, 0x00, 0x00, 0x00, 0x01, 0x00, 0x00, 0x00, 0x05, 0x00, 0x00, 0x00,
  0x94, 0x7b, 0x00, 0x00, 0x10, 0x00, 0x00, 0x00, 0x48, 0x7b, 0x00, 0x00,
  0x64, 0x00, 0x00, 0x00, 0xcc, 0x7b, 0x00, 0x00, 0x46, 0x84, 0xff, 0xff,
  0x10, 0x00, 0x00, 0x00, 0x05, 0x00, 0x00, 0x00, 0x18, 0x00, 0x00, 0x00,
  0x30, 0x00, 0x00, 0x00, 0x03, 0x00, 0x00, 0x00, 0x01, 0x00, 0x00, 0x00,
  0x1c, 0x00, 0x00, 0x00, 0x1c, 0x00, 0x00, 0x00, 0x0d, 0x00, 0x00, 0x00,
  0x66, 0x6c, 0x61, 0x74, 0x74, 0x65, 0x6e, 0x5f, 0x69, 0x6e, 0x70, 0x75,
  0x74, 0x00, 0x00, 0x00, 0x08, 0x00, 0x0c, 0x00, 0x04, 0x00, 0x08, 0x00,
  0x08, 0x00, 0x00, 0x00, 0x10, 0x00, 0x00, 0x00, 0x04, 0x00, 0x00, 0x00,
  0x01, 0x00, 0x00, 0x00, 0x00, 0x00, 0x7f, 0x43, 0x01, 0x00, 0x00, 0x00,
  0x00, 0x00, 0x00, 0x00, 0xa2, 0x84, 0xff, 0xff, 0x10, 0x00, 0x00, 0x00,
  0x04, 0x00, 0x00, 0x00, 0x14, 0x00, 0x00, 0x00, 0x48, 0x00, 0x00, 0x00,
  0x02, 0x00, 0x00, 0x00, 0x0a, 0x00, 0x00, 0x00, 0x10, 0x03, 0x00, 0x00,
  0x30, 0x00, 0x00, 0x00, 0x73, 0x65, 0x71, 0x75, 0x65, 0x6e, 0x74, 0x69,
  0x61, 0x6c, 0x2f, 0x64, 0x65, 0x6e, 0x73, 0x65, 0x2f, 0x4d, 0x61, 0x74,
  0x4d, 0x75, 0x6c, 0x2f, 0x52, 0x65, 0x61, 0x64, 0x56, 0x61, 0x72, 0x69,
  0x61, 0x62, 0x6c, 0x65, 0x4f, 0x70, 0x2f, 0x74, 0x72, 0x61, 0x6e, 0x73,
  0x70, 0x6f, 0x73, 0x65, 0x00, 0x00, 0x00, 0x00, 0xd4, 0x83, 0xff, 0xff,
  0x80, 0x7a, 0x00, 0x00, 0x3f, 0xed, 0x69, 0xb9, 0x64, 0xbb, 0xdd, 0x37,
  0x4a, 0x88, 0x4a, 0xb8, 0x47, 0x3a, 0xd7, 0xb8, 0xcd, 0x91, 0xa5, 0x38,
  0xec, 0x74, 0x49, 0xb9, 0xd1, 0x07, 0x69, 0x38, 0x17, 0xdc, 0x3c, 0x38,
  0x50, 0x0d, 0x05, 0x39, 0xce, 0xcf, 0x6d, 0xb9, 0x77, 0x86, 0xd0, 0xb8,
  0x42, 0xda, 0x42, 0x38, 0x3b, 0x77, 0xb1, 0xb8, 0xe5, 0x32, 0xbb, 0x38,
  0xb2, 0x2d, 0x0f, 0xb9, 0xb8, 0x49, 0x21, 0x37, 0x02, 0xef, 0x70, 0xb9,
  0x59, 0x8a, 0x5c, 0x39, 0xe4, 0x67, 0x19, 0xb7, 0x39, 0x73, 0xee, 0x38,
  0xa4, 0x24, 0x99, 0x37, 0xf4, 0x4e, 0xa5, 0x38, 0x7e, 0x97, 0x69, 0x38,
  0x55, 0xb3, 0xbc, 0xb8, 0x80, 0x8b, 0x0b, 0xb9, 0xe7, 0x86, 0xb6, 0xb9,
  0x6f, 0xe9, 0xd8, 0xb8, 0xda, 0xff, 0xb5, 0xb8, 0xba, 0x30, 0xbd, 0x39,
  0x05, 0x6b, 0x20, 0x39, 0x5c, 0xa5, 0x52, 0xb8, 0x4e, 0x0f, 0xaa, 0x38,
  0xa9, 0x1a, 0x08, 0xb9, 0x8a, 0x2e, 0xda, 0xb8, 0xb0, 0x44, 0x3c, 0xb9,
  0xba, 0x24, 0x96, 0x38, 0x5b, 0x0f, 0x3c, 0x38, 0x69, 0xfe, 0xc1, 0xb8,
  0x3e, 0x38, 0x02, 0xb9, 0x34, 0x8e, 0x8c, 0xb7, 0x71, 0xb4, 0x69, 0x3c,
  0xef, 0x78, 0xf5, 0x36, 0x20, 0x60, 0x84, 0xb4, 0x88, 0xa7, 0x27, 0x36,
  0x35, 0x60, 0xc6, 0x3c, 0x36, 0x1a, 0xc3, 0xb6, 0xd9, 0x17, 0x29, 0x39,
  0x2c, 0xbd, 0x0d, 0x39, 0x62, 0xaa, 0x1f, 0xb9, 0xc8, 0x44, 0x09, 0xb7,
  0x6a, 0x66, 0x94, 0xb8, 0x64, 0xc5, 0x92, 0x38, 0xce, 0x34, 0x82, 0xb9,
  0x08, 0xab, 0x3e, 0xb7, 0x92, 0x47, 0x7f, 0xb8, 0x45, 0xf7, 0x8c, 0x39,
  0xaa, 0x21, 0x6f, 0xb9, 0x8f, 0x9a, 0xa7, 0x39, 0xda, 0x04, 0xf2, 0x38,
  0xf6, 0xfa, 0x8d, 0xb8, 0x90, 0xca, 0x0d, 0x39, 0x2e, 0x46, 0x43, 0xb8,
  0x40, 0x10, 0xb7, 0x36, 0x2c, 0xd7, 0x1a, 0xb5, 0x2a, 0x3f, 0xca, 0xbb,
  0x5e, 0x34, 0x49, 0xbc, 0x2a, 0xb9, 0xd9, 0xba, 0x3c, 0x89, 0x22, 0xbb,
  0x44, 0x8e, 0x45, 0xbe, 0xc9, 0x82, 0x8c, 0xbe, 0x73, 0xc7, 0x1b, 0xbf,
  0x85, 0xd8, 0x5e, 0xbf, 0xd0, 0x4d, 0x03, 0xbf, 0x93, 0x70, 0x0b, 0xbf,
  0x50, 0x1d, 0x1f, 0xbc, 0x76, 0x32, 0x80, 0x38, 0x7e, 0xc4, 0x99, 0x39,
  0x84, 0xba, 0x14, 0xb9, 0x50, 0x64, 0xa6, 0x37, 0xda, 0xf5, 0x76, 0xb9,
  0x44, 0x82, 0x08, 0xb8, 0xd7, 0x41, 0xef, 0xb8, 0x82, 0x60, 0x89, 0xb8,
  0xc4, 0xbb, 0x58, 0xb9, 0x9b, 0x29, 0x9d, 0x38, 0x02, 0x00, 0x12, 0xb8,
  0x3c, 0xf5, 0xc4, 0xb7, 0xd3, 0x4c, 0x6c, 0x37, 0x81, 0xe1, 0xef, 0x37,
  0xd2, 0xaa, 0xe3, 0x36, 0x08, 0x9d, 0x5d, 0xbe, 0x4e, 0xa0, 0x8e, 0xbe,
  0xb3, 0x80, 0xfb, 0xbc, 0xe7, 0x1c, 0x06, 0xbe, 0xa4, 0x3a, 0x30, 0xbd,
  0x08, 0xda, 0xbf, 0x3b, 0xd7, 0x17, 0xf7, 0xbd, 0xbc, 0xa4, 0xb5, 0x3d,
  0x36, 0x2b, 0x8b, 0x3d, 0x7d, 0x1b, 0xfa, 0x3c, 0xec, 0x76, 0x50, 0x3d,
  0x37, 0x4c, 0xc0, 0x3c, 0x43, 0x88, 0xac, 0xbe, 0x1b, 0x18, 0x88, 0xbe,
  0x0d, 0xf5, 0x83, 0xbe, 0xb7, 0x57, 0xe4, 0xbe, 0xf7, 0x92, 0x7c, 0xbe,
  0xf4, 0x9a, 0xaa, 0x38, 0x8f, 0x48, 0x27, 0x36, 0x4e, 0x31, 0xfd, 0x37,
  0xc0, 0x53, 0x2f, 0x37, 0x90, 0xab, 0xf7, 0xb8, 0x47, 0x2c, 0xd9, 0x38,
  0x3c, 0x2d, 0xad, 0xb8, 0x50, 0xed, 0xdc, 0xb7, 0xb8, 0x21, 0x40, 0x38,
  0xee, 0xb1, 0x05, 0x36, 0xc1, 0x02, 0x79, 0xbe, 0xf4, 0x55, 0x91, 0xbe,
  0x93, 0x96, 0xcd, 0xbd, 0xc5, 0x6a, 0x38, 0x3c, 0xee, 0x72, 0x45, 0x3d,
  0x99, 0xb8, 0x96, 0xbc, 0x93, 0x02, 0xd8, 0x3d, 0x10, 0x32, 0x45, 0xbd,
  0x0c, 0x87, 0x36, 0x3d, 0xfc, 0x94, 0x6d, 0xbd, 0xff, 0x46, 0x5b, 0x3d,
  0xb3, 0x95, 0x9d, 0xbd, 0x89, 0xda, 0x96, 0x3d, 0x53, 0x95, 0x89, 0x3c,
  0x93, 0x94, 0xec, 0xbd, 0xaa, 0x37, 0x09, 0xbd, 0x61, 0x82, 0x40, 0xbe,
  0x72, 0x19, 0x7e, 0x3a, 0x4d, 0xc0, 0xab, 0xbd, 0xe8, 0xc3, 0x9b, 0xbe,
  0x8c, 0x9f, 0x81, 0x3a, 0x30, 0x1a, 0x62, 0x36, 0x26, 0xc9, 0x94, 0x39,
  0xfc, 0x8d, 0x01, 0x39, 0x86, 0x12, 0x96, 0x39, 0xd2, 0xdc, 0x01, 0x39,
  0x0d, 0x46, 0x4a, 0x38, 0xf0, 0xad, 0xe1, 0xbb, 0x37, 0x41, 0xe0, 0xbe,
  0x47, 0x3b, 0xd0, 0xbd, 0xd7, 0x85, 0x88, 0xbb, 0xf2, 0x87, 0x3f, 0x3d,
  0xea, 0xe2, 0x25, 0x3c, 0x19, 0x42, 0xa2, 0x3d, 0x85, 0x1a, 0xd8, 0x3c,
  0x3e, 0x63, 0x8d, 0xbd, 0xa6, 0xc6, 0x8a, 0x3d, 0x58, 0xa8, 0x7c, 0x3e,
  0x3d, 0x2e, 0x7f, 0x3d, 0xbe, 0xd8, 0x73, 0x3d, 0x0b, 0xf3, 0x29, 0x3e,
  0xbd, 0xe6, 0x19, 0x3e, 0x76, 0xbc, 0x1f, 0x3d, 0x85, 0x9d, 0x69, 0xbd,
  0xb6, 0x38, 0x65, 0xbc, 0x62, 0xf8, 0x4a, 0x3c, 0x04, 0x20, 0x9d, 0xbe,
  0x6a, 0x27, 0xea, 0xbe, 0xa1, 0x96, 0x09, 0xbf, 0x0b, 0xff, 0xf7, 0xb7,
  0xcd, 0x80, 0x88, 0xb7, 0x32, 0xa3, 0x55, 0x39, 0x5e, 0x19, 0x1f, 0x39,
  0xfc, 0x37, 0x11, 0x39, 0x3c, 0xa6, 0xa3, 0xb9, 0x55, 0x53, 0x74, 0xbe,
  0xe1, 0x37, 0x58, 0xbd, 0x1f, 0x66, 0x8e, 0x3b, 0xeb, 0x60, 0xcb, 0x3c,
  0x07, 0xae, 0xf7, 0xbb, 0x09, 0xd7, 0x98, 0xbe, 0x24, 0x1d, 0x40, 0xbd,
  0x3a, 0xcc, 0x17, 0xbb, 0x09, 0x44, 0x00, 0xbd, 0xf0, 0x10, 0xdc, 0x3d,
  0x57, 0x55, 0x30, 0x3e, 0xc4, 0xce, 0x5f, 0xb9, 0xb4, 0x9e, 0xfa, 0x3d,
  0x00, 0x21, 0xe0, 0x3d, 0xf5, 0x46, 0x6f, 0x3e, 0xe3, 0xf9, 0xdd, 0x3d,
  0x9c, 0x6e, 0xf0, 0x3c, 0xc2, 0x88, 0x36, 0x3e, 0xb8, 0x33, 0x6f, 0x3e,
  0x43, 0x51, 0x3f, 0xbd, 0x08, 0x5e, 0x23, 0xbf, 0xcc, 0x87, 0x9a, 0xbf,
  0x7c, 0x49, 0x04, 0xbf, 0x3c, 0x32, 0x4f, 0xb6, 0x48, 0x82, 0x12, 0x39,
  0x28, 0x18, 0xdf, 0x38, 0x56, 0x87, 0x9a, 0x38, 0xa2, 0x74, 0x28, 0x38,
  0xe9, 0x94, 0xae, 0xbe, 0xd3, 0x9d, 0xfe, 0xbc, 0xf4, 0x87, 0x95, 0x3d,
  0x1d, 0x87, 0xde, 0xbd, 0xe7, 0xde, 0xa6, 0xbe, 0xda, 0x95, 0x7c, 0x3c,
  0x7f, 0x19, 0xef, 0x3c, 0x2b, 0x19, 0xbb, 0x3c, 0xaf, 0x49, 0x2c, 0x3d,
  0x11, 0x53, 0x03, 0x3e, 0xe4, 0x6f, 0xac, 0x3d, 0xaa, 0x65, 0x34, 0x3d,
  0x28, 0x89, 0x76, 0x3d, 0x2b, 0xc9, 0x8c, 0x3e, 0x10, 0x9f, 0x66, 0x3e,
  0x2d, 0x07, 0x4a, 0x3e, 0x9f, 0x6c, 0xe3, 0x3c, 0xc2, 0x48, 0x1d, 0x3d,
  0xf6, 0x81, 0x31, 0xba, 0xb6, 0xa1, 0x25, 0x3e, 0x82, 0x19, 0xaf, 0xbd,
  0x87, 0x46, 0x7e, 0xbf, 0x9e, 0x48, 0x03, 0xbf, 0x40, 0x51, 0xfe, 0xb4,
  0xad, 0x21, 0xa4, 0x3c, 0x64, 0x42, 0xe0, 0x38, 0x97, 0xe2, 0x0e, 0xb7,
  0xc8, 0xab, 0x18, 0xb6, 0x5a, 0xce, 0xcf, 0xbe, 0x77, 0xdb, 0x9b, 0xbd,
  0x7d, 0xb7, 0xf7, 0x3b, 0xac, 0x07, 0x19, 0xbe, 0x06, 0xc5, 0x51, 0x3b,
  0x81, 0x08, 0x9c, 0x3d, 0x8a, 0x8c, 0xc1, 0x3b, 0xdd, 0x11, 0x0f, 0xbd,
  0x45, 0xb3, 0xec, 0x3d, 0x77, 0x2a, 0x89, 0x3c, 0x34, 0x4b, 0xec, 0x3d,
  0x13, 0x64, 0x56, 0x3e, 0xee, 0xe6, 0xad, 0x3e, 0x74, 0xc3, 0x69, 0x3e,
  0x07, 0xde, 0x77, 0x3e, 0x17, 0x1d, 0xc6, 0x3d, 0x3a, 0xff, 0xf0, 0x3d,
  0xfb, 0x60, 0x7d, 0x3d, 0x43, 0xa3, 0x7f, 0x3d, 0xb7, 0x4f, 0x9c, 0x3e,
  0x98, 0xfb, 0xbf, 0x3d, 0xae, 0x88, 0xaa, 0xbf, 0xad, 0x07, 0x0c, 0xbf,
  0xd9, 0xa3, 0xd3, 0xb8, 0xd4, 0xb6, 0x30, 0xb8, 0xf1, 0x21, 0x9a, 0x38,
  0x40, 0xad, 0x09, 0x38, 0x3e, 0x54, 0x86, 0x3c, 0x13, 0x73, 0xd6, 0xbc,
  0x70, 0x33, 0x2b, 0xbd, 0x1d, 0x6b, 0x31, 0xbe, 0xdd, 0x39, 0xc5, 0xbd,
  0x94, 0x22, 0xf9, 0xbd, 0xca, 0x82, 0xc1, 0x3c, 0x6a, 0xde, 0xf3, 0x3d,
  0xc8, 0x1b, 0x57, 0xbd, 0x98, 0x3b, 0x85, 0x3b, 0x59, 0xdb, 0x43, 0x3e,
  0x0e, 0xe5, 0x94, 0x3d, 0xdc, 0xdd, 0x00, 0xbe, 0x43, 0x58, 0x49, 0x3e,
  0x2c, 0xa4, 0xb4, 0x3e, 0xb5, 0x29, 0x75, 0x3e, 0x0e, 0xa9, 0x4a, 0x3e,
  0x0a, 0x12, 0xf5, 0x3d, 0xce, 0x12, 0x35, 0xbd, 0xb6, 0xc2, 0x2d, 0xbd,
  0x04, 0x1c, 0x8f, 0x3e, 0x0e, 0xf7, 0x88, 0x3e, 0x20, 0x06, 0x8a, 0xbf,
  0x55, 0xc3, 0x3a, 0xbf, 0xfc, 0xbf, 0x17, 0x39, 0xe9, 0xc5, 0x45, 0x39,
  0xd7, 0xd4, 0xac, 0x38, 0xb2, 0xab, 0x87, 0x3c, 0xc3, 0x40, 0x9c, 0x3c,
  0x48, 0xbb, 0xac, 0x3b, 0xd6, 0x68, 0x36, 0x3d, 0x4b, 0x73, 0xa6, 0xbd,
  0x3c, 0x51, 0x07, 0xbe, 0x50, 0x2b, 0xaf, 0xbd, 0xa1, 0x2c, 0x76, 0x3c,
  0xf5, 0xce, 0x11, 0xbe, 0x91, 0xe5, 0xd1, 0x3c, 0x53, 0x6b, 0x1c, 0x3d,
  0x92, 0x55, 0x67, 0x3d, 0xaa, 0x80, 0x8b, 0x39, 0xc0, 0xd9, 0x32, 0xbe,
  0xd9, 0x7e, 0x88, 0xbd, 0x7e, 0x28, 0x75, 0x3e, 0x53, 0x23, 0x7d, 0x3e,
  0xcc, 0xf7, 0xb6, 0x3d, 0x0d, 0x8a, 0x22, 0x3e, 0xf3, 0x69, 0x2e, 0x3d,
  0x3a, 0x58, 0x25, 0x3e, 0x71, 0x88, 0x98, 0x3e, 0x01, 0x25, 0x5e, 0x3e,
  0x5d, 0x2d, 0x4b, 0xbf, 0x1e, 0x47, 0x19, 0xbf, 0x9a, 0x2f, 0xa5, 0x38,
  0x90, 0x33, 0x09, 0x39, 0x83, 0x84, 0x3b, 0x37, 0x62, 0xcb, 0xcc, 0x38,
  0x17, 0x40, 0x97, 0x3c, 0x32, 0xbd, 0xc7, 0xbe, 0x42, 0x3d, 0x25, 0xbe,
  0x2c, 0x03, 0xa1, 0x3c, 0x1e, 0x59, 0x98, 0x3d, 0xe2, 0xd5, 0x09, 0xbd,
  0x66, 0xfd, 0x5c, 0xbe, 0x50, 0xcb, 0x8b, 0xbd, 0x8c, 0x53, 0x27, 0xbd,
  0x7d, 0x50, 0x50, 0xbe, 0xd5, 0xbf, 0x9c, 0xbd, 0x94, 0xcc, 0xef, 0xbe,
  0xd8, 0x86, 0x1b, 0xbf, 0x4c, 0x61, 0xf7, 0xbe, 0xc2, 0x42, 0x2f, 0xbd,
  0xaa, 0x54, 0x3c, 0xbe, 0xf6, 0x6f, 0x76, 0xbb, 0x4f, 0x89, 0xfe, 0x3d,
  0x3d, 0x6e, 0x96, 0x3e, 0x1c, 0xe0, 0x8e, 0x3e, 0x75, 0x00, 0x12, 0x3e,
  0xde, 0xd5, 0x6e, 0x3e, 0x30, 0x65, 0xe8, 0xbe, 0x75, 0xc1, 0xfa, 0xbe,
  0xb3, 0x85, 0x1f, 0xb9, 0xa9, 0x9c, 0x08, 0xb9, 0xa0, 0x0d, 0x91, 0xb4,
  0x92, 0xb5, 0x34, 0xb9, 0x41, 0xb2, 0x9d, 0x3b, 0xc1, 0xc1, 0x23, 0xbe,
  0xa6, 0xdd, 0xa4, 0xbd, 0xb7, 0x88, 0x54, 0x3e, 0x97, 0xa3, 0x42, 0xbc,
  0xac, 0x05, 0xa6, 0xbd, 0xac, 0xfa, 0xaf, 0xbd, 0xb1, 0x57, 0x81, 0x3c,
  0x3e, 0xeb, 0xc3, 0xbb, 0xf3, 0x75, 0x94, 0x3c, 0x4c, 0x57, 0x13, 0xbe,
  0x0a, 0xb0, 0x16, 0xbf, 0xfc, 0x18, 0x64, 0xbf, 0x6e, 0xb1, 0x29, 0xbf,
  0xbe, 0xa1, 0x01, 0xbe, 0x9e, 0x00, 0x9d, 0xbd, 0x02, 0x5b, 0xa2, 0x3c,
  0xf5, 0x21, 0x84, 0x3d, 0xd4, 0xb2, 0x49, 0x3d, 0x5b, 0xc7, 0x30, 0x3e,
  0x59, 0x02, 0x7f, 0x3e, 0x5c, 0xfe, 0x1a, 0x3f, 0xd7, 0x3a, 0x49, 0xbd,
  0xe9, 0x18, 0x1f, 0xbe, 0x9c, 0x26, 0x0e, 0xb9, 0xbf, 0xd1, 0x5f, 0xb9,
  0x36, 0x40, 0x0e, 0xb8, 0x5e, 0xbc, 0x63, 0xb9, 0x60, 0xf7, 0x88, 0x3c,
  0x48, 0x35, 0x6e, 0x3d, 0xb0, 0xd9, 0x52, 0x3b, 0xc0, 0x48, 0x0a, 0x3e,
  0x19, 0x80, 0x45, 0x3e, 0x3f, 0x4b, 0x6c, 0x3d, 0x38, 0xbe, 0x1b, 0x3d,
  0x47, 0x5e, 0xff, 0x3d, 0xa0, 0x1a, 0x9c, 0x3c, 0x5a, 0xfd, 0xe1, 0x39,
  0x1e, 0x65, 0xfa, 0xbe, 0xfa, 0x1f, 0x4b, 0xbf, 0xf0, 0xfb, 0x55, 0xbf,
  0xe0, 0x86, 0x11, 0xbf, 0x40, 0x48, 0x65, 0xbe, 0x16, 0x14, 0x81, 0xbc,
  0xd8, 0x40, 0x2e, 0xbe, 0xf4, 0x3b, 0x53, 0xbe, 0x9b, 0x37, 0xec, 0x3c,
  0x32, 0x83, 0xdf, 0x3d, 0xb8, 0xe3, 0xaf, 0x3e, 0x92, 0xcf, 0xbe, 0x3e,
  0x21, 0xc3, 0x57, 0x3d, 0x57, 0xd9, 0xf4, 0xbb, 0xec, 0xca, 0x40, 0x37,
  0xf8, 0x78, 0xcc, 0x37, 0xb6, 0xab, 0xd0, 0xb9, 0x98, 0x9e, 0x5f, 0x37,
  0xa5, 0x26, 0xab, 0xbe, 0xb3, 0x2d, 0x91, 0xbd, 0xb5, 0xaa, 0x4d, 0x3e,
  0x35, 0xbd, 0x4b, 0x3e, 0x89, 0xef, 0xa3, 0x3e, 0xce, 0xa9, 0x14, 0x3e,
  0x3f, 0x8a, 0x04, 0x3e, 0xd6, 0x9d, 0x33, 0x3c, 0xbb, 0x4c, 0x9c, 0x3d,
  0xd2, 0x25, 0xbf, 0x3d, 0x2c, 0x39, 0x4a, 0xbe, 0xb8, 0x56, 0x6b, 0xbf,
  0xe1, 0x66, 0x3b, 0xbf, 0x25, 0x33, 0x4b, 0xbf, 0x9b, 0x10, 0x02, 0xbe,
  0xb8, 0x6d, 0x81, 0xbd, 0x5f, 0x7d, 0xb7, 0xbd, 0x2f, 0x07, 0x26, 0xbc,
  0xb3, 0x9d, 0x8b, 0x3d, 0xa4, 0x2a, 0xa5, 0x3d, 0x86, 0xf7, 0x4e, 0x3e,
  0x8a, 0x21, 0xd0, 0x3e, 0x91, 0xfc, 0x40, 0x3d, 0xe2, 0x8c, 0x06, 0xb8,
  0x07, 0xb3, 0x07, 0xb9, 0xd3, 0x4b, 0x84, 0x39, 0x13, 0xc7, 0x2e, 0xb8,
  0x28, 0x75, 0x97, 0xb8, 0xac, 0x9c, 0x97, 0xbe, 0x8f, 0x96, 0x7f, 0x3d,
  0x4b, 0xa0, 0x94, 0x3e, 0xcd, 0x15, 0x92, 0xbd, 0x6a, 0xa6, 0xa5, 0x3e,
  0x99, 0xad, 0x6c, 0x3e, 0x6c, 0xc3, 0x22, 0x3e, 0xc0, 0xdd, 0x8d, 0x3e,
  0x11, 0xf1, 0x56, 0x3a, 0x9e, 0x29, 0xb9, 0xbb, 0x67, 0x7e, 0x07, 0xbf,
  0x96, 0x31, 0x85, 0xbf, 0x2b, 0x0f, 0x2a, 0xbf, 0x2e, 0xad, 0xfb, 0xbe,
  0xe9, 0x0c, 0x8d, 0xbe, 0x42, 0x17, 0x9b, 0xbd, 0x03, 0xbd, 0xd7, 0xbd,
  0x1b, 0x97, 0x02, 0x3e, 0xcb, 0xf7, 0x79, 0x3c, 0x9e, 0x60, 0x13, 0x3e,
  0xff, 0x7a, 0x93, 0x3e, 0x69, 0xea, 0x8e, 0x3e, 0x53, 0x5b, 0xbe, 0x3c,
  0x1d, 0xc3, 0x80, 0x38, 0xa1, 0x77, 0x37, 0x39, 0x04, 0x17, 0x0b, 0xb9,
  0xcc, 0x9d, 0x15, 0x39, 0x42, 0xe0, 0xe8, 0x37, 0x7d, 0x96, 0x3d, 0xbe,
  0xc8, 0x84, 0xb5, 0x3d, 0x91, 0x6b, 0x9b, 0x3e, 0xf1, 0x52, 0x09, 0x3e,
  0x9a, 0x2f, 0x33, 0x3e, 0xa3, 0x1a, 0x92, 0x3e, 0x1c, 0x97, 0x8a, 0x3e,
  0x91, 0x3d, 0x47, 0x3e, 0x66, 0x46, 0x8c, 0x3d, 0xc9, 0x71, 0x98, 0xbe,
  0x4d, 0xb1, 0x64, 0xbf, 0x30, 0x36, 0x4f, 0xbf, 0xc4, 0xd4, 0xb2, 0xbe,
  0xd8, 0x6f, 0x6d, 0xbe, 0x77, 0xb2, 0xb6, 0xbd, 0xb9, 0x91, 0xeb, 0x3a,
  0x0e, 0x62, 0xee, 0xbc, 0x78, 0x0c, 0x4d, 0x3e, 0xfd, 0x37, 0xa5, 0x3d,
  0xdd, 0xaf, 0xa9, 0x3c, 0xb7, 0xdb, 0xc9, 0x3d, 0xf5, 0x2d, 0xc6, 0x3c,
  0x4c, 0x65, 0x5f, 0xbe, 0xe9, 0x00, 0xce, 0xbb, 0x1e, 0x4d, 0xf5, 0x39,
  0xf3, 0x54, 0x1d, 0xb9, 0x24, 0xef, 0xd9, 0x37, 0x39, 0x3e, 0x85, 0x39,
  0xaf, 0xbd, 0x28, 0xbe, 0x39, 0xaf, 0x1d, 0x3d, 0x88, 0x89, 0x39, 0x3e,
  0xfe, 0x16, 0xca, 0x3d, 0xd5, 0x83, 0xce, 0x3d, 0x14, 0x36, 0x30, 0x3d,
  0xb2, 0x85, 0x82, 0x3e, 0x80, 0x63, 0xad, 0x3e, 0x19, 0x9c, 0xfd, 0x3d,
  0x90, 0x07, 0x6c, 0xbe, 0x80, 0x2a, 0x30, 0xbf, 0x42, 0xc3, 0x26, 0xbf,
  0xfd, 0x1f, 0xbd, 0xbe, 0xcd, 0x13, 0x13, 0xbe, 0xfa, 0x7e, 0xa9, 0x3d,
  0x85, 0xbc, 0xd1, 0xbd, 0xd9, 0x92, 0xb6, 0x3d, 0x26, 0x4b, 0x99, 0x3d,
  0x56, 0xaa, 0xcd, 0xbb, 0xce, 0x78, 0xc9, 0x3d, 0x26, 0x71, 0xaf, 0x39,
  0x33, 0x30, 0x8e, 0xbd, 0x3e, 0x0c, 0xf9, 0xbd, 0x04, 0xff, 0x99, 0xbc,
  0x76, 0x5d, 0x1b, 0xb6, 0x9b, 0x38, 0x4c, 0x39, 0xe9, 0x05, 0xb2, 0xb8,
  0xd4, 0x67, 0x00, 0xb6, 0x2d, 0x1d, 0xce, 0xbe, 0x25, 0xbf, 0x9d, 0xbd,
  0x68, 0x7c, 0x54, 0xbd, 0x43, 0x96, 0x3f, 0x3c, 0x59, 0x19, 0x10, 0x3e,
  0x79, 0x49, 0x3c, 0x3e, 0x27, 0xdd, 0x83, 0x3e, 0xc7, 0x77, 0x8b, 0x3e,
  0x62, 0xc1, 0xba, 0x3d, 0x71, 0xf9, 0x7a, 0xbe, 0x6f, 0xce, 0x22, 0xbf,
  0x1a, 0x80, 0xe8, 0xbe, 0xc9, 0xa1, 0x30, 0xbe, 0x20, 0xd7, 0xd9, 0xbd,
  0x9b, 0x6f, 0xae, 0xbd, 0xec, 0x50, 0x92, 0xbc, 0xee, 0x3f, 0xdc, 0xbd,
  0x7c, 0x59, 0x90, 0xbd, 0x2e, 0x96, 0xb7, 0xbd, 0xe8, 0x0f, 0x36, 0x3e,
  0x4c, 0x55, 0x1f, 0x3d, 0x91, 0x1f, 0x3d, 0xbd, 0xa0, 0xfe, 0xcd, 0xbd,
  0x70, 0xa7, 0x74, 0x37, 0x3c, 0xc1, 0x1b, 0xb8, 0xc0, 0xda, 0xbf, 0xb3,
  0x31, 0xf4, 0xc5, 0x38, 0xe2, 0x40, 0xed, 0x37, 0xe8, 0x64, 0x89, 0xbe,
  0x15, 0x99, 0x1b, 0xbd, 0xe5, 0xc9, 0xd5, 0xbc, 0x01, 0x82, 0x1f, 0x3d,
  0x31, 0x4f, 0xcf, 0x3d, 0x86, 0x44, 0x3a, 0x3e, 0xb7, 0x9b, 0x1b, 0x3d,
  0xa4, 0xf0, 0x62, 0x3e, 0x62, 0xad, 0x68, 0x3e, 0x19, 0x94, 0xac, 0x3d,
  0xe4, 0x23, 0x08, 0xbe, 0xbe, 0xdf, 0x64, 0xbe, 0x54, 0xfe, 0x2c, 0xbe,
  0xf4, 0x36, 0xd3, 0xbd, 0x65, 0x6f, 0x22, 0xbd, 0x15, 0xad, 0xce, 0xbc,
  0xe3, 0x7d, 0x23, 0xbe, 0xb5, 0x14, 0x0b, 0x3c, 0x06, 0xf7, 0xda, 0x3c,
  0x2b, 0xef, 0xef, 0x3d, 0x64, 0x4f, 0x31, 0xbd, 0x93, 0x16, 0x02, 0xbd,
  0x1d, 0xd0, 0xa7, 0xbd, 0x05, 0xcb, 0x23, 0x38, 0x67, 0xdb, 0x52, 0x38,
  0xc6, 0xbe, 0x2f, 0x39, 0x0d, 0xb9, 0x25, 0xb6, 0xf0, 0x5f, 0xb1, 0xb6,
  0xdf, 0x4d, 0x3a, 0xbe, 0x96, 0xb1, 0x8f, 0x3c, 0x95, 0x05, 0x9a, 0x3d,
  0xb6, 0xac, 0x39, 0x3d, 0x72, 0x57, 0xc6, 0x3c, 0xe9, 0x07, 0xd0, 0x3d,
  0x03, 0x2d, 0x5b, 0x3d, 0x74, 0x22, 0x8a, 0x3e, 0xbf, 0x06, 0x9e, 0x3e,
  0xea, 0xff, 0xa6, 0x3e, 0x1e, 0xd8, 0x49, 0x3e, 0xff, 0x21, 0x9e, 0xbd,
  0x3b, 0xc2, 0x82, 0xbd, 0xd2, 0x25, 0xe5, 0xbd, 0xf7, 0xe1, 0xdb, 0xbc,
  0x27, 0xe0, 0xeb, 0xbd, 0x6e, 0x67, 0x54, 0xbe, 0x0e, 0x97, 0xb4, 0xbd,
  0x10, 0x38, 0x39, 0xb9, 0x9c, 0x3a, 0x26, 0x3d, 0xb9, 0xd0, 0x6c, 0xbe,
  0xb1, 0xa3, 0x6f, 0xbe, 0x67, 0x81, 0x2b, 0xbb, 0x97, 0x4d, 0x37, 0xb9,
  0xeb, 0x07, 0xb0, 0x38, 0x0f, 0xc5, 0x1e, 0xb9, 0xc7, 0xda, 0xd7, 0xb8,
  0xcb, 0x5c, 0xaa, 0xb6, 0x34, 0x44, 0xf2, 0xbc, 0xb9, 0x68, 0xc4, 0xbd,
  0x19, 0x92, 0x9d, 0x3c, 0xe3, 0x9e, 0xc9, 0x3c, 0x24, 0xaf, 0x8f, 0x3c,
  0x2a, 0x62, 0xab, 0xbd, 0x29, 0x02, 0x8d, 0x3c, 0xf4, 0x28, 0x3f, 0x3e,
  0xc4, 0xda, 0xa4, 0x3e, 0x93, 0x3b, 0x7d, 0x3e, 0xe6, 0xca, 0xb1, 0x3d,
  0x6b, 0xf6, 0xce, 0xbc, 0x10, 0xa3, 0x33, 0xbc, 0x97, 0xe6, 0xbe, 0xbc,
  0x48, 0x5f, 0x55, 0xbe, 0x64, 0x05, 0x67, 0xbe, 0xe0, 0x81, 0xb1, 0xbe,
  0xf9, 0x4c, 0x2e, 0xbe, 0xd4, 0x74, 0xb9, 0xbb, 0xcf, 0x6f, 0x81, 0xbc,
  0xe4, 0x6e, 0x05, 0xbe, 0x98, 0x1d, 0x61, 0xbe, 0xbc, 0x63, 0xbd, 0x36,
  0xb8, 0x00, 0x05, 0xb7, 0x00, 0x98, 0xbc, 0xb4, 0x5e, 0x1a, 0x12, 0xb8,
  0x4b, 0x75, 0xcc, 0xb8, 0x35, 0x56, 0x7f, 0xb8, 0x03, 0x41, 0x47, 0xbb,
  0x30, 0xf7, 0x0c, 0xbf, 0x4d, 0x9a, 0xa0, 0xbb, 0xd7, 0x1d, 0xd5, 0x3c,
  0x89, 0x61, 0xad, 0xbd, 0x6d, 0xdb, 0xfb, 0x3d, 0xd9, 0xe3, 0x7c, 0x3d,
  0x9a, 0x43, 0x5a, 0x3d, 0x87, 0xa5, 0x2f, 0x3e, 0x3a, 0x2c, 0x2d, 0x3e,
  0x19, 0x65, 0xb1, 0x3e, 0x77, 0x30, 0x92, 0x3d, 0x12, 0xec, 0x0c, 0x3e,
  0x0d, 0xbb, 0x01, 0x3c, 0x98, 0x83, 0xd3, 0x3c, 0x8a, 0x37, 0xf6, 0xbd,
  0x1a, 0xda, 0xcb, 0xbd, 0x2d, 0x65, 0x1a, 0xbd, 0x74, 0x17, 0xae, 0xbd,
  0x36, 0x64, 0xfe, 0x3b, 0x02, 0x33, 0xd3, 0xbc, 0xb3, 0x98, 0x82, 0xbe,
  0x48, 0x72, 0x23, 0xb6, 0xc4, 0x39, 0x92, 0x36, 0xb0, 0x80, 0x0c, 0xb6,
  0x33, 0x60, 0x65, 0xb8, 0x58, 0x66, 0x00, 0x39, 0xb8, 0x3b, 0x82, 0xb9,
  0x61, 0xeb, 0x93, 0xba, 0xc3, 0x20, 0x23, 0xbf, 0x82, 0xa6, 0x95, 0xbe,
  0x24, 0x89, 0x0f, 0xbc, 0xfe, 0xb0, 0x97, 0x3d, 0x84, 0xa3, 0x6a, 0x3d,
  0x06, 0x68, 0x2a, 0x3e, 0xda, 0x2b, 0x9f, 0x3e, 0xd8, 0x7f, 0x92, 0x3e,
  0x93, 0xf6, 0x88, 0x3e, 0xe8, 0x49, 0x80, 0x3e, 0xa0, 0x6d, 0x6a, 0x3e,
  0x3a, 0x7a, 0x68, 0x3d, 0xce, 0x06, 0xef, 0x3a, 0xa4, 0xda, 0xc1, 0x3d,
  0xda, 0xa9, 0x85, 0xbe, 0x61, 0xe6, 0xd5, 0xbe, 0xff, 0xdf, 0xe9, 0xbe,
  0xc2, 0x40, 0x61, 0xbe, 0x4c, 0xf8, 0xc8, 0xbd, 0xb3, 0x58, 0x24, 0xbe,
  0xc0, 0xc7, 0xc1, 0xbd, 0xdd, 0x78, 0x82, 0x36, 0x10, 0x50, 0x3d, 0xb8,
  0xc9, 0xe1, 0x18, 0xb9, 0x63, 0xf4, 0xc2, 0x39, 0xd0, 0x76, 0xa9, 0xb7,
  0x22, 0x33, 0x76, 0xb9, 0x67, 0x27, 0x10, 0xb9, 0xc4, 0x7e, 0x77, 0xb9,
  0x24, 0xc5, 0x94, 0xbd, 0x38, 0xf2, 0xc3, 0xbe, 0xb3, 0x38, 0x9d, 0xbe,
  0xb0, 0x25, 0x88, 0xbd, 0x02, 0xd0, 0xd0, 0xbb, 0xab, 0x66, 0x05, 0x3c,
  0x07, 0xe2, 0xc8, 0xbc, 0x19, 0xf8, 0x1b, 0x3e, 0x18, 0xcb, 0x23, 0x3e,
  0x11, 0x10, 0xa9, 0x3d, 0x86, 0x14, 0x53, 0x3d, 0xd5, 0x27, 0x25, 0xbd,
  0x50, 0xf8, 0xe4, 0xbd, 0xa3, 0xe8, 0xb7, 0xbe, 0xcb, 0xf0, 0x1a, 0xbf,
  0x0f, 0x71, 0x41, 0xbf, 0x49, 0x59, 0x27, 0xbf, 0x46, 0x7b, 0xb8, 0xbe,
  0xa3, 0x7d, 0x05, 0xbd, 0xe7, 0x33, 0x44, 0x38, 0x80, 0xbf, 0xb6, 0x36,
  0xfa, 0x9f, 0x80, 0xb9, 0x39, 0x3d, 0x16, 0xb9, 0x74, 0xcf, 0xfc, 0x38,
  0x70, 0xde, 0xac, 0x38, 0x01, 0x33, 0xe9, 0x38, 0x13, 0x4b, 0xdb, 0xb8,
  0x8c, 0xdd, 0xfc, 0x37, 0xe9, 0x76, 0x71, 0xbb, 0xef, 0x5e, 0xc6, 0xbe,
  0x63, 0x9e, 0x0c, 0xbf, 0x6f, 0x69, 0x40, 0xbf, 0xa5, 0xfd, 0x55, 0xbf,
  0x8d, 0x1b, 0x6b, 0xbf, 0x96, 0x8e, 0x3a, 0xbf, 0x63, 0x60, 0x7d, 0xbf,
  0x7f, 0xae, 0x57, 0xbf, 0x2f, 0x35, 0x88, 0xbf, 0x84, 0x8a, 0x98, 0xbf,
  0xab, 0x5a, 0x71, 0xbf, 0x9d, 0x2a, 0x70, 0xbf, 0xfe, 0xbd, 0x7f, 0xbf,
  0x06, 0xbe, 0x3f, 0xbf, 0x89, 0x98, 0x0f, 0xbf, 0x93, 0xae, 0x10, 0xbf,
  0x2c, 0x53, 0x24, 0xbd, 0x76, 0x41, 0x5e, 0xb7, 0x2a, 0x2d, 0x44, 0xb8,
  0x00, 0x71, 0x2d, 0xb7, 0x8c, 0x8a, 0x1c, 0x38, 0x8c, 0x0c, 0xae, 0x37,
  0xfa, 0x26, 0x0c, 0xb8, 0x9e, 0x37, 0x3d, 0x38, 0x20, 0xf8, 0x0f, 0x38,
  0xd9, 0x4f, 0xee, 0x38, 0x7c, 0x64, 0x0e, 0xb9, 0x58, 0x4e, 0xb6, 0x37,
  0xef, 0x50, 0x21, 0xb7, 0x02, 0xeb, 0x4c, 0xbb, 0x53, 0xfd, 0xb9, 0xbb,
  0xb2, 0x4f, 0xe6, 0xbe, 0x89, 0x21, 0x98, 0xbe, 0x45, 0x7d, 0x37, 0xbc,
  0xb2, 0x0c, 0x7b, 0xb8, 0xce, 0x97, 0x93, 0xbe, 0x9a, 0x49, 0xbc, 0xbe,
  0x78, 0x31, 0xc8, 0xbe, 0x29, 0xf0, 0xdf, 0xbc, 0x87, 0xbe, 0xb8, 0xbe,
  0x3b, 0x8a, 0x1b, 0xbd, 0xe0, 0xaa, 0x80, 0xb9, 0x32, 0x66, 0x63, 0x36,
  0x9f, 0x1e, 0x11, 0xbe, 0xda, 0x70, 0xe8, 0xbc, 0x46, 0x40, 0x82, 0xbc,
  0xe4, 0x15, 0x15, 0x38, 0xd8, 0xf1, 0x8e, 0xb9, 0xc8, 0x48, 0xbb, 0xb6,
  0x01, 0xf7, 0x2b, 0x38, 0x00, 0xd8, 0xbb, 0xb8, 0xae, 0x62, 0x35, 0x39,
  0x2f, 0x15, 0x1e, 0x39, 0xd2, 0xcd, 0x15, 0xb8, 0xb2, 0xe9, 0xac, 0xb8,
  0xf0, 0x17, 0xc4, 0xb6, 0x00, 0x86, 0x5d, 0xb7, 0xf0, 0x63, 0x41, 0xb7,
  0x50, 0x93, 0xbd, 0xb8, 0xe4, 0x89, 0x03, 0xb9, 0xc0, 0x0a, 0xe5, 0xb6,
  0x18, 0xf9, 0x58, 0x39, 0xee, 0x25, 0xca, 0xb8, 0x99, 0x61, 0x64, 0xb9,
  0x1a, 0xb8, 0x64, 0x39, 0x40, 0xcd, 0x57, 0xb8, 0x92, 0x1b, 0xb8, 0xb8,
  0xfe, 0xe3, 0xb0, 0x37, 0x1c, 0x6e, 0x48, 0xb9, 0x1c, 0x04, 0x0f, 0xb9,
  0x5c, 0x7f, 0xd4, 0xb7, 0xc7, 0x8d, 0xe0, 0xbc, 0xc3, 0x93, 0xe8, 0xbc,
  0x09, 0x4c, 0xdd, 0xbc, 0x38, 0x16, 0x48, 0x39, 0xc0, 0x8c, 0x3d, 0x37,
  0xa6, 0x31, 0x8a, 0x39, 0xea, 0x5f, 0x0c, 0xb9, 0xc6, 0xe4, 0x86, 0xb9,
  0xaa, 0x5f, 0x36, 0xb9, 0x84, 0xe5, 0xd5, 0x39, 0xbe, 0x87, 0x54, 0xb9,
  0x3a, 0x6e, 0x80, 0x38, 0x87, 0x59, 0xd3, 0x38, 0x79, 0x3e, 0xf0, 0x38,
  0x9b, 0xa3, 0x1f, 0x39, 0x17, 0x5f, 0x0d, 0x39, 0xd5, 0xd1, 0x94, 0xb8,
  0xb4, 0xce, 0xee, 0x39, 0x24, 0xe9, 0xe5, 0x36, 0x7b, 0x3b, 0x5b, 0x39,
  0x1f, 0xd2, 0xe2, 0x38, 0x30, 0x96, 0xf3, 0xb6, 0xc4, 0x47, 0xd9, 0xb8,
  0x84, 0x92, 0x09, 0xb8, 0xe5, 0xe6, 0x17, 0xb9, 0x6b, 0x20, 0x7f, 0xb9,
  0x40, 0x58, 0x07, 0x36, 0x4c, 0xeb, 0x02, 0xb8, 0x06, 0x3b, 0xcf, 0xb7,
  0xdc, 0x43, 0x59, 0xb9, 0xfc, 0x17, 0xa6, 0xb7, 0x97, 0x66, 0xaa, 0xb8,
  0x09, 0xf4, 0x40, 0x39, 0xc4, 0x48, 0xbb, 0x38, 0xc0, 0x2c, 0xaa, 0xb8,
  0x92, 0x04, 0xfb, 0x38, 0xa0, 0xd1, 0x6a, 0xb6, 0xf8, 0x44, 0x39, 0x39,
  0x37, 0xb4, 0x4a, 0x39, 0x45, 0xd7, 0xc3, 0x38, 0xf0, 0x02, 0x98, 0xb7,
  0xda, 0x90, 0x77, 0xb9, 0x90, 0xb9, 0x9a, 0xb5, 0x40, 0x1d, 0x25, 0xb8,
  0xfe, 0xef, 0x59, 0x36, 0xb7, 0x5e, 0x93, 0x38, 0xd2, 0xac, 0x27, 0xb7,
  0x65, 0x0c, 0x8b, 0x39, 0xbc, 0x09, 0xbc, 0x38, 0x97, 0x4d, 0x0d, 0xb7,
  0x59, 0x09, 0xa3, 0xb6, 0x2f, 0x54, 0x08, 0xbc, 0x90, 0xf1, 0xa1, 0xbb,
  0xcf, 0x2b, 0xe2, 0xb7, 0x9c, 0x47, 0xf6, 0x38, 0x16, 0x94, 0x23, 0xb8,
  0xb6, 0xab, 0x87, 0x38, 0x26, 0x09, 0xaf, 0xb8, 0xf0, 0x63, 0x07, 0x38,
  0x45, 0xae, 0x36, 0x39, 0x23, 0x60, 0x0a, 0xb9, 0x4a, 0x2b, 0x39, 0xb8,
  0x69, 0x71, 0x96, 0xb7, 0x81, 0x31, 0x22, 0x39, 0xa0, 0x8f, 0x7d, 0x38,
  0x51, 0x8d, 0xf5, 0xb8, 0x94, 0x42, 0x18, 0x37, 0x97, 0x1f, 0xde, 0x38,
  0xac, 0x1c, 0x69, 0x38, 0xdc, 0x0a, 0xf0, 0x37, 0x3a, 0xf3, 0x1f, 0x39,
  0xc3, 0xda, 0x67, 0xbb, 0x35, 0x24, 0x8c, 0xbc, 0x40, 0xf3, 0x0f, 0xb7,
  0xeb, 0x44, 0x8c, 0x37, 0x54, 0x74, 0xfb, 0x35, 0xe8, 0x7a, 0x67, 0x3e,
  0x9b, 0xb6, 0x39, 0x3e, 0x5d, 0xd3, 0xc2, 0x3e, 0xf5, 0x80, 0x97, 0x3e,
  0xe7, 0xbb, 0x3c, 0x3c, 0x9a, 0x43, 0xbb, 0xbb, 0x4f, 0x8c, 0xd9, 0x3c,
  0xc1, 0xc6, 0xab, 0x3c, 0x98, 0x5f, 0xf9, 0xb9, 0x36, 0xfb, 0x68, 0x38,
  0x6e, 0x06, 0x19, 0x39, 0x78, 0x71, 0x31, 0x38, 0x80, 0xfb, 0xc8, 0x38,
  0x10, 0x91, 0xbc, 0xb7, 0xf1, 0xbf, 0xed, 0xb8, 0x88, 0x5b, 0xcb, 0x37,
  0xaa, 0x3d, 0x8c, 0x38, 0xbe, 0x8e, 0xea, 0x38, 0x04, 0x01, 0x19, 0x38,
  0xbe, 0xd6, 0x3b, 0xb9, 0x0a, 0x7b, 0xc8, 0x36, 0x20, 0x0e, 0x0d, 0x38,
  0xf8, 0x64, 0x09, 0xb8, 0x3d, 0x6b, 0x38, 0xbd, 0x59, 0xd0, 0xa5, 0xbe,
  0x64, 0x4b, 0x1f, 0xbf, 0x7c, 0x85, 0x48, 0xbf, 0x5d, 0xeb, 0xa0, 0xbe,
  0xb8, 0x6a, 0x4f, 0xbc, 0x05, 0xdd, 0x5b, 0xbe, 0x9d, 0x45, 0x0d, 0x3c,
  0x3d, 0x0e, 0x88, 0x3c, 0x6a, 0x4f, 0x3a, 0xbe, 0x40, 0xdb, 0xac, 0xbe,
  0x8d, 0x6a, 0x96, 0xbe, 0x44, 0x63, 0xb4, 0xbe, 0xeb, 0x6d, 0x98, 0xbe,
  0xb9, 0x62, 0xcd, 0xbe, 0x95, 0xc8, 0x36, 0xbe, 0xe4, 0xcf, 0xdf, 0xbd,
  0xd0, 0x27, 0xbf, 0xbb, 0xe0, 0xe4, 0x8f, 0xbc, 0xa2, 0x77, 0xec, 0x38,
  0x74, 0xff, 0x00, 0x38, 0x57, 0xa0, 0x22, 0x38, 0x44, 0xf1, 0xbd, 0x38,
  0xc0, 0x9f, 0x27, 0x38, 0x1b, 0x58, 0x54, 0x37, 0xc7, 0xf8, 0x80, 0x3c,
  0xa7, 0x6e, 0x16, 0x3b, 0x29, 0xe3, 0x12, 0xbd, 0xe0, 0xc8, 0x83, 0x3c,
  0xfb, 0xc0, 0xc4, 0xbd, 0x5c, 0xd4, 0x12, 0xbe, 0x16, 0xec, 0x8b, 0xbe,
  0x36, 0x22, 0x1b, 0xbe, 0x4a, 0x0e, 0xc7, 0x3d, 0xf4, 0xc8, 0x7a, 0x3c,
  0xb9, 0x89, 0xeb, 0x3c, 0x09, 0x43, 0x89, 0xba, 0x14, 0xed, 0x08, 0xbe,
  0x65, 0x74, 0xdb, 0xbd, 0x7a, 0x04, 0xad, 0x3d, 0x38, 0xef, 0x79, 0x3d,
  0x0b, 0x1d, 0xd5, 0xbc, 0xd9, 0x55, 0x1d, 0xbe, 0x6e, 0xa8, 0x50, 0xbe,
  0x67, 0xa5, 0x1b, 0xbf, 0x44, 0x70, 0xf0, 0xbe, 0x29, 0x2e, 0xd8, 0xb7,
  0xd8, 0xc4, 0x56, 0xb8, 0x80, 0x8d, 0x0f, 0xb7, 0xe8, 0xca, 0xe8, 0x37,
  0x60, 0x19, 0x47, 0x36, 0x1b, 0xa3, 0x8a, 0xb6, 0x54, 0xcb, 0xaf, 0x36,
  0xa6, 0x2c, 0x33, 0x3e, 0x7f, 0x1c, 0xcc, 0x3d, 0xcf, 0xba, 0x9b, 0xbd,
  0x9e, 0x59, 0xc4, 0xbe, 0x89, 0xd1, 0xca, 0xbe, 0xe7, 0x40, 0x8e, 0xbe,
  0x47, 0x99, 0xdf, 0xbe, 0x78, 0x41, 0x7d, 0xbe, 0x6a, 0xd9, 0x9c, 0xbd,
  0x47, 0x03, 0x75, 0xbd, 0x74, 0x9a, 0x8e, 0x3d, 0xd6, 0xcf, 0x1a, 0xbe,
  0xb0, 0x71, 0xa9, 0xbe, 0x79, 0x85, 0x29, 0xbe, 0x8f, 0xaa, 0xda, 0xbd,
  0x6c, 0x53, 0x2a, 0xbd, 0x88, 0x38, 0x71, 0x3e, 0x13, 0xcf, 0x01, 0x3e,
  0x42, 0xe9, 0x0d, 0x3d, 0xd0, 0x7e, 0x72, 0xbd, 0x86, 0x56, 0x54, 0xbf,
  0xba, 0x2b, 0xb4, 0x37, 0x66, 0x2b, 0x0d, 0x38, 0xa0, 0xc8, 0x09, 0x39,
  0x38, 0xd6, 0xb3, 0x39, 0xba, 0xc6, 0x52, 0xbc, 0x03, 0x44, 0x56, 0x37,
  0x36, 0x07, 0x1e, 0x38, 0x37, 0xb6, 0xb0, 0xbc, 0x55, 0xa0, 0x17, 0xbb,
  0xec, 0x15, 0x82, 0xbe, 0xc3, 0x1f, 0xc8, 0xbe, 0x6b, 0x63, 0xe8, 0xbe,
  0xbf, 0xfc, 0x60, 0xbe, 0xca, 0xd2, 0x29, 0xbe, 0x21, 0x6b, 0x64, 0xbe,
  0xa6, 0x19, 0x96, 0xbe, 0xc4, 0x7f, 0x75, 0xbe, 0x01, 0x71, 0x8f, 0xbe,
  0xb2, 0x53, 0xb4, 0xbe, 0x24, 0x85, 0x95, 0xbe, 0x68, 0xf7, 0xe7, 0xbd,
  0x1f, 0xe7, 0x05, 0xbe, 0xf6, 0x36, 0x93, 0xbc, 0x5b, 0x47, 0xda, 0xbc,
  0x9e, 0xec, 0x04, 0xbd, 0x3f, 0xb6, 0xf6, 0xba, 0x4a, 0x0e, 0xa3, 0xbd,
  0x24, 0x9f, 0x50, 0xbf, 0xf1, 0xe9, 0xe9, 0xba, 0x04, 0x2b, 0xe8, 0xba,
  0x59, 0x57, 0xd5, 0x38, 0x3c, 0xfd, 0x53, 0xb7, 0x15, 0x3b, 0x8a, 0xbc,
  0x8a, 0xde, 0x01, 0xbc, 0xc6, 0xc1, 0x55, 0xbb, 0x8a, 0x8b, 0xa2, 0xbe,
  0xbe, 0x38, 0xd9, 0xbe, 0xa6, 0xa8, 0x8c, 0xbe, 0x54, 0x9d, 0x13, 0xbf,
  0x53, 0xf7, 0x9a, 0xbe, 0x88, 0xf5, 0xb9, 0xbd, 0x5a, 0xb7, 0x6f, 0xbe,
  0xeb, 0x57, 0xb2, 0xbd, 0xf7, 0xa0, 0x26, 0xbe, 0xd6, 0x71, 0x08, 0xbe,
  0x58, 0xc8, 0xd0, 0xbe, 0x7e, 0xd7, 0x58, 0xbe, 0xf2, 0xa3, 0x4c, 0xbe,
  0x8b, 0xac, 0x48, 0xbe, 0x1e, 0x0f, 0x81, 0xbc, 0x4b, 0xa6, 0xdb, 0xba,
  0xf7, 0x13, 0xba, 0xbc, 0x62, 0x20, 0x03, 0xbe, 0x1e, 0xd6, 0x62, 0xbe,
  0xcb, 0xdc, 0x50, 0xbf, 0xbb, 0x0c, 0x80, 0xbf, 0x0e, 0xa8, 0xa0, 0xbb,
  0x84, 0x50, 0x67, 0x3a, 0x95, 0x89, 0x7c, 0x38, 0x8e, 0xf3, 0x81, 0x37,
  0xaf, 0x12, 0x67, 0xbb, 0xba, 0xad, 0x48, 0xb8, 0xaa, 0xae, 0x17, 0xbc,
  0x13, 0xeb, 0xc8, 0xbe, 0x3a, 0x96, 0xd2, 0xbe, 0x85, 0xe2, 0x2a, 0xbe,
  0x30, 0x8e, 0xac, 0xbe, 0xc4, 0xae, 0xe6, 0xbe, 0xe9, 0xdf, 0x98, 0xbe,
  0xf3, 0x4b, 0x85, 0xbe, 0x26, 0xe1, 0x87, 0xbd, 0xbb, 0x3b, 0xb0, 0xbc,
  0x14, 0x30, 0xd0, 0xbb, 0x65, 0x8b, 0x02, 0xbb, 0x4d, 0x25, 0x26, 0xbe,
  0x54, 0xf0, 0x2c, 0x3d, 0x62, 0xe2, 0x98, 0xbd, 0x99, 0x6f, 0x15, 0xbd,
  0x78, 0x0b, 0x6e, 0xbe, 0x8a, 0xec, 0x8d, 0xbe, 0x3f, 0x25, 0x41, 0xbe,
  0x9b, 0xfa, 0x0a, 0xbf, 0x88, 0x7c, 0x81, 0xbf, 0x1c, 0xa3, 0x53, 0xbf,
  0x0a, 0x0c, 0x6b, 0x38, 0xcd, 0x4e, 0xd3, 0x37, 0x2a, 0x6b, 0xf4, 0x37,
  0xe7, 0x76, 0x8d, 0x36, 0x52, 0xea, 0x0a, 0xb7, 0xc8, 0x7e, 0x39, 0xb8,
  0x96, 0x06, 0xd2, 0xbd, 0xae, 0x2e, 0x2e, 0xbf, 0x9e, 0xf0, 0xe8, 0xbe,
  0xfe, 0x91, 0xd2, 0xbd, 0x5f, 0x3a, 0x17, 0xbe, 0xd7, 0xf8, 0xd5, 0xbe,
  0x98, 0x07, 0xe5, 0xbd, 0x15, 0x76, 0xc9, 0xbd, 0xdc, 0x1f, 0x57, 0xbd,
  0x0c, 0xbe, 0x92, 0xbb, 0xd0, 0x5c, 0x18, 0x3e, 0x42, 0x91, 0xc6, 0x3e,
  0x89, 0x4d, 0x2b, 0x3e, 0xbb, 0xe4, 0xab, 0x3b, 0xbe, 0x51, 0x51, 0xbd,
  0x0e, 0x6f, 0xa5, 0xbe, 0xfd, 0x37, 0xdb, 0xbe, 0x9e, 0xd6, 0x9b, 0xbe,
  0x3a, 0x08, 0xf5, 0xbe, 0x57, 0xbe, 0x3a, 0xbf, 0xed, 0x02, 0x51, 0xbf,
  0xbf, 0x14, 0x36, 0xbf, 0x5e, 0x51, 0xbf, 0xb7, 0xd8, 0x9d, 0x6e, 0x38,
  0xfe, 0x84, 0x6b, 0x38, 0x5b, 0x46, 0xb8, 0xb8, 0x39, 0xd9, 0x70, 0xb7,
  0xfd, 0x61, 0xd7, 0xb6, 0xf7, 0x4b, 0x68, 0xbe, 0x99, 0x97, 0x43, 0xbf,
  0x2b, 0x2c, 0x1c, 0xbf, 0x79, 0xb8, 0x6d, 0xbe, 0xff, 0x5d, 0x58, 0xbe,
  0xc8, 0xf6, 0x82, 0xbe, 0x44, 0xae, 0xc2, 0xbc, 0xc5, 0x7c, 0xe4, 0xbc,
  0xd3, 0x3a, 0x42, 0xbd, 0x24, 0xed, 0x7a, 0x3e, 0x53, 0x54, 0x0f, 0x3f,
  0x6a, 0xa5, 0x3b, 0x3f, 0x5d, 0x03, 0x83, 0x3e, 0xa7, 0xc7, 0xbf, 0x3d,
  0x49, 0x09, 0x43, 0xbe, 0x38, 0x7f, 0x41, 0xbe, 0x03, 0x16, 0xdf, 0xbe,
  0xd0, 0x49, 0x48, 0xbe, 0xe2, 0xb2, 0xc8, 0xbe, 0xc5, 0x53, 0x47, 0xbf,
  0xd5, 0x6a, 0x99, 0xbf, 0x37, 0x7c, 0x2a, 0xbd, 0x03, 0xed, 0x2b, 0xbb,
  0x78, 0xfa, 0xc3, 0x38, 0x2e, 0x6f, 0x22, 0xb9, 0x48, 0xa0, 0x9e, 0xb7,
  0x9c, 0xb2, 0x95, 0xb8, 0xc0, 0xcc, 0x0a, 0xb7, 0xf0, 0x70, 0x3f, 0xbd,
  0xa1, 0xa8, 0x91, 0xbe, 0x8d, 0xac, 0x31, 0xbf, 0x31, 0xf8, 0xfd, 0xbe,
  0x5f, 0xa3, 0xae, 0xbe, 0xf8, 0xd3, 0xc5, 0xbe, 0x32, 0x14, 0x87, 0xbe,
  0xca, 0xd5, 0x34, 0xbe, 0x38, 0x7d, 0x08, 0xbe, 0xb5, 0x2f, 0x77, 0x3e,
  0xc2, 0x61, 0x19, 0x3f, 0x5b, 0x94, 0x32, 0x3f, 0x8d, 0xb6, 0x7c, 0x3e,
  0xda, 0xfa, 0xb7, 0xbd, 0xe0, 0x53, 0x26, 0x3c, 0x67, 0x1a, 0x57, 0xbe,
  0x80, 0x06, 0x21, 0xbe, 0x2d, 0x76, 0x6e, 0xbe, 0x30, 0x2f, 0xb9, 0xbe,
  0x22, 0x22, 0xcc, 0xbe, 0xfd, 0xfa, 0x51, 0xbf, 0xd4, 0x3b, 0xae, 0xbd,
  0x1c, 0x87, 0xd8, 0xbb, 0x5c, 0x8b, 0x73, 0x38, 0x1a, 0xbb, 0x38, 0xb9,
  0x11, 0x95, 0xec, 0x38, 0x1c, 0xbb, 0xbd, 0xb7, 0x0a, 0x09, 0x0a, 0x38,
  0x48, 0xf8, 0x94, 0xb5, 0x71, 0x01, 0x51, 0xbc, 0x40, 0x7e, 0x4f, 0xbd,
  0xb0, 0x45, 0x0a, 0xbd, 0x8f, 0x50, 0x49, 0xbe, 0xa5, 0xd1, 0xa6, 0xbd,
  0x7d, 0x06, 0x9a, 0xbe, 0x2f, 0x08, 0xd0, 0xbe, 0xa1, 0xb3, 0xe9, 0xbd,
  0xed, 0x83, 0x5a, 0x3e, 0xff, 0xde, 0x34, 0x3f, 0x3e, 0x2c, 0x01, 0x3f,
  0xe5, 0xa7, 0xe8, 0x3d, 0x72, 0xc2, 0xfb, 0xb9, 0x24, 0xed, 0xa8, 0x3c,
  0x1c, 0xce, 0xa7, 0xbe, 0x1b, 0x7f, 0x44, 0xbe, 0x6a, 0xe4, 0xac, 0xbc,
  0x4f, 0xec, 0x97, 0xbb, 0x99, 0xb2, 0x4a, 0x3c, 0x9c, 0xf9, 0x88, 0xbb,
  0x39, 0x87, 0xd9, 0xb7, 0x1a, 0xe6, 0xe5, 0x35, 0x83, 0x04, 0x30, 0x37,
  0x84, 0x0f, 0x8b, 0x39, 0x35, 0x6c, 0xfb, 0xb8, 0x3e, 0x18, 0xd1, 0x38,
  0x27, 0xbf, 0x28, 0x38, 0x68, 0x7e, 0x07, 0x37, 0xb2, 0x06, 0x68, 0xbc,
  0xc9, 0x47, 0x8c, 0xbd, 0x30, 0x51, 0x7d, 0xbe, 0xe0, 0x9c, 0x9d, 0xbc,
  0x8c, 0x8d, 0x5f, 0xbe, 0x4a, 0x46, 0x3e, 0xbf, 0x44, 0x18, 0x22, 0xbf,
  0x6f, 0x35, 0x29, 0xbe, 0x84, 0x35, 0xa1, 0x3e, 0x03, 0x65, 0x08, 0x3f,
  0x07, 0x31, 0xaf, 0x3e, 0xb1, 0x31, 0x1a, 0x3e, 0xfd, 0x03, 0x3a, 0x3e,
  0xeb, 0x55, 0x6c, 0xbe, 0x4d, 0xd4, 0xf1, 0xbe, 0x96, 0x39, 0x9e, 0xbe,
  0xf0, 0x78, 0x2c, 0xbe, 0x78, 0x2b, 0xb5, 0xbe, 0xb3, 0x9d, 0xe1, 0xbe,
  0x6a, 0x52, 0xf3, 0xbe, 0x22, 0x16, 0xbe, 0xbd, 0x91, 0x1a, 0x37, 0xbc,
  0x8f, 0x09, 0x21, 0xb9, 0xb2, 0xfd, 0x47, 0x38, 0x6d, 0x2e, 0xed, 0x38,
  0x0a, 0xca, 0xb3, 0xb7, 0x96, 0x8e, 0x0c, 0xb7, 0xf6, 0x00, 0xe6, 0x3b,
  0xb9, 0xbe, 0xb9, 0x35, 0x48, 0xa4, 0x37, 0xbe, 0x02, 0x42, 0xb0, 0xbe,
  0x24, 0x7e, 0xd5, 0x3c, 0x5a, 0xab, 0x5d, 0xbe, 0x63, 0xce, 0x4a, 0xbf,
  0xa2, 0x47, 0x14, 0xbf, 0x67, 0xee, 0x92, 0xbd, 0x70, 0xf2, 0x8f, 0x3e,
  0x24, 0xa1, 0x02, 0x3f, 0x0b, 0x1c, 0xdc, 0x3e, 0x5c, 0x89, 0x23, 0x3e,
  0x7b, 0x42, 0xcf, 0x3b, 0xc6, 0xf1, 0x12, 0xbf, 0x90, 0xb0, 0x22, 0xbf,
  0x41, 0xb9, 0x5b, 0xbe, 0x0b, 0x98, 0x8b, 0xbe, 0x32, 0x9a, 0x41, 0xbe,
  0xcd, 0xb9, 0x5a, 0xbe, 0xb8, 0x7d, 0x8e, 0x35, 0x2c, 0x3c, 0x94, 0xb6,
  0x0e, 0x40, 0x72, 0xb8, 0xb8, 0xc0, 0x31, 0x37, 0x4c, 0xf3, 0x81, 0xb8,
  0x5e, 0xea, 0x6f, 0x38, 0x68, 0x84, 0xee, 0x36, 0x11, 0x58, 0x42, 0xb7,
  0xc9, 0x4c, 0xa4, 0x38, 0xfe, 0xae, 0x55, 0xbe, 0x89, 0x3d, 0x1c, 0xbf,
  0xe8, 0xb1, 0xc3, 0xbd, 0x9d, 0x19, 0x49, 0x3c, 0x92, 0x25, 0x9d, 0xbe,
  0x7e, 0xc3, 0x10, 0xbf, 0x3d, 0x9f, 0x5e, 0xbe, 0x08, 0xfe, 0x03, 0x3e,
  0xd1, 0xfb, 0xc4, 0x3e, 0x00, 0xee, 0x18, 0x3f, 0x8e, 0x13, 0xe9, 0x3d,
  0x3e, 0x46, 0xe1, 0x3d, 0x0f, 0x4d, 0xc1, 0xbe, 0x53, 0xff, 0x27, 0xbf,
  0xf3, 0x2c, 0x71, 0xbf, 0x29, 0x1f, 0x32, 0xbf, 0x6c, 0xe9, 0xb0, 0xbe,
  0x09, 0x48, 0x87, 0xbe, 0x12, 0x88, 0x2b, 0xbe, 0xfe, 0xf2, 0xa5, 0xb9,
  0xa0, 0xd5, 0xdf, 0x37, 0x4f, 0xdb, 0x7e, 0xb8, 0x81, 0x9b, 0xa8, 0xb8,
  0xd8, 0x0f, 0x2a, 0xb9, 0xa6, 0xa4, 0xa6, 0xb8, 0xcb, 0x66, 0xec, 0xb7,
  0xe0, 0x01, 0x26, 0xb5, 0x18, 0x01, 0x63, 0x38, 0xf9, 0x2a, 0x41, 0xbe,
  0xbd, 0x32, 0x09, 0xbf, 0x6f, 0x75, 0xbe, 0xbe, 0x1c, 0xe3, 0x88, 0xbe,
  0x60, 0x57, 0x04, 0xbc, 0x62, 0xb1, 0x23, 0xbe, 0x26, 0x38, 0x45, 0xbe,
  0x95, 0x76, 0xef, 0xbd, 0x0b, 0x95, 0xb7, 0x3e, 0xa3, 0x4d, 0x1a, 0x3f,
  0x88, 0x41, 0x64, 0xbd, 0x74, 0x5a, 0x14, 0xbe, 0x1e, 0xc1, 0x5e, 0xbf,
  0xca, 0x27, 0x2f, 0xbf, 0x79, 0x05, 0x29, 0xbf, 0xce, 0x43, 0xb4, 0xbe,
  0x03, 0x59, 0x80, 0xbe, 0x4f, 0xd9, 0xb8, 0xbe, 0x8e, 0xcf, 0x12, 0xbf,
  0x18, 0xae, 0x13, 0xba, 0xd5, 0x2f, 0x01, 0xbe, 0x25, 0x8a, 0x79, 0xbb,
  0xbc, 0xe3, 0xf0, 0x37, 0x88, 0xe0, 0xc0, 0x37, 0x02, 0x0b, 0x2e, 0xb8,
  0xdc, 0x63, 0xfd, 0xb8, 0x51, 0xe6, 0x4e, 0x39, 0x17, 0x50, 0xb6, 0x37,
  0x3a, 0xf1, 0x10, 0xbf, 0xcd, 0x90, 0x1f, 0xbf, 0xdf, 0xff, 0x07, 0xbf,
  0x04, 0xc9, 0x19, 0xbe, 0x2f, 0x1a, 0x6c, 0xbe, 0xdd, 0x6c, 0xd4, 0xbd,
  0x80, 0x26, 0x94, 0xbe, 0xc2, 0xb2, 0x46, 0xbc, 0x0b, 0xa7, 0xc4, 0x3e,
  0xb5, 0x82, 0xd3, 0x3e, 0x15, 0xdf, 0xa7, 0xbd, 0xa2, 0x5c, 0xc3, 0xbe,
  0x82, 0xb6, 0x37, 0xbf, 0x83, 0xaf, 0xce, 0xbe, 0xcc, 0x90, 0x7e, 0xbe,
  0x78, 0x96, 0x02, 0xbe, 0x27, 0x62, 0xe9, 0xbd, 0x58, 0x65, 0x35, 0xbc,
  0x58, 0x74, 0x42, 0xbe, 0xce, 0x37, 0xe2, 0xbd, 0x22, 0xcf, 0xe3, 0xbe,
  0xfd, 0x24, 0x7e, 0xb7, 0xb0, 0xe9, 0x2d, 0xb9, 0x90, 0x34, 0xe8, 0xb7,
  0x66, 0x4f, 0x9f, 0x38, 0x62, 0x11, 0x94, 0xb9, 0x20, 0x70, 0x97, 0xb7,
  0xab, 0x0c, 0x44, 0x37, 0x2d, 0x05, 0x63, 0xbf, 0xe3, 0x00, 0x89, 0xbf,
  0x31, 0xfa, 0x05, 0xbf, 0x63, 0x0f, 0x88, 0xbc, 0x8d, 0x84, 0x50, 0xbc,
  0xf5, 0xe2, 0x6a, 0xbe, 0xd1, 0x06, 0x5f, 0xbe, 0x7a, 0x2c, 0x58, 0xbd,
  0x44, 0x43, 0x30, 0x3e, 0x9e, 0x7f, 0x47, 0x3e, 0xb3, 0x36, 0x3e, 0xbe,
  0xc2, 0x06, 0xf8, 0xbe, 0x18, 0x31, 0xa5, 0xbe, 0xed, 0xf6, 0x0a, 0x3c,
  0x20, 0x73, 0x96, 0xbc, 0x77, 0x42, 0xc3, 0x3d, 0x99, 0x9b, 0x95, 0x3a,
  0x55, 0xf8, 0x2e, 0xbe, 0x95, 0x3d, 0x32, 0xbe, 0xa1, 0x8c, 0x83, 0x3b,
  0x76, 0x44, 0xab, 0x3c, 0xf4, 0x4e, 0x3a, 0x3c, 0x0b, 0x2e, 0xcd, 0x3a,
  0xcf, 0x33, 0x55, 0x39, 0x6e, 0x9a, 0xc4, 0xb8, 0xf2, 0xe3, 0xc1, 0x38,
  0x87, 0x30, 0x04, 0x3a, 0xe4, 0x9e, 0x2a, 0xbf, 0xfd, 0x53, 0xae, 0xbf,
  0x57, 0xfb, 0xb9, 0xbe, 0xf2, 0x49, 0xc0, 0xbc, 0xeb, 0xbc, 0xdb, 0xbd,
  0xe8, 0xd2, 0xf3, 0x3c, 0x1f, 0x6d, 0xf6, 0xbd, 0x10, 0xc4, 0xd7, 0xbd,
  0x07, 0xe2, 0x8a, 0xbd, 0x12, 0xc5, 0x0a, 0x3e, 0x6f, 0xff, 0x87, 0xbd,
  0x34, 0x14, 0x21, 0xbc, 0xee, 0xd8, 0x9b, 0x3d, 0xe0, 0x33, 0xc7, 0xbc,
  0x0d, 0x5f, 0x05, 0x3e, 0x82, 0x49, 0x39, 0x3e, 0x6e, 0x96, 0x0a, 0x3e,
  0x13, 0x07, 0x59, 0xbc, 0x54, 0xfb, 0x29, 0xbe, 0xd1, 0x05, 0xc2, 0x3c,
  0xc9, 0x82, 0xcd, 0x3d, 0x31, 0x29, 0xd2, 0x3d, 0x6c, 0x6a, 0x3a, 0x3c,
  0xe7, 0x5e, 0xc1, 0x3a, 0xc0, 0x12, 0x5c, 0xb4, 0xe4, 0x61, 0x00, 0x39,
  0x51, 0x91, 0x70, 0xbc, 0x0c, 0xf5, 0xfc, 0xbb, 0xbc, 0x8b, 0x1a, 0xbe,
  0x7c, 0xb3, 0x33, 0xbf, 0x1b, 0xab, 0xfb, 0xbd, 0x93, 0x12, 0x8a, 0xbc,
  0x00, 0x1c, 0x9c, 0x3d, 0xab, 0xe4, 0xa5, 0x3d, 0xbc, 0xca, 0x2b, 0x3e,
  0xd2, 0xde, 0xd2, 0x3d, 0x55, 0xde, 0x7a, 0x3d, 0x97, 0x6b, 0x83, 0xbd,
  0x38, 0xde, 0x1c, 0x3b, 0x08, 0x0a, 0x71, 0xbd, 0x56, 0xd2, 0x62, 0x3e,
  0x48, 0x78, 0x93, 0x3e, 0xf2, 0x8f, 0xae, 0x3e, 0xc2, 0xa2, 0xa3, 0x3e,
  0x0f, 0xe4, 0x01, 0x3d, 0x85, 0xd8, 0x7a, 0x3c, 0x94, 0x6b, 0xf4, 0xba,
  0x0a, 0x82, 0xb0, 0xbd, 0x48, 0x15, 0x91, 0x3d, 0x0a, 0xdd, 0x0e, 0x3d,
  0xdf, 0xf9, 0xe2, 0x3b, 0x24, 0x22, 0xfa, 0x37, 0x98, 0xee, 0xb2, 0xb8,
  0xb2, 0x86, 0x74, 0xb9, 0xe5, 0x5e, 0xb2, 0xbc, 0xdf, 0xec, 0xe4, 0x3c,
  0x7c, 0xc4, 0x15, 0x3e, 0xba, 0x50, 0xcb, 0x3e, 0xad, 0x05, 0x95, 0x3e,
  0x04, 0x1d, 0xf0, 0x3d, 0xcb, 0x2a, 0x91, 0x3d, 0xa0, 0x3c, 0xc4, 0x3d,
  0xe5, 0xff, 0x55, 0x3e, 0xf7, 0xe0, 0x0b, 0xbd, 0x70, 0xaa, 0x3a, 0xbe,
  0x5c, 0x88, 0x46, 0xbe, 0xfa, 0x43, 0x94, 0x3c, 0x75, 0xb3, 0xd2, 0x3d,
  0xa9, 0x71, 0x50, 0x3d, 0x9a, 0x3c, 0x82, 0x3d, 0xed, 0xe2, 0x9a, 0x3e,
  0xf1, 0x18, 0x14, 0x3e, 0x82, 0x0e, 0x84, 0x3e, 0xbb, 0x69, 0x89, 0x3e,
  0x52, 0x47, 0x8d, 0xbe, 0x34, 0xe8, 0x42, 0xbe, 0x17, 0xab, 0x22, 0x3e,
  0x0a, 0xa4, 0xf4, 0x3c, 0xd7, 0xe3, 0x83, 0xbb, 0xf1, 0x10, 0x8a, 0x38,
  0x32, 0x12, 0x64, 0x38, 0xa0, 0xcb, 0xe5, 0x38, 0x31, 0x2e, 0xb5, 0xbc,
  0x75, 0x97, 0xd7, 0x3b, 0x9e, 0xdf, 0x3a, 0x3e, 0x0e, 0x54, 0x67, 0x3f,
  0x73, 0x37, 0xc9, 0x3e, 0xd9, 0x61, 0xce, 0x3d, 0x42, 0xfd, 0x2a, 0x3d,
  0xf6, 0x54, 0x2f, 0x3d, 0x30, 0x26, 0xcb, 0xbd, 0xbe, 0x02, 0xa6, 0xbe,
  0x60, 0x61, 0xf0, 0xbe, 0x99, 0x6f, 0xb8, 0xbe, 0x6b, 0x61, 0x90, 0xbd,
  0x34, 0xc0, 0xf4, 0x3c, 0xd0, 0x24, 0xa3, 0xbc, 0xd3, 0xe9, 0x8e, 0x3e,
  0x57, 0xb6, 0x95, 0x3e, 0xa7, 0xab, 0x36, 0x3e, 0xcf, 0x9b, 0x9b, 0x3e,
  0xe4, 0x2a, 0xc7, 0x3c, 0xa2, 0x74, 0xe7, 0xbe, 0xef, 0x9d, 0x38, 0xbd,
  0xf9, 0xa1, 0xaf, 0x3b, 0xff, 0xa4, 0xb2, 0xb5, 0x6c, 0xff, 0xa3, 0x36,
  0x9f, 0x1f, 0x3b, 0x39, 0xc7, 0x43, 0xcb, 0x39, 0x93, 0x24, 0x92, 0x39,
  0xb0, 0xc0, 0xbb, 0x36, 0x6a, 0x21, 0xda, 0xbc, 0x48, 0x5d, 0x81, 0xbe,
  0xf2, 0xec, 0xb7, 0x3e, 0xe9, 0x04, 0x4c, 0x3e, 0xd1, 0xc0, 0xe8, 0xbb,
  0xdf, 0xd8, 0x76, 0xbd, 0x21, 0x48, 0x5f, 0xbc, 0x51, 0xc2, 0x2c, 0xbe,
  0xa3, 0x86, 0x0b, 0xbe, 0xe6, 0xf8, 0x72, 0xbc, 0x01, 0x53, 0x16, 0xbe,
  0x89, 0xde, 0x3a, 0xbe, 0x68, 0x8f, 0x1a, 0xbc, 0xb3, 0x1d, 0x17, 0x3e,
  0x0e, 0x58, 0x86, 0x3e, 0x26, 0x90, 0xa9, 0x3b, 0x37, 0xa9, 0x48, 0x3c,
  0xc0, 0x7c, 0x56, 0xbc, 0x14, 0x06, 0x75, 0xbe, 0x89, 0x41, 0xd9, 0xbe,
  0xb7, 0x1b, 0xc1, 0xbe, 0x33, 0x0d, 0x4f, 0xb7, 0x10, 0x91, 0x2c, 0xb9,
  0xd9, 0x7c, 0xce, 0x3b, 0x10, 0x5a, 0x3a, 0xb7, 0x3a, 0x6b, 0xe2, 0x38,
  0x0e, 0x02, 0x4b, 0xb9, 0x1a, 0x18, 0x9f, 0x38, 0x33, 0xdb, 0xb7, 0x36,
  0x0b, 0xd3, 0xf9, 0xbe, 0xb7, 0x3b, 0xb2, 0xbd, 0x99, 0xdc, 0x3c, 0xbd,
  0x85, 0xa1, 0x1f, 0xbe, 0xe2, 0xd2, 0x93, 0xbe, 0x64, 0x8a, 0x30, 0xbe,
  0xb2, 0xeb, 0x7b, 0xbe, 0x97, 0x58, 0xa0, 0xbe, 0x81, 0xb1, 0x83, 0xbe,
  0xd8, 0x18, 0xd7, 0xbe, 0x17, 0xc9, 0xc2, 0xbe, 0x2c, 0x08, 0x77, 0xbe,
  0xf9, 0x50, 0x23, 0xbf, 0xfe, 0x67, 0x23, 0xbd, 0x03, 0x03, 0x74, 0xbb,
  0x86, 0x52, 0x5c, 0xbb, 0x30, 0xb7, 0xca, 0xbc, 0xa3, 0x72, 0xd9, 0xbd,
  0x30, 0xad, 0xb4, 0xbd, 0xc4, 0x23, 0x5b, 0xbb, 0xfa, 0xa8, 0x01, 0xb8,
  0x98, 0xaa, 0x88, 0x35, 0x0e, 0x38, 0x1b, 0x39, 0x17, 0xa4, 0x72, 0x39,
  0xec, 0x3d, 0x9a, 0xb8, 0xdc, 0xc6, 0xc3, 0x38, 0x1c, 0xa4, 0xcc, 0xb8,
  0x03, 0x2b, 0xba, 0xb7, 0x7e, 0x2e, 0xf5, 0xbc, 0x57, 0xcc, 0x20, 0xbf,
  0xa1, 0x20, 0xfc, 0xbe, 0x29, 0xdb, 0x6c, 0xbf, 0x18, 0x3f, 0xf7, 0xbe,
  0x1e, 0xc5, 0x14, 0xbf, 0x4e, 0xf3, 0xb1, 0xbf, 0x3c, 0xec, 0xba, 0xbf,
  0x46, 0x5d, 0x21, 0xbf, 0xfb, 0x11, 0x37, 0xbf, 0xbf, 0xcc, 0x1f, 0xbf,
  0xdb, 0x0c, 0x68, 0xbf, 0x0a, 0x46, 0xad, 0xbf, 0xb4, 0xe1, 0xa7, 0xbf,
  0x17, 0xc7, 0x85, 0xbf, 0xf7, 0x65, 0x36, 0xbf, 0xd3, 0x12, 0x0a, 0xbd,
  0xcc, 0xb7, 0xbf, 0xb7, 0x45, 0x0e, 0x02, 0x39, 0xfe, 0x70, 0x08, 0xb8,
  0xf1, 0x6c, 0xbf, 0x38, 0xd8, 0x0d, 0xc4, 0x37, 0x3e, 0x9c, 0xb2, 0xb8,
  0xc9, 0x8f, 0x15, 0x39, 0x0f, 0xb4, 0xe7, 0x38, 0xf9, 0x2c, 0x95, 0x39,
  0xa2, 0x30, 0x9c, 0xb9, 0x80, 0x97, 0xaf, 0xb6, 0x15, 0x5b, 0x8c, 0xb8,
  0xfd, 0xe6, 0x3e, 0x39, 0x71, 0x94, 0x1a, 0xb9, 0xd2, 0x64, 0xc0, 0xb8,
  0xe1, 0xef, 0x07, 0xbb, 0xd5, 0x6b, 0x68, 0xb8, 0x42, 0x99, 0x96, 0xbe,
  0x93, 0x8d, 0xe5, 0xbe, 0x04, 0x31, 0x28, 0xbf, 0x40, 0x58, 0x6a, 0xbf,
  0x45, 0x06, 0x28, 0xbf, 0x1c, 0x44, 0x56, 0xbe, 0x7c, 0xa8, 0x8c, 0xbd,
  0xba, 0xa6, 0x65, 0xbc, 0xa5, 0x74, 0x38, 0xbc, 0x24, 0x0a, 0x7b, 0xba,
  0x58, 0x45, 0xc7, 0xb7, 0xf0, 0x51, 0x34, 0xb5, 0x7f, 0xad, 0xe3, 0xb7,
  0x50, 0x7a, 0x22, 0x36, 0x7a, 0x58, 0x96, 0x38, 0xac, 0xc0, 0xb4, 0xb8,
  0x0a, 0xbf, 0x36, 0x39, 0x10, 0x53, 0x7b, 0x37, 0xb8, 0xdb, 0x99, 0xb7,
  0xc7, 0xc6, 0x76, 0x39, 0x71, 0x4f, 0x14, 0x39, 0xfe, 0x3e, 0xaf, 0x37,
  0x9c, 0x05, 0xbf, 0x37, 0x97, 0x0d, 0x8e, 0xb9, 0x46, 0x17, 0xa2, 0xb8,
  0xb6, 0xd0, 0x55, 0xb8, 0x99, 0x8c, 0xd9, 0x38, 0xe2, 0x2e, 0x12, 0xb9,
  0xaf, 0x0e, 0xb2, 0x38, 0xe2, 0x33, 0x94, 0x38, 0xaa, 0x3e, 0x16, 0x38,
  0x2c, 0x70, 0x1e, 0xb9, 0xff, 0xb3, 0x30, 0x39, 0x72, 0x76, 0x35, 0xb9,
  0xd0, 0x77, 0x6b, 0x37, 0x9c, 0x6c, 0x5d, 0x37, 0x02, 0xc9, 0xbd, 0xb7,
  0xe0, 0xf9, 0x15, 0x37, 0xf8, 0x48, 0x28, 0xb8, 0x8c, 0x91, 0x15, 0xb8,
  0x0c, 0x4d, 0xbe, 0xb8, 0xec, 0x77, 0x90, 0x39, 0x37, 0x0c, 0xac, 0x39,
  0x6c, 0xe8, 0xdc, 0x38, 0x56, 0xac, 0x3c, 0xb8, 0x47, 0xb8, 0x7b, 0xb8,
  0x44, 0xcc, 0x0c, 0x38, 0x44, 0x76, 0x9e, 0x38, 0x24, 0xc7, 0x7d, 0xb9,
  0x2a, 0x86, 0xf2, 0xb8, 0x11, 0xea, 0x90, 0xb8, 0x93, 0x29, 0x4f, 0xb8,
  0xc8, 0x0f, 0xcb, 0xb6, 0x6a, 0x11, 0x9e, 0x38, 0x4b, 0x87, 0x15, 0xb9,
  0x2e, 0x96, 0xc4, 0x38, 0x10, 0x8a, 0x8f, 0xb8, 0xa0, 0x25, 0xcb, 0xb6,
  0xaa, 0x95, 0x13, 0x38, 0x95, 0x1a, 0x46, 0x38, 0xf0, 0xa8, 0x1c, 0xb9,
  0x4d, 0x8c, 0x00, 0xb9, 0x7b, 0xf2, 0x3d, 0x39, 0x75, 0xef, 0x44, 0xb8,
  0x98, 0x74, 0x9c, 0xb9, 0x3b, 0x1d, 0x7d, 0xb9, 0xfa, 0xf0, 0xc8, 0xb9,
  0x79, 0x27, 0x9d, 0x38, 0xd2, 0x23, 0x55, 0xb9, 0x45, 0x1b, 0x31, 0x39,
  0xd8, 0x1c, 0x9e, 0xb7, 0x33, 0xab, 0x5e, 0x39, 0x8f, 0x8d, 0x2c, 0x39,
  0xf0, 0xfc, 0x1f, 0xb7, 0x1f, 0xd7, 0x63, 0x39, 0x5e, 0x05, 0x34, 0x39,
  0x58, 0x90, 0xde, 0xb7, 0x1e, 0x72, 0x7f, 0xb8, 0x6e, 0xf4, 0x1c, 0x39,
  0x80, 0xba, 0x7b, 0x36, 0xc3, 0xed, 0x73, 0x38, 0x46, 0x33, 0x16, 0x39,
  0x20, 0x9b, 0xa2, 0xb5, 0xd6, 0x8e, 0x49, 0xb7, 0x45, 0xd3, 0x7b, 0xb8,
  0x09, 0xdb, 0xb1, 0xbc, 0x96, 0xe9, 0x0b, 0xbc, 0x88, 0x77, 0x31, 0xbc,
  0xed, 0x2e, 0x3f, 0xbb, 0x24, 0xc5, 0x7e, 0x37, 0xa7, 0x6a, 0x8f, 0x3e,
  0xb9, 0x64, 0xa2, 0x37, 0x58, 0xc4, 0x1d, 0xb8, 0xe6, 0x06, 0x07, 0x38,
  0x20, 0xb2, 0x21, 0x36, 0x38, 0x1d, 0x9e, 0x38, 0x70, 0x1c, 0x0a, 0xb9,
  0x24, 0x76, 0x6a, 0x38, 0x8c, 0xef, 0x83, 0x39, 0x48, 0x5e, 0x46, 0xb9,
  0xf0, 0xa3, 0x1d, 0x37, 0x30, 0x68, 0xb9, 0x36, 0x12, 0xb9, 0x5d, 0x39,
  0xc1, 0x1a, 0x2b, 0x38, 0x22, 0xf0, 0x51, 0x36, 0xea, 0x86, 0x41, 0xb9,
  0x12, 0xd4, 0x32, 0x36, 0x14, 0xe6, 0xf7, 0xb9, 0xe0, 0x21, 0xe8, 0x37,
  0xab, 0xb4, 0xb7, 0xb7, 0x8d, 0x4f, 0xb7, 0x3c, 0x57, 0xe0, 0x56, 0x3e,
  0xd9, 0x1a, 0xd0, 0x3d, 0xcd, 0x20, 0x6f, 0x3e, 0x9f, 0x70, 0x58, 0x3e,
  0x08, 0x5c, 0x9a, 0x3c, 0xc6, 0x9b, 0x19, 0x3d, 0x01, 0x59, 0x15, 0x3d,
  0x53, 0x00, 0x37, 0x3e, 0xd7, 0x0a, 0xec, 0xbc, 0xfb, 0x46, 0x9e, 0xbc,
  0xe4, 0xd0, 0x53, 0xbe, 0x6c, 0x22, 0x4b, 0xbc, 0x89, 0x9e, 0x92, 0xbb,
  0x3c, 0xff, 0xd0, 0x37, 0x8e, 0x58, 0x1a, 0xb7, 0x36, 0x92, 0x76, 0x3b,
  0xba, 0x0b, 0x06, 0x37, 0xc8, 0x79, 0x26, 0x38, 0xe0, 0x78, 0x79, 0xb8,
  0xb7, 0xfe, 0x53, 0x39, 0x50, 0xfb, 0xb8, 0xb6, 0xfa, 0xd9, 0x33, 0xb8,
  0x16, 0xe1, 0x1a, 0xb8, 0xc8, 0x3d, 0xc7, 0x38, 0xc9, 0x58, 0x0a, 0xb7,
  0x05, 0x62, 0xb7, 0x39, 0x1e, 0x4f, 0x1d, 0x3c, 0xed, 0x1c, 0xe3, 0x3d,
  0x94, 0xd7, 0x07, 0x3f, 0x56, 0xd7, 0xa2, 0x3e, 0xbe, 0xf7, 0x9a, 0x3e,
  0xad, 0x19, 0xbd, 0x3e, 0xfc, 0x6f, 0xbb, 0x3e, 0x34, 0xe6, 0x83, 0x3e,
  0xae, 0x7d, 0xa0, 0x3d, 0x90, 0x4a, 0x23, 0x3e, 0x34, 0x21, 0x8e, 0x3d,
  0x9c, 0xd3, 0x40, 0xbe, 0x77, 0x01, 0x6c, 0xbe, 0x5c, 0x33, 0x91, 0xbe,
  0x29, 0x66, 0x1b, 0xbe, 0x98, 0x71, 0x7e, 0xbe, 0xdf, 0x4f, 0xba, 0xbe,
  0xf4, 0xa1, 0x49, 0xb6, 0x6f, 0x9e, 0xce, 0xb6, 0xc9, 0x02, 0x44, 0x39,
  0x1a, 0x3b, 0xc4, 0x38, 0x6e, 0x52, 0xeb, 0xb7, 0xa6, 0x40, 0x29, 0xb8,
  0xe9, 0x03, 0xa8, 0x38, 0x26, 0x03, 0x26, 0xb7, 0x56, 0xfa, 0x76, 0xbc,
  0x95, 0xb1, 0xca, 0x3b, 0x68, 0xd6, 0xcf, 0x3e, 0xcb, 0x09, 0x03, 0x3e,
  0x19, 0xb6, 0xdc, 0x3d, 0x1b, 0xac, 0x82, 0x3e, 0xc9, 0x96, 0x67, 0x3e,
  0xd2, 0x23, 0x49, 0x3e, 0x57, 0x20, 0x59, 0x3e, 0x82, 0x6c, 0x04, 0x3e,
  0xe9, 0xb5, 0x61, 0x3e, 0x17, 0x68, 0x73, 0x3d, 0x18, 0x29, 0xa5, 0x3d,
  0x81, 0x09, 0x5b, 0x3d, 0x7f, 0x0b, 0xa7, 0xbc, 0xc2, 0x43, 0xb2, 0xbd,
  0xfe, 0x97, 0x37, 0xbe, 0x1b, 0x4a, 0xa8, 0xbe, 0xb5, 0xa5, 0x0d, 0xbf,
  0xf9, 0x05, 0x3b, 0xbf, 0x43, 0x24, 0xf5, 0xbe, 0x54, 0xc5, 0x3c, 0xb7,
  0x52, 0x0c, 0xc5, 0x37, 0x18, 0x88, 0x61, 0xb7, 0x9a, 0xcc, 0xa9, 0xb8,
  0x64, 0x4a, 0xb8, 0xb8, 0x26, 0x98, 0xd1, 0xb8, 0xde, 0x4b, 0xcf, 0x3c,
  0x95, 0x1b, 0xc5, 0x3c, 0x14, 0x21, 0xa9, 0x3d, 0x2b, 0x2b, 0x9c, 0x3d,
  0x76, 0x1c, 0xbb, 0x3d, 0xe9, 0xef, 0x37, 0x3e, 0xb8, 0xce, 0x65, 0x3d,
  0xfb, 0x11, 0xca, 0x3d, 0x8a, 0xe9, 0x44, 0x3e, 0x00, 0x08, 0x3f, 0x3e,
  0xc1, 0xbf, 0x14, 0x3e, 0x5b, 0x03, 0x1b, 0x3e, 0x1f, 0x84, 0xb6, 0x3d,
  0x43, 0x1f, 0x87, 0x3e, 0x7e, 0x79, 0xda, 0x3d, 0x77, 0x9c, 0x37, 0x3d,
  0x5b, 0xa0, 0x06, 0xbd, 0xbb, 0x56, 0x1f, 0xbd, 0x85, 0xc7, 0xfe, 0xba,
  0x17, 0x59, 0x50, 0xbd, 0x04, 0xdf, 0x80, 0xbe, 0xf0, 0xf8, 0x14, 0xbf,
  0x48, 0xd6, 0x83, 0x36, 0x94, 0x1a, 0x75, 0x37, 0x87, 0x22, 0xee, 0xb7,
  0x46, 0xf7, 0x92, 0xb8, 0xc7, 0x68, 0x43, 0xb8, 0xab, 0x3b, 0x85, 0xbc,
  0x6d, 0x4b, 0x11, 0x3c, 0x25, 0xa6, 0x23, 0x3e, 0x76, 0xd4, 0x42, 0x3d,
  0xa9, 0xc2, 0xa9, 0x3d, 0x65, 0x8f, 0xb7, 0x3d, 0x7a, 0x23, 0x93, 0x3d,
  0xe3, 0x06, 0xd8, 0x3d, 0x03, 0x3c, 0xc7, 0x3d, 0x16, 0xff, 0xfe, 0xba,
  0xd7, 0xe7, 0xea, 0x3c, 0x7d, 0xed, 0x39, 0x3d, 0xa1, 0xf9, 0xfc, 0x3c,
  0xe9, 0x7f, 0x08, 0x3e, 0x27, 0xd2, 0x8f, 0x3d, 0xcf, 0xd9, 0x5b, 0xbc,
  0xc4, 0x5c, 0xe2, 0xbc, 0x40, 0x71, 0x24, 0xbd, 0xc9, 0x85, 0x07, 0xbe,
  0x91, 0xa4, 0xd1, 0xbd, 0x0c, 0x9e, 0x21, 0xbe, 0x67, 0x0f, 0x28, 0xbf,
  0x51, 0xc9, 0x26, 0xbf, 0x39, 0xf0, 0x3b, 0xba, 0x8a, 0xfb, 0x4c, 0xbc,
  0xaf, 0x2d, 0x7f, 0x3a, 0x20, 0x48, 0x39, 0xb9, 0xb4, 0xa9, 0xbf, 0x38,
  0x07, 0x45, 0xc9, 0x3b, 0x94, 0x1c, 0x80, 0x3c, 0xf0, 0x56, 0xd6, 0x3e,
  0x2e, 0x8f, 0xc9, 0x3d, 0x24, 0x20, 0x67, 0x3e, 0x93, 0x44, 0x8f, 0xbc,
  0xd3, 0xa0, 0xa9, 0x3d, 0x9e, 0x13, 0xe9, 0xbc, 0x28, 0x86, 0xbf, 0xba,
  0x0f, 0x2f, 0xb9, 0x3c, 0xa7, 0x84, 0xf0, 0xbb, 0x34, 0xc0, 0xd0, 0x3d,
  0x55, 0x77, 0x5b, 0x3d, 0x61, 0x6c, 0xc5, 0xbd, 0xb4, 0xf3, 0x80, 0xbd,
  0x42, 0xc5, 0x49, 0xbe, 0x49, 0x53, 0xa9, 0xbd, 0x9a, 0xf2, 0x1c, 0xbd,
  0x74, 0x0a, 0x07, 0xbe, 0xb8, 0x49, 0xa1, 0xbd, 0x46, 0xda, 0x3e, 0x3d,
  0x3f, 0x0e, 0x29, 0xbf, 0xf9, 0x21, 0x62, 0xbf, 0x70, 0x22, 0x02, 0xbe,
  0x12, 0x6d, 0xe2, 0xbc, 0x66, 0x86, 0x09, 0xba, 0xfa, 0xd7, 0xb7, 0x39,
  0x1c, 0x05, 0xa2, 0x39, 0x96, 0x42, 0x6e, 0x3b, 0x8b, 0x48, 0x0a, 0x3c,
  0x96, 0x88, 0x92, 0x3e, 0xae, 0xf0, 0xed, 0x3d, 0xf6, 0xc0, 0xe2, 0x3c,
  0xf2, 0x4c, 0x23, 0x3c, 0xc2, 0xa0, 0x13, 0xbc, 0x6e, 0x3c, 0x8b, 0x3c,
  0x55, 0xac, 0xc5, 0x3d, 0xca, 0xfe, 0xba, 0x3d, 0x73, 0x53, 0xf2, 0xbc,
  0x48, 0x5c, 0x6f, 0xbd, 0x35, 0xd2, 0x87, 0x3d, 0x80, 0x40, 0xba, 0x37,
  0xac, 0x16, 0x4f, 0xbd, 0xe5, 0xd8, 0x28, 0xbd, 0x96, 0xd6, 0x15, 0xbe,
  0xac, 0x90, 0xe5, 0x3d, 0xfb, 0x28, 0x9c, 0x3c, 0x0f, 0xfc, 0x8f, 0xbd,
  0xc2, 0x0c, 0xbf, 0xbb, 0xe5, 0x66, 0x3d, 0xbd, 0xe4, 0xfa, 0x9b, 0xbf,
  0xa7, 0xc1, 0x57, 0xbf, 0x6d, 0x36, 0x8e, 0xbc, 0x7c, 0x89, 0x0a, 0x38,
  0x02, 0x8c, 0x7e, 0x38, 0xe0, 0x1c, 0x08, 0xb8, 0x93, 0xe8, 0x59, 0x36,
  0xe7, 0xd2, 0xaa, 0x3c, 0xe9, 0x3f, 0x26, 0x3e, 0x73, 0x6e, 0x44, 0x3e,
  0x75, 0x0c, 0x93, 0xbd, 0x23, 0xde, 0x61, 0xbd, 0xe7, 0x3f, 0x7d, 0xbd,
  0x31, 0xa4, 0xd7, 0x3c, 0xc1, 0x17, 0x1e, 0x3e, 0x78, 0x27, 0x14, 0xbd,
  0x85, 0x48, 0xce, 0xbb, 0x23, 0x9d, 0x50, 0xbc, 0xac, 0x1e, 0xf0, 0x3d,
  0x83, 0x31, 0x61, 0x3e, 0x23, 0xf5, 0xc9, 0x3d, 0xd1, 0x44, 0xa8, 0x3d,
  0xa6, 0x5d, 0xca, 0x3d, 0x6f, 0x94, 0xca, 0x3c, 0x36, 0xdf, 0xe7, 0xbc,
  0x06, 0xd1, 0x09, 0xbe, 0x34, 0x3a, 0xb2, 0xbd, 0x99, 0x69, 0x58, 0xbd,
  0xff, 0xda, 0x9f, 0xbf, 0xb3, 0x93, 0x19, 0xbf, 0xad, 0x13, 0x9b, 0xbb,
  0x2d, 0x7e, 0x76, 0x39, 0x97, 0xd2, 0x5b, 0xb8, 0x94, 0xda, 0x86, 0xb9,
  0x43, 0xbc, 0x03, 0x3b, 0x4d, 0x75, 0xb8, 0x3d, 0xcf, 0x80, 0x74, 0xbd,
  0xb9, 0x53, 0x65, 0x3e, 0x30, 0xfb, 0x6c, 0x3e, 0xc5, 0xe3, 0xcf, 0xbd,
  0xd3, 0x09, 0xbb, 0xbd, 0xba, 0xd7, 0xfb, 0xbd, 0xa5, 0xbe, 0xcc, 0xbd,
  0xc3, 0xd5, 0x40, 0xbd, 0xcb, 0x6c, 0x82, 0xbd, 0xa9, 0x25, 0x5e, 0xbe,
  0x9b, 0x69, 0x17, 0xbe, 0x44, 0x0b, 0x08, 0xbe, 0x65, 0x4b, 0x73, 0xbc,
  0x61, 0x6d, 0x9a, 0x3d, 0x37, 0x84, 0x9b, 0x3c, 0x62, 0xbd, 0xd8, 0xbb,
  0x92, 0x05, 0x92, 0xbd, 0x0e, 0xee, 0xd2, 0xbd, 0x89, 0x32, 0x60, 0xbe,
  0x57, 0xf3, 0x4e, 0xbe, 0xb1, 0xb6, 0x5a, 0xbf, 0xf3, 0xd3, 0x9b, 0xbe,
  0x26, 0xde, 0x0f, 0xbb, 0x70, 0x24, 0x01, 0xb9, 0x4c, 0x18, 0xbf, 0x37,
  0x64, 0x08, 0xe3, 0xb8, 0x6a, 0x63, 0x82, 0x38, 0x2f, 0x39, 0xad, 0xbd,
  0x31, 0x0e, 0x29, 0xbe, 0x35, 0x5a, 0xca, 0x3d, 0x49, 0xc4, 0x98, 0xbd,
  0xa1, 0x62, 0x95, 0xbe, 0x38, 0x37, 0x01, 0xbf, 0x0e, 0x70, 0xf1, 0xbe,
  0x59, 0x6c, 0x37, 0xbf, 0x2d, 0xa0, 0x14, 0xbf, 0xa3, 0xe6, 0x34, 0xbf,
  0xb1, 0x83, 0x60, 0xbf, 0x96, 0xce, 0x0d, 0xbf, 0xb1, 0xef, 0xe7, 0xbe,
  0x04, 0x42, 0x39, 0xbe, 0xd1, 0xf1, 0x8f, 0xbe, 0xe7, 0x6b, 0xc2, 0xbd,
  0xd0, 0xd6, 0x9f, 0x3d, 0x02, 0xd8, 0xd2, 0xbd, 0x1c, 0xc0, 0xd0, 0xbd,
  0x41, 0x22, 0x8d, 0xbd, 0x1b, 0xcd, 0x79, 0xbe, 0x93, 0xc2, 0x82, 0xbe,
  0x84, 0xc4, 0x6f, 0x3d, 0xad, 0x3b, 0x86, 0xbc, 0x10, 0xde, 0x88, 0xb6,
  0xc0, 0xb5, 0x48, 0xb9, 0xa7, 0x6b, 0x12, 0x38, 0x20, 0x48, 0xea, 0x36,
  0xc1, 0xa4, 0xd4, 0xbe, 0x30, 0xe1, 0x97, 0xbe, 0x8c, 0xd8, 0xf6, 0xbe,
  0xa9, 0x8a, 0x65, 0xbf, 0xfb, 0x84, 0x82, 0xbf, 0x1a, 0x60, 0x05, 0xbf,
  0x59, 0xe0, 0x16, 0xbf, 0xba, 0x6f, 0x0c, 0xbf, 0x75, 0x7f, 0x1c, 0xbf,
  0xaa, 0x89, 0x00, 0xbf, 0x50, 0x4c, 0x10, 0xbf, 0x13, 0x13, 0xfe, 0xbe,
  0xea, 0xc2, 0xda, 0xbe, 0x6e, 0x89, 0x9c, 0xbe, 0xde, 0x6b, 0x9e, 0xbe,
  0x80, 0x54, 0x12, 0xbe, 0x02, 0xc8, 0x20, 0x3d, 0xa1, 0x4c, 0x3e, 0xbd,
  0x0f, 0x2a, 0x25, 0xbd, 0xb6, 0xa6, 0x6c, 0xbe, 0xf1, 0xff, 0xf8, 0xbe,
  0xfd, 0x4a, 0xd5, 0x3d, 0x5e, 0xb4, 0x0a, 0x3f, 0x59, 0xe2, 0xfd, 0x3e,
  0x99, 0x67, 0xc1, 0x36, 0x8b, 0xfb, 0xb9, 0xb8, 0x5e, 0x83, 0x92, 0xb9,
  0x61, 0xc9, 0x00, 0xb9, 0x17, 0x3d, 0x9b, 0xbe, 0x83, 0xfb, 0x5d, 0xbf,
  0x89, 0xda, 0x7c, 0xbf, 0x30, 0xfc, 0x82, 0xbf, 0x7b, 0xdd, 0x5b, 0xbf,
  0xa6, 0x63, 0xe4, 0xbe, 0xee, 0xed, 0xb4, 0xbe, 0x1a, 0x8e, 0x15, 0xbe,
  0x35, 0xa0, 0x90, 0xbd, 0x70, 0x29, 0x29, 0xbe, 0x60, 0xde, 0x42, 0x3d,
  0x4a, 0x32, 0x1d, 0xbe, 0x36, 0x8f, 0x9f, 0xbe, 0x93, 0x5f, 0x91, 0xbe,
  0xf5, 0x8e, 0x24, 0xbe, 0xe6, 0x56, 0x3c, 0xbe, 0x0c, 0x3c, 0x0b, 0xbe,
  0xe4, 0x0d, 0x05, 0xbe, 0xd5, 0x25, 0x03, 0xbe, 0x5f, 0x30, 0x42, 0xbe,
  0xfa, 0x1d, 0x19, 0xbe, 0xce, 0xc6, 0xee, 0x3e, 0xaf, 0xa3, 0x3d, 0x3f,
  0x97, 0x93, 0x89, 0x3f, 0x75, 0x67, 0x84, 0x3e, 0x6c, 0x68, 0xc7, 0x38,
  0x50, 0x41, 0xc3, 0xb6, 0xe8, 0x2d, 0x32, 0xb7, 0x8d, 0x8c, 0x60, 0xbe,
  0x73, 0x21, 0x22, 0xbf, 0x4c, 0x98, 0x2f, 0xbf, 0x92, 0x28, 0xaa, 0xbe,
  0x57, 0x6a, 0x55, 0xbd, 0x74, 0x34, 0xda, 0xbd, 0x9d, 0x90, 0x16, 0xbe,
  0xef, 0x4c, 0xca, 0xbd, 0xd7, 0x81, 0x8a, 0xbc, 0x25, 0x7b, 0xe3, 0xbc,
  0x10, 0x84, 0x9a, 0x3d, 0xf0, 0x65, 0x00, 0x3d, 0x14, 0x7c, 0x15, 0xbe,
  0x47, 0xd6, 0xdf, 0xbd, 0x3b, 0xe5, 0x7c, 0xbe, 0x84, 0xb6, 0x8b, 0xbd,
  0x43, 0x1b, 0xef, 0xbd, 0xce, 0x5f, 0xc4, 0xbd, 0x16, 0x8e, 0x1c, 0xbe,
  0x40, 0x47, 0x16, 0xbe, 0x3c, 0xd4, 0x8a, 0xbd, 0xd3, 0xe4, 0x5c, 0x3e,
  0xc7, 0x02, 0x0a, 0x3f, 0xfb, 0x1d, 0x83, 0x3f, 0x3a, 0x14, 0xd9, 0x37,
  0x72, 0x3b, 0x9b, 0x38, 0x9a, 0xf7, 0x86, 0x37, 0xd2, 0xb5, 0xb6, 0x36,
  0x2b, 0x24, 0x45, 0x3d, 0xa8, 0x15, 0xab, 0x3d, 0x52, 0x40, 0x6b, 0x3e,
  0x6a, 0x71, 0x3b, 0x3e, 0x1e, 0xeb, 0x8a, 0xbd, 0xd2, 0xc4, 0x43, 0xbd,
  0xec, 0x54, 0x3f, 0xbd, 0x7b, 0xf1, 0x0a, 0x3c, 0xe9, 0xcb, 0x89, 0xbd,
  0x3e, 0x15, 0x46, 0xbd, 0x74, 0xcd, 0x22, 0x3e, 0x67, 0x6c, 0xb9, 0x3c,
  0x5b, 0xde, 0x46, 0xbd, 0x55, 0xc7, 0x19, 0xbd, 0x5d, 0x73, 0x00, 0xbe,
  0x91, 0x26, 0x46, 0xbe, 0x30, 0xaa, 0x3c, 0xbd, 0x5a, 0x5f, 0x4b, 0xbe,
  0x79, 0x47, 0x22, 0xbe, 0xd1, 0x7f, 0x6e, 0xbe, 0x16, 0x4f, 0x29, 0xbe,
  0x85, 0xad, 0xce, 0x3e, 0x40, 0x3b, 0x15, 0x3f, 0x65, 0x2d, 0x5a, 0x3f,
  0x59, 0xa7, 0x14, 0x3c, 0xb6, 0x1a, 0xa3, 0xb9, 0xfa, 0x64, 0xb3, 0xb7,
  0xd4, 0xb0, 0xc5, 0x37, 0x9a, 0x25, 0xdd, 0x3e, 0xe7, 0x8e, 0x9d, 0x3e,
  0xe4, 0x25, 0x77, 0x3e, 0xa9, 0x87, 0x97, 0x3e, 0x4f, 0x2e, 0x49, 0xbd,
  0xd2, 0x2b, 0x19, 0xbe, 0xe5, 0x2d, 0x9a, 0x3d, 0x68, 0x56, 0x6a, 0x3d,
  0x3d, 0x3c, 0x27, 0x3e, 0x71, 0x8f, 0x75, 0x3e, 0x0b, 0x4e, 0x8d, 0x3e,
  0xe4, 0x68, 0x74, 0x3d, 0xff, 0x6c, 0xda, 0xbc, 0x5a, 0xd9, 0x24, 0x3b,
  0x5c, 0x36, 0x20, 0x3e, 0x59, 0xdb, 0x01, 0xbc, 0xf4, 0xf6, 0x14, 0xbd,
  0xa2, 0xd7, 0x1f, 0xbe, 0x2e, 0x04, 0x0c, 0x3e, 0x2a, 0xca, 0x43, 0x3e,
  0x8e, 0x3f, 0xee, 0x3c, 0x69, 0xf4, 0xd3, 0x3e, 0x31, 0x2e, 0x91, 0x3f,
  0x54, 0xc4, 0x92, 0x3f, 0x47, 0xa3, 0x20, 0x3e, 0xf8, 0x88, 0x25, 0xb9,
  0xdd, 0x86, 0xed, 0x37, 0x77, 0xd3, 0xb4, 0x3c, 0xd7, 0x16, 0xa1, 0x3e,
  0xca, 0x53, 0x99, 0x3e, 0xe9, 0xea, 0x59, 0x3e, 0x22, 0x65, 0x84, 0x3e,
  0x73, 0x95, 0x32, 0x3d, 0x95, 0x1d, 0xb3, 0xbc, 0x01, 0x98, 0x06, 0x3e,
  0x97, 0x95, 0x73, 0x3e, 0x35, 0x15, 0x61, 0x3e, 0xeb, 0x3c, 0x92, 0x3e,
  0x65, 0xba, 0x6d, 0x3e, 0xfc, 0xa9, 0x68, 0xbc, 0x17, 0xb7, 0x36, 0x3d,
  0x6a, 0xa5, 0x33, 0x3c, 0x57, 0x33, 0x82, 0xbd, 0x18, 0x52, 0xe4, 0xbc,
  0x71, 0x6d, 0xa2, 0xba, 0xc3, 0x47, 0x0e, 0xbc, 0xdb, 0xac, 0x0c, 0x3e,
  0x0a, 0x44, 0x58, 0x3d, 0x3c, 0xf3, 0x8c, 0x3d, 0xef, 0xca, 0xa0, 0x3e,
  0x98, 0x44, 0x87, 0x3f, 0x40, 0x94, 0x45, 0x3f, 0x56, 0x9b, 0xb5, 0x36,
  0xd4, 0xa2, 0x99, 0x38, 0xda, 0x3c, 0x70, 0x39, 0x2a, 0x8c, 0x8e, 0xb9,
  0x9d, 0x38, 0xcc, 0x3c, 0x45, 0x75, 0x81, 0x3e, 0x62, 0x5e, 0xba, 0x3e,
  0xfa, 0xea, 0x13, 0x3e, 0xe0, 0xa3, 0x91, 0x3e, 0xb6, 0x2f, 0x81, 0x3c,
  0xca, 0x64, 0x36, 0x3d, 0x70, 0xde, 0x2c, 0x3e, 0x5b, 0xf4, 0x8c, 0x3d,
  0x56, 0x7b, 0xa4, 0x3e, 0x95, 0xd5, 0x62, 0x3e, 0xaa, 0x43, 0xc1, 0x3d,
  0x01, 0xdc, 0x41, 0x3c, 0xb6, 0x4f, 0x45, 0x3d, 0xab, 0x76, 0x31, 0x3e,
  0x8d, 0x3b, 0xf0, 0x3d, 0x63, 0x74, 0x43, 0x3d, 0x7d, 0xbc, 0x62, 0xbd,
  0x51, 0x42, 0x64, 0x3d, 0x60, 0xb3, 0x0f, 0x3e, 0x93, 0x23, 0xa2, 0x3e,
  0x70, 0xc4, 0x18, 0x3f, 0xf0, 0x81, 0x69, 0x3f, 0x9b, 0x44, 0xe3, 0x3d,
  0x0f, 0x2d, 0x95, 0x3b, 0x70, 0x83, 0x87, 0xb9, 0xd3, 0xad, 0x2e, 0xb8,
  0xa2, 0x09, 0x20, 0xbb, 0x62, 0xc7, 0x2d, 0xbe, 0x55, 0x55, 0x4f, 0x3e,
  0x70, 0xc2, 0xce, 0x3d, 0x14, 0xa5, 0xaf, 0xbb, 0xe2, 0xfe, 0x9a, 0x3e,
  0x7f, 0xbd, 0x72, 0x3e, 0xda, 0x8c, 0x36, 0x3e, 0x41, 0x52, 0x42, 0x3e,
  0x63, 0x2d, 0x2e, 0x3e, 0x67, 0x11, 0x5d, 0x3e, 0x79, 0x48, 0x82, 0x3e,
  0x9e, 0x07, 0x2a, 0x3e, 0xae, 0x42, 0xde, 0x3d, 0xba, 0xf4, 0x4e, 0x3e,
  0xa9, 0x9f, 0x39, 0x3e, 0x1f, 0x1a, 0x88, 0x3d, 0xbd, 0x19, 0x47, 0xbc,
  0xd1, 0x12, 0x58, 0x3d, 0x19, 0xf3, 0x15, 0x3e, 0x8f, 0x27, 0x90, 0x3e,
  0x7d, 0x54, 0x60, 0x3e, 0x49, 0xff, 0x49, 0x3e, 0x81, 0x56, 0x68, 0x3f,
  0x0b, 0xaf, 0x09, 0x3f, 0xd9, 0x09, 0xec, 0x37, 0xcb, 0x67, 0x0c, 0x39,
  0xfe, 0x0e, 0x2b, 0xb8, 0x27, 0x6c, 0x81, 0x3c, 0x05, 0xd5, 0x36, 0x3c,
  0x6b, 0xc4, 0x34, 0x3e, 0x2d, 0x20, 0xaf, 0x3d, 0x2a, 0x10, 0x1c, 0x3e,
  0x50, 0xf9, 0xc4, 0x3e, 0x1c, 0x17, 0xfe, 0x3d, 0xc1, 0xa9, 0x05, 0x3e,
  0x64, 0x68, 0x2e, 0x3e, 0x70, 0xb0, 0x6f, 0x3e, 0x83, 0x7f, 0xfd, 0x3d,
  0x36, 0x7a, 0xf2, 0x3d, 0x85, 0x0e, 0x59, 0x3d, 0x32, 0x01, 0x40, 0x3d,
  0x1a, 0xa6, 0x22, 0x3d, 0x76, 0x34, 0xfa, 0xbc, 0xd6, 0xbc, 0xbd, 0x3d,
  0x94, 0xde, 0x11, 0x3e, 0x05, 0x0a, 0x6a, 0x3e, 0x75, 0x7a, 0x7c, 0x3e,
  0x8b, 0x58, 0x6c, 0x3e, 0x44, 0xb4, 0x47, 0x3e, 0x34, 0x55, 0xa8, 0x3e,
  0x53, 0xee, 0xe6, 0x3e, 0xe1, 0x84, 0x26, 0xbb, 0xd6, 0xa3, 0x03, 0x39,
  0xf0, 0xab, 0x04, 0xb9, 0x48, 0x99, 0xeb, 0xb8, 0xcf, 0x4c, 0xa6, 0x3d,
  0x45, 0xad, 0x07, 0x3e, 0x13, 0x0a, 0x3b, 0xbb, 0xff, 0xe1, 0xac, 0x3d,
  0x0b, 0xe2, 0xbf, 0x3d, 0x67, 0x8b, 0x84, 0x3d, 0xe6, 0x38, 0xe4, 0xbc,
  0x7c, 0x8a, 0x4d, 0x3e, 0x25, 0xee, 0x30, 0x3e, 0xc4, 0xd0, 0x12, 0x3e,
  0x60, 0x17, 0xb3, 0x3d, 0x4e, 0x53, 0xf0, 0x3c, 0xc6, 0x7a, 0x57, 0x3c,
  0x22, 0x31, 0xc3, 0xbd, 0x59, 0x42, 0xc1, 0x3d, 0x83, 0x98, 0x2a, 0x3e,
  0x6d, 0xe1, 0x82, 0x3e, 0x79, 0x8c, 0xb3, 0x3e, 0xc2, 0xd6, 0x2b, 0x3d,
  0x5c, 0x38, 0x07, 0x3e, 0xdd, 0xbe, 0x5c, 0x3e, 0xb6, 0x46, 0xd1, 0x3e,
  0xee, 0x3c, 0x89, 0x3e, 0xad, 0x67, 0xac, 0x3e, 0xd5, 0x7f, 0x2c, 0x3b,
  0x8f, 0x79, 0x84, 0x38, 0x4a, 0xce, 0xf0, 0x37, 0x01, 0xeb, 0xc4, 0xb7,
  0x47, 0xd6, 0x26, 0x3d, 0x3c, 0x83, 0x62, 0x3e, 0xb0, 0x02, 0x3c, 0x3e,
  0x88, 0xb7, 0x1d, 0x3e, 0xac, 0x0a, 0x8a, 0x3e, 0x96, 0x9c, 0x45, 0x3e,
  0xac, 0xac, 0x86, 0x3e, 0x73, 0x02, 0x82, 0x3e, 0x94, 0x52, 0xae, 0x3d,
  0xce, 0x54, 0x1d, 0x3e, 0xc4, 0x85, 0xf2, 0x3c, 0x68, 0x64, 0x36, 0x3c,
  0x3d, 0x50, 0xd7, 0x3b, 0x90, 0x20, 0xe9, 0xbd, 0x4a, 0x92, 0x95, 0x3c,
  0x77, 0xed, 0x34, 0x3d, 0xa8, 0xdf, 0x40, 0x3e, 0xf2, 0x8c, 0x1c, 0x3e,
  0x4f, 0x3e, 0x67, 0x3e, 0xfa, 0xf0, 0x4a, 0x3e, 0x7e, 0x19, 0x81, 0x3e,
  0x02, 0xc3, 0x26, 0x3e, 0xc4, 0xb7, 0xb6, 0x3e, 0x09, 0x62, 0x33, 0x3d,
  0xa5, 0xb9, 0xdd, 0xb9, 0xee, 0x7d, 0x42, 0xb9, 0x30, 0x18, 0xb3, 0xb5,
  0xda, 0x8c, 0xee, 0xb9, 0x40, 0x94, 0x68, 0x35, 0xf9, 0x33, 0x10, 0xbd,
  0xde, 0x9d, 0xa5, 0xba, 0xcd, 0x1c, 0x94, 0xbd, 0x8d, 0x86, 0x83, 0x3d,
  0xbe, 0xf2, 0xe5, 0x3d, 0x43, 0x90, 0x89, 0x3d, 0x9d, 0x71, 0x9d, 0x3d,
  0x7b, 0x6a, 0xa8, 0xbc, 0xa3, 0x15, 0xf6, 0x3d, 0xdd, 0x35, 0xdb, 0x3d,
  0x9f, 0x3d, 0x93, 0xbd, 0x82, 0xcc, 0x5b, 0xbd, 0x29, 0x75, 0xcc, 0xbd,
  0x5f, 0xd2, 0x32, 0xba, 0x48, 0x25, 0x51, 0xbd, 0x73, 0x87, 0x8b, 0x3e,
  0x86, 0x62, 0xb2, 0x3e, 0xb1, 0x12, 0x7a, 0x3e, 0x3f, 0xf6, 0xca, 0x3e,
  0x0b, 0x45, 0xd0, 0x3e, 0xaf, 0x15, 0x8d, 0x3e, 0xd1, 0x07, 0xaa, 0x3e,
  0x8b, 0x97, 0x75, 0x3d, 0x20, 0x35, 0x8b, 0x37, 0x8a, 0xca, 0xee, 0xb7,
  0x2f, 0x14, 0xc7, 0xb6, 0xd8, 0xad, 0x11, 0x38, 0x72, 0x59, 0x76, 0xb8,
  0x9e, 0x2b, 0xa6, 0xbe, 0xaa, 0xc5, 0xef, 0xbe, 0xd4, 0xa5, 0x2c, 0xbf,
  0xef, 0xcc, 0xf0, 0xbe, 0x9b, 0x77, 0xb0, 0xbe, 0x82, 0x70, 0xed, 0xbd,
  0xfc, 0x81, 0x28, 0xbd, 0xd7, 0xd3, 0x52, 0xbe, 0x72, 0xd0, 0x02, 0xbe,
  0xc7, 0xc0, 0x4d, 0x3d, 0x23, 0x9e, 0x99, 0xbd, 0x44, 0xc3, 0x37, 0x3e,
  0x2a, 0xf7, 0x17, 0xbd, 0x45, 0xeb, 0xbc, 0xbc, 0xd1, 0x75, 0x03, 0x3d,
  0x93, 0xf7, 0x77, 0x3e, 0x3a, 0xd3, 0x8a, 0x3d, 0xfa, 0x82, 0x7d, 0x3d,
  0x74, 0xbb, 0x1e, 0x3e, 0xe0, 0x8c, 0x4b, 0x3b, 0x13, 0xe2, 0x31, 0x3d,
  0xc2, 0xdf, 0x33, 0x3f, 0xe2, 0x22, 0xd5, 0x3e, 0xc9, 0x25, 0x3a, 0x3b,
  0xfc, 0x29, 0x2e, 0xb9, 0xe0, 0xe6, 0x14, 0x39, 0x4c, 0x9b, 0x05, 0xb9,
  0xd8, 0x6b, 0x41, 0xb7, 0x2b, 0xee, 0xb4, 0xb6, 0x7b, 0xb4, 0x93, 0xbb,
  0xcf, 0x5c, 0x9c, 0xbe, 0xcc, 0x90, 0x64, 0xbe, 0xa8, 0x0a, 0x09, 0xbf,
  0x9f, 0xd4, 0x87, 0xbf, 0x8f, 0x30, 0x93, 0xbf, 0x02, 0x22, 0x66, 0xbf,
  0x3f, 0x2e, 0x4d, 0xbf, 0xd0, 0x5c, 0x16, 0xbf, 0x11, 0x7c, 0xbb, 0xbe,
  0x5c, 0xc0, 0x3d, 0xbd, 0xd4, 0x38, 0x2b, 0x3d, 0x76, 0x9c, 0x03, 0xbe,
  0x5c, 0x27, 0xe8, 0xbd, 0x57, 0x02, 0xcf, 0xbe, 0x76, 0xd7, 0x0d, 0xbf,
  0x11, 0x8f, 0xde, 0xbe, 0x95, 0x66, 0xc1, 0xbe, 0x52, 0x09, 0xe2, 0xbe,
  0x79, 0x19, 0xab, 0xbd, 0x56, 0x8b, 0x6c, 0xb8, 0xe4, 0xde, 0xd5, 0xb8,
  0x23, 0x50, 0x8f, 0x3b, 0xe0, 0xca, 0xd8, 0xb8, 0x0f, 0xc3, 0x2c, 0xb9,
  0xc8, 0x50, 0x17, 0xb7, 0x10, 0x39, 0xdb, 0x37, 0x02, 0xad, 0x98, 0xb8,
  0x75, 0xd2, 0x5f, 0xb8, 0x5d, 0xc9, 0xf1, 0xb8, 0x1d, 0x6a, 0x4e, 0x38,
  0xc8, 0x35, 0x28, 0x37, 0xeb, 0x9b, 0xff, 0x37, 0x7b, 0x79, 0x0a, 0x37,
  0xd4, 0x30, 0x52, 0x38, 0x22, 0xce, 0x16, 0xbe, 0x24, 0x14, 0x0b, 0xbb,
  0xb2, 0xdc, 0xe7, 0xbe, 0x59, 0x7d, 0x06, 0xbe, 0x8d, 0x1c, 0xfa, 0xbe,
  0xb8, 0x92, 0x06, 0xbf, 0x2a, 0x74, 0xd7, 0xbe, 0xbc, 0x41, 0x9f, 0xbe,
  0x3a, 0x26, 0xcd, 0xbb, 0x51, 0x3a, 0x2c, 0xbb, 0x66, 0xda, 0x17, 0x39,
  0x1e, 0x4a, 0xc4, 0xba, 0xe0, 0xfd, 0x19, 0x39, 0xae, 0x37, 0x07, 0xb9,
  0x5e, 0x38, 0xb9, 0xb8, 0xb8, 0x09, 0xa2, 0x37, 0x70, 0x3a, 0x74, 0x37,
  0x46, 0xb6, 0xbc, 0xb9, 0x34, 0x52, 0x13, 0xb9, 0xc0, 0x64, 0xdf, 0xb5,
  0xbc, 0x6d, 0xaf, 0xb8, 0x14, 0xc1, 0x33, 0x38, 0x34, 0xc0, 0x44, 0x38,
  0xd4, 0xc5, 0x13, 0x39, 0xa6, 0xc4, 0x96, 0xb8, 0xc8, 0x3f, 0x47, 0x37,
  0xe4, 0xe3, 0x76, 0x37, 0x8b, 0x55, 0x22, 0x38, 0x42, 0x2d, 0x7e, 0x3a,
  0x98, 0x01, 0xe7, 0x38, 0xac, 0xa0, 0x9b, 0x37, 0x04, 0xbb, 0x54, 0xb8,
  0xd2, 0x39, 0xad, 0xb8, 0xb7, 0xda, 0x72, 0xb9, 0xef, 0xeb, 0x86, 0xb8,
  0x38, 0x4d, 0xfd, 0x36, 0x2c, 0xe6, 0x13, 0x39, 0x35, 0x88, 0xb2, 0xb8,
  0x43, 0xee, 0x25, 0x3a, 0x75, 0x69, 0xcd, 0xba, 0xfd, 0x2e, 0x2c, 0xba,
  0xc4, 0xee, 0x0b, 0x38, 0x00, 0x36, 0xfb, 0xb5, 0x79, 0xb7, 0xa0, 0xb8,
  0x70, 0x2a, 0x87, 0xb6, 0xab, 0x06, 0x89, 0xb9, 0xaf, 0xc6, 0x16, 0x39,
  0xd0, 0x6e, 0xec, 0xb8, 0x60, 0xf1, 0x5c, 0x37, 0x54, 0x3c, 0xe5, 0xb7,
  0x54, 0xc7, 0x75, 0x39, 0xd1, 0x9b, 0x2a, 0x38, 0x72, 0x77, 0x42, 0xb9,
  0x78, 0x57, 0x97, 0xb8, 0xe8, 0x36, 0x8b, 0xb8, 0x55, 0xd2, 0x68, 0xb9,
  0x12, 0xdf, 0xeb, 0xb8, 0xb9, 0xda, 0x9d, 0xb8, 0x46, 0x85, 0xe8, 0xb8,
  0x2d, 0xbd, 0x7e, 0xb9, 0x9b, 0xfb, 0x48, 0x39, 0xc2, 0x8e, 0x29, 0x38,
  0x5d, 0xaf, 0x73, 0xb9, 0xe0, 0x0d, 0x4f, 0xb8, 0x7a, 0xf6, 0x2e, 0x39,
  0xce, 0x81, 0x76, 0xb9, 0x7b, 0x9d, 0x62, 0x39, 0x33, 0xc1, 0x17, 0x39,
  0xa0, 0x7f, 0x23, 0x38, 0x98, 0xb3, 0xfb, 0x37, 0x42, 0x5e, 0x09, 0xb9,
  0x78, 0x5d, 0x90, 0x39, 0xcc, 0x15, 0x87, 0xb8, 0x8c, 0x87, 0xac, 0x38,
  0xe4, 0x6d, 0x08, 0xb9, 0x20, 0x80, 0xc4, 0x38, 0x4d, 0x5c, 0xdb, 0xb8,
  0xc2, 0xe0, 0x8d, 0xb9, 0x00, 0x6a, 0xd9, 0x34, 0xa9, 0x44, 0xba, 0x38,
  0x5f, 0x6f, 0x2d, 0x38, 0xf8, 0x11, 0xdb, 0xb7, 0x4e, 0x8c, 0x2c, 0xb9,
  0x18, 0xe4, 0xce, 0x37, 0x96, 0xd1, 0xb2, 0xb9, 0xdf, 0x46, 0xcf, 0x38,
  0x57, 0x59, 0xd6, 0x39, 0xaa, 0xbd, 0x53, 0x36, 0x28, 0xe6, 0x0b, 0x38,
  0x0a, 0x81, 0x68, 0x39, 0x68, 0xcd, 0x0c, 0x38, 0x5d, 0x8e, 0xe2, 0xb8,
  0x3b, 0xb2, 0x86, 0x38, 0x82, 0x45, 0x80, 0xb8, 0xb8, 0xd0, 0x88, 0x38,
  0xee, 0xa1, 0x46, 0x38, 0x10, 0x09, 0x86, 0xb9, 0xb6, 0xce, 0x5c, 0xb8,
  0xc0, 0x7f, 0x9c, 0x37, 0x36, 0x8a, 0x28, 0x39, 0x06, 0xf8, 0x89, 0x38,
  0x67, 0x76, 0x7c, 0xb9, 0x6e, 0x2a, 0xcd, 0xb9, 0x54, 0xc7, 0x05, 0x39,
  0xfd, 0xe9, 0x87, 0x38, 0x54, 0x39, 0x5e, 0x38, 0x88, 0xf9, 0x70, 0xb7,
  0x60, 0x74, 0x27, 0x38, 0x08, 0xe8, 0xbd, 0x36, 0x04, 0x9f, 0xa0, 0x39,
  0xe6, 0x10, 0xc5, 0xbb, 0xb4, 0x10, 0x5b, 0x3c, 0x2a, 0xa6, 0x7d, 0x3c,
  0xd9, 0x15, 0xb2, 0x3c, 0xe0, 0xd3, 0x02, 0xbb, 0x1e, 0x55, 0x0c, 0x3c,
  0x6e, 0x35, 0x5e, 0xbe, 0x62, 0x86, 0x2d, 0xbe, 0x2d, 0x16, 0x5e, 0xbe,
  0xb0, 0xd8, 0x3d, 0xbe, 0x54, 0x85, 0x11, 0xbc, 0xfe, 0xf0, 0x35, 0xb7,
  0x60, 0xa5, 0xd3, 0xb5, 0x65, 0x99, 0xcc, 0xb7, 0x22, 0xb7, 0x19, 0xb8,
  0x42, 0xe6, 0x14, 0xb9, 0xaa, 0xc4, 0x2e, 0xb9, 0x08, 0x43, 0x4c, 0x37,
  0xfc, 0x59, 0x47, 0xb9, 0x16, 0x04, 0x42, 0x38, 0x5c, 0x71, 0x7c, 0x38,
  0x24, 0xa8, 0x81, 0xb9, 0x9b, 0xfe, 0x58, 0xb9, 0xfa, 0x18, 0xf0, 0x38,
  0xae, 0xfe, 0x24, 0x3e, 0x4a, 0xcc, 0x60, 0x3d, 0x8f, 0x83, 0xd2, 0x3d,
  0xcf, 0x7c, 0x92, 0x3e, 0x7b, 0x65, 0x00, 0x3d, 0x36, 0xf4, 0x5f, 0x3e,
  0xb5, 0xe7, 0xe5, 0x3e, 0x2c, 0x86, 0xd4, 0x3e, 0x02, 0x34, 0x39, 0x3e,
  0xb5, 0xb8, 0xcf, 0x3e, 0x08, 0x1b, 0x97, 0x3e, 0x1e, 0x76, 0x4a, 0x3e,
  0x73, 0x9b, 0x44, 0x3e, 0xde, 0x30, 0x8b, 0x3e, 0x3d, 0xb8, 0x01, 0x3e,
  0x85, 0xaa, 0x93, 0x3e, 0x8c, 0xd3, 0x11, 0xbe, 0xe8, 0xe2, 0xff, 0xbe,
  0x9f, 0x9d, 0xa1, 0xbe, 0x28, 0xc6, 0xe2, 0xb6, 0xec, 0x00, 0xfe, 0x37,
  0x38, 0xd4, 0xaa, 0xb8, 0xa8, 0x38, 0x40, 0xb8, 0xe3, 0x22, 0x67, 0x38,
  0xa8, 0x20, 0x5b, 0x38, 0xe1, 0x2c, 0xd3, 0x38, 0x0a, 0x02, 0x0a, 0xb7,
  0x42, 0x8d, 0x79, 0x3c, 0x75, 0x8a, 0xf1, 0x3e, 0xfd, 0xbf, 0x9b, 0x3e,
  0x62, 0x23, 0x88, 0x3e, 0x10, 0xa6, 0x96, 0x3e, 0x33, 0x1e, 0x4d, 0x3e,
  0x99, 0x2a, 0x91, 0x3e, 0x1d, 0x81, 0x80, 0x3e, 0xfe, 0xc2, 0x96, 0x3e,
  0x1b, 0x1e, 0x92, 0x3e, 0xcb, 0x2b, 0x14, 0x3e, 0x65, 0x65, 0x49, 0x3e,
  0x31, 0xe6, 0x38, 0x3e, 0xc3, 0x5e, 0xc2, 0x3c, 0xdd, 0x86, 0x29, 0x3e,
  0x34, 0x46, 0x3e, 0x3d, 0xf7, 0x9b, 0x86, 0xbd, 0x32, 0x10, 0x63, 0xbe,
  0xf6, 0x48, 0x22, 0xbe, 0x2d, 0x93, 0x80, 0xbf, 0x6f, 0xc0, 0x63, 0x38,
  0x5b, 0x7a, 0x1f, 0x38, 0x9d, 0x72, 0xda, 0xb8, 0x97, 0xf1, 0xfd, 0x38,
  0xb0, 0xe3, 0x90, 0xb9, 0xc6, 0x5c, 0x37, 0x39, 0x58, 0xf3, 0x76, 0xb8,
  0xd7, 0x49, 0xe2, 0x3d, 0x04, 0xe9, 0xbf, 0x3e, 0xaa, 0x47, 0x05, 0x3f,
  0x42, 0xd1, 0x8c, 0x3e, 0xc3, 0xc3, 0x87, 0x3e, 0xfa, 0xd2, 0xd5, 0x3d,
  0x8e, 0xfd, 0x7d, 0x3d, 0x72, 0xb3, 0x30, 0x3e, 0xe7, 0xd4, 0x0a, 0x3e,
  0xcc, 0x67, 0x02, 0x3e, 0x3d, 0x51, 0x02, 0x3e, 0x5d, 0xa4, 0x72, 0xbc,
  0x47, 0xe9, 0x25, 0x3e, 0x32, 0x26, 0x3a, 0x3e, 0x2d, 0x9c, 0x76, 0xbd,
  0xe4, 0x3d, 0x80, 0xbb, 0x66, 0x48, 0x6b, 0x3d, 0xa8, 0xaa, 0x0f, 0xbe,
  0xfe, 0x78, 0x1c, 0xbe, 0xfe, 0xe8, 0x27, 0xbe, 0x6d, 0x5c, 0xd7, 0xbe,
  0x76, 0x4d, 0xc5, 0xbe, 0x80, 0xbf, 0x8a, 0xb7, 0xa0, 0x0d, 0x7d, 0xb7,
  0x20, 0x4c, 0x56, 0x36, 0x00, 0x9e, 0x98, 0x39, 0xc0, 0x17, 0x14, 0x39,
  0x61, 0xda, 0xfc, 0x3b, 0xba, 0x0d, 0xa4, 0x3e, 0xde, 0x0e, 0xa0, 0x3d,
  0xb9, 0x9d, 0x17, 0x3e, 0x0c, 0x52, 0x2d, 0x3e, 0xfe, 0xe1, 0xdd, 0x3d,
  0x38, 0x35, 0x3a, 0x3d, 0xcf, 0xdb, 0x7b, 0x3e, 0x0a, 0x41, 0x74, 0x3e,
  0xe3, 0xe9, 0xb8, 0x3d, 0x21, 0x80, 0x7d, 0x3d, 0x48, 0x87, 0x52, 0x3e,
  0x80, 0x14, 0xb1, 0x3d, 0x00, 0xea, 0x1a, 0x3e, 0xa6, 0x72, 0xf7, 0x3d,
  0x2c, 0xda, 0x6c, 0x3d, 0xcd, 0x9a, 0xe2, 0x3d, 0xa9, 0xf1, 0x25, 0xbd,
  0xbf, 0x9a, 0x15, 0xbd, 0x47, 0xa1, 0x07, 0xbd, 0x81, 0x3c, 0xc5, 0xbd,
  0xeb, 0x23, 0x29, 0xbe, 0x1d, 0x94, 0x92, 0xbe, 0xb3, 0x9b, 0x09, 0x3a,
  0xe4, 0x75, 0x60, 0xb9, 0x60, 0x44, 0x58, 0xb8, 0x2a, 0xa7, 0xc2, 0x38,
  0xce, 0x80, 0x81, 0xb6, 0x9f, 0x36, 0x98, 0xba, 0x4b, 0x58, 0x64, 0x3c,
  0x14, 0xb8, 0xb2, 0x3e, 0x3d, 0x1b, 0x97, 0x3e, 0x1a, 0xf5, 0x53, 0x3e,
  0x13, 0x1e, 0xa1, 0x3d, 0xfb, 0x3e, 0x1d, 0x3d, 0x45, 0xae, 0xb3, 0x3d,
  0xf0, 0x63, 0x31, 0xbc, 0xff, 0xca, 0x13, 0xbd, 0x93, 0x57, 0xdf, 0x3d,
  0x41, 0xff, 0xa4, 0x3d, 0x31, 0xd7, 0x13, 0x3e, 0x08, 0xc6, 0x18, 0x3e,
  0x82, 0x81, 0xdb, 0x3c, 0x48, 0xc8, 0x6b, 0x3d, 0x97, 0x4a, 0x80, 0x3c,
  0xbd, 0xc4, 0xe1, 0x3c, 0xcb, 0x39, 0x3a, 0xbc, 0x24, 0x3d, 0x5a, 0xbe,
  0xd2, 0xcf, 0x54, 0xbe, 0xde, 0x74, 0xaa, 0xbe, 0x5c, 0x5e, 0x0a, 0xbf,
  0xbe, 0xfa, 0xab, 0xba, 0xd9, 0xd7, 0x3c, 0xba, 0xc8, 0x04, 0xf1, 0x38,
  0xea, 0xbb, 0xf6, 0xb8, 0x0a, 0x8c, 0xb9, 0x37, 0xec, 0x13, 0xfe, 0xbb,
  0x03, 0xfb, 0xb4, 0x3b, 0x1a, 0xe1, 0x88, 0x3e, 0xc0, 0x94, 0xbd, 0x3d,
  0x0c, 0xb1, 0x55, 0xbc, 0x1d, 0xc0, 0x7a, 0x3d, 0x1a, 0xc9, 0xb0, 0xbd,
  0x93, 0x2a, 0x42, 0xbd, 0x0d, 0x7f, 0x88, 0x3d, 0xc8, 0x33, 0xa0, 0x3c,
  0xe6, 0x34, 0x83, 0x3d, 0x95, 0xd3, 0x86, 0x3d, 0xa7, 0xb8, 0x11, 0x3e,
  0x1e, 0x57, 0x11, 0x3e, 0xdf, 0x9f, 0xb3, 0x3d, 0x90, 0x21, 0x62, 0x3d,
  0x40, 0xe1, 0x40, 0x3e, 0xd6, 0xf5, 0xdb, 0x3d, 0x1f, 0x3c, 0x14, 0x3e,
  0x5d, 0x34, 0x23, 0x3c, 0xcb, 0xa9, 0x45, 0x3e, 0x99, 0x7c, 0x01, 0xbf,
  0xa5, 0xc0, 0xa8, 0xbf, 0x7a, 0xa3, 0xd7, 0xb8, 0x70, 0x2b, 0xad, 0xb8,
  0x17, 0x8c, 0xa0, 0x38, 0x0c, 0xc4, 0xed, 0xb8, 0xe4, 0xcc, 0xd3, 0x36,
  0x41, 0x9c, 0x8a, 0x3c, 0x50, 0x46, 0x42, 0x3e, 0x10, 0x46, 0xef, 0x3e,
  0x65, 0x6b, 0x42, 0x3d, 0xc7, 0x7a, 0x2f, 0x3e, 0x9e, 0x28, 0x39, 0x3e,
  0x13, 0x47, 0x51, 0x3d, 0xfe, 0x81, 0xd3, 0x3c, 0xc9, 0xe6, 0x22, 0xbe,
  0xbf, 0x58, 0xbd, 0xbe, 0x58, 0xf2, 0x58, 0xbe, 0x6c, 0x5e, 0xf1, 0xbd,
  0xbf, 0xa1, 0x3a, 0x3e, 0xb6, 0x4a, 0xc6, 0x3e, 0x80, 0x52, 0x82, 0x3e,
  0x77, 0xed, 0x1d, 0x3e, 0xd7, 0xbe, 0x1b, 0x3e, 0x3b, 0x58, 0x16, 0x3e,
  0x78, 0xf0, 0x46, 0x3e, 0x7a, 0x40, 0xfc, 0x3d, 0x48, 0x8f, 0x99, 0x3e,
  0xd1, 0x22, 0x4c, 0xbe, 0x09, 0x9d, 0x07, 0xc0, 0xd8, 0xe7, 0x51, 0x3b,
  0xc1, 0x4a, 0xd4, 0xb8, 0x98, 0x33, 0xc2, 0xb7, 0x2c, 0x76, 0x18, 0x39,
  0x6b, 0x41, 0x20, 0xb8, 0x08, 0xe0, 0x49, 0x3c, 0x53, 0x12, 0x09, 0x3f,
  0x26, 0xf8, 0x34, 0x3e, 0x7f, 0x96, 0x81, 0xbd, 0xdd, 0x93, 0x84, 0x3c,
  0x18, 0x02, 0x74, 0xbd, 0x00, 0x57, 0x85, 0xbe, 0xdf, 0xfe, 0x01, 0xbf,
  0xf6, 0x2b, 0x06, 0xbf, 0x8a, 0xda, 0xe9, 0xbe, 0x02, 0x48, 0xfa, 0xbe,
  0xa4, 0x02, 0x3d, 0x3b, 0x29, 0x13, 0x10, 0x3e, 0xeb, 0xe6, 0xbc, 0x3d,
  0x7b, 0xbb, 0x3a, 0x3e, 0x50, 0xdd, 0x13, 0x3e, 0x3a, 0xc1, 0x08, 0x3e,
  0xc1, 0xac, 0x3a, 0x3e, 0x31, 0xe7, 0x91, 0x3e, 0xc7, 0x2a, 0x97, 0x3d,
  0x78, 0xf1, 0x3f, 0x3e, 0xbe, 0x87, 0x4b, 0x3d, 0xbc, 0x0b, 0xcf, 0xbf,
  0xa8, 0x0d, 0x49, 0x3b, 0x82, 0xac, 0x14, 0xb9, 0x8e, 0xa8, 0x87, 0xb8,
  0xd0, 0x52, 0x09, 0x39, 0xcd, 0xe6, 0x2b, 0xb9, 0x44, 0x6c, 0xd9, 0x36,
  0x4b, 0x74, 0x26, 0x3f, 0x0d, 0x4b, 0x51, 0x3e, 0x9b, 0x49, 0x4d, 0xbe,
  0xaa, 0xbd, 0x75, 0xbe, 0xf2, 0x66, 0x02, 0xbf, 0x9f, 0x4c, 0x05, 0xbf,
  0xab, 0xf8, 0xe2, 0xbe, 0x11, 0xe1, 0x9f, 0xbe, 0x87, 0x14, 0x66, 0xbe,
  0x09, 0x3b, 0x08, 0xbe, 0xa8, 0xa1, 0x8b, 0x3d, 0x81, 0xcd, 0x03, 0x3e,
  0xb7, 0x3f, 0x16, 0x3e, 0x27, 0xa3, 0xe1, 0xbc, 0x53, 0x22, 0x28, 0x3e,
  0x10, 0x0b, 0xee, 0x3d, 0x3d, 0x8a, 0x8f, 0x3d, 0xaa, 0x17, 0xfe, 0x3d,
  0x0b, 0x51, 0x08, 0xbe, 0x53, 0xc6, 0x66, 0x3c, 0x2a, 0xc1, 0x6b, 0xbe,
  0x49, 0x33, 0x8b, 0xbf, 0xe7, 0x0d, 0x4d, 0x3b, 0x4c, 0x63, 0x03, 0x38,
  0x3c, 0x10, 0x97, 0xb8, 0xa5, 0x4a, 0x91, 0x39, 0xf1, 0xce, 0x1d, 0xb8,
  0x14, 0xef, 0x81, 0x36, 0xb0, 0x09, 0x05, 0x3d, 0x00, 0x87, 0xd7, 0xbd,
  0x17, 0x5b, 0x9a, 0xbe, 0xbf, 0x11, 0xcd, 0xbe, 0xda, 0xdd, 0xd3, 0xbe,
  0xab, 0x35, 0xb9, 0xbe, 0x73, 0xad, 0x6a, 0xbe, 0xce, 0x35, 0x67, 0xbd,
  0x50, 0x74, 0x80, 0xbd, 0x08, 0xfa, 0x00, 0xbd, 0x9e, 0x04, 0xcc, 0x3d,
  0x5d, 0x40, 0x58, 0x3e, 0xba, 0x33, 0xda, 0x3d, 0xc1, 0x46, 0xba, 0x3d,
  0x2c, 0xa8, 0x46, 0x3d, 0x51, 0x74, 0x91, 0x3d, 0x92, 0xaf, 0x1a, 0xbd,
  0xca, 0xd2, 0x66, 0xbd, 0xe9, 0xcb, 0x1d, 0xbf, 0x84, 0x13, 0x22, 0xbf,
  0x13, 0x77, 0x1f, 0xbf, 0x07, 0x34, 0xe4, 0xbe, 0xcc, 0x37, 0x4c, 0x3b,
  0xc0, 0xd2, 0x15, 0xb5, 0x30, 0x5a, 0x9a, 0xb9, 0x60, 0xb6, 0x8e, 0x35,
  0xfe, 0x10, 0xd8, 0x36, 0x46, 0x81, 0x9e, 0x37, 0xff, 0x0d, 0x40, 0x3c,
  0x1f, 0xc3, 0x92, 0xbe, 0x2e, 0xda, 0x9c, 0xbe, 0xea, 0x4f, 0xbe, 0xbe,
  0x0c, 0x44, 0xaf, 0xbe, 0xf8, 0x3e, 0x90, 0xbe, 0x4a, 0x6b, 0xdc, 0xbd,
  0xc8, 0x7e, 0x2a, 0xbe, 0x04, 0x93, 0x6b, 0xbe, 0x31, 0xf6, 0xe5, 0xbc,
  0x5e, 0x19, 0x29, 0x3e, 0x8f, 0x98, 0xf3, 0x3d, 0x88, 0x67, 0xc4, 0xbd,
  0x3f, 0x0b, 0x0b, 0xbd, 0x1a, 0xf4, 0xd5, 0x3d, 0x75, 0x0b, 0x77, 0x3d,
  0x2f, 0x1a, 0xd9, 0xbd, 0x1a, 0x0e, 0xed, 0xbe, 0xf6, 0xab, 0x0d, 0xbf,
  0x76, 0x3b, 0x4d, 0xbf, 0x46, 0x6b, 0xde, 0xbe, 0x81, 0x7e, 0x5f, 0xbe,
  0xeb, 0xe8, 0x49, 0x3b, 0x71, 0xb8, 0xc6, 0xb9, 0x3f, 0xa2, 0x4e, 0x38,
  0xbc, 0x23, 0x01, 0x39, 0x8c, 0xd9, 0x3a, 0x37, 0x4e, 0x41, 0xcf, 0x37,
  0xee, 0x4f, 0x33, 0xb9, 0xa2, 0x4b, 0x54, 0xbe, 0x21, 0xb4, 0xf7, 0xbe,
  0x17, 0x38, 0xda, 0xbe, 0x14, 0x7d, 0xda, 0xbe, 0x35, 0x10, 0x66, 0xbe,
  0x11, 0x0f, 0x1a, 0xbe, 0xad, 0xa8, 0x4b, 0xbe, 0x64, 0x81, 0x79, 0xbe,
  0x56, 0x14, 0x68, 0x3d, 0x48, 0x3b, 0x21, 0x3d, 0xf4, 0x88, 0xc9, 0x3c,
  0x3b, 0xa6, 0x9b, 0x3c, 0x82, 0x58, 0x64, 0xbd, 0xb2, 0xe9, 0x07, 0xbd,
  0x5f, 0x65, 0x80, 0xbc, 0xcf, 0x64, 0x0c, 0xbe, 0x66, 0x5c, 0x13, 0xbe,
  0xa8, 0xd9, 0x84, 0xbc, 0x0f, 0x25, 0xa3, 0xbe, 0x45, 0x5b, 0x4e, 0xbe,
  0x9b, 0x72, 0xd6, 0xbd, 0xfa, 0x1f, 0x3c, 0x3b, 0x47, 0x67, 0x8e, 0x37,
  0x60, 0xb3, 0x7c, 0x37, 0x0a, 0x5f, 0x26, 0xb8, 0x66, 0xd7, 0x86, 0xb6,
  0x08, 0xe2, 0x17, 0xb7, 0xe9, 0x03, 0xc1, 0xbc, 0x41, 0x98, 0x56, 0xbd,
  0xc2, 0xdf, 0x17, 0xbe, 0xe3, 0x67, 0x49, 0xbe, 0x58, 0x52, 0xbf, 0xbe,
  0x01, 0x58, 0xaf, 0xbe, 0x90, 0xca, 0x6d, 0xbe, 0x88, 0xfd, 0x42, 0xbe,
  0x7a, 0xca, 0xc5, 0xbc, 0xfe, 0xcf, 0x6f, 0xbc, 0xc8, 0xdd, 0xdd, 0x3d,
  0x13, 0x5e, 0xb5, 0x3d, 0xeb, 0xe1, 0x82, 0x3c, 0x0a, 0xc9, 0x1f, 0xbd,
  0x35, 0x31, 0xe6, 0xbd, 0xe6, 0x8a, 0xab, 0xbd, 0xca, 0xad, 0x23, 0x3c,
  0x2d, 0x9b, 0x02, 0x3e, 0x93, 0x80, 0xe9, 0x3d, 0xd2, 0x78, 0x15, 0x3e,
  0x65, 0x83, 0x8c, 0x3e, 0x1b, 0x98, 0x32, 0x3e, 0x26, 0x2d, 0x89, 0xbe,
  0x72, 0x20, 0xb8, 0xb6, 0x2a, 0x6f, 0x05, 0x39, 0x38, 0xc7, 0x54, 0xb7,
  0x2c, 0x81, 0x83, 0xb7, 0x6b, 0xe5, 0xd0, 0x3d, 0xe7, 0x32, 0x0d, 0x3e,
  0x61, 0x4d, 0x9c, 0x3e, 0xa1, 0xf0, 0x52, 0x3d, 0x6b, 0xa6, 0x38, 0xbe,
  0x4e, 0xaf, 0x88, 0xbe, 0x24, 0xb2, 0x01, 0xbf, 0x67, 0xcd, 0x3b, 0xbe,
  0x62, 0xc4, 0x80, 0xbe, 0x61, 0xd4, 0xa8, 0xbd, 0xea, 0x67, 0xd3, 0x3c,
  0x68, 0x5e, 0x3b, 0x3e, 0x85, 0x7e, 0x0f, 0xbd, 0x8e, 0x97, 0x57, 0xbe,
  0x3d, 0xe0, 0x8b, 0xbe, 0xac, 0x27, 0xf2, 0xbd, 0x83, 0x52, 0x40, 0x3e,
  0xa4, 0x5a, 0x5f, 0x3e, 0x27, 0x24, 0x3f, 0x3e, 0xb9, 0x74, 0xcc, 0x3d,
  0xd3, 0x7e, 0x73, 0x3e, 0x58, 0xdd, 0xce, 0x3e, 0x1f, 0x6a, 0x1d, 0x3f,
  0x9a, 0x41, 0x27, 0xbf, 0xac, 0xeb, 0xd7, 0xb8, 0x85, 0xd6, 0x09, 0xb9,
  0x2a, 0x5e, 0xa8, 0xb7, 0x71, 0xae, 0x6f, 0x38, 0x92, 0x0d, 0xbf, 0x3d,
  0x26, 0x13, 0xbf, 0x3e, 0x57, 0x44, 0x92, 0x3e, 0xe5, 0x20, 0xd9, 0x3d,
  0xfd, 0x64, 0xec, 0xbd, 0x15, 0xb3, 0x00, 0xbe, 0x57, 0x46, 0x88, 0xbe,
  0x31, 0x12, 0x0e, 0xbf, 0x78, 0xfa, 0x04, 0xbf, 0x30, 0xc1, 0xfd, 0xbe,
  0xba, 0x95, 0xa9, 0xbe, 0xf6, 0x65, 0x5b, 0xbe, 0x5a, 0x56, 0xb5, 0xbe,
  0x08, 0x46, 0x9b, 0xbe, 0x5d, 0x03, 0x5a, 0xbb, 0x5a, 0x97, 0x09, 0x3e,
  0xe0, 0x0e, 0x16, 0x3d, 0x9d, 0x84, 0x95, 0x3e, 0x0e, 0xa2, 0x92, 0x3c,
  0x39, 0xbd, 0xbf, 0x3d, 0x67, 0xda, 0x7d, 0x3e, 0x44, 0xf6, 0x8d, 0x3e,
  0x75, 0x8e, 0xfd, 0xbd, 0xd7, 0x09, 0x61, 0xbf, 0x20, 0xa7, 0xe0, 0xb6,
  0xe3, 0xf3, 0x1c, 0xb9, 0xf4, 0x01, 0xf3, 0x37, 0xfe, 0xbb, 0x32, 0x38,
  0x3e, 0xee, 0xd8, 0x3b, 0x6b, 0x3c, 0x38, 0x3f, 0xf1, 0xaa, 0x97, 0x3e,
  0x8d, 0x20, 0x21, 0x3e, 0xb8, 0x44, 0x14, 0x3e, 0xda, 0xd9, 0x4a, 0xbe,
  0x85, 0x7b, 0x1f, 0xbe, 0xe7, 0x6c, 0xae, 0xbe, 0x09, 0x04, 0xfa, 0xbe,
  0x14, 0xf3, 0xcc, 0xbe, 0x6f, 0xa7, 0xf0, 0xbe, 0xf0, 0x80, 0xca, 0xbe,
  0x05, 0x3d, 0x83, 0xbe, 0x94, 0xff, 0x33, 0x3d, 0xf7, 0x4d, 0x77, 0x3e,
  0x82, 0x24, 0x0f, 0x3e, 0x25, 0x14, 0xf2, 0x3d, 0x62, 0x72, 0x5a, 0x3e,
  0x6a, 0x78, 0x4a, 0x3d, 0x4c, 0x6f, 0x73, 0x3e, 0xec, 0x2e, 0x75, 0x3e,
  0xc8, 0x3e, 0x88, 0x3d, 0x10, 0x8c, 0xf8, 0xbe, 0xba, 0x4f, 0x43, 0xbf,
  0x76, 0xcb, 0xac, 0x38, 0x13, 0xc3, 0x19, 0xb9, 0x48, 0x37, 0x70, 0xb7,
  0x04, 0x66, 0xc6, 0x38, 0x29, 0x1e, 0xd4, 0xbd, 0x88, 0xcf, 0x06, 0x3f,
  0x50, 0x2a, 0x3e, 0x3e, 0xfc, 0xf8, 0xab, 0x3e, 0x2f, 0xc6, 0x06, 0x3d,
  0x93, 0xfe, 0xea, 0xbc, 0x2a, 0xe0, 0xda, 0xbc, 0x11, 0x11, 0x96, 0xbd,
  0x9f, 0x91, 0x3d, 0xbe, 0xe1, 0xce, 0x8b, 0xbe, 0xac, 0x4d, 0x66, 0xbe,
  0xf9, 0xd3, 0xe3, 0xbd, 0xea, 0x1c, 0x7a, 0xbb, 0x55, 0x6f, 0x00, 0x3e,
  0xe9, 0xbd, 0x30, 0x3e, 0xe1, 0xee, 0x87, 0x3e, 0x1f, 0xec, 0x5f, 0x3e,
  0xad, 0xee, 0x26, 0x3e, 0xd6, 0x5f, 0x2c, 0x3d, 0x2f, 0x18, 0x45, 0x3e,
  0x6f, 0x53, 0x9a, 0xbc, 0x13, 0x3a, 0x6c, 0x3d, 0x0b, 0x4f, 0x0b, 0xbe,
  0xf5, 0x81, 0xc0, 0xbc, 0xc8, 0x38, 0x29, 0xb7, 0x70, 0xf9, 0x1a, 0x38,
  0x67, 0xea, 0x07, 0x39, 0x2c, 0x3f, 0x3b, 0xb7, 0x64, 0xd2, 0xc1, 0xbd,
  0x0c, 0x0b, 0xf8, 0x3e, 0x87, 0xf5, 0x5a, 0x3e, 0x0c, 0x3c, 0x87, 0x3e,
  0x79, 0xb0, 0x92, 0x3e, 0xbf, 0x51, 0x0b, 0x3e, 0xb5, 0x6b, 0xa7, 0x3d,
  0xd3, 0xb9, 0x05, 0x3e, 0x8f, 0x39, 0xa8, 0xbd, 0xc9, 0x07, 0x7a, 0xbe,
  0x40, 0x73, 0x9f, 0xbe, 0x3f, 0xab, 0x92, 0xbd, 0x8f, 0xf8, 0x04, 0x3c,
  0x90, 0xc4, 0x9b, 0xbc, 0x8a, 0x4e, 0x09, 0x3d, 0xa6, 0x34, 0xff, 0x3d,
  0xb6, 0xe1, 0x61, 0x3e, 0xbe, 0x47, 0x90, 0x3d, 0x5d, 0xe4, 0x80, 0x3e,
  0x90, 0x26, 0xc5, 0x3d, 0x57, 0x15, 0xa8, 0xbd, 0x42, 0x85, 0xa3, 0x3d,
  0x10, 0xa0, 0x60, 0xbe, 0xf1, 0x61, 0xed, 0xba, 0x4f, 0x1c, 0x2f, 0xb8,
  0xbe, 0xae, 0xa0, 0xb9, 0x7d, 0xed, 0x5f, 0x38, 0x4e, 0xeb, 0xd3, 0x38,
  0x6d, 0x0a, 0x7b, 0x3c, 0xa3, 0xd1, 0xa9, 0x3e, 0xcb, 0x19, 0x52, 0x3e,
  0x25, 0xcc, 0x95, 0x3b, 0x91, 0x00, 0xfc, 0x3d, 0xd9, 0x9f, 0xeb, 0x3d,
  0x7d, 0xa2, 0xb5, 0x3d, 0x0b, 0xb6, 0x37, 0xbe, 0xb8, 0x64, 0x40, 0xbd,
  0x6a, 0xee, 0xea, 0xbd, 0x8c, 0xbf, 0xdc, 0xbd, 0x13, 0x78, 0x97, 0xbd,
  0xe6, 0xce, 0xb1, 0xbd, 0xd7, 0x84, 0x66, 0xbc, 0x1e, 0xc3, 0x0d, 0x3e,
  0xb2, 0x37, 0xc5, 0x3d, 0xa8, 0x28, 0x24, 0x3e, 0xbf, 0x36, 0x3f, 0x3e,
  0xc3, 0x7e, 0x2d, 0xbd, 0x2e, 0xf6, 0x01, 0xbe, 0xed, 0x1e, 0xf0, 0xbd,
  0xce, 0x26, 0x1b, 0xbe, 0xae, 0xb1, 0x17, 0xbf, 0x2a, 0x0f, 0x2e, 0xb8,
  0x76, 0x2c, 0x0c, 0xb9, 0xe8, 0xd1, 0xfe, 0xb8, 0x3f, 0x89, 0x1e, 0xb9,
  0x6d, 0x66, 0x25, 0xb9, 0xbd, 0x2d, 0xd1, 0x3d, 0xd1, 0xf0, 0xbb, 0x3e,
  0x60, 0xf3, 0x0a, 0x3e, 0xad, 0xcd, 0x28, 0xbc, 0xcb, 0xc1, 0xf0, 0x3d,
  0xb0, 0x9b, 0xfc, 0x3b, 0x40, 0x74, 0xab, 0xbd, 0xb7, 0x86, 0x5f, 0xbc,
  0x87, 0x38, 0x98, 0xbc, 0xa8, 0x18, 0xa4, 0x3d, 0x0f, 0x6f, 0xf0, 0xbd,
  0x8f, 0xb2, 0xba, 0xbd, 0xa5, 0x1d, 0x25, 0xbd, 0xba, 0xcc, 0x3b, 0x3d,
  0x4b, 0x37, 0x46, 0x3d, 0x5d, 0x90, 0xff, 0x3d, 0x80, 0x49, 0xe5, 0x3d,
  0x98, 0xba, 0x17, 0x3e, 0x59, 0xcb, 0x69, 0x3d, 0xce, 0xaf, 0x23, 0xbd,
  0x0f, 0x1b, 0x05, 0x3d, 0x1e, 0x0c, 0xfc, 0xbd, 0x91, 0x7a, 0x0f, 0xbf,
  0x5c, 0xb7, 0xa7, 0x37, 0xe4, 0xb1, 0x08, 0xb6, 0xe4, 0xcb, 0x15, 0xb9,
  0x28, 0x77, 0xd2, 0x38, 0xda, 0x91, 0xf8, 0x39, 0xa4, 0x80, 0x4c, 0x3e,
  0x1b, 0x89, 0x3f, 0x3f, 0x22, 0x86, 0xe9, 0x3e, 0x6b, 0xdd, 0x51, 0x3e,
  0x8b, 0x1c, 0x85, 0x3e, 0x84, 0x94, 0x66, 0x3e, 0x19, 0x35, 0xd8, 0x3c,
  0xa2, 0x64, 0xb7, 0x3d, 0xb2, 0x92, 0x12, 0x3e, 0xe5, 0xd0, 0xb8, 0x3d,
  0xf6, 0xfa, 0x97, 0xbd, 0xf1, 0x0c, 0xa6, 0x3d, 0x69, 0x6b, 0x43, 0xbc,
  0xfb, 0x7c, 0x77, 0xbd, 0xdf, 0xcd, 0x5e, 0xbd, 0xe6, 0x60, 0x30, 0x3c,
  0x22, 0xd4, 0x82, 0x3e, 0x16, 0x9a, 0x53, 0x3d, 0xfa, 0x83, 0x41, 0xbd,
  0xc8, 0x7c, 0x1f, 0xbe, 0xc2, 0xb8, 0x91, 0xbe, 0x22, 0x5b, 0x80, 0xbe,
  0x1e, 0x07, 0x4d, 0xbd, 0x6c, 0x95, 0xc8, 0xbb, 0x1c, 0xc7, 0x3d, 0xb7,
  0xb0, 0xd0, 0x00, 0xb7, 0xa0, 0x40, 0x22, 0xb8, 0x68, 0xf6, 0x7e, 0x37,
  0x9c, 0xdf, 0x7b, 0x36, 0x5c, 0xda, 0x0c, 0x3f, 0x6f, 0x67, 0x24, 0x3f,
  0x5c, 0xd0, 0x46, 0x3e, 0x4f, 0xdf, 0xd1, 0x3e, 0x4a, 0x6d, 0xd9, 0x3e,
  0x43, 0x89, 0x5b, 0x3e, 0x1b, 0xc1, 0xb1, 0x3d, 0x7c, 0x8f, 0x8a, 0x3e,
  0x1f, 0x7f, 0x8e, 0x3e, 0x2a, 0x40, 0x2a, 0x3e, 0x72, 0xdf, 0x1f, 0x3e,
  0xeb, 0x86, 0x5f, 0x3e, 0x5b, 0xae, 0x74, 0x3d, 0xc5, 0x5c, 0x3c, 0x3e,
  0x78, 0x28, 0x04, 0x3e, 0x17, 0x88, 0x3a, 0xbe, 0xde, 0xe9, 0x32, 0xbe,
  0x2c, 0x15, 0x0a, 0xbe, 0x51, 0x2c, 0x52, 0xbc, 0x7e, 0x83, 0x9c, 0xb8,
  0xca, 0x86, 0xdf, 0x3b, 0x61, 0xde, 0x22, 0x36, 0x59, 0xef, 0x06, 0x38,
  0x7e, 0xf0, 0x3e, 0xb9, 0x53, 0x28, 0xfe, 0x38, 0x7f, 0x2a, 0x1a, 0xb9,
  0x6f, 0xa8, 0xac, 0xb9, 0x52, 0xe1, 0x90, 0x39, 0xdb, 0x49, 0x6c, 0xbc,
  0x63, 0x29, 0x42, 0xbc, 0x42, 0x45, 0xd3, 0x3d, 0x84, 0xbf, 0xc2, 0x3e,
  0x1a, 0x3d, 0x0d, 0x3f, 0x04, 0x43, 0x49, 0x3f, 0xb0, 0xb3, 0x14, 0x3f,
  0xaa, 0x43, 0x08, 0x3f, 0x77, 0x90, 0xc3, 0x3e, 0xa0, 0xdf, 0x02, 0x3f,
  0x41, 0xaf, 0xef, 0x3e, 0x9e, 0x00, 0x68, 0x3e, 0x88, 0xcc, 0xf1, 0x3d,
  0x77, 0x16, 0x5a, 0x3e, 0x6d, 0x0d, 0xb2, 0x3d, 0x86, 0x7d, 0x9e, 0x3d,
  0xde, 0xeb, 0x5b, 0x3e, 0xd5, 0x11, 0xde, 0x3b, 0x81, 0x39, 0xcb, 0xbd,
  0xf2, 0x92, 0xba, 0x3b, 0x54, 0x12, 0xe8, 0x38, 0x78, 0xeb, 0xd1, 0x38,
  0x88, 0xa5, 0x76, 0xb9, 0x02, 0xfc, 0xfb, 0xb8, 0xca, 0xfb, 0x86, 0xb8,
  0xdf, 0x2c, 0x2d, 0x39, 0x2e, 0x49, 0xe6, 0xb8, 0x81, 0x3f, 0x3c, 0xb9,
  0xda, 0x16, 0x13, 0xb9, 0xd4, 0x2c, 0x0b, 0x38, 0xd9, 0x1b, 0x8f, 0x3c,
  0x34, 0xff, 0xa7, 0x3c, 0x1e, 0x07, 0xd8, 0x3c, 0x14, 0xc5, 0x6c, 0x3b,
  0xae, 0xcb, 0xea, 0xbd, 0x66, 0x6f, 0xbb, 0x3c, 0x85, 0xac, 0x0c, 0xbd,
  0xe2, 0x0f, 0xff, 0xbc, 0x2b, 0xf9, 0x70, 0xba, 0x42, 0x1d, 0x74, 0x3c,
  0x5f, 0x85, 0x85, 0x3b, 0x75, 0x85, 0x80, 0x3d, 0xb9, 0x76, 0x4f, 0x3d,
  0xa1, 0xbd, 0x34, 0x3d, 0xa3, 0x25, 0xb6, 0x3c, 0xc4, 0x94, 0xb0, 0x3c,
  0x79, 0x1a, 0x79, 0x3c, 0x4f, 0xe2, 0xbd, 0x37, 0xd8, 0x80, 0x31, 0xb9,
  0xa7, 0x6a, 0x11, 0x39, 0xa9, 0xd4, 0x20, 0x39, 0xbc, 0x1f, 0xb7, 0xb8,
  0x50, 0x63, 0x75, 0xb7, 0xe7, 0x17, 0x8c, 0x38, 0x12, 0xe8, 0x10, 0x39,
  0xb6, 0x9a, 0x97, 0xb9, 0x20, 0x13, 0x5e, 0xb7, 0x70, 0xae, 0x1d, 0xb9,
  0xc0, 0xa9, 0x4c, 0x38, 0x3b, 0x41, 0x46, 0xb9, 0x4c, 0xa3, 0x9a, 0xb8,
  0xc6, 0xf5, 0x01, 0x39, 0x4c, 0x43, 0xff, 0xb8, 0x50, 0xd6, 0x7b, 0xb6,
  0xf2, 0x36, 0xdc, 0x38, 0x89, 0xda, 0xc2, 0xb8, 0x9a, 0x5f, 0x0a, 0x39,
  0xa2, 0xee, 0xb6, 0xb7, 0xa6, 0x68, 0x07, 0xb9, 0x64, 0x55, 0x99, 0xb8,
  0xee, 0xa6, 0xd2, 0xb8, 0xa6, 0x8a, 0xee, 0xb7, 0x4b, 0x1c, 0x60, 0x38,
  0xa3, 0x52, 0x11, 0xb9, 0x38, 0xd6, 0x39, 0xb9, 0x58, 0x82, 0xa2, 0xb8,
  0x8a, 0xcb, 0x60, 0x38, 0x3e, 0x3d, 0x1f, 0x38, 0x9b, 0x2f, 0x1e, 0xb9,
  0x7a, 0xdd, 0x82, 0x38, 0x05, 0xf2, 0xcc, 0xb8, 0x05, 0xae, 0xd3, 0x38,
  0x4a, 0xe4, 0x2f, 0x39, 0x9e, 0x6d, 0xb2, 0xb8, 0x36, 0x02, 0xce, 0x38,
  0x6e, 0xca, 0x18, 0x38, 0x7d, 0xcc, 0xdc, 0x38, 0xc4, 0xee, 0x4e, 0x37,
  0x48, 0x43, 0x43, 0x38, 0xfc, 0xcc, 0x47, 0xb9, 0xa6, 0x94, 0x25, 0x39,
  0x41, 0xa0, 0x87, 0xb9, 0xb6, 0x7c, 0xeb, 0xb7, 0xa8, 0xee, 0x36, 0x37,
  0x56, 0xb7, 0xcc, 0xb8, 0x7c, 0xd6, 0x88, 0x39, 0xd8, 0x40, 0x3a, 0xb9,
  0x3a, 0x93, 0xe6, 0x38, 0xc1, 0x9f, 0x9a, 0xb8, 0x4a, 0xca, 0x2e, 0xb9,
  0x56, 0xbd, 0x55, 0xb8, 0xfe, 0xfc, 0xfa, 0xb8, 0x44, 0xe9, 0xe0, 0x37,
  0x06, 0x52, 0x97, 0xb8, 0x7e, 0x65, 0x69, 0x39, 0xee, 0x1f, 0x8f, 0xb9,
  0x78, 0x62, 0x27, 0xb9, 0xfc, 0x71, 0x52, 0xb6, 0xe0, 0x13, 0x8b, 0xb9,
  0xcf, 0x27, 0x24, 0x39, 0xb9, 0xf3, 0x1a, 0xb9, 0x52, 0x7d, 0x7a, 0xb9,
  0x3f, 0x3b, 0xe4, 0xb9, 0x80, 0x3c, 0x0a, 0x35, 0xea, 0x77, 0x41, 0xb8,
  0x08, 0xd3, 0x04, 0xbc, 0xaf, 0x80, 0x84, 0xbd, 0x7d, 0x3a, 0x65, 0xbc,
  0x4d, 0x50, 0xae, 0x37, 0xa8, 0x02, 0xbf, 0xbc, 0x4d, 0x6f, 0x1c, 0xba,
  0x05, 0xdb, 0xa0, 0xbe, 0x6a, 0xf4, 0x5a, 0x38, 0xff, 0xb4, 0x13, 0x38,
  0x2f, 0x95, 0xb8, 0xbe, 0x2e, 0xa1, 0xdf, 0xbe, 0xc0, 0x9f, 0xec, 0xb4,
  0x4f, 0xa0, 0xe8, 0x37, 0x9a, 0x2d, 0x21, 0xb7, 0xbb, 0xb3, 0xc3, 0x36,
  0xce, 0x64, 0x2f, 0xbb, 0xc6, 0xdc, 0xd1, 0xbc, 0x5c, 0x4d, 0xce, 0xbc,
  0x78, 0xc7, 0x91, 0x39, 0xb8, 0xa2, 0x10, 0xb9, 0x9b, 0x9b, 0x00, 0x39,
  0xdd, 0x5e, 0x06, 0x39, 0x52, 0xee, 0x4c, 0x39, 0x91, 0xa2, 0x10, 0xb9,
  0x65, 0x0f, 0x4f, 0xb9, 0x3e, 0x48, 0x2d, 0x38, 0x70, 0x58, 0xc4, 0x38,
  0x42, 0xdf, 0x84, 0x38, 0x90, 0x97, 0xba, 0xbc, 0xdb, 0x92, 0xf0, 0xbe,
  0xca, 0x8a, 0x22, 0xbf, 0xf1, 0x4d, 0x25, 0xbf, 0x38, 0x1a, 0x6e, 0xbf,
  0x21, 0x41, 0x9e, 0xbf, 0x2c, 0x2f, 0x7f, 0xbf, 0xe9, 0xca, 0x20, 0xbf,
  0x9f, 0x70, 0x96, 0xbe, 0x53, 0x03, 0x10, 0xbf, 0x29, 0xad, 0x35, 0xbf,
  0xe3, 0x89, 0xc3, 0xbe, 0x62, 0x96, 0x31, 0xbf, 0x50, 0xab, 0xc9, 0xbe,
  0x89, 0xca, 0x7a, 0xbe, 0xec, 0xba, 0x5b, 0xbe, 0x9d, 0x9a, 0x14, 0xbe,
  0x24, 0xfd, 0xf3, 0xbc, 0x42, 0x37, 0x50, 0xbb, 0x89, 0x58, 0x0b, 0x39,
  0xba, 0x0c, 0x8b, 0x39, 0xf9, 0xd1, 0xdf, 0x38, 0x80, 0xe4, 0xcb, 0x38,
  0x10, 0x16, 0x39, 0xb6, 0xfa, 0x59, 0x3d, 0x38, 0x5d, 0x24, 0x17, 0xb7,
  0x90, 0xde, 0x58, 0xb8, 0x86, 0xd4, 0x25, 0xb8, 0x2b, 0x01, 0x33, 0xbe,
  0xb0, 0x7c, 0xc6, 0xbe, 0x4e, 0x8c, 0x45, 0xbf, 0x0d, 0xaa, 0x82, 0xbf,
  0x5c, 0xc5, 0x39, 0xbf, 0xab, 0xc0, 0x75, 0xbf, 0xd9, 0x83, 0x8f, 0xbf,
  0x6a, 0x5c, 0xb3, 0xbf, 0x8e, 0x3b, 0x4d, 0xbf, 0xa7, 0x2f, 0x47, 0xbf,
  0x48, 0xb9, 0x2a, 0xbf, 0x91, 0x5b, 0x02, 0xbf, 0x1a, 0x70, 0x0e, 0xbf,
  0x25, 0xa9, 0xb5, 0xbd, 0x65, 0x1e, 0x9a, 0xbd, 0xa6, 0x1a, 0x2e, 0xbd,
  0xf6, 0x87, 0x86, 0xbc, 0xfb, 0xf4, 0xc6, 0xbb, 0x67, 0x45, 0xbe, 0xbb,
  0xbc, 0x4e, 0x06, 0xb8, 0xf8, 0x7d, 0x1c, 0xb7, 0x7b, 0x84, 0xaa, 0x38,
  0x64, 0x55, 0x3c, 0x38, 0x2c, 0x6b, 0x0f, 0x38, 0x7f, 0xc6, 0x0b, 0xb9,
  0x8e, 0x14, 0x56, 0xb8, 0x21, 0xb6, 0x37, 0x37, 0xba, 0x05, 0x68, 0xb5,
  0xda, 0x7d, 0x6a, 0xbe, 0x8f, 0xfa, 0x90, 0xbd, 0x00, 0xca, 0xaa, 0xbe,
  0x83, 0xf0, 0xd0, 0xbe, 0xe6, 0xf5, 0x11, 0xbf, 0xdc, 0x85, 0xc6, 0xbe,
  0x5e, 0x28, 0xa2, 0xbe, 0xe4, 0x8c, 0x26, 0xbe, 0x5b, 0x8c, 0xc3, 0xbe,
  0x9f, 0x6e, 0xe9, 0xbe, 0x1e, 0xc2, 0x8d, 0xbe, 0xf9, 0x77, 0x14, 0xbe,
  0xe0, 0x5d, 0x78, 0xbe, 0x89, 0x54, 0xe5, 0x3d, 0x01, 0xcf, 0x8e, 0x3e,
  0xc8, 0xdd, 0xb9, 0x3e, 0xa6, 0x01, 0xd5, 0x3e, 0xf3, 0x8e, 0xbf, 0x3e,
  0xf4, 0xb2, 0xb2, 0x3e, 0xb1, 0x62, 0xc6, 0xbc, 0x00, 0x25, 0x7d, 0xbc,
  0x48, 0x3f, 0x80, 0x38, 0x3d, 0x25, 0x33, 0xb9, 0xe2, 0x06, 0xf2, 0x38,
  0x46, 0x74, 0x03, 0x39, 0xc6, 0x6f, 0x46, 0xb8, 0x2e, 0x3d, 0xf4, 0x3c,
  0x05, 0x11, 0xc8, 0x3c, 0x6e, 0x0a, 0x75, 0xbd, 0xe6, 0x95, 0x96, 0xbd,
  0x69, 0x55, 0xd4, 0xbc, 0x63, 0x44, 0xe0, 0x3c, 0x10, 0x33, 0xd7, 0xbd,
  0x2b, 0x4c, 0x0c, 0xbe, 0x21, 0xf4, 0xa9, 0xbc, 0xb0, 0x4b, 0x90, 0xbe,
  0x87, 0xd6, 0xc1, 0xbc, 0x7c, 0xed, 0x08, 0xba, 0xea, 0xba, 0x5c, 0x3d,
  0xfc, 0x5c, 0x14, 0x3b, 0xfa, 0x09, 0xb1, 0x3c, 0x3f, 0x6c, 0xaf, 0x3d,
  0x46, 0x3e, 0xe7, 0xbc, 0x12, 0x30, 0xe0, 0xbc, 0x5c, 0x16, 0x8f, 0x3d,
  0x5f, 0x9f, 0xe4, 0x3e, 0xc1, 0x43, 0x1d, 0x3d, 0x51, 0x70, 0xc4, 0xbd,
  0x49, 0xd7, 0xb2, 0xb7, 0x42, 0x96, 0x75, 0x38, 0xa6, 0xb3, 0xb7, 0x38,
  0x26, 0x56, 0x8c, 0xb8, 0x26, 0x23, 0x55, 0xb8, 0xdd, 0x26, 0xf6, 0xbc,
  0xbe, 0x68, 0xe9, 0x3c, 0xa4, 0x18, 0x29, 0x3e, 0x00, 0x6d, 0x4b, 0xbd,
  0xec, 0x84, 0xdf, 0xbc, 0xa4, 0x4f, 0x42, 0xbd, 0x4b, 0xcb, 0xd8, 0xbb,
  0xc5, 0x71, 0x6b, 0xbe, 0x23, 0x8a, 0x94, 0xbe, 0xbd, 0xe6, 0xa1, 0xbe,
  0xd0, 0x5a, 0xda, 0xbe, 0x30, 0x77, 0xdb, 0xbe, 0xb2, 0x67, 0xf0, 0xbe,
  0x9e, 0x59, 0xe7, 0xbe, 0x66, 0xe9, 0xad, 0xbe, 0xe2, 0xbb, 0xbc, 0xbe,
  0xfb, 0x61, 0x5d, 0xbe, 0x38, 0xa7, 0x55, 0xbe, 0xad, 0x14, 0x56, 0xbe,
  0x5e, 0xec, 0x32, 0x3d, 0xab, 0x32, 0xb2, 0x3e, 0xce, 0x1d, 0x2f, 0x3c,
  0xf3, 0x4b, 0x03, 0xbe, 0x47, 0x92, 0x82, 0x3c, 0x04, 0xa0, 0x91, 0x38,
  0x8e, 0xc7, 0x94, 0xb9, 0xac, 0xc8, 0xc7, 0x37, 0xb6, 0x83, 0x1e, 0x39,
  0x01, 0x9d, 0x16, 0xbd, 0x8e, 0x42, 0x66, 0x3c, 0x10, 0xec, 0x88, 0x3e,
  0xe9, 0xaf, 0x85, 0x3c, 0x9b, 0xed, 0xbf, 0x39, 0xe4, 0x9c, 0x11, 0xbd,
  0xe5, 0x0d, 0x4c, 0xbd, 0xb9, 0x12, 0x4b, 0xbe, 0xbe, 0x09, 0x5d, 0xbe,
  0x3c, 0xb8, 0xd4, 0xbe, 0x13, 0x50, 0xbf, 0xbe, 0x58, 0x05, 0xf8, 0xbe,
  0xc3, 0xc6, 0xd7, 0xbe, 0xac, 0x62, 0xd1, 0xbe, 0x27, 0x05, 0x6c, 0xbe,
  0x75, 0x40, 0x2f, 0xbe, 0xd5, 0x20, 0xa4, 0xbd, 0xc9, 0x3f, 0xb5, 0xbd,
  0xde, 0x0d, 0x64, 0xbd, 0x63, 0x82, 0x5a, 0x3d, 0xaf, 0x1a, 0x41, 0x3e,
  0x88, 0x2d, 0x9d, 0x3b, 0x99, 0x78, 0x12, 0xbd, 0xdf, 0x0a, 0x0e, 0x3e,
  0xc4, 0x6f, 0x28, 0x39, 0xf8, 0x61, 0x48, 0x36, 0x5c, 0xc2, 0xf3, 0xba,
  0xb4, 0x78, 0x8e, 0x37, 0x3a, 0xad, 0x88, 0xbc, 0xfb, 0x56, 0x8f, 0x3b,
  0x87, 0xc2, 0x1e, 0x3e, 0x6d, 0xce, 0x4e, 0x3c, 0x3a, 0x65, 0xf3, 0x3b,
  0x61, 0x4b, 0x69, 0xbe, 0xee, 0xa9, 0xef, 0x3b, 0xb9, 0xb1, 0x61, 0xbe,
  0xf6, 0x06, 0xf8, 0xbd, 0x2e, 0x9e, 0x52, 0xbe, 0xd0, 0x58, 0x5a, 0xbe,
  0x89, 0x76, 0xf3, 0xbe, 0xb2, 0x82, 0xa3, 0xbe, 0xa5, 0x41, 0xe4, 0xbe,
  0x86, 0x16, 0x32, 0xbe, 0x73, 0x9f, 0xee, 0xbd, 0xd1, 0xec, 0xe2, 0xbd,
  0xa6, 0x1d, 0xc2, 0xbd, 0x8b, 0x18, 0x9c, 0xbc, 0x43, 0x78, 0x57, 0xbe,
  0x24, 0x88, 0x35, 0xbc, 0x77, 0xf0, 0xa6, 0xbd, 0x94, 0x86, 0xa1, 0x3d,
  0x29, 0x24, 0x4c, 0xbd, 0x6a, 0xee, 0xef, 0x36, 0xdc, 0xcc, 0x10, 0xb8,
  0x52, 0x78, 0x45, 0x38, 0xc8, 0xeb, 0x0b, 0x37, 0xce, 0xe0, 0xe5, 0xbe,
  0x07, 0x6c, 0xc5, 0xbe, 0x4c, 0x55, 0xa5, 0xbc, 0x65, 0x53, 0x57, 0xbe,
  0xe8, 0xc7, 0xf0, 0xbc, 0xbe, 0xb4, 0xb6, 0xbd, 0xec, 0xf8, 0xb1, 0xbd,
  0xbb, 0xa1, 0x0b, 0xbe, 0x94, 0xbd, 0xcc, 0xbc, 0xfa, 0x6b, 0x2a, 0xbe,
  0x4d, 0xc0, 0xf6, 0xbd, 0x65, 0xb0, 0x14, 0xbf, 0x2f, 0x1b, 0xca, 0xbe,
  0x9d, 0xd1, 0xa9, 0xbd, 0x82, 0x35, 0xe6, 0xbd, 0xa3, 0x79, 0x19, 0x3d,
  0x72, 0x79, 0xa7, 0xbd, 0x12, 0x9a, 0x56, 0xbd, 0x9e, 0x53, 0x56, 0xbd,
  0x5a, 0xb9, 0xb4, 0xbd, 0xf1, 0x14, 0xd7, 0xbd, 0x43, 0x8f, 0x0f, 0xbf,
  0xe2, 0x04, 0xec, 0xbe, 0x5c, 0x01, 0xab, 0xbe, 0x47, 0x89, 0x91, 0x38,
  0x1d, 0x98, 0x3d, 0x39, 0xd8, 0xe1, 0x40, 0x36, 0xd5, 0x5a, 0x19, 0xbd,
  0xb4, 0x4f, 0xd5, 0xbe, 0xd2, 0x14, 0x54, 0xbe, 0x08, 0x2d, 0x9e, 0xbe,
  0xd0, 0x6c, 0x97, 0xbe, 0xc7, 0x06, 0x99, 0xbd, 0xb3, 0xc2, 0xa9, 0xbd,
  0xf5, 0x93, 0xc6, 0x3c, 0x0d, 0x00, 0x9d, 0xbb, 0x1b, 0x54, 0x99, 0x3a,
  0xf7, 0x8d, 0x42, 0x3e, 0x13, 0x7b, 0xa8, 0xbe, 0xc8, 0xe9, 0x50, 0xbf,
  0xc9, 0xb4, 0x00, 0xbe, 0xca, 0x90, 0xd7, 0xbc, 0x5d, 0xaa, 0x8b, 0x3c,
  0x35, 0x66, 0xef, 0xbc, 0xc6, 0x38, 0x54, 0x3c, 0x1b, 0x3d, 0xd7, 0xbd,
  0x70, 0xf4, 0x88, 0xbd, 0x74, 0x6c, 0x84, 0xbd, 0xc2, 0x03, 0x16, 0xbf,
  0x1b, 0xfe, 0x01, 0xbf, 0x7e, 0x69, 0x0d, 0xbf, 0xba, 0x7d, 0xd6, 0xbe,
  0x85, 0xd2, 0x5c, 0x39, 0x14, 0x76, 0x09, 0xb8, 0x40, 0xc3, 0x8b, 0x34,
  0x8b, 0xad, 0xcf, 0xbe, 0xc8, 0xc3, 0x69, 0xbe, 0x43, 0x63, 0xa4, 0xbe,
  0xc1, 0x01, 0xc5, 0xbd, 0x26, 0xf3, 0x02, 0x3d, 0x4c, 0x87, 0x06, 0xbc,
  0x02, 0xcc, 0xf6, 0x3d, 0xd5, 0x64, 0x96, 0x3e, 0x46, 0x76, 0xb3, 0x3e,
  0x42, 0xfa, 0x0f, 0x3e, 0xe6, 0x67, 0xac, 0x3e, 0xc0, 0x25, 0x06, 0xbf,
  0xa4, 0x64, 0x5e, 0xbf, 0xed, 0x06, 0xa1, 0x3d, 0xd7, 0xd6, 0x8b, 0x3e,
  0x24, 0xe9, 0x17, 0x3e, 0xfa, 0x3c, 0x56, 0xbd, 0xee, 0xb7, 0xa4, 0xbc,
  0xb4, 0xc8, 0x86, 0xbe, 0x13, 0x01, 0x4e, 0xbe, 0x1d, 0x6c, 0x46, 0xbe,
  0xed, 0x58, 0x25, 0xbf, 0x13, 0xe0, 0x7a, 0xbf, 0x04, 0xd1, 0x24, 0xbf,
  0xf4, 0xaa, 0x09, 0xba, 0x00, 0xda, 0x9e, 0x38, 0xc2, 0x3c, 0xdd, 0x38,
  0xc0, 0x50, 0x89, 0xb5, 0x95, 0xba, 0xce, 0xbe, 0x0a, 0x7d, 0xba, 0xbe,
  0x9b, 0x1e, 0xb3, 0xbe, 0xd3, 0x36, 0xba, 0x3b, 0x28, 0x50, 0x86, 0x3d,
  0xcf, 0xc9, 0x8f, 0x3e, 0xba, 0xcf, 0xa4, 0x3e, 0x57, 0xe3, 0x80, 0x3e,
  0x3e, 0xec, 0xbb, 0x3e, 0x16, 0x5a, 0x14, 0x3f, 0xf2, 0xcc, 0x16, 0x3f,
  0xdc, 0xce, 0x58, 0xbd, 0x63, 0xe1, 0xe7, 0xbe, 0x5f, 0x67, 0x2d, 0x3e,
  0xe0, 0xb6, 0xbc, 0x3e, 0x46, 0xe0, 0x87, 0x3c, 0x6d, 0x00, 0x27, 0x3b,
  0x82, 0xb6, 0x6b, 0x3d, 0xe3, 0x39, 0x5e, 0x3d, 0x2f, 0x86, 0x40, 0x3e,
  0xd1, 0x58, 0x30, 0x3d, 0xeb, 0x4a, 0xa6, 0xbe, 0x38, 0xc0, 0x04, 0xbe,
  0x57, 0xf3, 0x80, 0xbe, 0x12, 0x68, 0xbb, 0xbd, 0x14, 0x95, 0x07, 0xb8,
  0xee, 0x93, 0x87, 0x39, 0xa3, 0x08, 0x4e, 0xbb, 0xac, 0x89, 0xfb, 0xbd,
  0x92, 0xf7, 0xb1, 0xbe, 0x0b, 0x32, 0x28, 0xbe, 0x52, 0xae, 0x7e, 0x3d,
  0x00, 0xd0, 0x86, 0x3e, 0xf8, 0x09, 0x89, 0x3e, 0x7a, 0x17, 0x82, 0x3e,
  0x20, 0x76, 0xa0, 0x3e, 0xd3, 0xc3, 0xcc, 0x3e, 0x09, 0x8e, 0x11, 0x3f,
  0x0d, 0x39, 0xba, 0x3e, 0x61, 0x83, 0x88, 0xbe, 0x7c, 0x1e, 0x3b, 0xbe,
  0x59, 0xac, 0x68, 0x3e, 0xd6, 0xbf, 0x85, 0x3e, 0x06, 0x66, 0x9a, 0x3e,
  0xad, 0x42, 0x4e, 0x3e, 0xdf, 0xf1, 0xfc, 0x3d, 0xec, 0x0c, 0x9a, 0x3e,
  0xd2, 0xaa, 0xa6, 0x3e, 0xb8, 0x32, 0x09, 0x3e, 0x30, 0x18, 0x4d, 0xbe,
  0x27, 0xd3, 0xb6, 0xbe, 0x3e, 0x4e, 0x0c, 0xbe, 0x2c, 0x43, 0xf5, 0xbd,
  0xac, 0xd2, 0x57, 0x35, 0xb2, 0x94, 0x10, 0x39, 0xac, 0x4f, 0x05, 0x38,
  0x37, 0x8d, 0x00, 0xbd, 0xf4, 0x2b, 0x8c, 0x3b, 0xad, 0x26, 0xed, 0x3e,
  0xda, 0x87, 0xdb, 0x3e, 0x7d, 0x13, 0xb5, 0x3e, 0x85, 0x55, 0x93, 0x3e,
  0x19, 0xac, 0x74, 0x3e, 0xf2, 0x9c, 0x57, 0x3e, 0x47, 0x62, 0x69, 0x3e,
  0x3b, 0xe4, 0xb2, 0x3e, 0x25, 0x6f, 0x64, 0x3e, 0xe1, 0x89, 0x4a, 0xbe,
  0x4a, 0x3b, 0xe2, 0xbd, 0x91, 0x0b, 0x38, 0x3e, 0xc8, 0xc9, 0xaa, 0x3e,
  0x13, 0xf8, 0xf0, 0x3e, 0x8e, 0xab, 0x1a, 0x3e, 0x58, 0x2f, 0xbe, 0x3e,
  0x80, 0xa0, 0x16, 0x3e, 0x80, 0xa4, 0x89, 0x3d, 0xf1, 0x4f, 0x82, 0x3d,
  0xe6, 0x5a, 0x2f, 0xbe, 0x65, 0x96, 0x06, 0xbf, 0x59, 0x94, 0x0e, 0xbe,
  0x8b, 0x3b, 0xc5, 0xbe, 0x7e, 0xd6, 0xa2, 0xb8, 0x13, 0xa7, 0x09, 0xb9,
  0x39, 0xfd, 0x72, 0xb8, 0xc2, 0x1e, 0x42, 0x3c, 0xcd, 0x7c, 0x55, 0x3d,
  0xcd, 0x2a, 0x75, 0x3e, 0x75, 0x3a, 0x4d, 0x3d, 0x52, 0x92, 0x0d, 0x3e,
  0x96, 0x97, 0xa3, 0x3e, 0xe4, 0x3d, 0x80, 0x3e, 0x0c, 0x2d, 0x8b, 0x3e,
  0xcd, 0xa3, 0x67, 0x3e, 0x9e, 0x6d, 0x96, 0x3e, 0xd4, 0xfd, 0x8d, 0x3d,
  0x04, 0x1d, 0x22, 0xbe, 0xb4, 0x05, 0x8e, 0x3c, 0x8c, 0xb4, 0x84, 0x3e,
  0xf2, 0x27, 0xef, 0x3e, 0xb6, 0x2d, 0xc3, 0x3e, 0xa2, 0xa8, 0xef, 0x3d,
  0xb4, 0xa4, 0xd1, 0x3d, 0x17, 0x1d, 0xa5, 0xbd, 0x33, 0x59, 0x35, 0xbd,
  0xb2, 0x42, 0xe4, 0x3d, 0x55, 0x10, 0x08, 0xbe, 0xe7, 0xbc, 0x57, 0xbf,
  0xda, 0x4b, 0xbf, 0xbe, 0x38, 0xc1, 0xf4, 0xb9, 0xb8, 0x01, 0x70, 0x36,
  0x8e, 0xd8, 0x9d, 0xb8, 0x20, 0x51, 0x08, 0xb7, 0x60, 0xa8, 0x52, 0x38,
  0xf2, 0x01, 0x94, 0xbe, 0x9b, 0xeb, 0xb7, 0xbe, 0x4f, 0xa4, 0xfd, 0xbd,
  0x7d, 0x89, 0x73, 0x3c, 0x20, 0x1d, 0x6c, 0x3e, 0x59, 0xa9, 0xbf, 0x3e,
  0x02, 0x13, 0x30, 0x3e, 0x8d, 0x3a, 0x6a, 0xbd, 0x00, 0x83, 0xaf, 0xbd,
  0xb6, 0xad, 0x74, 0x3c, 0xc7, 0xce, 0xcc, 0x3a, 0x2f, 0x84, 0x50, 0x3e,
  0x7c, 0xfb, 0xfc, 0x3e, 0xf1, 0x4a, 0xac, 0x3e, 0x88, 0x56, 0x93, 0x3e,
  0x0e, 0xac, 0xae, 0x3d, 0x87, 0xe0, 0x1e, 0x3e, 0xc6, 0xeb, 0x15, 0x3e,
  0x69, 0x5b, 0xaf, 0x3d, 0x9f, 0xa8, 0x14, 0xbd, 0x70, 0xd7, 0x35, 0xbe,
  0xef, 0xc7, 0xf6, 0xbe, 0xc4, 0xb5, 0xe5, 0xbe, 0x19, 0xfa, 0xa2, 0xbe,
  0x74, 0x85, 0xe5, 0x35, 0xf0, 0x7a, 0x8f, 0xb8, 0x08, 0x2f, 0x05, 0xb9,
  0xde, 0xf4, 0x1b, 0x3c, 0xe3, 0xab, 0x18, 0xbf, 0x01, 0xc0, 0xb9, 0xbe,
  0xb0, 0x65, 0xab, 0xbe, 0x51, 0xa9, 0xa3, 0xbd, 0x77, 0x91, 0x96, 0x3d,
  0xcb, 0x54, 0x32, 0x3e, 0xe3, 0x2c, 0x4f, 0x3d, 0x23, 0xbe, 0xa1, 0xbd,
  0xf7, 0x0f, 0x9d, 0xbd, 0x49, 0xc4, 0x87, 0xbd, 0xa2, 0xf6, 0x54, 0x3e,
  0x9c, 0xb1, 0xe0, 0x3e, 0x07, 0xd2, 0xc3, 0x3e, 0x68, 0x73, 0xae, 0x3e,
  0x64, 0x38, 0x08, 0x3e, 0xce, 0x3d, 0x2e, 0x3e, 0x96, 0x74, 0x07, 0xbe,
  0xa2, 0x1d, 0x4b, 0x3d, 0x51, 0x75, 0xf0, 0x3d, 0x05, 0x95, 0x29, 0xbe,
  0x21, 0x68, 0x2e, 0xbe, 0x7d, 0x90, 0xe4, 0xbe, 0xdc, 0x99, 0x4a, 0xbf,
  0xcd, 0x9e, 0x6c, 0xbe, 0x91, 0x71, 0xc6, 0x36, 0x1f, 0x8d, 0x05, 0x38,
  0xee, 0xae, 0x33, 0x38, 0xc0, 0x31, 0x2f, 0xb9, 0xca, 0x5c, 0xbc, 0xbe,
  0x90, 0x37, 0x8c, 0xbe, 0x4c, 0x17, 0x54, 0xbe, 0x44, 0x59, 0x1f, 0xbe,
  0x97, 0x65, 0x79, 0xbd, 0x40, 0x02, 0xbc, 0x3d, 0x1c, 0x6b, 0xa3, 0x3c,
  0x43, 0x85, 0x8b, 0xbe, 0x0c, 0x55, 0xda, 0xbd, 0x90, 0x92, 0x36, 0x3e,
  0xe2, 0xb2, 0x40, 0x3e, 0x73, 0x8f, 0x9f, 0x3e, 0x96, 0x52, 0x61, 0x3e,
  0x0a, 0x41, 0x2d, 0x3e, 0xc7, 0xcf, 0x19, 0xbe, 0xbb, 0x49, 0xba, 0xbd,
  0x19, 0x89, 0xf8, 0xbd, 0x8c, 0x95, 0x27, 0xbd, 0x02, 0x9b, 0xf4, 0x3a,
  0x2f, 0xd0, 0xfc, 0xbe, 0x9b, 0x92, 0x81, 0xbe, 0xbd, 0x4d, 0x08, 0xbf,
  0x7b, 0x9e, 0x4f, 0xbf, 0x12, 0x7d, 0xac, 0x37, 0xda, 0x5f, 0x96, 0x38,
  0x78, 0x92, 0xe6, 0xb7, 0x96, 0x1d, 0xcd, 0x36, 0xec, 0x86, 0x9e, 0xbb,
  0x95, 0x0b, 0x34, 0x3d, 0x0d, 0x78, 0x31, 0xbe, 0xff, 0xbf, 0x06, 0x3c,
  0x50, 0x3a, 0xee, 0xbc, 0xce, 0xe8, 0x8b, 0xbe, 0xb3, 0x71, 0x8a, 0xbe,
  0x66, 0x04, 0xfe, 0xbe, 0x40, 0x1d, 0xf5, 0xbe, 0x33, 0x9b, 0xa7, 0xbe,
  0xee, 0x1b, 0xa3, 0xbe, 0x9d, 0x43, 0xef, 0xbd, 0x35, 0x58, 0x2d, 0x3e,
  0xf7, 0x86, 0x33, 0x3d, 0xb6, 0x45, 0xc8, 0xbb, 0x46, 0x1b, 0x31, 0xbe,
  0x83, 0xb3, 0xe4, 0xbd, 0x6b, 0x80, 0x4b, 0xbe, 0xeb, 0x18, 0x57, 0xbe,
  0xa2, 0xa3, 0xbd, 0xbd, 0x16, 0x6e, 0x3b, 0xbf, 0x9b, 0x1e, 0x1d, 0xbf,
  0x7b, 0x2b, 0xfe, 0xbe, 0x6c, 0x6c, 0x03, 0xbf, 0x54, 0x6b, 0x25, 0xb9,
  0xb5, 0x49, 0x8e, 0x38, 0xa6, 0x8c, 0xc9, 0xb9, 0x12, 0x7c, 0xf3, 0xb8,
  0x62, 0xc0, 0x98, 0x3a, 0x90, 0xb3, 0x99, 0x3c, 0xaa, 0xa4, 0x3a, 0xbe,
  0xfd, 0x67, 0xe0, 0xbe, 0xa3, 0x69, 0x9e, 0xbe, 0x16, 0xd4, 0xd3, 0xbe,
  0x5e, 0x1a, 0x1b, 0xbf, 0xe3, 0x20, 0xf3, 0xbe, 0xad, 0x4e, 0x09, 0xbf,
  0xc0, 0xdf, 0x8f, 0xbe, 0xef, 0x59, 0x82, 0xbe, 0x48, 0xf8, 0xa2, 0xbe,
  0x68, 0xbe, 0xe5, 0x3b, 0x65, 0xac, 0x78, 0x3c, 0xb3, 0x0b, 0x8f, 0x3d,
  0xe2, 0x37, 0x6c, 0xbc, 0x19, 0x78, 0xa5, 0xbd, 0x92, 0xc5, 0xa8, 0xbe,
  0x6e, 0xae, 0x87, 0xbe, 0x32, 0xd9, 0x1d, 0xbd, 0x78, 0x2a, 0xd4, 0xbe,
  0x81, 0x37, 0xe5, 0xbe, 0x74, 0x37, 0xc9, 0xbe, 0x36, 0xba, 0x7b, 0xbe,
  0x08, 0x2f, 0xfb, 0x38, 0x6c, 0x6b, 0x3c, 0x38, 0x91, 0x8d, 0x1c, 0x39,
  0xe7, 0x3f, 0x98, 0xb8, 0x24, 0x39, 0x5b, 0x38, 0xac, 0xd6, 0x0a, 0xba,
  0x24, 0x62, 0xa2, 0xbe, 0xdd, 0xd0, 0xe5, 0xbd, 0xef, 0x1b, 0x49, 0xbf,
  0x26, 0x33, 0x2a, 0xbf, 0x56, 0xa1, 0x11, 0xbe, 0x30, 0x53, 0x11, 0xbe,
  0xa1, 0xa9, 0x52, 0xbe, 0x88, 0x4c, 0xc2, 0xbd, 0x69, 0x87, 0x32, 0xbe,
  0x9a, 0x1a, 0xa6, 0xbe, 0xa5, 0xcd, 0x1f, 0xbe, 0x28, 0x71, 0x86, 0x3b,
  0xee, 0xc5, 0xb3, 0xbd, 0x9d, 0xa7, 0x17, 0x3d, 0x36, 0xbe, 0x07, 0xbe,
  0x45, 0xa3, 0xa8, 0xbd, 0x6d, 0x48, 0xe2, 0xbb, 0x9a, 0xf0, 0x8f, 0xbd,
  0x70, 0xf5, 0x0b, 0x3c, 0xdd, 0xc9, 0x4e, 0xbd, 0xc0, 0x00, 0xdf, 0xbd,
  0xf4, 0x2e, 0x73, 0xbe, 0x2a, 0x62, 0x19, 0x39, 0x72, 0x1d, 0xb4, 0xb8,
  0x54, 0x2e, 0xfa, 0xb8, 0xbc, 0x73, 0xbd, 0xb9, 0x59, 0x17, 0x16, 0x39,
  0xfb, 0x06, 0x89, 0xbd, 0x78, 0x43, 0xb8, 0xbe, 0x34, 0x53, 0x1b, 0xbf,
  0x81, 0x7c, 0xed, 0xbe, 0xb6, 0x05, 0xb1, 0xbe, 0xf0, 0x34, 0x88, 0xbe,
  0x9e, 0xdf, 0x89, 0xbe, 0xde, 0x16, 0x4d, 0xbe, 0xa4, 0x0b, 0x5a, 0xbe,
  0xc4, 0x39, 0x8c, 0xbe, 0xdc, 0x74, 0x04, 0xbe, 0x59, 0x13, 0x92, 0xbe,
  0x50, 0xb8, 0x01, 0xbe, 0xc2, 0x4b, 0x27, 0xbe, 0x1b, 0x9d, 0x70, 0xbc,
  0xd5, 0x15, 0x49, 0xbd, 0x40, 0xc6, 0xf4, 0x3d, 0xa8, 0x42, 0x10, 0xbd,
  0xaa, 0x25, 0x68, 0x3e, 0x24, 0xb9, 0xb2, 0x3c, 0x2c, 0x9e, 0x92, 0x3b,
  0x87, 0xa5, 0x85, 0xbc, 0x44, 0x93, 0x4e, 0xbd, 0x4e, 0x77, 0x62, 0xb8,
  0x38, 0x34, 0xb1, 0xb9, 0x04, 0x4c, 0x86, 0x37, 0x00, 0x3d, 0x13, 0xb7,
  0x9e, 0xe3, 0x79, 0x38, 0xd9, 0x16, 0xca, 0xb7, 0x2a, 0x91, 0x35, 0xbc,
  0xfe, 0xc1, 0xd6, 0xbe, 0x99, 0x24, 0x26, 0x3b, 0xc6, 0x48, 0x5e, 0xbd,
  0x26, 0x4c, 0x47, 0xbd, 0x6c, 0x42, 0x96, 0xbc, 0x05, 0xf1, 0x01, 0xbe,
  0x47, 0x58, 0x77, 0xbd, 0x3b, 0xce, 0xd7, 0xbd, 0xd9, 0x94, 0x1e, 0xbe,
  0x84, 0x3d, 0xc4, 0xbc, 0x00, 0x77, 0xa8, 0xbd, 0x2d, 0x15, 0x83, 0x3d,
  0x26, 0x62, 0xfe, 0x3c, 0x3a, 0x43, 0xfa, 0x3d, 0x75, 0xd2, 0x67, 0x3d,
  0x4e, 0x4e, 0x2b, 0x3e, 0x5e, 0xc3, 0x2e, 0x3e, 0x41, 0x7e, 0x70, 0xbe,
  0xb6, 0x60, 0x9d, 0xbe, 0xda, 0xe4, 0x2f, 0xbe, 0x28, 0x5b, 0xd9, 0x37,
  0x94, 0x46, 0xca, 0x37, 0xb8, 0x66, 0xf4, 0xb7, 0x73, 0xaa, 0xdb, 0x38,
  0x20, 0xed, 0xb2, 0xb5, 0xec, 0x79, 0x3d, 0x39, 0xf6, 0xe8, 0x1e, 0xb9,
  0xe0, 0x8c, 0x8a, 0x36, 0x3e, 0x00, 0xaa, 0xba, 0x4a, 0x91, 0x0d, 0x3d,
  0x53, 0x38, 0x98, 0xbc, 0x8a, 0x9d, 0x94, 0xbd, 0x79, 0x14, 0x83, 0x3a,
  0x53, 0x99, 0xb0, 0xbd, 0xb8, 0x00, 0xd5, 0x3d, 0xd0, 0x04, 0x35, 0xbe,
  0x1f, 0x20, 0x1e, 0xbe, 0x8b, 0x0f, 0x10, 0xbe, 0x8b, 0x60, 0x17, 0xbe,
  0x90, 0xf8, 0x30, 0x3d, 0xdc, 0x9d, 0x04, 0xbe, 0x60, 0x81, 0xb6, 0xba,
  0x4c, 0x47, 0x4e, 0x3d, 0x79, 0xb3, 0x38, 0xbc, 0xaa, 0xcb, 0xb4, 0x3c,
  0x8c, 0x29, 0x47, 0x3c, 0x51, 0xbf, 0x3e, 0x3c, 0xe1, 0xcf, 0xcf, 0xbd,
  0x5f, 0x4d, 0x9a, 0x3c, 0x86, 0x19, 0x0e, 0x38, 0x60, 0xc1, 0x54, 0xb7,
  0x70, 0x85, 0x46, 0x37, 0x84, 0xa4, 0x05, 0x39, 0x67, 0xf3, 0x4d, 0x39,
  0x6a, 0xb8, 0x08, 0xb8, 0x99, 0x31, 0xa6, 0x3b, 0xa7, 0x4b, 0x66, 0xbe,
  0xaf, 0x19, 0xdc, 0xbe, 0x25, 0xd8, 0x02, 0xbf, 0xb9, 0xb9, 0x2b, 0xbf,
  0x6a, 0x87, 0xd2, 0xbe, 0x39, 0x35, 0x10, 0xbe, 0x85, 0x34, 0xcb, 0xbe,
  0xf3, 0x60, 0x0e, 0xbf, 0x4c, 0x46, 0xb1, 0xbe, 0xb5, 0x9c, 0x55, 0xbe,
  0xea, 0x2c, 0x68, 0xbe, 0xa7, 0x67, 0xcd, 0xbe, 0xbd, 0x9c, 0xe0, 0xbe,
  0x0d, 0xa3, 0x9d, 0xbe, 0x63, 0x3b, 0x05, 0xbf, 0x84, 0x9b, 0x88, 0xbe,
  0x37, 0x45, 0xce, 0xbe, 0x7d, 0x82, 0x0d, 0xbe, 0xee, 0xb1, 0x71, 0x35,
  0x0e, 0x98, 0x8f, 0xbb, 0x4a, 0x9a, 0x72, 0x39, 0x60, 0x42, 0x72, 0x38,
  0x8e, 0x93, 0x92, 0x39, 0x74, 0xc2, 0x2a, 0xb8, 0x80, 0xe4, 0xc1, 0xb5,
  0xcf, 0x29, 0x9d, 0x38, 0x02, 0x30, 0x5e, 0xb9, 0xef, 0x77, 0x2b, 0x37,
  0x43, 0x2b, 0x31, 0xb6, 0x26, 0xc3, 0x0e, 0xbe, 0xba, 0x0c, 0x1e, 0xbf,
  0x19, 0x26, 0x30, 0xbf, 0xfd, 0x35, 0x96, 0xbf, 0x29, 0xcd, 0x4b, 0xbf,
  0xcf, 0x9f, 0x93, 0xbf, 0xf0, 0x64, 0x80, 0xbf, 0xe6, 0x5c, 0x98, 0xbf,
