/* Copyright 2019 The TensorFlow Authors. All Rights Reserved.

Licensed under the Apache License, Version 2.0 (the "License");
you may not use this file except in compliance with the License.
You may obtain a copy of the License at

    http://www.apache.org/licenses/LICENSE-2.0

Unless required by applicable law or agreed to in writing, software
distributed under the License is distributed on an "AS IS" BASIS,
WITHOUT WARRANTIES OR CONDITIONS OF ANY KIND, either express or implied.
See the License for the specific language governing permissions and
limitations under the License.
==============================================================================*/

// Automatically created from a TensorFlow Lite flatbuffer using a command like:
// xxd -i person_detect.tflite > person_detect_model_data.cc

#include "tensorflow/lite/experimental/micro/examples/person_detection/person_detect_model_data.h"

// We need to keep the data array aligned on some architectures.
#ifdef __has_attribute
#define HAVE_ATTRIBUTE(x) __has_attribute(x)
#else
#define HAVE_ATTRIBUTE(x) 0
#endif
#if HAVE_ATTRIBUTE(aligned) || (defined(__GNUC__) && !defined(__clang__))
#define DATA_ALIGN_ATTRIBUTE __attribute__((aligned(4)))
#else
#define DATA_ALIGN_ATTRIBUTE
#endif

const unsigned char g_person_detect_model_data[] DATA_ALIGN_ATTRIBUTE = {
  0x1c, 0x00, 0x00, 0x00, 0x54, 0x46, 0x4c, 0x33, 0x00, 0x00, 0x00, 0x00,
  0x00, 0x00, 0x0e, 0x00, 0x18, 0x00, 0x04, 0x00, 0x08, 0x00, 0x0c, 0x00,
  0x10, 0x00, 0x14, 0x00, 0x0e, 0x00, 0x00, 0x00, 0x03, 0x00, 0x00, 0x00,
  0x04, 0x99, 0x03, 0x00, 0x0c, 0x00, 0x00, 0x00, 0x10, 0x00, 0x00, 0x00,
  0x20, 0x00, 0x00, 0x00, 0x01, 0x00, 0x00, 0x00, 0xc8, 0x03, 0x00, 0x00,
  0x0f, 0x00, 0x00, 0x00, 0x54, 0x4f, 0x43, 0x4f, 0x20, 0x43, 0x6f, 0x6e,
  0x76, 0x65, 0x72, 0x74, 0x65, 0x64, 0x2e, 0x00, 0x57, 0x00, 0x00, 0x00,
  0xa8, 0x03, 0x00, 0x00, 0x98, 0x03, 0x00, 0x00, 0x84, 0x03, 0x00, 0x00,
  0x70, 0x03, 0x00, 0x00, 0x64, 0x03, 0x00, 0x00, 0x58, 0x03, 0x00, 0x00,
  0x4c, 0x03, 0x00, 0x00, 0x40, 0x03, 0x00, 0x00, 0x34, 0x03, 0x00, 0x00,
  0x28, 0x03, 0x00, 0x00, 0x1c, 0x03, 0x00, 0x00, 0x10, 0x03, 0x00, 0x00,
  0x04, 0x03, 0x00, 0x00, 0xf8, 0x02, 0x00, 0x00, 0xec, 0x02, 0x00, 0x00,
  0xe0, 0x02, 0x00, 0x00, 0xd4, 0x02, 0x00, 0x00, 0xc8, 0x02, 0x00, 0x00,
  0xbc, 0x02, 0x00, 0x00, 0xb0, 0x02, 0x00, 0x00, 0xa4, 0x02, 0x00, 0x00,
  0x98, 0x02, 0x00, 0x00, 0x8c, 0x02, 0x00, 0x00, 0x80, 0x02, 0x00, 0x00,
  0x74, 0x02, 0x00, 0x00, 0x68, 0x02, 0x00, 0x00, 0x5c, 0x02, 0x00, 0x00,
  0x50, 0x02, 0x00, 0x00, 0x44, 0x02, 0x00, 0x00, 0x38, 0x02, 0x00, 0x00,
  0x2c, 0x02, 0x00, 0x00, 0x20, 0x02, 0x00, 0x00, 0x14, 0x02, 0x00, 0x00,
  0x08, 0x02, 0x00, 0x00, 0xfc, 0x01, 0x00, 0x00, 0xf0, 0x01, 0x00, 0x00,
  0xe4, 0x01, 0x00, 0x00, 0xd8, 0x01, 0x00, 0x00, 0xcc, 0x01, 0x00, 0x00,
  0xc0, 0x01, 0x00, 0x00, 0xb4, 0x01, 0x00, 0x00, 0xa8, 0x01, 0x00, 0x00,
  0x9c, 0x01, 0x00, 0x00, 0x90, 0x01, 0x00, 0x00, 0x88, 0x01, 0x00, 0x00,
  0x80, 0x01, 0x00, 0x00, 0x78, 0x01, 0x00, 0x00, 0x70, 0x01, 0x00, 0x00,
  0x64, 0x01, 0x00, 0x00, 0x5c, 0x01, 0x00, 0x00, 0x54, 0x01, 0x00, 0x00,
  0x4c, 0x01, 0x00, 0x00, 0x44, 0x01, 0x00, 0x00, 0x3c, 0x01, 0x00, 0x00,
  0x34, 0x01, 0x00, 0x00, 0x2c, 0x01, 0x00, 0x00, 0x20, 0x01, 0x00, 0x00,
  0x14, 0x01, 0x00, 0x00, 0x0c, 0x01, 0x00, 0x00, 0x04, 0x01, 0x00, 0x00,
  0xfc, 0x00, 0x00, 0x00, 0xf4, 0x00, 0x00, 0x00, 0xe8, 0x00, 0x00, 0x00,
  0xe0, 0x00, 0x00, 0x00, 0xd8, 0x00, 0x00, 0x00, 0xd0, 0x00, 0x00, 0x00,
  0xc8, 0x00, 0x00, 0x00, 0xbc, 0x00, 0x00, 0x00, 0xb4, 0x00, 0x00, 0x00,
  0xa8, 0x00, 0x00, 0x00, 0xa0, 0x00, 0x00, 0x00, 0x98, 0x00, 0x00, 0x00,
  0x90, 0x00, 0x00, 0x00, 0x88, 0x00, 0x00, 0x00, 0x7c, 0x00, 0x00, 0x00,
  0x70, 0x00, 0x00, 0x00, 0x68, 0x00, 0x00, 0x00, 0x60, 0x00, 0x00, 0x00,
  0x58, 0x00, 0x00, 0x00, 0x50, 0x00, 0x00, 0x00, 0x44, 0x00, 0x00, 0x00,
  0x38, 0x00, 0x00, 0x00, 0x2c, 0x00, 0x00, 0x00, 0x24, 0x00, 0x00, 0x00,
  0x18, 0x00, 0x00, 0x00, 0x10, 0x00, 0x00, 0x00, 0x04, 0x00, 0x00, 0x00,
  0xc6, 0xfd, 0xff, 0xff, 0x80, 0x04, 0x00, 0x00, 0xc0, 0xfd, 0xff, 0xff,
  0xd2, 0xfd, 0xff, 0xff, 0xbc, 0x45, 0x00, 0x00, 0xcc, 0xfd, 0xff, 0xff,
  0xde, 0xfd, 0xff, 0xff, 0x78, 0x4b, 0x00, 0x00, 0xe6, 0xfd, 0xff, 0xff,
  0x68, 0x4e, 0x00, 0x00, 0xee, 0xfd, 0xff, 0xff, 0x60, 0x53, 0x00, 0x00,
  0xe8, 0xfd, 0xff, 0xff, 0xec, 0xfd, 0xff, 0xff, 0xf0, 0xfd, 0xff, 0xff,
  0xf4, 0xfd, 0xff, 0xff, 0x06, 0xfe, 0xff, 0xff, 0x80, 0x56, 0x00, 0x00,
  0x0e, 0xfe, 0xff, 0xff, 0xf8, 0x5a, 0x00, 0x00, 0x08, 0xfe, 0xff, 0xff,
  0x0c, 0xfe, 0xff, 0xff, 0x10, 0xfe, 0xff, 0xff, 0x14, 0xfe, 0xff, 0xff,
  0x26, 0xfe, 0xff, 0xff, 0x98, 0x5f, 0x00, 0x00, 0x20, 0xfe, 0xff, 0xff,
  0x32, 0xfe, 0xff, 0xff, 0xd4, 0x62, 0x00, 0x00, 0x2c, 0xfe, 0xff, 0xff,
  0x30, 0xfe, 0xff, 0xff, 0x34, 0xfe, 0xff, 0xff, 0x38, 0xfe, 0xff, 0xff,
  0x4a, 0xfe, 0xff, 0xff, 0xcc, 0x66, 0x00, 0x00, 0x44, 0xfe, 0xff, 0xff,
  0x48, 0xfe, 0xff, 0xff, 0x4c, 0xfe, 0xff, 0xff, 0x50, 0xfe, 0xff, 0xff,
  0x62, 0xfe, 0xff, 0xff, 0xf4, 0x69, 0x00, 0x00, 0x6a, 0xfe, 0xff, 0xff,
  0x24, 0x6f, 0x00, 0x00, 0x64, 0xfe, 0xff, 0xff, 0x68, 0xfe, 0xff, 0xff,
  0x6c, 0xfe, 0xff, 0xff, 0x70, 0xfe, 0xff, 0xff, 0x74, 0xfe, 0xff, 0xff,
  0x78, 0xfe, 0xff, 0xff, 0x7c, 0xfe, 0xff, 0xff, 0x8e, 0xfe, 0xff, 0xff,
  0xc8, 0xb3, 0x00, 0x00, 0x88, 0xfe, 0xff, 0xff, 0x8c, 0xfe, 0xff, 0xff,
  0x90, 0xfe, 0xff, 0xff, 0x94, 0xfe, 0xff, 0xff, 0xa6, 0xfe, 0xff, 0xff,
  0xc8, 0xb6, 0x00, 0x00, 0xae, 0xfe, 0xff, 0xff, 0x98, 0xb7, 0x00, 0x00,
  0xb6, 0xfe, 0xff, 0xff, 0x54, 0xb8, 0x00, 0x00, 0xbe, 0xfe, 0xff, 0xff,
  0xe8, 0xb8, 0x00, 0x00, 0xc6, 0xfe, 0xff, 0xff, 0xd8, 0xb9, 0x00, 0x00,
  0xce, 0xfe, 0xff, 0xff, 0x14, 0xbb, 0x00, 0x00, 0xd6, 0xfe, 0xff, 0xff,
  0x88, 0xbd, 0x00, 0x00, 0xde, 0xfe, 0xff, 0xff, 0xb8, 0xbe, 0x00, 0x00,
  0xe6, 0xfe, 0xff, 0xff, 0x4c, 0xc0, 0x00, 0x00, 0xee, 0xfe, 0xff, 0xff,
  0x40, 0xc1, 0x00, 0x00, 0xf6, 0xfe, 0xff, 0xff, 0x38, 0xc2, 0x00, 0x00,
  0xfe, 0xfe, 0xff, 0xff, 0x64, 0xc3, 0x00, 0x00, 0x06, 0xff, 0xff, 0xff,
  0xd8, 0xcb, 0x00, 0x00, 0x0e, 0xff, 0xff, 0xff, 0x50, 0xcd, 0x00, 0x00,
  0x16, 0xff, 0xff, 0xff, 0xfc, 0xce, 0x00, 0x00, 0x1e, 0xff, 0xff, 0xff,
  0x70, 0xdf, 0x00, 0x00, 0x26, 0xff, 0xff, 0xff, 0x20, 0xe1, 0x00, 0x00,
  0x2e, 0xff, 0xff, 0xff, 0xd8, 0xe3, 0x00, 0x00, 0x36, 0xff, 0xff, 0xff,
  0x84, 0xe5, 0x00, 0x00, 0x3e, 0xff, 0xff, 0xff, 0xf8, 0x05, 0x01, 0x00,
  0x46, 0xff, 0xff, 0xff, 0x70, 0x08, 0x01, 0x00, 0x4e, 0xff, 0xff, 0xff,
  0xe4, 0x0a, 0x01, 0x00, 0x56, 0xff, 0xff, 0xff, 0x58, 0x0d, 0x01, 0x00,
  0x5e, 0xff, 0xff, 0xff, 0x08, 0x10, 0x01, 0x00, 0x66, 0xff, 0xff, 0xff,
  0x00, 0x15, 0x01, 0x00, 0x6e, 0xff, 0xff, 0xff, 0xb0, 0x17, 0x01, 0x00,
  0x76, 0xff, 0xff, 0xff, 0x28, 0x58, 0x01, 0x00, 0x7e, 0xff, 0xff, 0xff,
  0xd4, 0x5a, 0x01, 0x00, 0x86, 0xff, 0xff, 0xff, 0x48, 0x9b, 0x01, 0x00,
  0x8e, 0xff, 0xff, 0xff, 0xf8, 0x9d, 0x01, 0x00, 0x96, 0xff, 0xff, 0xff,
  0xf0, 0xa2, 0x01, 0x00, 0x9e, 0xff, 0xff, 0xff, 0x68, 0xa5, 0x01, 0x00,
  0xa6, 0xff, 0xff, 0xff, 0x18, 0xa8, 0x01, 0x00, 0xae, 0xff, 0xff, 0xff,
  0x90, 0xe8, 0x01, 0x00, 0xb6, 0xff, 0xff, 0xff, 0x40, 0xeb, 0x01, 0x00,
  0xbe, 0xff, 0xff, 0xff, 0x70, 0xf0, 0x01, 0x00, 0xc6, 0xff, 0xff, 0xff,
  0xe8, 0x70, 0x02, 0x00, 0xce, 0xff, 0xff, 0xff, 0x98, 0x75, 0x02, 0x00,
  0xd6, 0xff, 0xff, 0xff, 0x10, 0x7f, 0x02, 0x00, 0xde, 0xff, 0xff, 0xff,
  0xc0, 0x83, 0x02, 0x00, 0xf6, 0xff, 0xff, 0xff, 0x34, 0x84, 0x03, 0x00,
  0x00, 0x00, 0x06, 0x00, 0x0a, 0x00, 0x04, 0x00, 0x06, 0x00, 0x00, 0x00,
  0xe8, 0x88, 0x03, 0x00, 0x00, 0x00, 0x06, 0x00, 0x08, 0x00, 0x04, 0x00,
  0x06, 0x00, 0x00, 0x00, 0x70, 0x8c, 0x03, 0x00, 0x04, 0x00, 0x04, 0x00,
  0x04, 0x00, 0x00, 0x00, 0x7c, 0x77, 0xfc, 0xff, 0x20, 0x00, 0x00, 0x00,
  0x14, 0x00, 0x00, 0x00, 0x08, 0x00, 0x00, 0x00, 0x64, 0x8c, 0x03, 0x00,
  0x01, 0x00, 0x00, 0x00, 0x53, 0x00, 0x00, 0x00, 0x01, 0x00, 0x00, 0x00,
  0x55, 0x00, 0x00, 0x00, 0x56, 0x00, 0x00, 0x00, 0xc4, 0xb4, 0x00, 0x00,
  0xf0, 0x5b, 0x00, 0x00, 0x2c, 0x64, 0x00, 0x00, 0x04, 0x42, 0x00, 0x00,
  0x70, 0x09, 0x01, 0x00, 0x84, 0x9c, 0x01, 0x00, 0xb8, 0xa1, 0x01, 0x00,
  0x84, 0x63, 0x00, 0x00, 0x38, 0x01, 0x00, 0x00, 0x94, 0x65, 0x00, 0x00,
  0x28, 0xa4, 0x01, 0x00, 0x3c, 0x67, 0x00, 0x00, 0x58, 0xe7, 0x01, 0x00,
  0x24, 0xad, 0x00, 0x00, 0x98, 0xa6, 0x01, 0x00, 0x44, 0x62, 0x00, 0x00,
  0x10, 0x58, 0x00, 0x00, 0xc4, 0xe9, 0x01, 0x00, 0xb0, 0x6f, 0x02, 0x00,
  0x3c, 0x5f, 0x00, 0x00, 0xf0, 0xee, 0x01, 0x00, 0x04, 0x51, 0x00, 0x00,
  0xd8, 0x7d, 0x02, 0x00, 0x1c, 0x74, 0x02, 0x00, 0x08, 0x83, 0x03, 0x00,
  0xcc, 0xb3, 0x00, 0x00, 0x48, 0x82, 0x02, 0x00, 0xf4, 0x5a, 0x00, 0x00,
  0xe8, 0xb5, 0x00, 0x00, 0xe4, 0xb4, 0x00, 0x00, 0x7c, 0xb6, 0x00, 0x00,
  0x74, 0x61, 0x00, 0x00, 0xe8, 0xb0, 0x00, 0x00, 0xf4, 0xad, 0x00, 0x00,
  0x10, 0x50, 0x00, 0x00, 0x24, 0xb7, 0x00, 0x00, 0x1c, 0xbb, 0x00, 0x00,
  0x3c, 0x5a, 0x00, 0x00, 0x60, 0xb8, 0x00, 0x00, 0x6c, 0x52, 0x00, 0x00,
  0xe0, 0xbd, 0x00, 0x00, 0x04, 0xbc, 0x00, 0x00, 0xd4, 0xbe, 0x00, 0x00,
  0x64, 0x62, 0x00, 0x00, 0xe8, 0x52, 0x00, 0x00, 0xc4, 0x51, 0x00, 0x00,
  0xc0, 0xbf, 0x00, 0x00, 0x5c, 0x5f, 0x00, 0x00, 0x6c, 0xc9, 0x00, 0x00,
  0x64, 0x64, 0x00, 0x00, 0xb0, 0xc0, 0x00, 0x00, 0xac, 0x5b, 0x00, 0x00,
  0xd8, 0xca, 0x00, 0x00, 0x94, 0x47, 0x00, 0x00, 0x04, 0xdd, 0x00, 0x00,
  0x0c, 0xad, 0x00, 0x00, 0x48, 0xcc, 0x00, 0x00, 0x04, 0x51, 0x00, 0x00,
  0x68, 0xe1, 0x00, 0x00, 0x6c, 0xde, 0x00, 0x00, 0x94, 0x03, 0x01, 0x00,
  0x3c, 0xb2, 0x00, 0x00, 0xd8, 0xe2, 0x00, 0x00, 0xdc, 0x65, 0x00, 0x00,
  0x00, 0x06, 0x01, 0x00, 0x5c, 0x4a, 0x00, 0x00, 0xf4, 0x0a, 0x01, 0x00,
  0xcc, 0xaf, 0x00, 0x00, 0x90, 0x6b, 0x00, 0x00, 0x34, 0x65, 0x00, 0x00,
  0x98, 0x12, 0x01, 0x00, 0x5c, 0x0d, 0x01, 0x00, 0xec, 0x5b, 0x00, 0x00,
  0xb4, 0x46, 0x00, 0x00, 0x08, 0x15, 0x01, 0x00, 0xdc, 0xad, 0x00, 0x00,
  0xb8, 0x55, 0x01, 0x00, 0x6c, 0x41, 0x00, 0x00, 0xe4, 0x98, 0x01, 0x00,
  0x0c, 0xaf, 0x00, 0x00, 0x28, 0x58, 0x01, 0x00, 0x5c, 0xb1, 0x00, 0x00,
  0x70, 0x8a, 0x03, 0x00, 0x50, 0xae, 0x00, 0x00, 0x94, 0x86, 0x03, 0x00,
  0x6c, 0xb2, 0x00, 0x00, 0xae, 0x75, 0xfc, 0xff, 0x00, 0x00, 0x00, 0x03,
  0x5c, 0x00, 0x00, 0x00, 0x56, 0x00, 0x00, 0x00, 0x08, 0x00, 0x00, 0x00,
  0x64, 0x00, 0x00, 0x00, 0x45, 0x00, 0x00, 0x00, 0x4d, 0x6f, 0x62, 0x69,
  0x6c, 0x65, 0x6e, 0x65, 0x74, 0x56, 0x31, 0x2f, 0x43, 0x6f, 0x6e, 0x76,
  0x32, 0x64, 0x5f, 0x31, 0x30, 0x5f, 0x70, 0x6f, 0x69, 0x6e, 0x74, 0x77,
  0x69, 0x73, 0x65, 0x2f, 0x77, 0x65, 0x69, 0x67, 0x68, 0x74, 0x73, 0x5f,
  0x71, 0x75, 0x61, 0x6e, 0x74, 0x2f, 0x46, 0x61, 0x6b, 0x65, 0x51, 0x75,
  0x61, 0x6e, 0x74, 0x57, 0x69, 0x74, 0x68, 0x4d, 0x69, 0x6e, 0x4d, 0x61,
  0x78, 0x56, 0x61, 0x72, 0x73, 0x00, 0x00, 0x00, 0x04, 0x00, 0x00, 0x00,
  0x80, 0x00, 0x00, 0x00, 0x01, 0x00, 0x00, 0x00, 0x01, 0x00, 0x00, 0x00,
  0x80, 0x00, 0x00, 0x00, 0x74, 0x79, 0xfc, 0xff, 0x30, 0x00, 0x00, 0x00,
  0x24, 0x00, 0x00, 0x00, 0x18, 0x00, 0x00, 0x00, 0x04, 0x00, 0x00, 0x00,
  0x01, 0x00, 0x00, 0x00, 0x7e, 0x00, 0x00, 0x00, 0x00, 0x00, 0x00, 0x00,
  0x00, 0x00, 0x00, 0x00, 0x01, 0x00, 0x00, 0x00, 0x47, 0x7c, 0x81, 0x3b,
  0x01, 0x00, 0x00, 0x00, 0xca, 0x8f, 0x02, 0x3f, 0x01, 0x00, 0x00, 0x00,
  0xa7, 0xc5, 0xfc, 0xbe, 0x00, 0x40, 0x00, 0x00, 0x72, 0x6a, 0x61, 0x78,
  0x80, 0x96, 0x73, 0x8f, 0xb2, 0xce, 0xaf, 0xab, 0x82, 0x56, 0x5c, 0x87,
  0x70, 0x7d, 0x85, 0x7e, 0x77, 0x77, 0x62, 0x8a, 0x6d, 0x7a, 0x82, 0x79,
  0x59, 0x54, 0x7a, 0xa4, 0x49, 0x83, 0x80, 0xbe, 0x98, 0x65, 0x93, 0x84,
  0xb1, 0x74, 0x81, 0x94, 0x70, 0x5c, 0xad, 0x82, 0x5d, 0x6c, 0x5c, 0x74,
  0x8e, 0x66, 0x5c, 0xb6, 0x8b, 0x86, 0x71, 0x7a, 0x63, 0x77, 0x6e, 0x83,
  0x82, 0x82, 0x7d, 0x5b, 0x54, 0x89, 0x38, 0x4d, 0x72, 0x65, 0x77, 0x94,
  0x66, 0x55, 0x97, 0x8b, 0x7b, 0x80, 0x6f, 0x82, 0x9c, 0x51, 0x75, 0x96,
  0x8b, 0x81, 0x82, 0x62, 0x5e, 0xa7, 0x5b, 0x5c, 0x78, 0x78, 0x74, 0x7f,
  0x89, 0xa1, 0x5f, 0x9b, 0x84, 0x74, 0x9a, 0x71, 0x4f, 0xb7, 0x66, 0x78,
  0x7f, 0x75, 0x74, 0xa0, 0x89, 0x99, 0x65, 0x5a, 0x8d, 0x86, 0x88, 0x6b,
  0x69, 0xaa, 0x81, 0x8f, 0x80, 0x70, 0x9e, 0x75, 0x90, 0x6f, 0x8b, 0x76,
  0x71, 0x7f, 0x5c, 0x74, 0x98, 0x4c, 0x8d, 0x89, 0x85, 0x68, 0x88, 0x55,
  0x8d, 0x85, 0x5e, 0x72, 0x74, 0xad, 0x85, 0x56, 0x29, 0x4d, 0x69, 0x7e,
  0x9c, 0x60, 0x96, 0xa2, 0x80, 0x72, 0x8a, 0x91, 0x80, 0x96, 0x64, 0x83,
  0x66, 0x77, 0x9f, 0x4f, 0xa6, 0x90, 0x69, 0x68, 0x6b, 0xb7, 0x74, 0x56,
  0xad, 0x79, 0x61, 0x86, 0x71, 0x95, 0x80, 0x8c, 0x82, 0x5d, 0x71, 0x66,
  0xa4, 0x7b, 0x6d, 0x89, 0xb3, 0x77, 0x78, 0x71, 0x96, 0xa0, 0x7e, 0x95,
  0xb4, 0x96, 0x88, 0x88, 0x51, 0x75, 0x70, 0x41, 0x72, 0x95, 0x88, 0x77,
  0x81, 0x53, 0x58, 0x8b, 0x89, 0x92, 0x45, 0x49, 0x74, 0x5f, 0x7a, 0x84,
  0x91, 0x89, 0x58, 0x8a, 0x78, 0x70, 0x87, 0x82, 0x93, 0x6b, 0x63, 0x8a,
  0x8f, 0x9b, 0x65, 0xdc, 0x8a, 0x93, 0x9c, 0xa5, 0x6e, 0xa2, 0x59, 0xa2,
  0x6a, 0x59, 0x6d, 0x73, 0x51, 0x76, 0x80, 0x93, 0x8f, 0x73, 0x80, 0x5c,
  0x71, 0x81, 0x88, 0xbe, 0x8a, 0x68, 0x9c, 0x7c, 0x68, 0x8c, 0x66, 0x9a,
  0x5d, 0x8b, 0x70, 0x7c, 0x5f, 0x7f, 0x9a, 0x86, 0x47, 0xb7, 0x73, 0x50,
  0x72, 0x77, 0x69, 0x5d, 0x59, 0x8e, 0x6d, 0x92, 0xa8, 0x92, 0x74, 0x95,
  0x86, 0xab, 0x68, 0x97, 0x83, 0x72, 0x4a, 0x81, 0x7a, 0x83, 0x6d, 0x62,
  0x9d, 0xa7, 0x50, 0xb1, 0x50, 0x55, 0x8d, 0x51, 0x89, 0x6a, 0x75, 0x78,
  0x62, 0xa2, 0xa3, 0x44, 0xa0, 0x84, 0x6d, 0x86, 0x71, 0x83, 0x3f, 0x95,
  0x6e, 0x8e, 0x71, 0x84, 0x87, 0x86, 0x4c, 0x6a, 0x53, 0x60, 0x80, 0xa7,
  0x85, 0x79, 0x67, 0x47, 0x4f, 0x6c, 0x7e, 0x70, 0x6f, 0x45, 0x64, 0x99,
  0x9c, 0x63, 0x97, 0x75, 0x5f, 0x7f, 0x7d, 0x83, 0x76, 0x9b, 0xb8, 0x70,
  0x73, 0x68, 0xbc, 0x52, 0x86, 0x5f, 0x60, 0x85, 0x5c, 0x8f, 0xa4, 0x71,
  0x94, 0x65, 0x8d, 0x82, 0x7c, 0x64, 0x92, 0x61, 0x61, 0x4e, 0x81, 0x76,
  0x68, 0x69, 0x49, 0x89, 0x9f, 0x68, 0x7b, 0x6d, 0x64, 0x78, 0x79, 0x8c,
  0x67, 0x84, 0x90, 0x83, 0x8e, 0x6f, 0x6d, 0x50, 0x81, 0x5b, 0x98, 0x91,
  0x88, 0xa7, 0xb1, 0x70, 0x8f, 0x7c, 0x7f, 0x54, 0x53, 0xa6, 0xa2, 0xa7,
  0x41, 0x7b, 0x6c, 0x8e, 0x57, 0x86, 0x61, 0x5f, 0x84, 0x85, 0x94, 0x7e,
  0x80, 0x90, 0x83, 0x8d, 0x7a, 0x5c, 0x6b, 0x85, 0x74, 0x79, 0xab, 0xc9,
  0x42, 0x79, 0xaf, 0x89, 0x55, 0xbc, 0x91, 0x81, 0xbb, 0x5d, 0x82, 0x8a,
  0x71, 0x7a, 0x98, 0x5a, 0x6f, 0x7f, 0x50, 0x8c, 0x9c, 0x62, 0x65, 0xb9,
  0x52, 0x80, 0x65, 0x8c, 0x4f, 0x81, 0x8a, 0x91, 0xc1, 0x92, 0x4d, 0x8a,
  0x58, 0x6a, 0x85, 0x90, 0x70, 0x3c, 0x92, 0x9e, 0xa2, 0x6e, 0x72, 0x77,
  0x76, 0x77, 0x9b, 0x7b, 0x5d, 0x5f, 0x7a, 0xa5, 0x5e, 0x75, 0x71, 0x99,
  0xc0, 0x73, 0x72, 0x86, 0x6c, 0x83, 0x90, 0xc2, 0x6e, 0x7d, 0xab, 0x8c,
  0x87, 0x7f, 0x8b, 0x5c, 0x8c, 0x7a, 0x81, 0x5f, 0x73, 0x81, 0x7a, 0x7e,
  0x9f, 0x62, 0x79, 0x61, 0x92, 0x78, 0x44, 0x84, 0x71, 0x80, 0x8c, 0x98,
  0x66, 0xae, 0x43, 0x63, 0x99, 0xa8, 0x6b, 0x59, 0xa0, 0x72, 0x8e, 0x97,
  0x8d, 0x51, 0xa3, 0x85, 0x88, 0x74, 0xba, 0x97, 0x8f, 0x82, 0x9d, 0x92,
  0xa8, 0x57, 0x85, 0x88, 0x5f, 0x91, 0x61, 0x82, 0x85, 0x6d, 0x76, 0x64,
  0x99, 0x75, 0x7b, 0x8e, 0x79, 0x7c, 0x68, 0x75, 0x94, 0x83, 0x8e, 0x88,
  0x8a, 0xa0, 0x84, 0x6a, 0x6a, 0x86, 0x57, 0x77, 0x72, 0x92, 0x9c, 0xab,
  0x7f, 0x7f, 0x82, 0x4f, 0x84, 0x6d, 0x7e, 0x87, 0x5b, 0x72, 0x95, 0x82,
  0x95, 0x80, 0x71, 0x7a, 0x9a, 0x6e, 0x84, 0xaa, 0x81, 0x79, 0x76, 0x88,
  0x88, 0x83, 0x61, 0x70, 0x8f, 0x7b, 0x49, 0x47, 0xc0, 0x69, 0x82, 0x81,
  0x75, 0x9b, 0x80, 0x71, 0x8c, 0x99, 0x5a, 0x84, 0x89, 0xb1, 0xa2, 0x6a,
  0x85, 0x70, 0x9c, 0x6a, 0x8e, 0x70, 0xa7, 0x42, 0x68, 0x68, 0xa4, 0x6b,
  0x7c, 0x7d, 0x9f, 0x98, 0x6a, 0x5e, 0x59, 0x8a, 0x68, 0x64, 0xa0, 0x56,
  0x68, 0xa9, 0x69, 0x98, 0x83, 0x9f, 0xac, 0x65, 0x8d, 0x71, 0x92, 0x62,
  0x70, 0x5e, 0x79, 0x5f, 0x5a, 0x67, 0x82, 0x9d, 0x58, 0x93, 0x89, 0x77,
  0xc0, 0x66, 0x4a, 0x6a, 0x78, 0x47, 0x7e, 0x63, 0x94, 0x9d, 0xac, 0x79,
  0x9c, 0x57, 0x7b, 0x9c, 0x74, 0x69, 0xbc, 0x6c, 0x56, 0x6d, 0x54, 0x6b,
  0x6e, 0x6d, 0x86, 0x9b, 0x86, 0x7e, 0xb7, 0xa8, 0x82, 0x7b, 0x6c, 0x4f,
  0x6d, 0x6c, 0x6d, 0x81, 0x86, 0x69, 0x8d, 0x87, 0x82, 0x68, 0x81, 0x6e,
  0x8b, 0x63, 0x5c, 0x97, 0x83, 0x80, 0x7f, 0x8c, 0x84, 0x47, 0x7f, 0x54,
  0x9f, 0x63, 0x55, 0x82, 0x8f, 0x5f, 0x93, 0x39, 0x77, 0x7b, 0x8c, 0x78,
  0xa1, 0x86, 0x90, 0x66, 0x9f, 0x98, 0xba, 0x6a, 0x7a, 0x74, 0x7c, 0x61,
  0x91, 0x66, 0xa8, 0x89, 0x47, 0x5c, 0x7e, 0x98, 0x87, 0x6b, 0x72, 0x4d,
  0x37, 0xac, 0xa3, 0x63, 0x7d, 0xa1, 0x7b, 0x84, 0x89, 0xb6, 0x6a, 0x6e,
  0x66, 0x91, 0xaf, 0x8a, 0x8a, 0x87, 0x52, 0x79, 0xac, 0x4f, 0x7b, 0x64,
  0x7c, 0x6a, 0x9a, 0x90, 0x92, 0x4e, 0x77, 0xa2, 0x8b, 0x99, 0x5e, 0x59,
  0x9d, 0x5d, 0x8c, 0x5a, 0x9e, 0x66, 0xbc, 0x93, 0x59, 0xa3, 0x6d, 0x3f,
  0xa3, 0x6a, 0x8d, 0x88, 0x6e, 0x8c, 0x6d, 0x6a, 0x8c, 0x7c, 0x71, 0x8b,
  0x70, 0x82, 0x64, 0x83, 0x6f, 0x6b, 0x88, 0x5b, 0x6f, 0x7c, 0x6b, 0x8d,
  0xc9, 0x86, 0x52, 0x7a, 0x89, 0x9e, 0xa5, 0x90, 0x5c, 0x63, 0x62, 0x71,
  0xac, 0x65, 0x8f, 0x8a, 0x86, 0x4f, 0x7e, 0x5b, 0xb5, 0x85, 0x54, 0x77,
  0x6b, 0xa9, 0x5e, 0xa0, 0x80, 0x73, 0x4c, 0x88, 0x42, 0x5d, 0x93, 0x85,
  0x72, 0x98, 0xc5, 0x61, 0x5f, 0x54, 0x75, 0x95, 0x75, 0x55, 0x8b, 0x87,
  0x94, 0x5f, 0x85, 0x6c, 0x9a, 0x62, 0x62, 0x80, 0x91, 0x9b, 0x87, 0x6a,
  0x9b, 0x84, 0xa1, 0x6b, 0x90, 0xbf, 0xab, 0x44, 0x48, 0x9e, 0xbc, 0x75,
  0x81, 0x6f, 0x69, 0xa8, 0x6b, 0x78, 0x9c, 0x8e, 0x68, 0x72, 0x6d, 0x67,
  0x7a, 0x7d, 0x92, 0x87, 0x5d, 0x65, 0x84, 0x7d, 0x5e, 0x7e, 0x9d, 0x96,
  0x2e, 0xaf, 0x89, 0x59, 0x8c, 0x69, 0x78, 0x7d, 0x6d, 0xa6, 0xb3, 0x68,
  0x84, 0x92, 0x92, 0x55, 0x46, 0x6d, 0x93, 0x74, 0x73, 0x91, 0x7a, 0x98,
  0x74, 0x7b, 0xbf, 0x7e, 0x66, 0x72, 0x66, 0x82, 0x35, 0x84, 0x79, 0x6f,
  0xae, 0x93, 0x77, 0x86, 0xb5, 0xb7, 0x5c, 0x8a, 0x66, 0x7f, 0x89, 0x55,
  0x36, 0x7b, 0x8f, 0x57, 0xb5, 0xd3, 0x96, 0x4b, 0x76, 0xba, 0x93, 0x98,
  0x68, 0x95, 0x9d, 0x8c, 0x7d, 0x92, 0x35, 0x82, 0x68, 0x9d, 0x7e, 0x72,
  0x8f, 0x99, 0x85, 0xb5, 0xc5, 0x84, 0x81, 0x68, 0x65, 0x68, 0x81, 0x6b,
  0x50, 0x78, 0x7f, 0x8d, 0x74, 0x48, 0x8f, 0xbb, 0xba, 0x6e, 0x5b, 0x4d,
  0xa7, 0x90, 0x2f, 0x62, 0x52, 0x6b, 0x69, 0x8c, 0x86, 0x77, 0x81, 0xb8,
  0x91, 0x82, 0x4a, 0x67, 0x61, 0x8a, 0x7c, 0x62, 0x98, 0xa0, 0x66, 0x46,
  0x6b, 0x82, 0x88, 0x8e, 0x97, 0x8c, 0x69, 0x48, 0x3b, 0x90, 0x6c, 0x81,
  0x51, 0x5b, 0x85, 0x5c, 0x7e, 0x6c, 0xa2, 0x6b, 0x83, 0x6f, 0x8d, 0xc8,
  0x64, 0xa2, 0x9e, 0x4c, 0x7e, 0x54, 0xb5, 0x68, 0x4e, 0x78, 0x4a, 0x6f,
  0xa8, 0x7b, 0x47, 0x94, 0x71, 0x97, 0xb2, 0x91, 0x98, 0x4a, 0x96, 0x35,
  0x75, 0x83, 0xa6, 0x77, 0x6b, 0x76, 0xab, 0xad, 0x45, 0x74, 0x76, 0x92,
  0x88, 0x85, 0xa1, 0x87, 0x90, 0x8d, 0x6e, 0x78, 0x79, 0x8a, 0x7e, 0x64,
  0x81, 0x92, 0x62, 0x61, 0x68, 0x95, 0x7d, 0x87, 0xbc, 0x95, 0x6a, 0x6b,
  0x62, 0x73, 0x85, 0x87, 0x86, 0x6e, 0x87, 0x70, 0x8c, 0x7b, 0x86, 0x8d,
  0x6f, 0x72, 0x7b, 0x75, 0x88, 0x71, 0x6d, 0x8d, 0x67, 0x84, 0x4a, 0x85,
  0x6b, 0x7c, 0x9e, 0x80, 0x66, 0x7a, 0x80, 0x85, 0x40, 0x97, 0x84, 0x73,
  0x74, 0x98, 0x78, 0x69, 0x89, 0x43, 0x91, 0x76, 0x7c, 0xff, 0x74, 0x80,
  0x74, 0x80, 0x82, 0x8a, 0x82, 0x74, 0x77, 0x90, 0x89, 0x84, 0x6e, 0x77,
  0x69, 0x9a, 0x5c, 0x7d, 0x8b, 0x76, 0x85, 0x7d, 0x6e, 0x69, 0x6d, 0x64,
  0x93, 0x6e, 0x66, 0x60, 0x6e, 0x6f, 0x72, 0xa1, 0x78, 0x7c, 0x75, 0x95,
  0x75, 0xa9, 0x3c, 0x6f, 0x7b, 0x7d, 0x7c, 0x9e, 0x76, 0x7a, 0x8c, 0x74,
  0x7a, 0x6b, 0x59, 0x88, 0x7f, 0x7f, 0x7f, 0x58, 0x73, 0x52, 0x5c, 0x44,
  0x6a, 0x75, 0x58, 0x42, 0x82, 0x8d, 0x75, 0x89, 0x9b, 0x5e, 0x89, 0x56,
  0x68, 0x87, 0x73, 0xae, 0x81, 0x81, 0x6e, 0x4f, 0x80, 0xa6, 0x83, 0x65,
  0x77, 0x63, 0x64, 0x52, 0x85, 0x67, 0x84, 0x64, 0x65, 0x78, 0x7f, 0xa9,
  0x90, 0x63, 0x71, 0x48, 0x71, 0xa1, 0x3a, 0x8d, 0x70, 0x63, 0x74, 0x8c,
  0x63, 0x8d, 0x61, 0xa5, 0x78, 0x45, 0x93, 0xa3, 0x87, 0x7d, 0x7f, 0x49,
  0x76, 0x94, 0x84, 0xa2, 0x81, 0x7c, 0xaf, 0xaa, 0x6d, 0x80, 0x5b, 0x45,
  0xb5, 0x90, 0x5f, 0x78, 0x7b, 0x77, 0x6e, 0xa3, 0x9c, 0x7a, 0xa1, 0x7a,
  0x91, 0x72, 0xa4, 0x9c, 0x9e, 0x7c, 0x73, 0x70, 0xb1, 0x4e, 0x44, 0x7f,
  0x75, 0xad, 0x79, 0x92, 0xa1, 0xa0, 0x85, 0x6e, 0x5c, 0x95, 0x68, 0x76,
  0x7a, 0x73, 0x62, 0xa0, 0x6a, 0x4d, 0x76, 0x76, 0x5c, 0x8c, 0x6a, 0x7f,
  0x6b, 0x61, 0x69, 0x96, 0x84, 0x8d, 0x97, 0x76, 0xa1, 0x78, 0x63, 0x73,
  0x65, 0x76, 0x6f, 0x6c, 0x96, 0x44, 0x75, 0x65, 0xaa, 0x74, 0x80, 0x6d,
  0x73, 0x82, 0x70, 0x70, 0x88, 0x89, 0x42, 0xb9, 0x72, 0x9c, 0x6c, 0x7c,
  0x65, 0x98, 0x7b, 0x79, 0x59, 0x7b, 0x76, 0x81, 0x8e, 0xc8, 0xa7, 0x67,
  0x8b, 0x3e, 0x66, 0x95, 0x86, 0x7d, 0x83, 0x77, 0x7c, 0xb0, 0x60, 0x9a,
  0x84, 0x56, 0x5d, 0x76, 0x5b, 0x5f, 0x88, 0x89, 0x8d, 0x54, 0x74, 0xa4,
  0xa0, 0x74, 0xb3, 0x71, 0xc0, 0x8f, 0xae, 0x73, 0x89, 0x5e, 0x7c, 0x7a,
  0x54, 0xcb, 0x7c, 0x78, 0x6b, 0x49, 0x82, 0x4e, 0x71, 0x89, 0x5e, 0x5e,
  0xb2, 0xa0, 0x6e, 0x79, 0x9b, 0x8f, 0x80, 0x7a, 0x98, 0x75, 0x8c, 0x7b,
  0x68, 0x9c, 0x64, 0x73, 0x52, 0x97, 0x8b, 0x47, 0x80, 0x9b, 0xcb, 0x96,
  0x81, 0x87, 0x7b, 0x96, 0x88, 0x4f, 0x7c, 0x6f, 0x5b, 0x6f, 0x8d, 0x6b,
  0x3f, 0x2f, 0x78, 0x9f, 0x61, 0x81, 0xb9, 0x5d, 0x8d, 0xbf, 0x84, 0x35,
  0x59, 0x45, 0x75, 0x55, 0x92, 0x71, 0x93, 0x6b, 0x58, 0x8e, 0x6f, 0x78,
  0x82, 0x71, 0x3a, 0x62, 0xad, 0x97, 0x6f, 0x48, 0x8c, 0x59, 0x87, 0xcf,
  0x81, 0x71, 0xba, 0x58, 0x96, 0x7c, 0x94, 0x81, 0x9f, 0xa7, 0x71, 0x64,
  0x64, 0x66, 0xa7, 0x89, 0x5e, 0x86, 0x70, 0x77, 0x55, 0x52, 0x44, 0xdc,
  0x81, 0x8d, 0x93, 0x85, 0x69, 0x9a, 0x45, 0x98, 0x9d, 0x61, 0x87, 0x81,
  0x67, 0x91, 0x81, 0x5b, 0x75, 0x55, 0xa7, 0x7b, 0x54, 0x63, 0x5f, 0x90,
  0xa5, 0x83, 0x7f, 0xad, 0x8e, 0x62, 0x77, 0x76, 0x80, 0x7c, 0x6b, 0xa3,
  0x8a, 0x71, 0x8e, 0xa4, 0xaf, 0x85, 0x88, 0x85, 0x94, 0x7c, 0x54, 0x65,
  0xa2, 0x9b, 0x99, 0x9d, 0x6c, 0x6e, 0x55, 0xbc, 0x7d, 0xac, 0x73, 0x6a,
  0x60, 0x91, 0x80, 0x5f, 0x83, 0x78, 0x77, 0x61, 0x7d, 0x6f, 0x92, 0x68,
  0x87, 0x7d, 0x6b, 0x5f, 0x8f, 0x7d, 0x86, 0x7b, 0xa3, 0x7c, 0xcc, 0x69,
  0x93, 0x65, 0x95, 0x63, 0x8f, 0x76, 0x70, 0x75, 0x7a, 0x3c, 0xbb, 0x87,
  0x7c, 0x6b, 0x73, 0xa5, 0x6f, 0x65, 0x71, 0x63, 0x87, 0xd3, 0x8a, 0x3b,
  0x72, 0x79, 0x66, 0x81, 0x86, 0xcc, 0x90, 0x91, 0x7d, 0x71, 0xb8, 0x90,
  0x85, 0x9c, 0x97, 0x45, 0xb4, 0xb0, 0x94, 0x7f, 0x9e, 0x88, 0x63, 0x83,
  0x5c, 0x81, 0x3d, 0x84, 0x7c, 0xa0, 0x46, 0x84, 0x8f, 0x60, 0x91, 0x7a,
  0xb5, 0x7e, 0x7e, 0x77, 0x8a, 0x70, 0x7e, 0x8d, 0x95, 0x70, 0x54, 0x99,
  0x89, 0x82, 0xaa, 0x68, 0x93, 0x86, 0x6a, 0x91, 0x63, 0x88, 0x6e, 0x6c,
  0xb2, 0x70, 0x85, 0x7d, 0x6c, 0x96, 0x5a, 0x9f, 0xa7, 0x57, 0xa0, 0x48,
  0x5e, 0x58, 0x8d, 0x77, 0x7e, 0x70, 0xbc, 0x7d, 0x79, 0x67, 0x72, 0x4c,
  0x6b, 0x87, 0x62, 0x94, 0x5e, 0x6a, 0x69, 0x8a, 0x71, 0x5c, 0x63, 0x7d,
  0xa5, 0xa6, 0x8f, 0x63, 0xab, 0xad, 0x89, 0x95, 0x7c, 0x7b, 0x92, 0x6b,
  0x8e, 0x99, 0x6f, 0x8c, 0x8b, 0x9f, 0x67, 0x88, 0x7d, 0x51, 0x6e, 0x83,
  0x7b, 0x7e, 0x66, 0x68, 0x79, 0x7e, 0x68, 0x9a, 0x9b, 0x88, 0x9a, 0x87,
  0x97, 0xab, 0x68, 0x92, 0xb9, 0x91, 0x76, 0x62, 0x83, 0x70, 0x54, 0x84,
  0xa7, 0x8e, 0x75, 0x7f, 0x81, 0x6e, 0x94, 0x64, 0x86, 0x86, 0x6c, 0x86,
  0x75, 0x93, 0x6a, 0x93, 0x75, 0x78, 0x91, 0x85, 0x93, 0x7c, 0x7a, 0x7b,
  0x6e, 0x78, 0x69, 0x71, 0x64, 0x7b, 0x54, 0x71, 0x6e, 0x84, 0x7e, 0x9e,
  0xae, 0x8f, 0x94, 0x45, 0xb4, 0x88, 0x90, 0x45, 0x64, 0x92, 0x7a, 0x74,
  0x87, 0x6a, 0x83, 0x75, 0x77, 0x7b, 0x9f, 0x69, 0x72, 0x7a, 0x6c, 0x95,
  0x85, 0xad, 0x7e, 0x8e, 0x87, 0x56, 0x70, 0x68, 0x7e, 0x6f, 0x82, 0x76,
  0x71, 0x5d, 0x5c, 0x99, 0x8d, 0x92, 0x7c, 0x8a, 0x75, 0x78, 0x7f, 0x91,
  0x79, 0x8e, 0xaa, 0x95, 0x82, 0x93, 0x93, 0x68, 0x65, 0x5f, 0x93, 0x73,
  0x91, 0x78, 0x5a, 0x85, 0x7c, 0x90, 0x92, 0x7e, 0x93, 0x7c, 0x4d, 0x65,
  0x74, 0x75, 0x74, 0x7d, 0x8e, 0xa6, 0x73, 0x6a, 0x67, 0x66, 0x95, 0x95,
  0x76, 0x79, 0x4e, 0x8b, 0x8e, 0x98, 0x4a, 0x78, 0x81, 0x7b, 0x84, 0x9e,
  0x88, 0xac, 0x8d, 0x90, 0x9c, 0x97, 0x80, 0x86, 0x8c, 0x78, 0x90, 0x81,
  0x84, 0x85, 0x4c, 0x9f, 0x6a, 0xba, 0x7e, 0x95, 0x7e, 0x8c, 0x8f, 0x96,
  0x66, 0x74, 0x7e, 0x7d, 0x89, 0x89, 0x63, 0x85, 0x76, 0x9a, 0x76, 0x93,
  0x77, 0x73, 0x76, 0x95, 0x5e, 0x7b, 0x66, 0x80, 0x66, 0x86, 0x9f, 0x9e,
  0x8b, 0x72, 0x5b, 0xbc, 0x80, 0x91, 0x9c, 0xa1, 0x92, 0x74, 0xa5, 0x6d,
  0x57, 0x5a, 0x8b, 0x86, 0x95, 0x5c, 0x81, 0x67, 0x85, 0x74, 0x71, 0x6a,
  0x75, 0x9e, 0x7f, 0x6b, 0x6b, 0x62, 0xa0, 0x81, 0x8e, 0xaf, 0x7b, 0xaf,
  0x7d, 0x78, 0x91, 0x7e, 0x73, 0x6c, 0x7d, 0x8c, 0xaf, 0x89, 0xb6, 0x7e,
  0x47, 0x78, 0x84, 0x75, 0xad, 0x8c, 0xa3, 0x83, 0x55, 0x81, 0x87, 0x7f,
  0x98, 0x7f, 0xa7, 0x80, 0x85, 0xb3, 0x83, 0x31, 0x9d, 0x3c, 0x74, 0x83,
  0x7c, 0x78, 0x8f, 0xcb, 0x89, 0x9b, 0xab, 0x8d, 0x6d, 0x68, 0xa4, 0x7a,
  0x64, 0x7b, 0x63, 0x42, 0x75, 0x83, 0x77, 0x96, 0x6b, 0x7e, 0x84, 0x9d,
  0x46, 0x83, 0x7a, 0x75, 0x88, 0xa7, 0x87, 0x93, 0x8c, 0x86, 0x57, 0x58,
  0x5e, 0xb7, 0xbb, 0xa1, 0x84, 0x9b, 0x78, 0x6f, 0x3f, 0x6d, 0x8f, 0x83,
  0x6b, 0x8f, 0x77, 0x8b, 0x9b, 0xbe, 0xa6, 0x84, 0xa6, 0xb3, 0x73, 0x5a,
  0x89, 0x72, 0x9a, 0x6a, 0x8d, 0x82, 0x6e, 0x6e, 0x81, 0x50, 0x97, 0xba,
  0x9e, 0x7e, 0x54, 0x8a, 0x88, 0x81, 0x7a, 0x78, 0x7c, 0x65, 0xb8, 0x48,
  0x80, 0x6f, 0x7f, 0xac, 0x7c, 0x9d, 0x55, 0x81, 0x66, 0x6d, 0x5a, 0x82,
  0xb1, 0x57, 0x92, 0x5e, 0x5f, 0xa2, 0x89, 0x8e, 0x60, 0x75, 0x74, 0x67,
  0x82, 0x6d, 0x61, 0x7e, 0x73, 0x74, 0x96, 0x89, 0x54, 0x7a, 0x3c, 0x8d,
  0x8e, 0x8f, 0x81, 0x45, 0x77, 0x49, 0x96, 0xa9, 0x66, 0x7e, 0x7e, 0x7e,
  0x94, 0x69, 0x9b, 0x8b, 0x74, 0x89, 0x70, 0x69, 0x68, 0x83, 0xa4, 0x79,
  0x6e, 0x9c, 0x5f, 0x76, 0x6e, 0x70, 0x90, 0x6a, 0x70, 0x83, 0x76, 0x7d,
  0x83, 0x66, 0x97, 0x69, 0x87, 0xa6, 0xca, 0x76, 0xa1, 0x76, 0xa2, 0x52,
  0xb7, 0x9d, 0x9d, 0x60, 0x6a, 0x9d, 0x90, 0x98, 0x7d, 0xcd, 0x7a, 0x67,
  0x87, 0x5d, 0x89, 0x82, 0x94, 0x4d, 0xad, 0xa0, 0xa7, 0x73, 0x57, 0x99,
  0x65, 0x41, 0x8d, 0x53, 0x54, 0x64, 0xc7, 0x94, 0x81, 0x77, 0x9b, 0x59,
  0x5c, 0x89, 0x67, 0xeb, 0x7f, 0x43, 0xc8, 0x84, 0x85, 0x9a, 0x84, 0xc2,
  0x5a, 0x53, 0x4e, 0x9c, 0x68, 0x6e, 0x73, 0xad, 0xb1, 0x93, 0x9c, 0x5c,
  0x80, 0xae, 0x72, 0x97, 0x6c, 0x9b, 0x79, 0x64, 0x84, 0x6b, 0x8b, 0x42,
  0x8e, 0x66, 0xa4, 0x8b, 0x7a, 0xa5, 0x71, 0x96, 0x91, 0x67, 0x80, 0x78,
  0x90, 0x6f, 0x8e, 0x5b, 0x7d, 0x81, 0x5d, 0x8e, 0x53, 0xc0, 0xa9, 0x9b,
  0xd7, 0x90, 0x8e, 0x64, 0xa5, 0x69, 0xaa, 0x70, 0x4a, 0x56, 0x61, 0xa0,
  0x4c, 0x85, 0xaf, 0x6c, 0x75, 0xd5, 0x92, 0xef, 0x41, 0x72, 0x83, 0x88,
  0xaf, 0x49, 0xc4, 0x94, 0xd0, 0x79, 0x53, 0x98, 0x3b, 0x56, 0x95, 0x84,
  0x69, 0x69, 0x5a, 0x3d, 0x99, 0x65, 0x88, 0x9a, 0x4e, 0x77, 0x6b, 0x8b,
  0x84, 0x30, 0x87, 0x78, 0x9c, 0x68, 0xb3, 0x6b, 0x56, 0x9d, 0x83, 0x8f,
  0x9a, 0x91, 0x97, 0x45, 0x65, 0x90, 0x99, 0x93, 0x9b, 0x5d, 0x59, 0x8d,
  0x7d, 0x9a, 0x7b, 0x70, 0x6e, 0x66, 0x7b, 0x84, 0x83, 0x6c, 0x75, 0x91,
  0x50, 0x75, 0x83, 0x93, 0x92, 0x7c, 0x79, 0x98, 0x6e, 0x8c, 0x6b, 0x59,
  0x5f, 0x71, 0x76, 0x4c, 0x75, 0x99, 0x7f, 0x7d, 0x9b, 0x8a, 0x96, 0x72,
  0x29, 0x7a, 0x87, 0x78, 0x7c, 0xb7, 0x7d, 0x55, 0x57, 0xa4, 0x7f, 0x99,
  0x78, 0xa9, 0x50, 0x5f, 0x7b, 0xcb, 0x62, 0x6b, 0x46, 0x8a, 0x7a, 0x77,
  0x96, 0x69, 0x7c, 0x99, 0x72, 0x73, 0x70, 0x7a, 0x89, 0x7b, 0x66, 0x84,
  0x76, 0x68, 0x73, 0x65, 0x72, 0x77, 0x6d, 0x91, 0x8b, 0x6d, 0x6e, 0x70,
  0x53, 0x5e, 0x73, 0xae, 0xa0, 0x63, 0x79, 0x7a, 0x9c, 0x88, 0x52, 0x81,
  0x8f, 0x6d, 0x94, 0xb4, 0x62, 0x79, 0xcd, 0x6f, 0x6d, 0x72, 0x92, 0x9e,
  0x73, 0x99, 0x76, 0x86, 0x5b, 0x79, 0x53, 0xad, 0x79, 0x97, 0x81, 0xa4,
  0x95, 0x7f, 0x86, 0x81, 0x98, 0x91, 0x4f, 0x66, 0x75, 0x73, 0x73, 0x9f,
  0x63, 0x8d, 0x64, 0x63, 0x53, 0x8b, 0x79, 0x84, 0x72, 0x71, 0x9c, 0x6c,
  0x66, 0x86, 0x72, 0x8b, 0xb9, 0x76, 0x8b, 0x84, 0xc6, 0x7e, 0x80, 0x77,
  0x76, 0x95, 0x77, 0x60, 0x83, 0x9e, 0x95, 0x74, 0xc9, 0x60, 0x93, 0x40,
  0x81, 0x89, 0x73, 0x78, 0x89, 0x89, 0x88, 0x9d, 0x66, 0x54, 0x77, 0x90,
  0x81, 0x86, 0x59, 0x71, 0x5f, 0xd0, 0x90, 0x97, 0x7a, 0x61, 0x86, 0xb1,
  0x43, 0x78, 0x79, 0x84, 0x65, 0x8a, 0x54, 0x88, 0x77, 0x5c, 0x99, 0x72,
  0x99, 0x59, 0x82, 0xa1, 0x9b, 0xce, 0x8e, 0x9a, 0x51, 0xbb, 0x6d, 0x47,
  0xa8, 0x6b, 0xb3, 0x6f, 0x6e, 0xc1, 0xa2, 0x55, 0x8a, 0x60, 0xa0, 0x8e,
  0xab, 0x58, 0x47, 0x79, 0x8a, 0xa8, 0x6e, 0x4c, 0x66, 0x8d, 0xab, 0x76,
  0x68, 0x64, 0x6e, 0x54, 0x6b, 0xae, 0x83, 0xa2, 0x62, 0x9c, 0xa5, 0x40,
  0x77, 0x79, 0x6f, 0x78, 0x89, 0x77, 0x81, 0x75, 0x95, 0xb0, 0x90, 0x5f,
  0x93, 0x7d, 0x95, 0x6b, 0x5e, 0x67, 0x9d, 0x98, 0x86, 0x76, 0x72, 0x6c,
  0x60, 0x89, 0x9d, 0x68, 0x75, 0x72, 0x8e, 0x93, 0x90, 0x62, 0x61, 0x86,
  0x70, 0x74, 0x73, 0x6e, 0x7b, 0x72, 0x6f, 0x62, 0x8b, 0x7b, 0x7b, 0x72,
  0x71, 0xa1, 0x69, 0x74, 0x8e, 0x84, 0x40, 0x78, 0x77, 0x6b, 0x68, 0x58,
  0x82, 0x8e, 0x6b, 0x4c, 0x89, 0x98, 0x83, 0x8d, 0x7a, 0x7e, 0x8b, 0x7f,
  0x5f, 0x66, 0xab, 0x81, 0x74, 0x6b, 0x70, 0x76, 0x93, 0x76, 0x92, 0x7e,
  0x76, 0x93, 0x8a, 0x60, 0x6c, 0x7e, 0x63, 0x74, 0x78, 0x7c, 0x7c, 0x6f,
  0x8f, 0x94, 0x5d, 0x55, 0x97, 0x70, 0x68, 0xaa, 0x77, 0x62, 0x72, 0x7c,
  0x71, 0x62, 0x6f, 0x82, 0x80, 0x74, 0x85, 0xa2, 0x75, 0x85, 0xa8, 0x78,
  0x66, 0x8c, 0x54, 0x7b, 0x6e, 0x68, 0x85, 0x75, 0x8f, 0x65, 0x80, 0x61,
  0x95, 0x61, 0xa0, 0x72, 0x6c, 0x88, 0x77, 0x79, 0x77, 0x70, 0x81, 0x72,
  0x87, 0xb1, 0x3a, 0x6a, 0x81, 0x7b, 0x75, 0x73, 0x7d, 0x6a, 0xa6, 0x8c,
  0x59, 0x85, 0x8c, 0x95, 0x61, 0x70, 0x79, 0x90, 0x83, 0x60, 0x7b, 0x7e,
  0x94, 0x8e, 0x70, 0x9c, 0x6b, 0x92, 0x73, 0x84, 0x74, 0x7f, 0x80, 0x70,
  0x7b, 0x6c, 0x90, 0x67, 0x9e, 0x70, 0x76, 0x7e, 0x5f, 0x86, 0x82, 0x64,
  0x63, 0x63, 0x6d, 0x5f, 0x7e, 0x8b, 0x78, 0x50, 0x73, 0x6d, 0x76, 0x6e,
  0x7c, 0x6d, 0x84, 0x90, 0x7f, 0x77, 0x82, 0x7e, 0x5c, 0x67, 0x61, 0x93,
  0x89, 0x76, 0x7c, 0x6c, 0x8e, 0x67, 0x82, 0x92, 0x5c, 0x64, 0x77, 0x8d,
  0x8b, 0x80, 0x74, 0x62, 0x77, 0x87, 0x6c, 0x84, 0x77, 0xa1, 0x87, 0x89,
  0x65, 0x73, 0x96, 0x83, 0x8e, 0x7c, 0x86, 0x7a, 0x98, 0x8d, 0x5d, 0x6e,
  0x8a, 0x77, 0x58, 0x72, 0x67, 0x6f, 0x4e, 0x79, 0x7f, 0x7f, 0x90, 0x84,
  0x95, 0x6e, 0x85, 0xa5, 0x6d, 0x56, 0x99, 0x51, 0x7f, 0x62, 0x6e, 0x93,
  0x9d, 0x78, 0x79, 0xa1, 0x63, 0x6d, 0x84, 0x56, 0x7e, 0x6e, 0x72, 0x97,
  0x62, 0x66, 0x56, 0x83, 0x4e, 0xaa, 0x94, 0x6a, 0x67, 0x82, 0xb6, 0x5d,
  0xa2, 0x8b, 0xb1, 0x85, 0x68, 0x93, 0xa9, 0x4c, 0x61, 0x91, 0x7f, 0x7c,
  0x69, 0xaa, 0x83, 0x7f, 0x81, 0x7b, 0xae, 0x80, 0x89, 0x95, 0x81, 0x82,
  0x84, 0x71, 0x9f, 0x7c, 0x82, 0x93, 0x83, 0x97, 0x67, 0x7e, 0x91, 0x88,
  0x6e, 0x73, 0x80, 0x80, 0x8f, 0xcd, 0x71, 0x88, 0x86, 0x81, 0xe1, 0x6b,
  0x63, 0xaf, 0xaa, 0xbc, 0x70, 0x94, 0xab, 0x8c, 0x63, 0x7a, 0xa5, 0x6c,
  0x4b, 0x85, 0x58, 0x6a, 0xb8, 0x87, 0x8c, 0xa3, 0x64, 0xa3, 0xa1, 0x51,
  0x60, 0xb2, 0x85, 0x5e, 0x8a, 0x62, 0x8e, 0x75, 0x6d, 0x68, 0x9e, 0x6f,
  0x65, 0x57, 0x31, 0x65, 0x61, 0xaf, 0x51, 0x5e, 0x6e, 0xa7, 0xa5, 0x7f,
  0x7b, 0xad, 0x5a, 0xc9, 0x81, 0x87, 0x8c, 0x88, 0x91, 0xdd, 0x81, 0x92,
  0x7f, 0x62, 0x6e, 0x8d, 0x7c, 0x86, 0x94, 0x9c, 0x8b, 0x9a, 0x8a, 0xaa,
  0x84, 0x7e, 0x7c, 0x7f, 0x66, 0x89, 0xa0, 0x5b, 0x6e, 0x4d, 0x79, 0xd0,
  0x42, 0x88, 0x99, 0x65, 0x99, 0x88, 0x8e, 0x7e, 0x82, 0x8b, 0x67, 0x61,
  0x6c, 0x94, 0x90, 0xad, 0x94, 0x72, 0x71, 0x88, 0x77, 0x69, 0xbf, 0x7f,
  0x74, 0x7b, 0x61, 0x7e, 0x81, 0x6e, 0x50, 0x86, 0x7e, 0x7b, 0x70, 0x74,
  0x9b, 0x7b, 0x76, 0x76, 0xa4, 0x82, 0xc0, 0x79, 0x7f, 0x85, 0x55, 0x60,
  0xa8, 0x60, 0xb4, 0x8b, 0x7c, 0xc6, 0x6b, 0x72, 0xa8, 0x59, 0x4d, 0x81,
  0x6e, 0x7e, 0x5f, 0x55, 0x72, 0x9b, 0x5f, 0x83, 0xaa, 0x73, 0x4f, 0x6f,
  0xa8, 0x5a, 0x69, 0x9c, 0x93, 0x79, 0x93, 0x96, 0x7e, 0x7a, 0xbf, 0x74,
  0x68, 0x6d, 0x6c, 0xa3, 0xa1, 0x6f, 0x98, 0xd8, 0xad, 0x64, 0x96, 0x74,
  0x7c, 0x8c, 0x82, 0x8d, 0x98, 0x89, 0x68, 0x85, 0x6a, 0x93, 0x84, 0x74,
  0xa3, 0xa6, 0x7f, 0x76, 0x6a, 0x77, 0x5e, 0xa1, 0x6f, 0xae, 0x92, 0x72,
  0x57, 0xa3, 0x8e, 0x6f, 0x81, 0xaa, 0x78, 0x79, 0x75, 0xa3, 0x66, 0x91,
  0x7e, 0x97, 0xab, 0xa3, 0x7d, 0xa7, 0x82, 0x82, 0x7c, 0xb7, 0x49, 0x96,
  0x4f, 0x69, 0x7d, 0x7b, 0x65, 0x95, 0x76, 0x3f, 0x3b, 0x81, 0x99, 0x7c,
  0x7f, 0x59, 0x9c, 0x92, 0x9d, 0x7c, 0x67, 0xaf, 0x74, 0x97, 0x65, 0x48,
  0x9b, 0x85, 0x46, 0xa2, 0x8a, 0xe1, 0x64, 0x7a, 0x71, 0x5e, 0xc5, 0x58,
  0x71, 0x68, 0x7a, 0x68, 0x6e, 0x53, 0xc0, 0x6d, 0x90, 0x57, 0x9e, 0x6c,
  0x6a, 0x71, 0x8f, 0x9a, 0x6a, 0x51, 0xae, 0xa5, 0x91, 0x66, 0x87, 0x81,
  0x72, 0x86, 0x73, 0x67, 0x79, 0x8a, 0xae, 0x9b, 0x79, 0x69, 0x79, 0x79,
  0x6b, 0x7e, 0x85, 0x95, 0x97, 0x87, 0x6f, 0x8b, 0x88, 0x7a, 0x76, 0x7e,
  0x70, 0x7b, 0x75, 0x74, 0x8a, 0x9a, 0x66, 0x98, 0x78, 0x8c, 0x77, 0x99,
  0x84, 0x74, 0xa3, 0x99, 0x86, 0x6d, 0x76, 0x6d, 0x7d, 0x83, 0x99, 0x7a,
  0x7c, 0x95, 0x9c, 0x55, 0x8d, 0x7c, 0x97, 0x6b, 0x7e, 0x76, 0x97, 0x90,
  0x76, 0x73, 0x90, 0x7d, 0x9c, 0x72, 0x79, 0x6f, 0x7f, 0x68, 0x95, 0x96,
  0x7b, 0x7a, 0x5c, 0x73, 0xb1, 0x7c, 0x77, 0x66, 0x73, 0x8c, 0x8d, 0x59,
  0x7b, 0x62, 0x6b, 0x68, 0x7c, 0x8b, 0x83, 0x8a, 0x50, 0x7b, 0x73, 0x9b,
  0x6d, 0x6d, 0x72, 0x74, 0x7a, 0x7a, 0x78, 0x65, 0x61, 0x71, 0x80, 0x6c,
  0xad, 0x81, 0x4d, 0x77, 0x75, 0x80, 0x87, 0x7d, 0x85, 0xb7, 0x85, 0x59,
  0x63, 0x7c, 0x67, 0x79, 0x7f, 0xa8, 0x77, 0x65, 0xc3, 0x7e, 0x6f, 0x88,
  0x77, 0x72, 0x8a, 0x7e, 0x63, 0x80, 0x6a, 0x67, 0x89, 0x6b, 0x7c, 0x97,
  0x79, 0x7c, 0x81, 0x8a, 0x85, 0x72, 0x77, 0x8a, 0x9b, 0x61, 0x7e, 0x87,
  0x6f, 0x85, 0x63, 0x82, 0xa3, 0x80, 0x75, 0x85, 0x6c, 0x50, 0xd3, 0x7f,
  0x8f, 0x8f, 0x81, 0x5e, 0x64, 0x8c, 0x73, 0x79, 0x96, 0x66, 0xb3, 0x83,
  0x9f, 0x7c, 0x90, 0x67, 0x7b, 0x88, 0x75, 0x78, 0x74, 0x6e, 0x88, 0x6d,
  0xad, 0x8f, 0x5a, 0x95, 0x7f, 0x4e, 0x6e, 0x7c, 0x72, 0x7a, 0x75, 0x92,
  0x72, 0x79, 0x89, 0x67, 0xba, 0xa4, 0x88, 0x81, 0x65, 0x54, 0x9c, 0x76,
  0x80, 0x7c, 0x67, 0x9f, 0xc9, 0x8e, 0x70, 0x89, 0x80, 0x91, 0x63, 0x72,
  0x89, 0x7c, 0x9b, 0x48, 0x71, 0x6d, 0x9b, 0x6c, 0x5f, 0x5b, 0x94, 0x83,
  0x99, 0x8c, 0x75, 0x75, 0x74, 0x85, 0x69, 0x89, 0x6e, 0x87, 0x65, 0x7e,
  0x5b, 0x8d, 0x7a, 0xc1, 0xaf, 0xd1, 0x5a, 0x7d, 0x58, 0x55, 0x8f, 0x6f,
  0x88, 0x8a, 0xa6, 0x74, 0x99, 0x8a, 0x9d, 0x6e, 0x56, 0x6b, 0x96, 0x81,
  0x5f, 0x99, 0x69, 0x6e, 0x89, 0x88, 0x5c, 0x59, 0x81, 0xc4, 0x92, 0x85,
  0x65, 0x77, 0x5c, 0x9a, 0x7c, 0x52, 0x43, 0x8c, 0x80, 0x7d, 0x9e, 0x6d,
  0x7a, 0x5f, 0xb1, 0x7d, 0x6d, 0x7b, 0x4e, 0x9f, 0x44, 0x90, 0x61, 0x58,
  0x69, 0x85, 0x95, 0xa8, 0x76, 0xb3, 0x6a, 0x9f, 0xa8, 0x78, 0x6a, 0x79,
  0x66, 0x45, 0xc5, 0x8e, 0x84, 0x87, 0xcb, 0x9f, 0x9d, 0x61, 0x78, 0x9a,
  0x89, 0x86, 0x65, 0x8b, 0x47, 0x81, 0x99, 0x7f, 0x5d, 0x99, 0x5f, 0x82,
  0x63, 0xaf, 0x51, 0x70, 0x76, 0xa2, 0x71, 0x61, 0xba, 0x6e, 0x77, 0xb1,
  0x86, 0x54, 0x88, 0x96, 0x46, 0xa9, 0x85, 0x6f, 0x7c, 0x9e, 0x89, 0x48,
  0x7c, 0x88, 0x9d, 0xa4, 0xa5, 0x64, 0x86, 0xbd, 0x7a, 0x50, 0x80, 0x84,
  0x61, 0xb0, 0x67, 0xa1, 0x62, 0x88, 0x67, 0x96, 0x7f, 0x62, 0x65, 0x7d,
  0x7c, 0x85, 0xa0, 0x99, 0x7e, 0x86, 0x7a, 0x8c, 0xac, 0x86, 0xa3, 0x80,
  0x77, 0x94, 0x47, 0x98, 0x84, 0x79, 0x89, 0x68, 0x71, 0x8f, 0x6b, 0x64,
  0x79, 0x9c, 0x5e, 0x73, 0x6e, 0xa0, 0x6b, 0x5a, 0x64, 0xa1, 0x6c, 0x99,
  0x88, 0x69, 0xab, 0x78, 0xa4, 0x86, 0xa6, 0x8d, 0x67, 0xad, 0x7a, 0x78,
  0x7c, 0x89, 0x4a, 0x8f, 0x74, 0x71, 0x80, 0x90, 0x74, 0x5d, 0x71, 0x8e,
  0x6d, 0x86, 0x7c, 0x7b, 0x90, 0x79, 0x8b, 0x83, 0x81, 0x6e, 0x8a, 0x90,
  0x91, 0x8c, 0x75, 0x96, 0x7c, 0x62, 0x59, 0x85, 0x66, 0x60, 0x86, 0x6d,
  0x87, 0x9c, 0x3f, 0x7b, 0x6f, 0x7e, 0x45, 0x54, 0x65, 0x75, 0x9c, 0x86,
  0x94, 0x8b, 0x58, 0x6d, 0x66, 0xa6, 0x93, 0x6d, 0x78, 0xb4, 0x60, 0x84,
  0x7a, 0x7a, 0x9c, 0x84, 0x64, 0x7c, 0x7b, 0x60, 0x4a, 0x6f, 0xa2, 0x8c,
  0x66, 0x7a, 0x68, 0x82, 0x8a, 0xa9, 0xc6, 0x8a, 0xa1, 0x9d, 0x67, 0xb2,
  0x70, 0x97, 0x6a, 0x9e, 0x61, 0x8a, 0x70, 0xda, 0xbf, 0x71, 0x81, 0x67,
  0xbb, 0xa6, 0x77, 0x55, 0x73, 0x8f, 0x6a, 0xca, 0x69, 0x9e, 0x67, 0xb8,
  0xbc, 0x78, 0x99, 0x7f, 0x5f, 0x70, 0x95, 0x5a, 0x7a, 0xb6, 0x8e, 0x35,
  0x55, 0x7d, 0x99, 0xa7, 0x99, 0x88, 0x8d, 0x74, 0x90, 0x80, 0xdd, 0x6a,
  0xb2, 0x73, 0x8c, 0x7e, 0x8b, 0x8e, 0x78, 0x4a, 0x49, 0x7f, 0x79, 0xb9,
  0x66, 0x3c, 0xa2, 0x44, 0x35, 0x8d, 0x52, 0x65, 0x4c, 0x64, 0x79, 0x3d,
  0xcc, 0x9a, 0xa2, 0x85, 0xb1, 0x58, 0x59, 0x50, 0x52, 0x5c, 0x8d, 0x56,
  0x88, 0x63, 0x9a, 0x8e, 0x77, 0xc0, 0x49, 0x9c, 0xd9, 0x9d, 0x9b, 0xaf,
  0x81, 0xc9, 0xc3, 0x75, 0xaf, 0x6d, 0x9e, 0x95, 0x6f, 0x88, 0x41, 0x8e,
  0xa4, 0x82, 0x51, 0x64, 0x64, 0x82, 0x72, 0xb7, 0x6e, 0x4b, 0x81, 0x7f,
  0x62, 0x56, 0xcd, 0x94, 0x63, 0x8a, 0x88, 0x66, 0x85, 0x9e, 0xbc, 0x94,
  0xbe, 0x70, 0x66, 0x6f, 0x8d, 0x7d, 0x83, 0x72, 0x49, 0x9e, 0x80, 0x8e,
  0x82, 0x65, 0x8c, 0x8d, 0x9d, 0x6e, 0x90, 0x6f, 0xaf, 0x54, 0x84, 0x5f,
  0x60, 0x33, 0x62, 0x87, 0x87, 0x80, 0x67, 0x7f, 0x57, 0x5c, 0xa7, 0x6c,
  0x6d, 0x7b, 0xc4, 0x8c, 0x7d, 0x92, 0x38, 0x6f, 0x3b, 0x58, 0x49, 0xa6,
  0x81, 0xb9, 0x8e, 0x80, 0x76, 0x87, 0x9a, 0x9c, 0x63, 0x71, 0x77, 0x87,
  0x95, 0x85, 0x8e, 0x88, 0x6f, 0x95, 0x85, 0x91, 0x62, 0x73, 0xd4, 0x8a,
  0x7d, 0x89, 0xae, 0x84, 0x85, 0x90, 0x83, 0x6a, 0x7c, 0x86, 0x69, 0x79,
  0x76, 0x72, 0x7b, 0x71, 0x82, 0x99, 0x61, 0x8a, 0x8f, 0x89, 0x7c, 0x93,
  0x4a, 0x4d, 0x52, 0x91, 0x8f, 0x81, 0x71, 0x6a, 0x7c, 0x8d, 0x6b, 0x9c,
  0x9a, 0x60, 0xb4, 0x77, 0x7c, 0x85, 0xa8, 0x39, 0x6b, 0x7c, 0xa1, 0x71,
  0xa2, 0xa0, 0x59, 0x99, 0x78, 0x52, 0x7b, 0x87, 0x78, 0x55, 0x7a, 0xc0,
  0x5b, 0xbd, 0x72, 0x97, 0x34, 0x7c, 0x48, 0x5c, 0x71, 0x71, 0x75, 0x69,
  0x5e, 0x97, 0x89, 0x68, 0x6a, 0xc1, 0x86, 0xad, 0xa8, 0x5c, 0x7a, 0x5c,
  0x7b, 0x6d, 0x9d, 0x5b, 0x96, 0x68, 0x8a, 0x65, 0x82, 0x7a, 0xa1, 0x95,
  0x57, 0x8e, 0x75, 0x90, 0xbd, 0x74, 0x7b, 0x81, 0xaf, 0x7b, 0x82, 0x79,
  0x6c, 0x61, 0x6d, 0x67, 0x69, 0x78, 0x59, 0x4e, 0x88, 0x54, 0x58, 0x72,
  0x35, 0x6a, 0x6e, 0x78, 0x72, 0xa7, 0x7e, 0x83, 0x90, 0x50, 0x4d, 0x7b,
  0x79, 0x60, 0x3a, 0x97, 0x73, 0x53, 0x4b, 0xa4, 0xad, 0x6e, 0x65, 0x6a,
  0x70, 0x59, 0x85, 0x66, 0x92, 0xa3, 0x6b, 0x5f, 0x7c, 0x6b, 0x59, 0x5c,
  0x5e, 0x80, 0xad, 0x7a, 0xa5, 0x93, 0x6d, 0xa6, 0x94, 0x88, 0x6f, 0x79,
  0x7c, 0x52, 0x7a, 0xa4, 0x93, 0x4f, 0xb4, 0x6c, 0x88, 0x93, 0xc0, 0x68,
  0xac, 0x68, 0x6f, 0x54, 0x61, 0x71, 0xac, 0x8c, 0x63, 0x72, 0x8e, 0xb4,
  0x81, 0x8d, 0xa6, 0x6b, 0x81, 0x53, 0x83, 0x95, 0x74, 0x6d, 0x5e, 0x85,
  0x3f, 0x72, 0x51, 0x63, 0x35, 0x3d, 0x47, 0x7b, 0x6b, 0x7a, 0xa8, 0x75,
  0x5d, 0x65, 0x95, 0x6c, 0x76, 0x47, 0x69, 0x81, 0x7c, 0x65, 0x9f, 0x61,
  0x72, 0x7c, 0x75, 0x5f, 0x6f, 0x91, 0x6f, 0x8c, 0x84, 0x83, 0x74, 0x8e,
  0x8f, 0x81, 0x61, 0x4d, 0xae, 0x5d, 0x60, 0x8e, 0x8b, 0xab, 0x61, 0x9e,
  0x71, 0x7b, 0x93, 0x72, 0x84, 0x62, 0x8c, 0x6a, 0x97, 0x77, 0x79, 0x45,
  0x82, 0x94, 0x56, 0x99, 0x3e, 0x61, 0x72, 0xb0, 0x6f, 0x8f, 0x77, 0x68,
  0x80, 0x53, 0x76, 0x8c, 0xac, 0x92, 0x8f, 0x51, 0x59, 0x6b, 0x7e, 0x9a,
  0x70, 0x71, 0xb2, 0x9c, 0x90, 0x70, 0x88, 0x70, 0xa9, 0x8e, 0x85, 0x89,
  0x9a, 0x55, 0x8b, 0x61, 0x92, 0x79, 0xb0, 0x7c, 0x7d, 0x86, 0x5d, 0x78,
  0x59, 0x81, 0x85, 0x69, 0x8d, 0x6c, 0x7a, 0x7a, 0x70, 0x81, 0x8d, 0x88,
  0x69, 0x75, 0x7c, 0x3e, 0x8b, 0x6d, 0x7c, 0x77, 0x75, 0x8b, 0x75, 0x89,
  0x9b, 0x80, 0x6e, 0x66, 0x9e, 0x96, 0x8b, 0x65, 0x4c, 0xa2, 0x79, 0x82,
  0x8d, 0x5c, 0x9e, 0x6e, 0x79, 0x69, 0x5d, 0x68, 0x8c, 0x84, 0x71, 0x8a,
  0xa6, 0x7b, 0x8d, 0x77, 0x72, 0x86, 0x7c, 0x82, 0x5f, 0x66, 0x78, 0x7c,
  0x85, 0x6c, 0x86, 0x96, 0x84, 0x81, 0x7b, 0x50, 0x8d, 0x68, 0x85, 0xa2,
  0x92, 0x68, 0x94, 0x7f, 0x87, 0x83, 0x9c, 0x5d, 0x82, 0x83, 0x91, 0x69,
  0x94, 0x85, 0x74, 0x69, 0x8c, 0x7c, 0x8a, 0x7d, 0x79, 0x7d, 0x7b, 0x7d,
  0x9c, 0x66, 0x65, 0x91, 0x9f, 0x7f, 0x5d, 0xa5, 0x87, 0x8a, 0x60, 0x6c,
  0x66, 0x5d, 0xb8, 0x8a, 0x4f, 0x70, 0xaf, 0x77, 0x59, 0x97, 0x91, 0x72,
  0x62, 0x9f, 0x47, 0x58, 0x6a, 0x8f, 0xb5, 0x96, 0x59, 0x83, 0x83, 0xa4,
  0x8d, 0x7e, 0x6b, 0x68, 0x73, 0x62, 0x9b, 0x78, 0x57, 0xa4, 0x72, 0x7d,
  0x7d, 0x69, 0x41, 0xa2, 0x89, 0x62, 0x48, 0x9f, 0x59, 0x66, 0x93, 0x87,
  0x97, 0x76, 0x54, 0x71, 0x89, 0x8d, 0x88, 0x68, 0x89, 0x73, 0x3a, 0x63,
  0x65, 0x7a, 0x82, 0x88, 0x75, 0x5e, 0x93, 0x87, 0x6d, 0x65, 0x60, 0x5b,
  0x7e, 0x7c, 0x72, 0x65, 0x9c, 0x90, 0xc8, 0x8e, 0x7b, 0x87, 0x7f, 0xa3,
  0x68, 0x72, 0x86, 0x7a, 0x86, 0x96, 0x68, 0x90, 0xbc, 0x89, 0x62, 0x75,
  0x6b, 0x8e, 0x87, 0x94, 0x88, 0x95, 0x87, 0x96, 0x61, 0xa0, 0x8d, 0x5a,
  0x6c, 0x82, 0x71, 0x70, 0x8d, 0x5f, 0x88, 0x80, 0x90, 0x80, 0x8a, 0x80,
  0x75, 0x4f, 0x99, 0xa0, 0x6c, 0xc7, 0x58, 0x81, 0x87, 0x8a, 0x56, 0x62,
  0x74, 0x61, 0x6f, 0x92, 0x7c, 0x61, 0x73, 0xb1, 0x95, 0x74, 0x72, 0x62,
  0xa5, 0x4b, 0xd5, 0x82, 0x85, 0x85, 0x69, 0x7d, 0x89, 0x9a, 0x7c, 0x6b,
  0x81, 0x66, 0x95, 0x99, 0x85, 0x7a, 0x91, 0x7a, 0x4a, 0x83, 0x59, 0xc8,
  0xb9, 0x94, 0x5e, 0x96, 0xa4, 0x72, 0x5f, 0x64, 0x89, 0xcb, 0x60, 0x77,
  0x7b, 0x70, 0x79, 0xae, 0x81, 0x7b, 0xac, 0x79, 0x63, 0x9f, 0x92, 0x5b,
  0x50, 0x73, 0x9b, 0x6b, 0x87, 0xa1, 0x97, 0x81, 0x95, 0x64, 0xa7, 0x9a,
  0x3b, 0x99, 0x95, 0x43, 0x77, 0x55, 0x5d, 0x90, 0x4f, 0x63, 0x71, 0x57,
  0xaf, 0x61, 0x4e, 0x9f, 0x91, 0x88, 0x6e, 0x77, 0x68, 0x40, 0x51, 0x3e,
  0xa3, 0x7a, 0xa3, 0x5e, 0x52, 0x6d, 0x50, 0x74, 0x94, 0x87, 0x47, 0x8c,
  0x7c, 0x53, 0x88, 0x8d, 0x8f, 0xbf, 0x53, 0x4e, 0x81, 0x6d, 0x70, 0x9e,
  0x5c, 0x69, 0x90, 0xb3, 0x7e, 0xb5, 0x53, 0x87, 0x63, 0x8c, 0x7c, 0x74,
  0x49, 0x65, 0xb6, 0x86, 0xb4, 0xd2, 0x95, 0x86, 0x67, 0x8d, 0x81, 0x86,
  0x7e, 0xe1, 0xd4, 0x95, 0x80, 0xad, 0x96, 0x79, 0x6c, 0x82, 0x69, 0xb1,
  0x75, 0x5a, 0x97, 0x62, 0x72, 0x74, 0x72, 0x68, 0x57, 0x4f, 0x89, 0x70,
  0xaa, 0xd0, 0xa8, 0x4e, 0x78, 0x90, 0x60, 0x9f, 0x92, 0x6b, 0xaf, 0x5c,
  0x94, 0x57, 0x77, 0x51, 0x5c, 0x8d, 0x8a, 0x3d, 0x4d, 0xbb, 0x85, 0x85,
  0x71, 0x8f, 0x89, 0x80, 0x8d, 0x76, 0x4c, 0x78, 0x6b, 0x5b, 0x9d, 0x5b,
  0xa4, 0x7f, 0x92, 0x59, 0x6d, 0x81, 0x8a, 0x3e, 0x87, 0x5f, 0x7e, 0xa9,
  0x97, 0x75, 0x5a, 0xb7, 0xb4, 0x6a, 0x5d, 0x75, 0x96, 0x54, 0x7e, 0x2f,
  0x4a, 0x5c, 0x6c, 0x59, 0xa5, 0x94, 0x88, 0xa4, 0x67, 0x56, 0x6b, 0x95,
  0x9a, 0x54, 0xb9, 0x80, 0x65, 0x60, 0x6d, 0xdd, 0x4a, 0x91, 0x73, 0x89,
  0x71, 0xa9, 0x9a, 0x64, 0x66, 0x64, 0x61, 0x79, 0x62, 0x76, 0x9f, 0x99,
  0x7b, 0x72, 0x80, 0x50, 0x7c, 0x74, 0x9f, 0x97, 0x68, 0x8a, 0x68, 0x69,
  0x88, 0x6a, 0x71, 0x90, 0x94, 0x9a, 0x7a, 0x6c, 0x6e, 0xb3, 0x75, 0x94,
  0x87, 0xa1, 0x72, 0x6d, 0x6d, 0x9b, 0x74, 0xba, 0x69, 0x74, 0x75, 0xbc,
  0x82, 0x99, 0x41, 0xbd, 0x85, 0x7e, 0x83, 0x83, 0x73, 0x5f, 0x7b, 0x76,
  0x6d, 0x6f, 0x85, 0x7a, 0x79, 0x75, 0x91, 0x71, 0x6b, 0x90, 0x64, 0x68,
  0xb7, 0x6e, 0x77, 0x68, 0xa6, 0x7f, 0x6c, 0x7a, 0x57, 0x90, 0x6e, 0x6d,
  0x84, 0x7c, 0x73, 0x6f, 0x60, 0x83, 0x8d, 0x80, 0x79, 0xa3, 0x82, 0x60,
  0x89, 0x6a, 0x58, 0x8a, 0x97, 0x68, 0x9c, 0x9c, 0x8b, 0x80, 0xa0, 0x87,
  0x99, 0x80, 0x93, 0x90, 0xa3, 0x74, 0x82, 0x99, 0x50, 0x61, 0x77, 0x89,
  0xc7, 0x55, 0x4e, 0x5e, 0x77, 0x8d, 0x69, 0xa2, 0x9a, 0x83, 0x85, 0x87,
  0x8e, 0x5d, 0x79, 0x61, 0x8c, 0x81, 0x86, 0x7b, 0x70, 0xa1, 0x74, 0x5e,
  0x77, 0xa4, 0x8b, 0x75, 0x8d, 0x80, 0x79, 0x60, 0x73, 0x7b, 0x7a, 0x67,
  0x87, 0x77, 0x81, 0x74, 0x69, 0x8b, 0x77, 0x38, 0x75, 0xa0, 0x8b, 0xa2,
  0x74, 0x61, 0xa0, 0x81, 0x94, 0x8e, 0x60, 0x79, 0x6e, 0x7a, 0x63, 0x7d,
  0x8b, 0x87, 0x77, 0xb1, 0x7f, 0xa1, 0x89, 0x85, 0x77, 0x76, 0x85, 0x58,
  0x95, 0x94, 0x84, 0x6a, 0x74, 0x8f, 0x90, 0x95, 0x81, 0x5e, 0x87, 0x63,
  0x7e, 0x6f, 0x6f, 0x74, 0x6c, 0xab, 0x80, 0x70, 0x94, 0x7d, 0x81, 0x75,
  0x54, 0x98, 0x80, 0x59, 0x92, 0x85, 0x82, 0x87, 0x9c, 0x72, 0x98, 0x81,
  0x95, 0x8d, 0x7e, 0x7a, 0x78, 0x6c, 0x57, 0x88, 0x64, 0x82, 0x6e, 0x6e,
  0x49, 0x73, 0x70, 0x85, 0x77, 0x7c, 0x9d, 0x60, 0x77, 0x69, 0x8a, 0x9d,
  0x3c, 0x9e, 0x6e, 0x97, 0x6a, 0x8c, 0xaf, 0x96, 0x80, 0xa8, 0x98, 0x94,
  0x9d, 0x77, 0xa4, 0x62, 0x68, 0x80, 0x82, 0x93, 0x68, 0x4d, 0x64, 0x70,
  0x50, 0x61, 0xa3, 0xb8, 0x77, 0xae, 0x90, 0xb3, 0x8a, 0x51, 0x82, 0x7d,
  0xa1, 0x56, 0x7a, 0x53, 0x5e, 0x74, 0x64, 0x74, 0x8b, 0x62, 0x61, 0x8a,
  0x75, 0xb0, 0x69, 0x38, 0x87, 0x52, 0x6e, 0x7f, 0x66, 0x71, 0x88, 0x55,
  0x7f, 0x91, 0x47, 0x86, 0x71, 0x7e, 0x5a, 0x8a, 0x5c, 0x22, 0x6b, 0x81,
  0x7d, 0xa7, 0x75, 0xc1, 0x5e, 0x67, 0xbb, 0x80, 0x71, 0x8a, 0x6e, 0x8e,
  0x4f, 0x7b, 0xad, 0x85, 0x7c, 0xa0, 0x5c, 0x4d, 0x6b, 0x94, 0x43, 0x6b,
  0x84, 0x7a, 0x70, 0x53, 0x80, 0x9a, 0x6d, 0x4c, 0x81, 0x7f, 0x66, 0x93,
  0x9e, 0x96, 0x86, 0x82, 0x7a, 0x7f, 0x53, 0x6f, 0x44, 0xb4, 0x70, 0x7e,
  0xaa, 0x89, 0x87, 0x50, 0x78, 0x70, 0x63, 0x70, 0x79, 0x9c, 0x73, 0xb4,
  0x7c, 0x8a, 0x6c, 0x58, 0x7a, 0x92, 0x8b, 0x5f, 0x7f, 0x80, 0x77, 0x75,
  0xa4, 0x8b, 0x92, 0x5b, 0x70, 0x7a, 0x6e, 0x8c, 0x77, 0x94, 0x87, 0x64,
  0x76, 0x82, 0x84, 0x8a, 0x6d, 0x95, 0x88, 0x76, 0x83, 0x6b, 0x86, 0x83,
  0x68, 0x81, 0x7d, 0x76, 0x5f, 0x47, 0x71, 0x7e, 0x56, 0x93, 0xc0, 0x7b,
  0x7b, 0x68, 0x76, 0x89, 0x70, 0x81, 0xc1, 0x82, 0x8a, 0x8e, 0x53, 0x84,
  0x77, 0x74, 0x71, 0x5c, 0x59, 0x59, 0x8a, 0x42, 0x50, 0x89, 0x66, 0x67,
  0x91, 0x76, 0x8a, 0x74, 0x9d, 0x9e, 0x99, 0x51, 0x69, 0xa0, 0x71, 0x54,
  0x72, 0x67, 0x7d, 0x66, 0x6b, 0x5a, 0x7d, 0x6a, 0x6c, 0x65, 0xa8, 0x79,
  0x83, 0x8c, 0x82, 0x54, 0x76, 0x9a, 0x4b, 0xb1, 0x98, 0x72, 0x91, 0x7b,
  0xac, 0x64, 0x8b, 0x70, 0x93, 0x7a, 0x72, 0x7a, 0x7a, 0x6e, 0x76, 0x91,
  0x93, 0x8e, 0x67, 0x96, 0x87, 0x4a, 0x8e, 0x4b, 0x8f, 0x68, 0x6b, 0x66,
  0x5f, 0x8d, 0x79, 0x92, 0x87, 0x80, 0x75, 0x8f, 0x96, 0x65, 0x6d, 0xa5,
  0x4d, 0x8c, 0x7c, 0x68, 0x66, 0x79, 0xb1, 0x91, 0xac, 0x7b, 0x8f, 0xb1,
  0x47, 0xb6, 0x65, 0x86, 0x6f, 0x4e, 0x8a, 0xb5, 0x85, 0xaf, 0x67, 0x7f,
  0x59, 0xa0, 0x8e, 0x84, 0x86, 0x48, 0x95, 0x40, 0x89, 0x73, 0x88, 0x61,
  0x72, 0x7b, 0x7c, 0x9c, 0x7d, 0x90, 0xb9, 0x83, 0x97, 0xa6, 0x16, 0x76,
  0x60, 0x5b, 0xb1, 0xb4, 0x50, 0x5c, 0x5a, 0x8d, 0x73, 0x91, 0x5d, 0x76,
  0x83, 0x6c, 0x52, 0x92, 0x51, 0xbb, 0x69, 0xb8, 0xa6, 0x9c, 0x7d, 0xa2,
  0x67, 0x76, 0x8a, 0x7e, 0x77, 0x6d, 0x74, 0x74, 0x66, 0x8c, 0xc9, 0x6e,
  0x53, 0x7c, 0x6a, 0x73, 0x58, 0x86, 0xc6, 0x80, 0x8d, 0xa8, 0x7a, 0x63,
  0xb1, 0x90, 0x9e, 0x7f, 0x70, 0x7c, 0x40, 0x4b, 0x5e, 0x94, 0x8e, 0x62,
  0x82, 0x4a, 0x7d, 0x91, 0xad, 0x55, 0x42, 0xb0, 0x99, 0xbb, 0x91, 0xa8,
  0x41, 0x74, 0x74, 0x6b, 0x5e, 0x62, 0x84, 0xa1, 0x7b, 0x6d, 0x79, 0x2b,
  0xc4, 0x4a, 0x89, 0x9a, 0x68, 0x54, 0x62, 0x57, 0x4f, 0x87, 0x4f, 0x67,
  0x51, 0x84, 0x7e, 0x1b, 0xa9, 0x7b, 0x51, 0x38, 0x57, 0x96, 0x84, 0x8e,
  0x61, 0x96, 0xa7, 0x50, 0x96, 0x0c, 0x9a, 0x71, 0xcb, 0x8c, 0x75, 0x62,
  0x65, 0xb8, 0x53, 0x66, 0x76, 0x81, 0x4d, 0xba, 0x4c, 0xbb, 0xb9, 0x81,
  0xae, 0x52, 0xbc, 0x4f, 0x86, 0xa3, 0xba, 0x57, 0x73, 0xab, 0x8c, 0x82,
  0xc4, 0x56, 0xd7, 0xce, 0x9f, 0xb3, 0x74, 0xa3, 0xa1, 0x38, 0x6f, 0x5f,
  0x41, 0x80, 0x7f, 0x98, 0xbf, 0xf0, 0x5b, 0x8d, 0x92, 0x87, 0x73, 0x35,
  0x9e, 0xe9, 0x74, 0x6e, 0xca, 0x6c, 0x92, 0x95, 0x47, 0x84, 0x7b, 0x57,
  0x71, 0x6e, 0x9f, 0xbb, 0x9f, 0x72, 0x94, 0x62, 0xb1, 0xbb, 0x64, 0xa3,
  0x94, 0x76, 0x73, 0x7f, 0x8b, 0x85, 0x67, 0xb1, 0x7c, 0x88, 0x5b, 0x5e,
  0x8a, 0x71, 0x67, 0x7f, 0x8e, 0x7d, 0x88, 0x78, 0x77, 0x62, 0xa8, 0x9a,
  0x8f, 0x99, 0x77, 0x77, 0x88, 0x7c, 0x66, 0x88, 0x90, 0x79, 0x7f, 0x6c,
  0x96, 0xa5, 0x92, 0x68, 0x83, 0xa1, 0x83, 0x6a, 0x72, 0x7f, 0x8d, 0x6d,
  0x93, 0x7e, 0x9f, 0x86, 0x8b, 0x76, 0x73, 0x65, 0x72, 0x90, 0x67, 0xdb,
  0x7e, 0x80, 0x80, 0x8d, 0x87, 0x80, 0x7f, 0x80, 0xa2, 0x95, 0x8c, 0x94,
  0x6f, 0x79, 0x70, 0xbc, 0x81, 0x82, 0x5f, 0x87, 0x83, 0x7d, 0x6d, 0x61,
  0x75, 0x79, 0x76, 0x9f, 0x7e, 0x9d, 0x7f, 0x72, 0x66, 0x9c, 0x85, 0x83,
  0x6e, 0x7a, 0x99, 0x6c, 0x89, 0x8e, 0x6d, 0x86, 0x5f, 0x73, 0x87, 0xa8,
  0x88, 0x6c, 0x7c, 0x77, 0x7a, 0x63, 0x89, 0x84, 0xa8, 0x86, 0x6a, 0x62,
  0x6a, 0x8c, 0x83, 0x74, 0x5f, 0x92, 0x98, 0x9d, 0x63, 0x6f, 0xa2, 0x72,
  0x70, 0xa4, 0xc2, 0xad, 0x99, 0x86, 0xd3, 0x72, 0x62, 0x66, 0x4d, 0x6c,
  0x4c, 0x72, 0x42, 0x7e, 0x6f, 0x7c, 0x9b, 0x91, 0x7f, 0x97, 0x8c, 0x8f,
  0x74, 0xa6, 0x83, 0x4c, 0x62, 0x60, 0x79, 0x7c, 0x86, 0x82, 0x83, 0xa2,
  0x76, 0x88, 0x69, 0x7f, 0x54, 0x72, 0x92, 0x86, 0x6f, 0x75, 0x97, 0x52,
  0x93, 0x6c, 0x97, 0x4e, 0xa2, 0x52, 0x66, 0x8b, 0x94, 0x77, 0x82, 0xaf,
  0x71, 0xb3, 0x58, 0x6d, 0x81, 0x9d, 0x73, 0x8a, 0x53, 0x85, 0x73, 0xb4,
  0xc2, 0x66, 0x63, 0x62, 0x5f, 0x5c, 0x5f, 0x89, 0x76, 0xa7, 0x77, 0x8f,
  0x9c, 0x9c, 0x5c, 0x7d, 0x78, 0x9f, 0x8c, 0x6e, 0x85, 0x97, 0x74, 0x58,
  0x7c, 0x9e, 0xc6, 0x75, 0xa5, 0x5d, 0x7f, 0x8a, 0x6a, 0x8c, 0x51, 0xa6,
  0x88, 0x3c, 0x88, 0x94, 0x70, 0x67, 0x6f, 0xab, 0x6b, 0x67, 0x7b, 0x7f,
  0x72, 0x69, 0x5f, 0x90, 0x7a, 0x76, 0x57, 0xa7, 0x67, 0x76, 0x86, 0x98,
  0x54, 0x53, 0x77, 0x79, 0x78, 0xb7, 0x80, 0xae, 0x52, 0x6d, 0xa0, 0x9c,
  0x95, 0x78, 0xb7, 0x81, 0x8c, 0x52, 0x82, 0x50, 0x44, 0x4f, 0x72, 0x85,
  0x86, 0x68, 0x97, 0x76, 0x64, 0x88, 0xad, 0x8f, 0x31, 0x79, 0x74, 0x84,
  0x98, 0x95, 0x72, 0x5c, 0x89, 0x92, 0x8c, 0x84, 0x5f, 0x71, 0x80, 0x91,
  0x98, 0x8c, 0x95, 0x5b, 0x81, 0x7f, 0x5b, 0x5a, 0x56, 0x53, 0xa4, 0x70,
  0xc1, 0x81, 0x81, 0x3e, 0x7d, 0x79, 0x8d, 0xa4, 0x82, 0x89, 0x9c, 0xa0,
  0xaa, 0x9f, 0xbd, 0xa7, 0xa5, 0x83, 0x6d, 0x5c, 0x98, 0x33, 0x8b, 0x81,
  0x73, 0x6b, 0x6e, 0x52, 0x87, 0x8c, 0x4e, 0x8b, 0x9d, 0x6c, 0x6b, 0xce,
  0x60, 0xa8, 0xa1, 0x8c, 0x5a, 0x67, 0x7d, 0x89, 0xad, 0x6b, 0x7f, 0x8d,
  0x9d, 0x9f, 0xb2, 0x76, 0x99, 0x9a, 0x8a, 0x7d, 0x91, 0x5c, 0x6a, 0xcd,
  0x6c, 0x8b, 0x98, 0x9b, 0x5e, 0x56, 0x6d, 0x95, 0x7e, 0x61, 0x85, 0x6f,
  0x78, 0x65, 0x7f, 0xb0, 0x6d, 0x99, 0xab, 0x8f, 0x75, 0x65, 0x8e, 0x6f,
  0x77, 0xa4, 0x62, 0x83, 0xbd, 0x60, 0x60, 0x5f, 0x79, 0x72, 0x68, 0x8b,
  0x88, 0x77, 0x95, 0x6f, 0xa5, 0x7e, 0x93, 0x7a, 0xa2, 0x8f, 0x83, 0x55,
  0x90, 0xb1, 0x90, 0x9b, 0x84, 0x81, 0x7f, 0x8d, 0x83, 0x88, 0x77, 0x83,
  0x7c, 0xa6, 0xac, 0x8a, 0xa6, 0xaa, 0x7c, 0x5f, 0x6b, 0x8d, 0x6d, 0x6b,
  0x9a, 0x87, 0xa4, 0x85, 0x6f, 0x5e, 0x90, 0x76, 0x6b, 0x91, 0x83, 0x63,
  0x60, 0x8c, 0x68, 0x90, 0x9a, 0x55, 0x5d, 0x87, 0x79, 0x51, 0x85, 0x5d,
  0x6b, 0x79, 0x75, 0x78, 0x6a, 0x75, 0xbb, 0x69, 0x83, 0x6c, 0x7f, 0x65,
  0x83, 0x58, 0x98, 0x6a, 0x6e, 0xad, 0x7b, 0x79, 0x76, 0xbe, 0x7b, 0x83,
  0x5e, 0x61, 0x75, 0x8a, 0x96, 0x8c, 0xb3, 0x8d, 0x7a, 0x8d, 0x62, 0x80,
  0x45, 0x76, 0x85, 0x3f, 0x70, 0x7e, 0x73, 0x69, 0xad, 0xb5, 0x87, 0x88,
  0xac, 0x5f, 0xb6, 0x79, 0x70, 0x8a, 0x8c, 0x8d, 0x6b, 0x8b, 0x94, 0x65,
  0xaf, 0xa1, 0x72, 0x54, 0xb3, 0x85, 0xa3, 0x7f, 0x92, 0xc9, 0x56, 0x35,
  0x37, 0x38, 0x94, 0x77, 0x8f, 0x73, 0x63, 0x7b, 0x77, 0x4d, 0x77, 0xa5,
  0x74, 0x4c, 0x82, 0x78, 0x8f, 0x78, 0x01, 0x7b, 0x95, 0x83, 0x58, 0x81,
  0x3f, 0x66, 0x87, 0x93, 0x5a, 0x8f, 0x61, 0x5b, 0x8e, 0x93, 0x88, 0x8e,
  0x90, 0x8d, 0x93, 0xa5, 0x8d, 0x7d, 0x6c, 0x78, 0xab, 0x77, 0x73, 0x61,
  0x72, 0x62, 0x91, 0xb0, 0x84, 0xa1, 0x40, 0xbf, 0x9d, 0x97, 0x4d, 0x86,
  0x66, 0x44, 0xc4, 0xaf, 0x76, 0x85, 0x6d, 0x70, 0x7b, 0x7d, 0xa3, 0x9d,
  0x68, 0x99, 0x7f, 0x7a, 0x86, 0x99, 0xdc, 0x71, 0x6d, 0x7a, 0x7c, 0x61,
  0x6c, 0x94, 0x7b, 0x64, 0x73, 0x7c, 0x8b, 0xaf, 0x85, 0x6f, 0x3f, 0x60,
  0x4f, 0x7d, 0x76, 0x51, 0x94, 0x97, 0x9f, 0x9d, 0x90, 0xc1, 0x5d, 0x85,
  0xa6, 0x72, 0x54, 0x69, 0x7e, 0x55, 0x8e, 0x83, 0xbd, 0x69, 0x84, 0x92,
  0xaa, 0x76, 0x93, 0x6a, 0x9d, 0xa9, 0x8a, 0x72, 0x66, 0x67, 0x97, 0xa9,
  0x59, 0xb0, 0x92, 0x54, 0x91, 0x7e, 0x89, 0x70, 0x64, 0x90, 0x9f, 0x7d,
  0x87, 0x5c, 0xa0, 0x5a, 0x8e, 0x42, 0x86, 0x6b, 0x51, 0x8e, 0x71, 0x4a,
  0x61, 0xa7, 0xbb, 0x52, 0x9e, 0x9e, 0x6f, 0xca, 0x74, 0x92, 0x96, 0x85,
  0x7f, 0x65, 0x47, 0x72, 0x90, 0x6e, 0x8e, 0xaa, 0x81, 0x6c, 0xa1, 0x8a,
  0x8a, 0xa5, 0x71, 0x96, 0x80, 0x93, 0x8a, 0x70, 0x91, 0x64, 0xa1, 0x82,
  0x9a, 0xc0, 0x9b, 0x59, 0x85, 0x61, 0x9b, 0x91, 0x51, 0x86, 0x81, 0x7c,
  0x62, 0x8a, 0x71, 0x9c, 0xd6, 0x72, 0x5d, 0x9d, 0x77, 0x4a, 0x61, 0x58,
  0x59, 0x67, 0x62, 0x6c, 0x80, 0x6e, 0x91, 0x90, 0x87, 0xac, 0x70, 0x97,
  0x5f, 0x76, 0x47, 0xb3, 0x8d, 0x57, 0xc3, 0x6a, 0x9f, 0x5e, 0x67, 0x7f,
  0x74, 0x7e, 0x66, 0x95, 0x3a, 0x75, 0x8e, 0x6e, 0x65, 0x69, 0x6d, 0x89,
  0xa2, 0x61, 0x4d, 0x6a, 0x3f, 0xdf, 0x97, 0x60, 0x5c, 0x65, 0x81, 0x80,
  0x84, 0xb3, 0x9f, 0xa3, 0x9e, 0x6f, 0x95, 0x93, 0x74, 0xd9, 0x3c, 0xa5,
  0x88, 0x99, 0x8e, 0x7f, 0x6a, 0x7f, 0x5d, 0x68, 0x95, 0x6a, 0x9b, 0x8d,
  0x6d, 0x7b, 0x8f, 0xcb, 0x4e, 0x72, 0x9e, 0xc6, 0x51, 0x77, 0x98, 0xa2,
  0x7e, 0x58, 0x73, 0x86, 0x62, 0x8f, 0x8c, 0xbc, 0x7b, 0x89, 0x76, 0x87,
  0x8c, 0x5b, 0x8f, 0x93, 0xc2, 0x9c, 0x76, 0x6b, 0x58, 0x71, 0x79, 0x97,
  0x76, 0x71, 0x6f, 0x84, 0x5e, 0x70, 0x98, 0x6c, 0xa8, 0x48, 0x8f, 0x4d,
  0x81, 0xa8, 0xa2, 0x93, 0x67, 0x8c, 0xaf, 0x64, 0x69, 0x70, 0x8a, 0x8e,
  0x72, 0x7c, 0x99, 0x69, 0x89, 0x51, 0xa9, 0x72, 0x7b, 0x67, 0x8b, 0x90,
  0x8c, 0xae, 0x98, 0x52, 0x48, 0xaf, 0x90, 0x5e, 0x71, 0x8c, 0x70, 0xa4,
  0xd5, 0xc0, 0x89, 0x81, 0x7a, 0x96, 0x6b, 0x84, 0x6a, 0xbc, 0x86, 0x95,
  0x67, 0x79, 0xb5, 0x85, 0x47, 0x63, 0x8b, 0xab, 0x82, 0x5d, 0x8f, 0x4b,
  0x71, 0xa4, 0xaa, 0x99, 0x72, 0xae, 0x7b, 0x5d, 0xa5, 0x8f, 0x81, 0x78,
  0x4a, 0x96, 0x97, 0x88, 0x54, 0x7a, 0x5a, 0xbc, 0x85, 0x97, 0x5d, 0x90,
  0x68, 0xd4, 0x77, 0x4f, 0x7c, 0x73, 0x91, 0x88, 0x81, 0x95, 0x87, 0x9e,
  0x67, 0x8e, 0x90, 0x65, 0x62, 0x99, 0x63, 0x52, 0x7f, 0x83, 0x88, 0x48,
  0x99, 0x64, 0x80, 0x82, 0x5c, 0x81, 0xa7, 0x88, 0x6b, 0x73, 0x7f, 0x84,
  0x90, 0xa8, 0x77, 0xb6, 0x8b, 0x69, 0x8b, 0x5c, 0x68, 0x5f, 0x92, 0x83,
  0x37, 0x7e, 0x70, 0x6a, 0xb4, 0x8b, 0x7d, 0xa9, 0x83, 0x84, 0x82, 0x88,
  0xa1, 0x8e, 0xa7, 0x5e, 0x77, 0x88, 0x78, 0x78, 0x78, 0x90, 0x64, 0x7e,
  0xa2, 0x89, 0x65, 0x8c, 0xb0, 0x7c, 0x85, 0x6c, 0x76, 0x6b, 0x73, 0x86,
  0x91, 0x74, 0x79, 0xa5, 0x54, 0x5d, 0x6f, 0x7d, 0x81, 0x7c, 0x92, 0x88,
  0x5e, 0x7c, 0x9f, 0x67, 0x8b, 0x83, 0x87, 0x6b, 0x6d, 0x5e, 0xa2, 0x8c,
  0x6d, 0x68, 0x9a, 0x71, 0x87, 0x8c, 0x40, 0x59, 0xa5, 0x76, 0x57, 0x7b,
  0x97, 0x84, 0x76, 0x7c, 0x7d, 0x7a, 0x87, 0x49, 0x78, 0x8f, 0x7a, 0x6c,
  0x78, 0x9b, 0x7d, 0x69, 0xb0, 0x6a, 0x89, 0x6a, 0x68, 0xad, 0xa2, 0x6c,
  0xab, 0x69, 0x97, 0x76, 0xef, 0x8e, 0xab, 0x40, 0x4a, 0x7b, 0x76, 0x8e,
  0x7d, 0x4e, 0x6b, 0x9b, 0x99, 0x87, 0x5c, 0x88, 0x88, 0xa2, 0x96, 0xb9,
  0x82, 0x95, 0x68, 0x84, 0x73, 0x78, 0x91, 0x47, 0x54, 0x92, 0x7a, 0xa8,
  0xb2, 0x51, 0x59, 0x8e, 0x6a, 0x4f, 0xd1, 0xa6, 0x4d, 0x69, 0x90, 0x9e,
  0x66, 0x4a, 0x6f, 0x75, 0x8a, 0xa9, 0x7c, 0x3a, 0x57, 0x70, 0x61, 0x6a,
  0x9c, 0xc0, 0x6b, 0x81, 0x59, 0x2f, 0x6d, 0xf0, 0xc7, 0x7c, 0x67, 0x9f,
  0x56, 0x36, 0x91, 0x7a, 0x51, 0x52, 0x97, 0xc3, 0x89, 0x89, 0xad, 0x85,
  0x8e, 0x8b, 0x86, 0x93, 0x77, 0x6b, 0x4c, 0x92, 0x75, 0x8a, 0xa2, 0x86,
  0x54, 0x78, 0x81, 0x7e, 0xb6, 0x71, 0x52, 0xac, 0x7b, 0x4d, 0x6b, 0x5c,
  0x84, 0x65, 0x5c, 0x56, 0x8c, 0x99, 0x5c, 0x57, 0x92, 0x5f, 0x81, 0x8f,
  0x5e, 0xb3, 0x76, 0x80, 0xb5, 0x9b, 0x93, 0x8a, 0x7e, 0x39, 0x68, 0x66,
  0x9c, 0x6b, 0x85, 0x76, 0x51, 0xa0, 0xa0, 0x78, 0x76, 0x6f, 0x6d, 0x6e,
  0x6b, 0x98, 0x5e, 0x78, 0x5b, 0x77, 0x94, 0x3c, 0x77, 0xae, 0xc5, 0x75,
  0x7d, 0x8c, 0x77, 0x4d, 0x95, 0x73, 0x6c, 0x93, 0x5f, 0x7c, 0x87, 0x8c,
  0xa8, 0x6d, 0x6b, 0x4a, 0x53, 0x8b, 0x64, 0x63, 0x64, 0x71, 0x94, 0x5c,
  0x60, 0x93, 0x38, 0x67, 0x9f, 0x8b, 0x6f, 0x8b, 0x7e, 0x8b, 0x80, 0x5a,
  0x53, 0x7e, 0x64, 0x76, 0x6e, 0x91, 0x79, 0x9e, 0x5b, 0xa0, 0x90, 0x8f,
  0xc4, 0x85, 0x9f, 0x91, 0x8f, 0x8a, 0x53, 0xac, 0x75, 0x83, 0x97, 0x56,
  0x61, 0x4d, 0x80, 0x5b, 0x7b, 0x7b, 0x52, 0x96, 0xa4, 0x62, 0x6a, 0x8d,
  0xb8, 0x6d, 0x6b, 0x6e, 0x6a, 0xd1, 0x70, 0x54, 0x57, 0x9f, 0x97, 0xbc,
  0x7c, 0xa0, 0x80, 0x64, 0x68, 0x83, 0xa5, 0x6f, 0x85, 0x6e, 0x77, 0x66,
  0x72, 0x8b, 0x9a, 0x6e, 0x6e, 0x74, 0x70, 0x72, 0x6b, 0x60, 0x69, 0x79,
  0x6f, 0x8c, 0x85, 0x57, 0x61, 0x73, 0x96, 0x74, 0x52, 0x90, 0x9a, 0x7d,
  0x5e, 0x58, 0x84, 0x83, 0x5b, 0x91, 0xae, 0x47, 0x89, 0xa7, 0x79, 0x5c,
  0x94, 0x90, 0x6a, 0x8c, 0x9e, 0x94, 0x84, 0x7e, 0x55, 0xa5, 0x9a, 0x87,
  0x92, 0xae, 0x62, 0x82, 0x76, 0x97, 0x8c, 0x72, 0x8c, 0x5d, 0x90, 0x61,
  0x6b, 0x49, 0x6c, 0x37, 0x86, 0x88, 0x74, 0x7c, 0x7b, 0x70, 0x7e, 0x6a,
  0x77, 0x90, 0x76, 0x8c, 0x77, 0x88, 0x41, 0x71, 0x47, 0x90, 0x35, 0x71,
  0x76, 0x7f, 0x9a, 0xab, 0x99, 0x88, 0xa9, 0x79, 0x62, 0x8a, 0x91, 0x76,
  0x89, 0xa9, 0x88, 0x84, 0x82, 0x40, 0x8d, 0x5a, 0x4a, 0x95, 0x5d, 0x70,
  0x70, 0xa0, 0x5c, 0x80, 0x75, 0x8e, 0x92, 0x68, 0xe7, 0x94, 0x61, 0x72,
  0x6b, 0x93, 0x7b, 0x68, 0x6d, 0xcb, 0x91, 0x97, 0x80, 0x88, 0x80, 0x63,
  0x6e, 0x58, 0x7e, 0x7c, 0x95, 0x95, 0x68, 0x32, 0xa5, 0x72, 0x73, 0x88,
  0x8a, 0x7d, 0x41, 0x73, 0x63, 0x6f, 0xa4, 0x8a, 0x64, 0x8c, 0x75, 0x91,
  0x4f, 0x69, 0x71, 0x80, 0x97, 0x64, 0xc7, 0x48, 0x5a, 0x98, 0x98, 0x8a,
  0x5f, 0x8e, 0x64, 0x93, 0x68, 0x55, 0x61, 0x7b, 0x30, 0x7f, 0xbe, 0x4f,
  0x69, 0x5b, 0x8c, 0x91, 0x99, 0x96, 0x66, 0xab, 0x96, 0x89, 0x46, 0x7d,
  0x5f, 0x4a, 0x7c, 0x8c, 0x85, 0x77, 0x72, 0x71, 0x6d, 0xb2, 0x7e, 0x99,
  0x6f, 0x78, 0x71, 0x7a, 0x80, 0x76, 0x5d, 0x99, 0x74, 0x7b, 0x71, 0x8e,
  0x77, 0x8f, 0x9a, 0x8b, 0xb4, 0x93, 0x71, 0x81, 0x80, 0x67, 0x65, 0x48,
  0x83, 0x74, 0x57, 0x7c, 0x69, 0x8c, 0x88, 0x62, 0x55, 0x8a, 0xb4, 0x7a,
  0x73, 0x87, 0x7d, 0x5b, 0x86, 0x72, 0x77, 0x98, 0x56, 0x8a, 0xb8, 0x68,
  0x9b, 0x8d, 0x72, 0x87, 0x6f, 0x4f, 0x9a, 0x8a, 0x6b, 0x68, 0x90, 0x74,
  0x99, 0x92, 0xbc, 0x5e, 0x61, 0x93, 0x74, 0x74, 0x9b, 0x6c, 0x8f, 0x99,
  0x73, 0x48, 0x62, 0x7f, 0x74, 0xa2, 0x63, 0x8f, 0x69, 0x88, 0x72, 0x54,
  0x7d, 0x6e, 0x75, 0x4e, 0x6e, 0x99, 0x94, 0x5e, 0x81, 0x23, 0x9a, 0x64,
  0x76, 0xa9, 0x98, 0x69, 0xae, 0x85, 0x87, 0x9c, 0x56, 0x7d, 0x66, 0x64,
  0x9e, 0x75, 0xb0, 0x64, 0x72, 0xa9, 0x0f, 0x4f, 0x82, 0x62, 0x94, 0x40,
  0x61, 0x58, 0x8c, 0x65, 0xb3, 0x5a, 0x95, 0x8b, 0x6d, 0x75, 0x62, 0x92,
  0xac, 0x8b, 0x6c, 0x62, 0x75, 0x7c, 0xbe, 0x60, 0xbb, 0x56, 0xb7, 0x44,
  0x87, 0x7c, 0x8c, 0x57, 0xb2, 0x7f, 0xaa, 0x85, 0x5f, 0x8c, 0x92, 0x6c,
  0x72, 0x49, 0x7f, 0x87, 0x2e, 0x6a, 0x85, 0x7a, 0x64, 0x66, 0x8c, 0xa2,
  0x93, 0x69, 0x6c, 0x5a, 0x6c, 0x8c, 0x50, 0x90, 0x6e, 0xa4, 0x4a, 0x75,
  0xa4, 0x92, 0x8c, 0x82, 0x95, 0x5e, 0x90, 0x54, 0x76, 0x8f, 0x6a, 0x58,
  0x90, 0x6a, 0x41, 0x5b, 0x84, 0xa0, 0x84, 0x7b, 0x5a, 0x6e, 0xb9, 0x87,
  0x7d, 0x57, 0x5d, 0x41, 0xbc, 0x93, 0x91, 0x98, 0x73, 0x75, 0x8b, 0xa5,
  0x84, 0x84, 0x88, 0x62, 0x77, 0x62, 0x97, 0xb9, 0x67, 0x96, 0x8e, 0x7a,
  0x74, 0x5d, 0x75, 0x93, 0x85, 0x87, 0x69, 0x7f, 0x61, 0x62, 0x99, 0x83,
  0x62, 0xa2, 0x5f, 0x87, 0x7f, 0xbc, 0x7b, 0x6b, 0x85, 0x78, 0x92, 0x82,
  0x6b, 0x9d, 0x8f, 0x8f, 0x75, 0xbd, 0x69, 0x8a, 0x8a, 0x6e, 0x86, 0x9e,
  0xa2, 0x75, 0xaf, 0x68, 0x82, 0x94, 0x6e, 0xa8, 0x7d, 0xa7, 0x7a, 0x76,
  0x8f, 0x5c, 0x86, 0x8e, 0x7b, 0x7e, 0x69, 0x67, 0x90, 0x7a, 0xa2, 0x9d,
  0x4c, 0x73, 0x6e, 0x8a, 0x6c, 0x68, 0x86, 0x80, 0x80, 0x7c, 0x8f, 0x5c,
  0x6f, 0x74, 0x84, 0x52, 0x72, 0x80, 0x84, 0x5e, 0x73, 0x57, 0x76, 0xa7,
  0x76, 0x6f, 0x61, 0x90, 0x5c, 0x82, 0x7b, 0x5c, 0x46, 0x7e, 0x89, 0x7c,
  0x69, 0x98, 0x80, 0x8b, 0x4b, 0x5c, 0x71, 0x7f, 0x5b, 0xae, 0x80, 0x68,
  0x7d, 0xa6, 0x77, 0x62, 0x61, 0x80, 0x93, 0x79, 0x8f, 0x78, 0x7e, 0x54,
  0x8c, 0x50, 0x5d, 0x65, 0xbf, 0x8e, 0x64, 0x6e, 0xa5, 0x83, 0x80, 0x85,
  0x6a, 0x82, 0x67, 0x5a, 0x78, 0x89, 0x97, 0x5d, 0x31, 0x67, 0x8f, 0xc8,
  0x68, 0xa2, 0x63, 0x80, 0x7d, 0x92, 0x9e, 0x5a, 0x80, 0x5c, 0x7e, 0xa4,
  0x94, 0x66, 0x7c, 0x76, 0x61, 0x76, 0x74, 0xc8, 0x6a, 0x6f, 0xa3, 0x50,
  0x7d, 0x85, 0x75, 0x45, 0x75, 0x9f, 0x65, 0x9c, 0x8c, 0x9b, 0x8d, 0x7e,
  0x6e, 0x76, 0x55, 0x34, 0x55, 0x8e, 0x64, 0x90, 0xa7, 0x91, 0x65, 0x7e,
  0x75, 0x7f, 0x6f, 0x7d, 0x74, 0x3e, 0x7a, 0x7e, 0xa4, 0x72, 0x91, 0x4b,
  0x7d, 0x90, 0x7a, 0x6e, 0x78, 0xb7, 0x78, 0x73, 0x50, 0x7b, 0x94, 0x72,
  0x79, 0x8a, 0x52, 0x9e, 0x84, 0x82, 0x62, 0x8d, 0x69, 0x64, 0x6a, 0x90,
  0xa3, 0x9d, 0x6f, 0x6d, 0x88, 0x6f, 0x64, 0x88, 0x71, 0x65, 0x8e, 0xa4,
  0x7d, 0x79, 0xa4, 0x5f, 0x4f, 0x6d, 0x9b, 0x8f, 0x85, 0x54, 0x5f, 0x99,
  0x86, 0x70, 0x80, 0x7d, 0x74, 0x57, 0x7d, 0x6d, 0x7f, 0x98, 0x83, 0x9b,
  0x65, 0x8f, 0x4b, 0x6f, 0x7f, 0x64, 0x5d, 0xac, 0x84, 0x4e, 0xa0, 0x78,
  0x87, 0x68, 0x94, 0x70, 0x91, 0x4d, 0x9d, 0xa6, 0x8a, 0x8e, 0x78, 0x89,
  0x7a, 0x80, 0x83, 0x6c, 0x90, 0x6c, 0x68, 0x84, 0x71, 0x68, 0x8d, 0x7d,
  0x87, 0x8f, 0x9e, 0x61, 0x99, 0x87, 0x95, 0x7f, 0xaf, 0x46, 0x8f, 0x49,
  0x81, 0x6a, 0x7f, 0x79, 0x9c, 0x7b, 0x81, 0x89, 0x6f, 0x67, 0x82, 0x63,
  0x8e, 0x7a, 0x68, 0x7a, 0x92, 0x8e, 0x82, 0x7f, 0x7e, 0xa3, 0x77, 0x8b,
  0x69, 0x6e, 0x7b, 0x76, 0x93, 0x71, 0x73, 0x6a, 0x62, 0x7e, 0x5f, 0x76,
  0x64, 0x94, 0x9c, 0x9f, 0x61, 0x7a, 0x6d, 0x8e, 0x8e, 0x8f, 0x72, 0x84,
  0x78, 0x73, 0x6f, 0x5d, 0xad, 0x64, 0x76, 0x98, 0x92, 0x95, 0x6d, 0x6b,
  0x63, 0x6c, 0x7b, 0x95, 0x9a, 0x6e, 0xbb, 0x46, 0x70, 0x6b, 0x9f, 0x9b,
  0x7f, 0x83, 0x68, 0x57, 0x80, 0x5f, 0x77, 0x6e, 0x8e, 0x6f, 0x7a, 0x65,
  0x73, 0x83, 0x5f, 0x9e, 0x62, 0x6b, 0x8d, 0x4c, 0x6d, 0x6a, 0xa3, 0x76,
  0x72, 0x83, 0x97, 0x8a, 0x7f, 0x8d, 0x85, 0x99, 0x73, 0x8a, 0x87, 0x5b,
  0x8f, 0x6f, 0x9c, 0x5f, 0x86, 0x74, 0x90, 0x94, 0x9d, 0x83, 0x69, 0x96,
  0x89, 0x57, 0x87, 0x81, 0x92, 0x8a, 0x5f, 0x79, 0x5d, 0x8d, 0x81, 0x91,
  0x51, 0x67, 0x8b, 0x66, 0x6d, 0x8f, 0x65, 0x76, 0x71, 0x99, 0x76, 0x78,
  0x66, 0x75, 0x7a, 0x6e, 0x6e, 0x9a, 0x7b, 0x89, 0x6a, 0x6b, 0x79, 0x67,
  0x7a, 0x82, 0x5b, 0x6d, 0x85, 0x8f, 0x6d, 0x94, 0x7f, 0x96, 0x9b, 0x6e,
  0x9d, 0x6b, 0x83, 0x8a, 0x90, 0x83, 0xbd, 0x85, 0x82, 0x95, 0x5f, 0x7f,
  0x79, 0xb6, 0x95, 0x90, 0x70, 0x9a, 0x65, 0x73, 0x8f, 0x5f, 0x7a, 0x84,
  0x37, 0xa8, 0xdb, 0x75, 0x75, 0x62, 0x41, 0x43, 0x8e, 0xa2, 0x5b, 0x46,
  0xa3, 0x8c, 0x8e, 0x72, 0x91, 0x5d, 0x93, 0x6b, 0x52, 0x3b, 0xb0, 0x90,
  0xa4, 0x83, 0x7d, 0x4f, 0x4d, 0x98, 0x51, 0x9a, 0x87, 0x68, 0x86, 0x80,
  0x86, 0x4b, 0x68, 0x5e, 0x5a, 0x81, 0x7a, 0x44, 0x8b, 0x8f, 0x85, 0x73,
  0x97, 0x95, 0x6a, 0x6b, 0x4b, 0x9e, 0x6f, 0xa1, 0xa2, 0x59, 0x7d, 0x63,
  0xa8, 0x69, 0x56, 0xc7, 0x4c, 0xae, 0x48, 0xa5, 0x65, 0x58, 0x6e, 0x78,
  0x77, 0x9f, 0xb0, 0x69, 0xa5, 0xa2, 0x2d, 0x7b, 0x60, 0x70, 0x65, 0x78,
  0x6c, 0x73, 0x91, 0x79, 0x73, 0x39, 0x85, 0x57, 0x6d, 0x57, 0x91, 0x7a,
  0x55, 0xb3, 0x81, 0x85, 0x84, 0x7f, 0x5f, 0x79, 0x9a, 0x61, 0x6d, 0x62,
  0x75, 0x86, 0xba, 0xa2, 0x87, 0x99, 0x87, 0x9f, 0x93, 0x8f, 0x80, 0x70,
  0x50, 0x57, 0x71, 0x85, 0x8e, 0xa8, 0x64, 0x8f, 0x8f, 0x78, 0x8e, 0x65,
  0x58, 0x70, 0x49, 0x70, 0x90, 0x80, 0x64, 0x70, 0x66, 0x4c, 0x7a, 0xbc,
  0xa8, 0x9d, 0x33, 0x85, 0x98, 0x7a, 0xc0, 0x6a, 0x67, 0x5a, 0x8e, 0x96,
  0x4d, 0x59, 0x65, 0x6a, 0x97, 0x69, 0x78, 0x43, 0x6e, 0x90, 0x73, 0x68,
  0x6a, 0xb0, 0x72, 0x9a, 0x96, 0x73, 0x39, 0x41, 0x55, 0x83, 0x7e, 0x87,
  0x7a, 0xaa, 0x7a, 0x78, 0x83, 0x80, 0x8f, 0x8e, 0x78, 0x58, 0x72, 0x7b,
  0xa1, 0x6e, 0x50, 0x67, 0x7c, 0x77, 0x53, 0xb0, 0x8c, 0x6c, 0x5a, 0x78,
  0xad, 0xa8, 0xbd, 0x60, 0xb2, 0x7a, 0x52, 0xa8, 0x88, 0x6f, 0x7e, 0x60,
  0x84, 0x82, 0x52, 0x5c, 0x82, 0x78, 0x5c, 0x7d, 0x4e, 0x83, 0x82, 0x62,
  0x6c, 0x6f, 0x72, 0xc1, 0x99, 0x7d, 0x5f, 0x64, 0x8d, 0x3d, 0x61, 0x81,
  0x9e, 0x71, 0x66, 0x6f, 0x45, 0xaa, 0x48, 0x5e, 0x93, 0x93, 0xbd, 0x73,
  0x67, 0x2e, 0x73, 0x82, 0xa9, 0x4a, 0x8a, 0x80, 0x3f, 0x81, 0x87, 0x79,
  0xac, 0x62, 0xa4, 0x6c, 0xce, 0x77, 0x9d, 0x94, 0x82, 0x69, 0x5e, 0x7a,
  0x90, 0x89, 0x85, 0x49, 0x89, 0x44, 0x93, 0x89, 0x67, 0x84, 0x87, 0x77,
  0x66, 0x70, 0x91, 0x45, 0x67, 0x7b, 0x52, 0x5f, 0x61, 0x7c, 0x6c, 0x67,
  0x85, 0x71, 0x4a, 0x80, 0x63, 0x8b, 0x4b, 0x7b, 0x98, 0x6e, 0x86, 0x6a,
  0x86, 0x7f, 0x78, 0x83, 0x84, 0x7b, 0x4b, 0x77, 0x80, 0x65, 0x5a, 0x9e,
  0xa0, 0x6d, 0x88, 0x82, 0x65, 0x84, 0x74, 0x69, 0x51, 0x75, 0x65, 0x71,
  0x6a, 0x73, 0xab, 0x73, 0x8f, 0xa0, 0xa3, 0x7c, 0x9e, 0x7f, 0xb5, 0x5c,
  0x73, 0x68, 0xda, 0xa4, 0xa7, 0x90, 0xd0, 0x6e, 0x78, 0x7b, 0x90, 0x63,
  0xa9, 0x53, 0x99, 0x61, 0x79, 0x85, 0x78, 0x88, 0x83, 0xaa, 0x6a, 0x7f,
  0x61, 0xba, 0x38, 0x94, 0x90, 0x52, 0x71, 0x70, 0x8f, 0x78, 0x4c, 0x7f,
  0x64, 0x5d, 0x52, 0x69, 0x86, 0x68, 0x86, 0x48, 0xb3, 0xc3, 0x96, 0x9b,
  0x66, 0x6a, 0xa4, 0x5b, 0x98, 0x5f, 0x83, 0x72, 0x8e, 0x77, 0x77, 0x68,
  0xa4, 0x7d, 0x8c, 0xbc, 0x95, 0x7f, 0x97, 0x7a, 0x5a, 0x80, 0x8c, 0xc8,
  0x86, 0x51, 0x63, 0x8c, 0x84, 0x98, 0x8b, 0x3f, 0xac, 0x6b, 0x76, 0x78,
  0x78, 0x86, 0x79, 0x67, 0x86, 0xa4, 0x7a, 0x4f, 0x78, 0x8d, 0x88, 0x97,
  0x8f, 0x6a, 0x4e, 0x90, 0x9d, 0xb1, 0x94, 0x6f, 0x5c, 0x9f, 0x83, 0x7e,
  0x69, 0x94, 0x55, 0x90, 0x7e, 0x6a, 0x67, 0x52, 0x96, 0x7b, 0x7c, 0x56,
  0x89, 0x60, 0x70, 0xa1, 0x91, 0x7c, 0x86, 0x48, 0x8f, 0x63, 0x86, 0x61,
  0x47, 0x68, 0x78, 0x72, 0x7d, 0x8a, 0x72, 0x8e, 0x8f, 0x76, 0x99, 0x92,
  0x7e, 0x6c, 0x78, 0x91, 0x69, 0x39, 0x9e, 0x8f, 0x6f, 0x54, 0x49, 0x55,
  0x76, 0x7b, 0x62, 0x51, 0x87, 0x79, 0x96, 0xa3, 0x52, 0x59, 0xae, 0x69,
  0x89, 0xa1, 0x7e, 0x99, 0x68, 0x85, 0x8b, 0x8e, 0x64, 0xaa, 0x69, 0x62,
  0x67, 0x6d, 0x9e, 0x79, 0xa6, 0x77, 0x8a, 0x68, 0x86, 0x72, 0x96, 0x53,
  0xa6, 0x9e, 0xae, 0x39, 0xa1, 0x5f, 0x9e, 0x8d, 0x7c, 0x77, 0x48, 0x84,
  0x7f, 0x9f, 0x57, 0x8b, 0xac, 0x66, 0x91, 0xac, 0x8e, 0x81, 0x62, 0x6b,
  0x8a, 0xa6, 0x56, 0x95, 0x94, 0x93, 0x90, 0x5d, 0x78, 0x8f, 0x7c, 0x6a,
  0x9e, 0x86, 0xc4, 0x56, 0xa1, 0x9f, 0x54, 0x6e, 0x83, 0x88, 0x91, 0x7a,
  0x69, 0xa7, 0x6d, 0x5d, 0x78, 0x91, 0x7a, 0xa8, 0xbc, 0x7d, 0x77, 0x93,
  0x72, 0x87, 0x87, 0x8b, 0x98, 0x59, 0x8b, 0x89, 0x55, 0x8f, 0x63, 0x3c,
  0xa3, 0x6b, 0x7b, 0xae, 0x95, 0x91, 0x79, 0x82, 0x82, 0x78, 0x80, 0x7e,
  0xa1, 0x72, 0x76, 0x91, 0x8c, 0x71, 0x84, 0x5d, 0x7f, 0x77, 0xa6, 0x77,
  0x62, 0x70, 0x86, 0xae, 0x98, 0x51, 0x87, 0xb6, 0x4a, 0x65, 0x7d, 0x7d,
  0xb0, 0xa7, 0x7f, 0x69, 0x97, 0x94, 0x6f, 0x6c, 0x73, 0x77, 0x64, 0x94,
  0x6e, 0x9d, 0x68, 0x87, 0x84, 0x8b, 0x73, 0x77, 0x74, 0x6b, 0x8f, 0x89,
  0x3e, 0x8a, 0x6f, 0x6a, 0x7b, 0x3e, 0x85, 0x5b, 0x7b, 0x61, 0x4a, 0x5b,
  0x85, 0x5c, 0x46, 0xab, 0x78, 0xb3, 0x4f, 0x85, 0xa9, 0x7e, 0x78, 0x72,
  0x73, 0x93, 0x92, 0x8c, 0x91, 0xb5, 0x71, 0x5a, 0x95, 0x76, 0xa0, 0x87,
  0x95, 0x7f, 0x94, 0xab, 0x79, 0x8d, 0x91, 0x86, 0x64, 0x77, 0x68, 0x7e,
  0x4e, 0x8f, 0x4e, 0xa0, 0x71, 0x6e, 0x78, 0x9d, 0x6b, 0x6d, 0xb9, 0x97,
  0x7e, 0x8e, 0x55, 0x5a, 0xa4, 0x98, 0x5d, 0x5a, 0x86, 0x9f, 0x71, 0x9c,
  0x57, 0x87, 0xb6, 0xa4, 0x83, 0x95, 0x90, 0x7a, 0xa7, 0x90, 0x8d, 0x6d,
  0xaa, 0x79, 0x56, 0x66, 0x9c, 0x49, 0xb6, 0x96, 0x68, 0x98, 0x79, 0x66,
  0x91, 0x6c, 0x86, 0x79, 0x95, 0x88, 0x9e, 0x69, 0x5e, 0x89, 0x57, 0x5c,
  0x94, 0x71, 0x6b, 0x75, 0x73, 0x4a, 0xa5, 0x5e, 0x8e, 0x71, 0xb7, 0x6b,
  0x80, 0x70, 0x77, 0x79, 0x6b, 0x7b, 0x9e, 0x66, 0x7e, 0x94, 0x78, 0xa0,
  0x54, 0x86, 0x78, 0xa9, 0x69, 0x77, 0x46, 0x7f, 0x8d, 0x7b, 0x86, 0x71,
  0x71, 0x8f, 0x88, 0x69, 0xa0, 0x9a, 0x77, 0x84, 0x85, 0x91, 0x6e, 0x7f,
  0x84, 0x76, 0x6c, 0x8d, 0x5f, 0xa3, 0x6e, 0xa7, 0x5c, 0x6e, 0x91, 0xa6,
  0x6a, 0x8a, 0x81, 0x62, 0x7d, 0xbc, 0x83, 0x6e, 0x7d, 0x82, 0xaf, 0x83,
  0x69, 0x79, 0xa7, 0x57, 0x7c, 0xa5, 0x70, 0x8f, 0x8d, 0x71, 0x99, 0x7a,
  0x74, 0x73, 0xa5, 0x59, 0xa2, 0x86, 0x88, 0x74, 0x82, 0x66, 0x62, 0x91,
  0x84, 0x81, 0x59, 0x87, 0x79, 0x86, 0x9c, 0x6e, 0x7d, 0x8a, 0x6a, 0x61,
  0x65, 0x5d, 0x73, 0x5a, 0x9d, 0x64, 0x60, 0x73, 0xc1, 0x92, 0x7d, 0x82,
  0x65, 0x63, 0xa7, 0x70, 0x6d, 0x69, 0x5a, 0x80, 0x78, 0x5c, 0x6b, 0x7d,
  0x30, 0x7f, 0x54, 0x9f, 0xa2, 0x57, 0xbb, 0xc2, 0x8a, 0x99, 0x78, 0x88,
  0x6a, 0x95, 0x26, 0x91, 0x94, 0x73, 0x6c, 0x3b, 0x8c, 0x84, 0x89, 0x68,
  0x9f, 0x86, 0x66, 0x5f, 0x6d, 0x8a, 0x92, 0x65, 0x70, 0x86, 0x8f, 0x7c,
  0x87, 0x84, 0x4b, 0x79, 0x67, 0x9b, 0x6d, 0x81, 0x6d, 0x8a, 0x47, 0x8d,
  0x73, 0x53, 0x80, 0x93, 0x9f, 0x94, 0x75, 0x92, 0xa3, 0x79, 0x6f, 0x69,
  0x94, 0x93, 0x6f, 0xb5, 0xbf, 0x84, 0x7b, 0xa2, 0x8b, 0x87, 0x76, 0x59,
  0x69, 0x8f, 0x71, 0x61, 0x81, 0x89, 0x62, 0x83, 0x67, 0x75, 0x87, 0x78,
  0x74, 0x91, 0x76, 0x88, 0x90, 0x8e, 0x96, 0x74, 0x87, 0x62, 0x63, 0x75,
  0x92, 0x83, 0x8c, 0x6a, 0x54, 0x71, 0x63, 0x80, 0x95, 0x96, 0x54, 0x77,
  0x78, 0x8b, 0x91, 0x9b, 0x72, 0x62, 0x27, 0x75, 0x80, 0x69, 0x9b, 0x8d,
  0x6a, 0x63, 0x78, 0x89, 0x91, 0x74, 0xc7, 0x82, 0x63, 0x96, 0x91, 0x77,
  0x7b, 0x7e, 0x81, 0x76, 0x8b, 0x86, 0x74, 0x6c, 0x4f, 0x71, 0x90, 0x85,
  0x87, 0x7a, 0x71, 0x7a, 0x87, 0x3f, 0x9f, 0x7b, 0x6f, 0x7f, 0x62, 0x8c,
  0x94, 0x6f, 0x99, 0x4c, 0xa9, 0x61, 0x6d, 0x84, 0xac, 0x70, 0x85, 0x95,
  0x63, 0x77, 0xa2, 0x66, 0x96, 0x46, 0x69, 0x6b, 0x98, 0x4f, 0x82, 0x91,
  0x86, 0x4f, 0x8e, 0x6d, 0x6f, 0xa0, 0x9d, 0x6d, 0x75, 0x61, 0x55, 0x7b,
  0x9a, 0xb8, 0xd1, 0x8e, 0x63, 0x86, 0x84, 0x8e, 0x8d, 0x78, 0x95, 0xa7,
  0xa1, 0x6d, 0x81, 0xa3, 0x8a, 0xa6, 0x6c, 0x69, 0x94, 0x76, 0x5d, 0x71,
  0x7b, 0x76, 0x8d, 0x85, 0x80, 0x74, 0x76, 0x67, 0xa6, 0xab, 0x77, 0x68,
  0x87, 0x6b, 0x80, 0x79, 0x44, 0x72, 0x6b, 0x61, 0xaf, 0xb5, 0x84, 0x6f,
  0x67, 0x9f, 0x90, 0x83, 0x49, 0x5a, 0xa3, 0x5c, 0x73, 0xc5, 0x39, 0x7d,
  0x83, 0x56, 0x6a, 0xa3, 0xb2, 0xb2, 0x96, 0xbe, 0x70, 0xa4, 0x71, 0xa7,
  0x71, 0x5b, 0x9e, 0xac, 0x77, 0x7d, 0x77, 0x5f, 0x3f, 0x8f, 0x83, 0x41,
  0x74, 0x5e, 0x8c, 0x65, 0x7f, 0x87, 0xab, 0x70, 0xb0, 0x7e, 0x6b, 0x8a,
  0x7b, 0x85, 0x88, 0x82, 0x7b, 0x60, 0xd9, 0x66, 0x61, 0x6c, 0x41, 0x8d,
  0x72, 0x7a, 0x78, 0x9b, 0x75, 0x76, 0x68, 0x70, 0x8e, 0x59, 0xaf, 0x76,
  0x76, 0x75, 0xa6, 0x7c, 0x65, 0x5e, 0x98, 0x68, 0x84, 0xb6, 0x56, 0x3d,
  0x73, 0x69, 0x8e, 0xad, 0x5a, 0x6d, 0x9e, 0x82, 0x6b, 0x92, 0x5a, 0x52,
  0x92, 0x59, 0x5a, 0xa5, 0x71, 0x79, 0x7b, 0x46, 0xc7, 0x71, 0x6e, 0x54,
  0x66, 0x51, 0x88, 0x7c, 0x93, 0x5a, 0x8e, 0x7e, 0x93, 0x62, 0xbc, 0x72,
  0x4a, 0x72, 0x77, 0x68, 0x6a, 0x7b, 0x76, 0x98, 0x9d, 0x7f, 0x48, 0x6a,
  0x82, 0x79, 0xa8, 0x7a, 0x71, 0x65, 0x96, 0xa1, 0x8e, 0x7f, 0x6f, 0x77,
  0x70, 0xa1, 0x6b, 0x60, 0x46, 0xa7, 0x67, 0x56, 0x72, 0x6a, 0x97, 0x69,
  0x87, 0x90, 0x4f, 0x71, 0xc5, 0x68, 0xa1, 0x94, 0x86, 0x81, 0x7b, 0x97,
  0x81, 0x68, 0x5d, 0x92, 0xd6, 0x77, 0x9c, 0x58, 0x85, 0x63, 0x8a, 0x87,
  0x33, 0x88, 0x5c, 0x6f, 0x92, 0x75, 0x82, 0x8b, 0x54, 0x75, 0xb6, 0x99,
  0x94, 0x6b, 0xb7, 0x79, 0x73, 0x4d, 0x75, 0x76, 0x97, 0x63, 0x8c, 0x7a,
  0x93, 0x89, 0x7c, 0x57, 0x71, 0x90, 0x79, 0x52, 0x9b, 0x87, 0x6f, 0x6c,
  0x62, 0x9b, 0xb5, 0x4e, 0xa4, 0x7a, 0x83, 0x50, 0x71, 0x62, 0xac, 0x8d,
  0x7c, 0x84, 0xa5, 0x8f, 0x48, 0x98, 0x84, 0x62, 0x85, 0x66, 0x64, 0x6f,
  0x72, 0x7a, 0x5d, 0x81, 0x82, 0x7a, 0x84, 0x77, 0x9e, 0x8c, 0x6f, 0x90,
  0x82, 0x5f, 0x64, 0x59, 0xa2, 0x95, 0x8e, 0xa8, 0x3e, 0x97, 0x7a, 0x9a,
  0x73, 0x72, 0x94, 0xbf, 0x65, 0x82, 0x8c, 0x9a, 0x6c, 0x6f, 0xc0, 0x8a,
  0x7e, 0x8e, 0x9c, 0xb9, 0x7f, 0x78, 0x75, 0x9d, 0x7c, 0x65, 0x91, 0x5e,
  0x55, 0x80, 0x6e, 0xb7, 0xb4, 0x85, 0x6c, 0x73, 0xa9, 0x79, 0x88, 0x93,
  0x94, 0x86, 0xbc, 0x3d, 0x9c, 0xca, 0xa0, 0x85, 0x77, 0x7a, 0x92, 0x7f,
  0x7b, 0xa6, 0x8a, 0x5c, 0x86, 0x7f, 0xaa, 0x99, 0x86, 0x75, 0x90, 0x6a,
  0x65, 0x53, 0x79, 0xaa, 0x5e, 0x7f, 0x7e, 0x7a, 0x74, 0x59, 0x8e, 0x84,
  0x7e, 0x62, 0x47, 0x9e, 0x62, 0x91, 0x69, 0x61, 0x75, 0x77, 0x98, 0x7e,
  0x6a, 0x81, 0xa8, 0x7a, 0x64, 0x7e, 0x7e, 0x71, 0x6a, 0x63, 0x77, 0xb2,
  0x75, 0xa7, 0x90, 0x87, 0xaa, 0x6c, 0xd9, 0x7b, 0x71, 0x9f, 0x6a, 0x65,
  0x91, 0x68, 0x88, 0x73, 0x9b, 0x7c, 0x92, 0x8e, 0x5f, 0x8c, 0x5c, 0x8a,
  0x89, 0x87, 0x75, 0x89, 0x87, 0x64, 0x7e, 0x47, 0x5c, 0x9a, 0x54, 0x62,
  0x9d, 0x75, 0x68, 0x83, 0x69, 0x54, 0x9b, 0x8a, 0x84, 0x6c, 0x38, 0xb5,
  0x81, 0x78, 0x82, 0x70, 0x93, 0x7c, 0x9f, 0x58, 0x62, 0x77, 0x73, 0x64,
  0x76, 0x97, 0x69, 0x6f, 0x67, 0x99, 0x92, 0xa3, 0x85, 0xa1, 0x7d, 0x6d,
  0x6f, 0x66, 0x88, 0x87, 0xa0, 0x7b, 0x78, 0x63, 0x88, 0x72, 0xb7, 0x78,
  0x7e, 0x6b, 0x7e, 0x49, 0x61, 0x86, 0x9f, 0x82, 0x66, 0x8f, 0x76, 0x71,
  0x65, 0x94, 0x7b, 0x79, 0x74, 0xb7, 0x5a, 0x7d, 0x7e, 0x88, 0x56, 0x64,
  0x78, 0x85, 0x8c, 0x92, 0x7f, 0x69, 0x92, 0x9f, 0x85, 0x88, 0x68, 0x9c,
  0x99, 0xb5, 0x9b, 0x97, 0x5e, 0x9e, 0x68, 0x9f, 0x95, 0xa6, 0x4c, 0x71,
  0x51, 0x7b, 0x8e, 0x8c, 0x46, 0x9b, 0x94, 0x7d, 0x58, 0x61, 0x62, 0xb4,
  0x8f, 0x8a, 0xcf, 0x90, 0x6d, 0x5d, 0x94, 0x78, 0xa4, 0x5b, 0x6c, 0x65,
  0xa2, 0x74, 0x96, 0x60, 0x80, 0x58, 0x6c, 0x76, 0x7a, 0x7f, 0x50, 0x72,
  0x9a, 0x9c, 0x88, 0x82, 0x6b, 0xa3, 0x68, 0x61, 0x86, 0x88, 0xa7, 0x6b,
  0x6e, 0x86, 0x7e, 0x94, 0x63, 0x60, 0xac, 0x4f, 0x80, 0x6f, 0x9e, 0xb5,
  0x61, 0x3d, 0x67, 0x9d, 0x89, 0x71, 0x78, 0x30, 0x78, 0x75, 0x7a, 0x65,
  0x94, 0xa3, 0x6d, 0x5c, 0xa8, 0x66, 0x62, 0x73, 0x72, 0x7c, 0x5d, 0x65,
  0x84, 0x8e, 0x64, 0x94, 0x6a, 0x89, 0xb8, 0x7d, 0x70, 0x73, 0x72, 0xa1,
  0x9a, 0x7e, 0x48, 0xaa, 0xa2, 0x6d, 0xa1, 0x5e, 0x79, 0x7d, 0xa6, 0x81,
  0x6c, 0x87, 0x70, 0xa8, 0x7e, 0x76, 0x59, 0x68, 0x89, 0x9e, 0x75, 0x6a,
  0x65, 0x5c, 0xaf, 0x8f, 0xa4, 0x57, 0x80, 0x6e, 0x75, 0x63, 0x75, 0xab,
  0x8e, 0x78, 0x76, 0x99, 0x75, 0x9a, 0x87, 0x78, 0x70, 0x6d, 0x3d, 0x95,
  0x80, 0x97, 0x54, 0xb9, 0x7e, 0x5f, 0xb9, 0x6e, 0x6f, 0x75, 0x8c, 0x87,
  0x5a, 0x84, 0x6a, 0x7a, 0x4d, 0x61, 0x97, 0x89, 0x5d, 0x5e, 0xa3, 0xa0,
  0x9e, 0x82, 0xb5, 0x6e, 0x85, 0x8a, 0x6d, 0xa3, 0x5f, 0x4e, 0x6e, 0x84,
  0xa4, 0x85, 0x68, 0x77, 0xbf, 0x75, 0x87, 0x83, 0x71, 0x58, 0x78, 0x96,
  0x5f, 0x67, 0xbb, 0x60, 0x7b, 0x86, 0x82, 0x50, 0xcb, 0x8b, 0x89, 0x64,
  0x61, 0x7a, 0x6a, 0x9b, 0x8b, 0x7f, 0x95, 0x84, 0x60, 0x8e, 0xcb, 0x39,
  0x7e, 0x51, 0x93, 0xd7, 0x5a, 0x7f, 0x24, 0x77, 0x59, 0x60, 0x74, 0x8a,
  0x80, 0x8f, 0x5d, 0x87, 0x6a, 0x45, 0x83, 0x88, 0xa5, 0x7a, 0x8a, 0x81,
  0x81, 0x35, 0x91, 0x57, 0x9f, 0x92, 0x8b, 0x89, 0x5e, 0x93, 0x62, 0xa2,
  0x5a, 0x6a, 0x83, 0x87, 0xaa, 0x56, 0x6c, 0x6d, 0xa2, 0x9a, 0xab, 0x65,
  0x6e, 0x7f, 0x84, 0x96, 0x9d, 0xb2, 0x8c, 0x99, 0x78, 0x79, 0x95, 0x5e,
  0x47, 0xbb, 0x7b, 0x58, 0x3c, 0x92, 0x67, 0x54, 0x31, 0xcb, 0x52, 0x6a,
  0x98, 0x63, 0x88, 0x86, 0x6b, 0x98, 0x5a, 0x45, 0x98, 0x8d, 0x93, 0x74,
  0xa7, 0x7f, 0x7f, 0x70, 0x5c, 0x9b, 0x86, 0x70, 0x63, 0x5a, 0x76, 0x32,
  0x98, 0x6c, 0x89, 0x59, 0x83, 0x8f, 0x84, 0xc1, 0x84, 0x8d, 0x77, 0x7a,
  0x9d, 0x80, 0x96, 0x7d, 0x59, 0x67, 0x86, 0x89, 0x76, 0x77, 0x95, 0x64,
  0x8c, 0x41, 0x86, 0x72, 0x86, 0x86, 0x87, 0xda, 0x52, 0x67, 0x7a, 0x8e,
  0x71, 0x90, 0x80, 0xb5, 0x84, 0x75, 0x9c, 0x7d, 0x8b, 0x47, 0x8f, 0xbc,
  0x62, 0x6e, 0x8c, 0x8e, 0x3e, 0x9c, 0x7d, 0x79, 0x76, 0x72, 0x64, 0x8f,
  0x69, 0x7b, 0x44, 0x7f, 0x64, 0x73, 0x67, 0x43, 0x75, 0x5b, 0xa6, 0x6c,
  0x99, 0x71, 0x9f, 0x65, 0x5b, 0x7a, 0x8a, 0x88, 0xdc, 0x83, 0x96, 0x7d,
  0x68, 0x4e, 0x62, 0x58, 0x99, 0x6e, 0x83, 0x7a, 0x61, 0x56, 0x49, 0x7d,
  0x46, 0xa0, 0x9e, 0x90, 0x56, 0xa3, 0x8f, 0x72, 0xa8, 0x6b, 0xa2, 0xa7,
  0x9c, 0x68, 0x52, 0x81, 0x72, 0x48, 0x6b, 0x61, 0x94, 0x7b, 0x6d, 0x64,
  0x68, 0x90, 0x88, 0x60, 0x31, 0x71, 0x6c, 0x6b, 0x70, 0xa0, 0x61, 0x6c,
  0x72, 0x84, 0x76, 0xa2, 0x66, 0x6c, 0x9e, 0x69, 0x8a, 0x5f, 0x6e, 0xa3,
  0x90, 0x97, 0x9f, 0x8d, 0x85, 0x67, 0x9f, 0x6d, 0x82, 0xaa, 0xaf, 0xb1,
  0x6e, 0x7b, 0x79, 0x96, 0x74, 0x8e, 0x7b, 0x45, 0x7c, 0x91, 0x66, 0x7d,
  0x77, 0x88, 0x90, 0x6d, 0x69, 0x64, 0xa1, 0x95, 0x9b, 0x78, 0x87, 0x96,
  0x8d, 0x7a, 0x93, 0x98, 0x6e, 0x58, 0x6c, 0x9c, 0x73, 0xb4, 0x61, 0x71,
  0x72, 0x90, 0xc7, 0x72, 0x7e, 0x70, 0x98, 0x75, 0x62, 0x65, 0x57, 0x7e,
  0x70, 0xa4, 0x9e, 0x6a, 0x8d, 0xa9, 0x63, 0x58, 0x7b, 0x5a, 0x98, 0x77,
  0x84, 0x84, 0x93, 0x81, 0x4c, 0x75, 0x52, 0x91, 0x6f, 0x56, 0x91, 0x4e,
  0x79, 0x83, 0x72, 0x7a, 0x6c, 0x75, 0x6d, 0x7b, 0x67, 0x97, 0x8b, 0x61,
  0x60, 0x98, 0x59, 0x4a, 0x63, 0x78, 0x76, 0xa5, 0x4f, 0xaa, 0x79, 0x94,
  0xa9, 0x92, 0x86, 0x7b, 0x6d, 0xa0, 0x81, 0x7d, 0x9a, 0xa7, 0x70, 0x8d,
  0x2c, 0x61, 0x4f, 0x58, 0x67, 0x59, 0x6c, 0xb6, 0x60, 0x7b, 0x42, 0x8e,
  0x78, 0xb3, 0x8e, 0x76, 0x7d, 0x6e, 0x7b, 0x8a, 0x78, 0x6d, 0x78, 0x49,
  0x9f, 0x6d, 0xa3, 0x8b, 0x5b, 0x7e, 0x9d, 0xa8, 0x96, 0x6c, 0x98, 0x6c,
  0xa9, 0x6e, 0x76, 0x81, 0x97, 0x60, 0x5f, 0x7c, 0x91, 0xbc, 0x88, 0x88,
  0x80, 0x8b, 0x73, 0x94, 0x7f, 0xab, 0x7e, 0x85, 0x73, 0x5f, 0x65, 0x97,
  0x4f, 0x56, 0x8b, 0x92, 0x64, 0x52, 0x83, 0x79, 0x4e, 0x6f, 0x8b, 0x88,
  0x76, 0x98, 0x68, 0xc6, 0x5d, 0x58, 0x76, 0xb6, 0x81, 0x8f, 0x88, 0x93,
  0x90, 0x8a, 0x9d, 0xa4, 0x5a, 0x61, 0x68, 0xc6, 0x72, 0xa8, 0x51, 0x9a,
  0x88, 0x63, 0xa9, 0x91, 0x7c, 0x98, 0x8f, 0x7a, 0x7c, 0x67, 0x68, 0x85,
  0x58, 0xe7, 0x69, 0x73, 0x66, 0x6b, 0x7c, 0x70, 0x80, 0x9f, 0x5c, 0xa3,
  0x7d, 0xa5, 0x41, 0xaf, 0x73, 0x9e, 0x95, 0x74, 0x5b, 0x51, 0x44, 0x93,
  0x7b, 0x82, 0xa8, 0xc0, 0x9f, 0x63, 0x82, 0x5c, 0x82, 0x73, 0x47, 0x45,
  0x8e, 0x48, 0x70, 0x87, 0x65, 0x74, 0x6c, 0x74, 0x8a, 0x77, 0x4f, 0x9d,
  0xa8, 0x98, 0xa8, 0x67, 0x8f, 0x5d, 0x6d, 0x5f, 0x95, 0x67, 0x90, 0xa6,
  0x8a, 0x93, 0x89, 0x96, 0x78, 0xb1, 0x56, 0x73, 0x7e, 0x77, 0x4a, 0x72,
  0x83, 0xaf, 0x53, 0x70, 0x32, 0x69, 0x7c, 0x8b, 0x36, 0xb0, 0x7d, 0x6e,
  0x76, 0xa3, 0x81, 0x88, 0x90, 0x72, 0x6c, 0x7c, 0x60, 0x70, 0x79, 0x6e,
  0x70, 0x62, 0x8f, 0x4f, 0xa9, 0xac, 0x81, 0x80, 0xb4, 0x7e, 0x95, 0x4f,
  0x77, 0x68, 0x74, 0x7c, 0x7a, 0x66, 0x5f, 0x48, 0x63, 0x8a, 0x54, 0x72,
  0xb4, 0x80, 0x70, 0x6d, 0x4b, 0xaa, 0x73, 0x7a, 0x93, 0xaa, 0xab, 0x87,
  0x5d, 0x65, 0x55, 0x63, 0x9a, 0x6c, 0xa1, 0x66, 0x7c, 0x87, 0x59, 0x9a,
  0x73, 0x92, 0x86, 0xa1, 0x95, 0x68, 0x8c, 0x7a, 0x99, 0x8b, 0x56, 0x79,
  0x7c, 0x9d, 0x45, 0xa8, 0x99, 0x71, 0x9a, 0x65, 0x88, 0x56, 0x7e, 0x6a,
  0x6a, 0x98, 0x90, 0x94, 0x7a, 0x73, 0x9b, 0x65, 0x82, 0x9c, 0x84, 0xa1,
  0x6c, 0x83, 0x8d, 0xd7, 0x77, 0x74, 0x6e, 0x7d, 0x87, 0x8a, 0x81, 0x5d,
  0x96, 0x7a, 0x8d, 0x92, 0x4e, 0x62, 0x88, 0x3d, 0x82, 0xaf, 0x7a, 0x7b,
  0x6a, 0x52, 0xa6, 0x8c, 0x5c, 0x9b, 0x7f, 0x70, 0xad, 0x60, 0xab, 0x98,
  0x77, 0x76, 0xa6, 0x7c, 0x83, 0x80, 0x90, 0x75, 0x80, 0x9a, 0x6a, 0x3a,
  0x74, 0x7f, 0x99, 0x8a, 0x47, 0x82, 0x96, 0x98, 0x70, 0x87, 0x50, 0x53,
  0x7e, 0x70, 0xa2, 0x7a, 0x71, 0xb3, 0x9c, 0x91, 0x56, 0xa6, 0x6a, 0x8d,
  0x9b, 0x8a, 0x9c, 0x5a, 0x87, 0x64, 0x75, 0x9d, 0xa3, 0xb3, 0x95, 0xaf,
  0x62, 0xa8, 0x75, 0x46, 0x83, 0x4f, 0x7c, 0x77, 0x5d, 0x89, 0x6a, 0x85,
  0x87, 0xb9, 0x89, 0x5e, 0xa6, 0x78, 0x31, 0xbc, 0x4c, 0x9e, 0x91, 0x5e,
  0x71, 0x67, 0x82, 0x7e, 0x5f, 0x97, 0x81, 0x7d, 0x8e, 0x94, 0xa9, 0x89,
  0xa7, 0xac, 0xa1, 0x6f, 0x9d, 0x6d, 0x51, 0x70, 0x8b, 0x66, 0xae, 0x6e,
  0x9e, 0x93, 0x99, 0x72, 0x9b, 0x6c, 0x92, 0x8c, 0xa2, 0x63, 0x81, 0x9d,
  0xbe, 0x77, 0x67, 0xb6, 0x9f, 0x73, 0xad, 0x69, 0x92, 0x40, 0xac, 0x6e,
  0x73, 0x59, 0x98, 0x56, 0x4f, 0x83, 0x76, 0x86, 0x6b, 0x5e, 0xc2, 0x76,
  0x64, 0x79, 0x71, 0x5b, 0x8f, 0x60, 0x78, 0x96, 0x8f, 0x79, 0x4f, 0x99,
  0x8c, 0x85, 0x94, 0x66, 0x6e, 0x6e, 0x68, 0x6b, 0x59, 0x73, 0x77, 0x6b,
  0x6d, 0x6b, 0x61, 0x76, 0x6e, 0x85, 0x8b, 0x7a, 0x8a, 0x88, 0x76, 0x97,
  0x7b, 0x83, 0x74, 0x8a, 0x73, 0x67, 0x7d, 0x5e, 0x95, 0x56, 0x77, 0x94,
  0x7e, 0x99, 0x9f, 0x71, 0x75, 0x84, 0x8b, 0x69, 0x7c, 0x7a, 0x7e, 0xaa,
  0x73, 0x56, 0x85, 0x65, 0x74, 0x7a, 0x89, 0x92, 0x7a, 0x94, 0x8c, 0x89,
  0x79, 0x7b, 0x68, 0x8b, 0x9e, 0x52, 0x70, 0x78, 0x74, 0x81, 0x6a, 0x7d,
  0x75, 0x71, 0x8d, 0x83, 0x81, 0xb3, 0x71, 0x7e, 0x51, 0x92, 0x9a, 0x8a,
  0xa7, 0x65, 0x80, 0x8a, 0x6f, 0x75, 0x74, 0x6b, 0x67, 0x9a, 0x80, 0x6a,
  0x52, 0x74, 0x60, 0xb6, 0x64, 0x96, 0x5f, 0xaa, 0x7e, 0x81, 0x95, 0xba,
  0x72, 0x79, 0x7a, 0x73, 0x97, 0x92, 0x95, 0x72, 0x65, 0x73, 0x84, 0x76,
  0x7a, 0x9e, 0x62, 0x5d, 0x85, 0x8b, 0x7b, 0x76, 0x40, 0xa8, 0xdd, 0x5f,
  0x92, 0x7e, 0x78, 0x83, 0x80, 0x86, 0x5e, 0x9b, 0x85, 0xea, 0xcc, 0x84,
  0x9a, 0x46, 0x9a, 0xad, 0x54, 0x6b, 0x66, 0x65, 0x90, 0x5f, 0x8f, 0x6e,
  0x91, 0xc7, 0xcc, 0x9f, 0x97, 0xe3, 0x75, 0x88, 0xa2, 0x34, 0xb5, 0xb2,
  0x77, 0x82, 0x6e, 0x6c, 0x72, 0x6b, 0x9f, 0x3e, 0xc3, 0xa3, 0x95, 0x97,
  0x6a, 0x77, 0x95, 0x40, 0x5f, 0xab, 0x58, 0x89, 0x65, 0x6b, 0x3a, 0x9d,
  0x81, 0x7d, 0xa3, 0x6a, 0x69, 0xb7, 0xb8, 0x86, 0x7d, 0x84, 0x61, 0x45,
  0xaa, 0x85, 0xa2, 0x37, 0xa1, 0xda, 0x8a, 0xac, 0xc6, 0x53, 0xb4, 0x67,
  0x67, 0x66, 0x56, 0xac, 0xba, 0x75, 0xb1, 0x53, 0xb5, 0x6f, 0xcb, 0x67,
  0x66, 0x81, 0x95, 0x51, 0xa8, 0x82, 0x50, 0x9a, 0xbd, 0x60, 0x45, 0x83,
  0x17, 0x3b, 0xa5, 0x7d, 0x62, 0x53, 0x9f, 0x6b, 0x5b, 0x71, 0x60, 0x62,
  0x99, 0x4d, 0x83, 0x89, 0x9f, 0x6e, 0x70, 0xbc, 0x54, 0xd3, 0x7f, 0x84,
  0x82, 0x84, 0x70, 0x5d, 0xce, 0x57, 0x5a, 0x1f, 0x92, 0x83, 0x80, 0x8b,
  0x40, 0x75, 0x90, 0x72, 0x99, 0x73, 0x99, 0x6c, 0x6d, 0x7a, 0x69, 0x64,
  0xa9, 0x7a, 0x95, 0x8d, 0xaa, 0x8b, 0xb1, 0x6f, 0x52, 0x2e, 0x7d, 0x4b,
  0xcc, 0x89, 0x92, 0xb8, 0x80, 0xad, 0x79, 0x77, 0x8c, 0xa2, 0x45, 0x8e,
  0x89, 0x33, 0x9a, 0x5f, 0x92, 0x8d, 0xb3, 0x4b, 0x94, 0x76, 0xa8, 0x68,
  0x92, 0x6b, 0x98, 0x24, 0x31, 0x7d, 0x71, 0x6b, 0x5f, 0x8d, 0xa0, 0x71,
  0xd1, 0x94, 0x4f, 0x88, 0x6b, 0x88, 0x70, 0x8d, 0x4a, 0xaf, 0xbb, 0xaa,
  0x81, 0xa1, 0x47, 0xe7, 0x5c, 0x86, 0xb3, 0x2e, 0x5c, 0x94, 0x73, 0xab,
  0x6b, 0x76, 0x8b, 0x6c, 0xa2, 0x88, 0x74, 0x8d, 0x74, 0x65, 0x58, 0xbc,
  0xa8, 0x66, 0x82, 0x75, 0x4b, 0xb1, 0x69, 0x8a, 0xb3, 0x06, 0x8f, 0xac,
  0x8d, 0x83, 0x93, 0x70, 0x73, 0x6c, 0x75, 0x77, 0x51, 0x6d, 0x6b, 0x88,
  0x6e, 0x82, 0x5c, 0x74, 0x68, 0x96, 0x7e, 0x85, 0x84, 0x77, 0x6d, 0x9b,
  0x78, 0x75, 0x79, 0x79, 0x78, 0x61, 0x6f, 0x69, 0x93, 0x5f, 0x72, 0x88,
  0x83, 0xab, 0x94, 0x73, 0x84, 0x79, 0x77, 0x62, 0x6e, 0x70, 0x7b, 0xa5,
  0x69, 0x55, 0x6f, 0x68, 0x74, 0x79, 0x98, 0xa5, 0x96, 0x9c, 0x86, 0x8b,
  0x70, 0x70, 0x53, 0x90, 0x90, 0x63, 0x74, 0x82, 0x72, 0x6d, 0x6a, 0x7b,
  0x73, 0x71, 0x83, 0x8a, 0x85, 0xba, 0x71, 0x7c, 0x3c, 0x80, 0x97, 0x9c,
  0xa0, 0x64, 0x82, 0x85, 0x78, 0x7d, 0x70, 0x6d, 0x6d, 0x95, 0x85, 0x7b,
  0x5d, 0x86, 0x54, 0xbb, 0x69, 0xa0, 0x66, 0xae, 0x77, 0x8c, 0x97, 0xb2,
  0x76, 0x7e, 0x7a, 0x8f, 0x89, 0x7e, 0x6f, 0x60, 0x6a, 0x6c, 0x88, 0x75,
  0x80, 0x90, 0x66, 0x65, 0x70, 0x89, 0x78, 0x70, 0x86, 0x7d, 0x5b, 0x6e,
  0x50, 0x5c, 0x66, 0x74, 0x7f, 0x66, 0x77, 0x58, 0x7c, 0x78, 0x70, 0x70,
  0x82, 0x5a, 0x7f, 0x75, 0x5c, 0xb1, 0x67, 0x60, 0x6c, 0x6e, 0x72, 0x6e,
  0x98, 0xa9, 0x9c, 0x58, 0x92, 0x71, 0x62, 0xa1, 0xa0, 0x69, 0x74, 0x6f,
  0x7a, 0x94, 0x84, 0x9e, 0x6a, 0x69, 0xa9, 0x6f, 0x88, 0xb7, 0x78, 0x65,
  0x57, 0x6d, 0x75, 0x5b, 0x76, 0x58, 0x6b, 0x83, 0x87, 0x80, 0x89, 0x91,
  0xc0, 0x6e, 0x27, 0x6b, 0x8a, 0x75, 0x94, 0x9f, 0x73, 0x76, 0x73, 0x63,
  0x98, 0xa5, 0xa4, 0x8a, 0xa1, 0xa2, 0x9a, 0x86, 0xa4, 0x96, 0x99, 0x61,
  0x5c, 0x93, 0x91, 0x8a, 0x91, 0xaf, 0x74, 0x8d, 0xc3, 0xa4, 0x7a, 0x41,
  0x71, 0x64, 0x74, 0x8e, 0x76, 0xa8, 0x69, 0x8c, 0x82, 0x73, 0x7a, 0x87,
  0x7d, 0xa3, 0x69, 0x74, 0x52, 0x86, 0xa9, 0xb4, 0x7f, 0x83, 0x78, 0x87,
  0x8d, 0x71, 0x7a, 0x98, 0x6a, 0xae, 0x8d, 0x5f, 0xc1, 0x89, 0x7c, 0x92,
  0x62, 0x66, 0x9c, 0x4a, 0x84, 0xb8, 0xa4, 0x82, 0x6b, 0x83, 0x99, 0x88,
  0x30, 0x9c, 0x8b, 0x6a, 0xa9, 0x98, 0x95, 0x9f, 0xaa, 0x3a, 0x9f, 0x8e,
  0x5f, 0x64, 0x83, 0x98, 0x51, 0x47, 0x5f, 0xa9, 0xa3, 0x97, 0x73, 0x90,
  0x7e, 0x96, 0x69, 0x67, 0x8f, 0xaa, 0x86, 0xaf, 0x7d, 0x87, 0x72, 0x49,
  0x97, 0x5e, 0x7d, 0x80, 0x78, 0x62, 0x68, 0x3b, 0x71, 0x92, 0x62, 0xaf,
  0x98, 0x77, 0x59, 0xa1, 0x83, 0x79, 0x75, 0x73, 0x86, 0x5d, 0x3b, 0x77,
  0x67, 0xab, 0xa7, 0x57, 0x84, 0xa7, 0x75, 0x54, 0x78, 0xbb, 0x5f, 0x85,
  0x6e, 0x82, 0x5b, 0x70, 0x5f, 0x62, 0x77, 0x54, 0x3e, 0x88, 0x8f, 0x83,
  0x82, 0x77, 0x9f, 0x5c, 0x45, 0xa0, 0x8f, 0x73, 0x63, 0x64, 0x7b, 0xae,
  0x62, 0x68, 0x77, 0x76, 0x60, 0x7b, 0x81, 0x8b, 0x6a, 0x8d, 0x95, 0x72,
  0xb1, 0x94, 0x8c, 0x67, 0xa5, 0x7b, 0x60, 0x7b, 0xaf, 0x7e, 0x84, 0x8d,
  0x96, 0x7b, 0x8d, 0x84, 0x97, 0x48, 0x9f, 0xa6, 0x9d, 0x77, 0x9f, 0x42,
  0x6b, 0x8f, 0x73, 0x9d, 0x72, 0x70, 0x8c, 0xa7, 0x87, 0x7b, 0x92, 0x9e,
  0x8c, 0x64, 0x8e, 0x57, 0x56, 0x75, 0x7c, 0x5f, 0x9a, 0x59, 0x70, 0x92,
  0x84, 0x8f, 0x62, 0x5f, 0x70, 0x89, 0xa8, 0x89, 0x70, 0x52, 0xc3, 0x69,
  0x6d, 0x33, 0x83, 0x64, 0x71, 0x60, 0x66, 0x78, 0x80, 0xc3, 0x83, 0x5e,
  0xa0, 0x6f, 0x66, 0x92, 0x96, 0x68, 0x6f, 0xcb, 0x8e, 0x6f, 0x72, 0x8f,
  0xac, 0x92, 0x71, 0x58, 0x89, 0x5f, 0x8d, 0x84, 0x94, 0xad, 0x77, 0x6f,
  0x77, 0x79, 0x94, 0x5a, 0x76, 0x6a, 0x58, 0x74, 0x61, 0x9b, 0x62, 0x5c,
  0x5b, 0xbf, 0x90, 0x6b, 0x23, 0x8f, 0x64, 0x6a, 0xc4, 0xa7, 0x64, 0x5d,
  0x93, 0x67, 0xca, 0x81, 0x86, 0xa3, 0x83, 0x71, 0x83, 0x8f, 0xda, 0x59,
  0x7f, 0x8a, 0xb2, 0x9c, 0x70, 0xa4, 0x74, 0x9f, 0x75, 0x84, 0x61, 0x76,
  0x73, 0x73, 0x85, 0x7e, 0xb3, 0x8b, 0x73, 0x4e, 0x7f, 0x9b, 0x81, 0x81,
  0x95, 0x67, 0x75, 0x68, 0x5d, 0x58, 0x83, 0xbe, 0x80, 0x68, 0x5b, 0x79,
  0x7c, 0x61, 0x74, 0x80, 0x7e, 0x82, 0x93, 0x5a, 0x7c, 0x89, 0x83, 0x8e,
  0x65, 0x7a, 0x74, 0x9d, 0x7c, 0x92, 0x8a, 0x95, 0x72, 0x55, 0x95, 0x73,
  0x93, 0x80, 0x87, 0x45, 0x93, 0x9e, 0x67, 0x5c, 0x69, 0x71, 0x78, 0x77,
  0x79, 0x8d, 0xa1, 0x71, 0x7e, 0x68, 0xa9, 0x5d, 0x8a, 0x54, 0x72, 0x86,
  0x6c, 0x6c, 0x6d, 0x90, 0x7a, 0xe5, 0x92, 0x59, 0x86, 0x7b, 0x7c, 0x83,
  0x79, 0xa1, 0x50, 0xb2, 0x67, 0x56, 0x62, 0xa5, 0xa8, 0x6b, 0xaa, 0x81,
  0x6d, 0x5f, 0x81, 0x7f, 0x5d, 0xa3, 0x59, 0x9f, 0x44, 0x77, 0x61, 0x80,
  0x86, 0x93, 0x7a, 0x6b, 0x9e, 0x8d, 0x64, 0x5c, 0xbb, 0x89, 0x9e, 0x98,
  0x9e, 0x71, 0x78, 0x54, 0x75, 0x7b, 0x34, 0x9a, 0x5c, 0x6b, 0x74, 0x7f,
  0x87, 0x75, 0x68, 0x70, 0x61, 0x8f, 0x77, 0x8c, 0x6d, 0x72, 0x9c, 0x7a,
  0x60, 0xa1, 0x66, 0x59, 0x8d, 0xb0, 0x9c, 0x77, 0xa3, 0x9d, 0x9c, 0x98,
  0x73, 0x60, 0x8c, 0x39, 0x66, 0x55, 0x9d, 0x9f, 0x53, 0x93, 0x77, 0x55,
  0x76, 0x79, 0x75, 0x54, 0x7d, 0x77, 0x72, 0x74, 0x5c, 0x77, 0x6b, 0x82,
  0x6b, 0xa2, 0x72, 0x6f, 0x6a, 0x84, 0x84, 0x74, 0x7e, 0x8c, 0x8f, 0x92,
  0x75, 0xa5, 0x82, 0x9c, 0x86, 0x79, 0x90, 0x78, 0x7a, 0x8a, 0x95, 0x5e,
  0x67, 0x64, 0x6c, 0xa4, 0x6a, 0x72, 0x61, 0x2c, 0x39, 0x95, 0x4d, 0x82,
  0x7a, 0x87, 0xa5, 0x85, 0x86, 0x62, 0x42, 0x78, 0x8b, 0x70, 0x53, 0x7f,
  0x3c, 0x53, 0x1f, 0x74, 0x6f, 0x74, 0x44, 0x45, 0x80, 0x8e, 0xa7, 0x4e,
  0x7f, 0x8e, 0x80, 0xa2, 0x7a, 0x9e, 0x89, 0x82, 0x94, 0x7a, 0x80, 0xa3,
  0x76, 0x93, 0x7e, 0x8b, 0x84, 0x96, 0x6d, 0x76, 0x68, 0x84, 0x70, 0x98,
  0x9b, 0x6c, 0x87, 0x85, 0x5a, 0x86, 0x77, 0x86, 0x8a, 0x83, 0x89, 0x7a,
  0x8a, 0x98, 0xa0, 0x85, 0x8d, 0x68, 0x90, 0x89, 0x71, 0x7e, 0x58, 0x7d,
  0xa5, 0x37, 0xaa, 0x90, 0x57, 0xa2, 0x6e, 0x8a, 0x7f, 0xa4, 0x73, 0x82,
  0x93, 0x9f, 0x8c, 0x88, 0x82, 0x65, 0x93, 0x84, 0x8a, 0x75, 0xb7, 0x4b,
  0x7b, 0x97, 0x89, 0x80, 0x78, 0x6b, 0x94, 0x89, 0x83, 0xa0, 0x79, 0x7e,
  0xa5, 0x9e, 0x9b, 0x98, 0x62, 0x50, 0x76, 0x6a, 0x8b, 0x6b, 0x71, 0x73,
  0x70, 0x85, 0x81, 0x62, 0x8c, 0x94, 0x89, 0x4d, 0x7b, 0x72, 0x9d, 0x88,
  0x6b, 0x85, 0x70, 0x89, 0x49, 0x8c, 0x8c, 0x93, 0x74, 0x76, 0x92, 0x6d,
  0x95, 0x7c, 0x73, 0x64, 0x85, 0x80, 0x8b, 0x75, 0x4d, 0xb3, 0x5a, 0x7e,
  0x53, 0x88, 0x59, 0x70, 0x49, 0xb7, 0x77, 0x8e, 0x7a, 0x81, 0x73, 0xcb,
  0x88, 0xac, 0x82, 0x5a, 0x83, 0x90, 0x53, 0x86, 0x7d, 0x6a, 0x5e, 0x63,
  0x6c, 0x56, 0xaa, 0x87, 0x8d, 0x64, 0x5b, 0x5d, 0x63, 0x85, 0x81, 0x72,
  0x9e, 0x94, 0xad, 0x69, 0xad, 0x61, 0x75, 0x60, 0x71, 0x90, 0xa3, 0x93,
  0x68, 0xc3, 0x81, 0x8a, 0x67, 0x6f, 0x93, 0x74, 0x8a, 0x80, 0xbb, 0x69,
  0x68, 0x8d, 0x5c, 0x5c, 0x67, 0x5b, 0x7d, 0x97, 0x66, 0x96, 0x82, 0x91,
  0x76, 0x68, 0x5e, 0xab, 0x85, 0x77, 0x9a, 0xa3, 0x6b, 0x6e, 0xa3, 0x81,
  0xb5, 0x87, 0x77, 0x73, 0x7f, 0x51, 0x97, 0xb0, 0x7b, 0x76, 0x4e, 0xa2,
  0x62, 0x58, 0x45, 0x89, 0xb1, 0x89, 0x94, 0x74, 0xca, 0x6f, 0x81, 0x86,
  0xbb, 0x67, 0xa3, 0x77, 0x96, 0x53, 0xa6, 0x74, 0xb2, 0x91, 0x6a, 0x5e,
  0x8f, 0xa5, 0x8b, 0x8f, 0xab, 0x6d, 0x79, 0x77, 0x95, 0x65, 0x8c, 0x88,
  0x60, 0x76, 0x6f, 0x82, 0x71, 0x91, 0x5f, 0x86, 0x85, 0x8f, 0x88, 0x84,
  0x68, 0x73, 0x7e, 0x61, 0x72, 0x8a, 0x7f, 0x86, 0x85, 0x7a, 0x66, 0x5a,
  0x82, 0x79, 0x78, 0x8a, 0x7b, 0x7b, 0x98, 0x94, 0x86, 0x4b, 0x8f, 0x4a,
  0x9e, 0x6d, 0x7e, 0x5e, 0x76, 0x8e, 0x70, 0x48, 0x8e, 0x4e, 0x82, 0x46,
  0x6f, 0x74, 0x67, 0x83, 0x8e, 0x9b, 0xc8, 0x87, 0x8f, 0x81, 0x82, 0x70,
  0x8c, 0x93, 0x80, 0x6e, 0x6b, 0x88, 0x44, 0x66, 0x70, 0x63, 0xa2, 0xa5,
  0x85, 0x65, 0x69, 0x77, 0x73, 0x7b, 0x85, 0x83, 0x7b, 0x78, 0x7c, 0x86,
  0x79, 0x85, 0x52, 0x63, 0x6a, 0x87, 0x6a, 0x42, 0x9d, 0xb1, 0x69, 0xb5,
  0x3e, 0x7a, 0x79, 0xa1, 0x7a, 0x8d, 0x99, 0x79, 0x73, 0x7f, 0x86, 0x5f,
  0x7f, 0x8c, 0x76, 0x8f, 0x5b, 0x90, 0x86, 0x9a, 0x8a, 0x76, 0x81, 0x9a,
  0x86, 0x84, 0x9b, 0xb2, 0x7a, 0x65, 0x81, 0x9a, 0x7d, 0x77, 0x6b, 0x64,
  0x5f, 0x78, 0x88, 0xb9, 0x63, 0x73, 0x87, 0x72, 0x87, 0x70, 0x94, 0x79,
  0x77, 0x5b, 0x6e, 0x7c, 0x7f, 0x67, 0xaf, 0xa5, 0x6c, 0x58, 0x7e, 0x4f,
  0x78, 0x6c, 0x65, 0xa0, 0x63, 0x6e, 0x8f, 0x6a, 0x63, 0x62, 0x78, 0x6a,
  0x60, 0x78, 0xbd, 0x86, 0x98, 0x62, 0x30, 0x5f, 0x87, 0x70, 0x83, 0x3f,
  0x90, 0xa4, 0x8d, 0x9a, 0x52, 0xb1, 0x75, 0x5c, 0x70, 0xa3, 0x9b, 0x67,
  0xa5, 0x8a, 0x82, 0x65, 0x7b, 0x6a, 0xb0, 0x7d, 0x52, 0x5d, 0x47, 0x58,
  0xa2, 0x64, 0x5b, 0xa6, 0xa5, 0x79, 0x40, 0x86, 0x7e, 0x77, 0x89, 0x8b,
  0x9b, 0x8f, 0x7c, 0x51, 0x59, 0x82, 0x82, 0x64, 0x74, 0x65, 0x93, 0x74,
  0x74, 0x7f, 0x62, 0x6a, 0x44, 0x65, 0x96, 0xa2, 0x77, 0xbc, 0xb7, 0xa0,
  0x8c, 0x47, 0x6c, 0x9c, 0x8f, 0x86, 0x9a, 0x8c, 0x82, 0x9b, 0x79, 0x7c,
  0xb8, 0x67, 0x81, 0x3d, 0xa3, 0x99, 0x91, 0x6b, 0x79, 0x60, 0x7a, 0x8c,
  0x92, 0x6d, 0x7d, 0x8a, 0x82, 0x61, 0x99, 0x93, 0x83, 0x7f, 0x76, 0xb3,
  0x64, 0x68, 0x66, 0x5f, 0x8e, 0x77, 0x76, 0x7f, 0x74, 0x96, 0x83, 0x5c,
  0x6e, 0x6a, 0x83, 0x5d, 0x92, 0x78, 0x8a, 0x8c, 0x77, 0x53, 0x89, 0x60,
  0x89, 0x7b, 0x82, 0x7f, 0x73, 0x5a, 0x8f, 0x99, 0x6c, 0x7d, 0x8a, 0x5d,
  0x91, 0x78, 0x59, 0x93, 0x68, 0x5d, 0x77, 0xb0, 0x92, 0x6d, 0x8a, 0x85,
  0x6e, 0x6e, 0x6f, 0x8c, 0x72, 0x7a, 0x93, 0x87, 0x90, 0x93, 0x7f, 0x3b,
  0x9b, 0x94, 0x77, 0x84, 0x5e, 0x94, 0x79, 0x94, 0xa2, 0x84, 0x92, 0x62,
  0xa0, 0x7a, 0x58, 0x9b, 0x88, 0x62, 0x6f, 0x93, 0x9a, 0x8b, 0x86, 0x75,
  0x7c, 0x77, 0x7f, 0x6e, 0x77, 0x68, 0x5f, 0x75, 0x84, 0x69, 0x62, 0xb0,
  0x8a, 0x9d, 0x7d, 0x9a, 0x75, 0x87, 0x94, 0x84, 0x93, 0x60, 0xb6, 0x4b,
  0x5b, 0x70, 0x62, 0x7d, 0x7e, 0x5e, 0x61, 0x71, 0x79, 0x4b, 0xa3, 0x6b,
  0x7d, 0x89, 0xa6, 0x59, 0x89, 0x95, 0x95, 0x8c, 0x4c, 0x87, 0x91, 0x8e,
  0x8d, 0x48, 0x9c, 0x84, 0x69, 0x89, 0xa9, 0xad, 0x51, 0x43, 0x47, 0x74,
  0x8e, 0x65, 0x6a, 0x52, 0x96, 0x98, 0x7b, 0x66, 0x5d, 0xa2, 0x89, 0x82,
  0x8a, 0x5a, 0x78, 0x73, 0xa1, 0x97, 0x73, 0x62, 0x7d, 0x6a, 0x73, 0x90,
  0x68, 0x7c, 0x70, 0x77, 0x94, 0xa2, 0x63, 0x95, 0x88, 0x6a, 0x79, 0x49,
  0x6b, 0x6c, 0x82, 0x8b, 0x76, 0x7c, 0x7e, 0x90, 0x8a, 0x8e, 0x92, 0x7f,
  0x7c, 0x67, 0x8d, 0x8e, 0x5b, 0x82, 0x41, 0x7b, 0xc6, 0x4e, 0x7a, 0x56,
  0x6a, 0x5d, 0x6e, 0x43, 0x89, 0x96, 0x64, 0x92, 0x65, 0x6e, 0x99, 0x7a,
  0x67, 0x56, 0xa5, 0x63, 0xa6, 0x5c, 0x5d, 0x78, 0x7f, 0x8c, 0x53, 0x81,
  0x73, 0xc0, 0x3c, 0x6f, 0x8f, 0x88, 0x7b, 0x60, 0xa5, 0x94, 0x8f, 0x81,
  0x83, 0x5b, 0x8c, 0x6f, 0xb5, 0x8b, 0x5a, 0x83, 0x5f, 0x6d, 0x9c, 0x79,
  0x96, 0x64, 0x97, 0x67, 0x72, 0x65, 0x91, 0x98, 0x8f, 0x87, 0x8d, 0x84,
  0x76, 0x69, 0x8a, 0x96, 0x6e, 0xc4, 0x73, 0x52, 0x6f, 0x55, 0x6f, 0x79,
  0x7c, 0xaf, 0x9c, 0x84, 0x63, 0x7c, 0x87, 0x6d, 0x6c, 0x7d, 0x87, 0x7d,
  0x9f, 0xc4, 0x71, 0x66, 0x70, 0x6d, 0x77, 0x9b, 0x88, 0x86, 0x3d, 0x5d,
  0x8a, 0xa3, 0x56, 0x79, 0xbc, 0x64, 0x88, 0xa5, 0x92, 0xa2, 0xbe, 0x76,
  0x3e, 0x79, 0x6f, 0x77, 0xc4, 0x5d, 0x7c, 0x5b, 0x8f, 0x5e, 0x6b, 0xa0,
  0x86, 0x52, 0x73, 0x4c, 0x8f, 0x6f, 0x89, 0x64, 0x60, 0x82, 0x54, 0x5a,
  0x91, 0x6e, 0xb6, 0x9d, 0x79, 0x95, 0x86, 0x67, 0x64, 0x5f, 0xa2, 0x7f,
  0x77, 0x77, 0x74, 0xaf, 0x68, 0xa4, 0x63, 0x48, 0x7c, 0x77, 0x41, 0x71,
  0x88, 0x6b, 0x9b, 0x7e, 0x68, 0x87, 0x9b, 0x6c, 0xae, 0x99, 0x78, 0x66,
  0x79, 0x79, 0x86, 0x5e, 0x5c, 0xc9, 0xb3, 0xa0, 0x6c, 0xa2, 0x96, 0x69,
  0x73, 0x99, 0x83, 0xa4, 0xa4, 0x6f, 0x9e, 0x66, 0x8b, 0x9d, 0x90, 0x5d,
  0x8d, 0x84, 0x76, 0x5c, 0xcb, 0xa9, 0x99, 0x76, 0x64, 0x73, 0x43, 0x5f,
  0x9a, 0x77, 0x8c, 0x58, 0x92, 0x44, 0x8d, 0x68, 0x8a, 0x30, 0x87, 0x5a,
  0x42, 0xad, 0x86, 0x60, 0x7d, 0x5c, 0x73, 0x84, 0x79, 0x74, 0x7c, 0x77,
  0x76, 0x49, 0x6e, 0x66, 0x74, 0x81, 0x96, 0x7e, 0x4b, 0x63, 0x83, 0x1b,
  0x88, 0x61, 0x6c, 0xb7, 0x6f, 0x55, 0x5b, 0xb1, 0xaa, 0x5c, 0x56, 0x68,
  0x7b, 0x65, 0x6e, 0x4c, 0x60, 0x6d, 0x72, 0x4f, 0x91, 0x66, 0x84, 0x78,
  0x73, 0x4f, 0x89, 0x90, 0x8a, 0x5d, 0xba, 0x8b, 0x46, 0x65, 0x59, 0xb0,
  0x49, 0x90, 0x85, 0x95, 0x8c, 0x58, 0xae, 0x9f, 0x4b, 0x9e, 0x8e, 0x7b,
  0x52, 0x75, 0x53, 0x6a, 0xa3, 0x9c, 0x6c, 0x77, 0x62, 0x77, 0xa1, 0x7c,
  0xa0, 0x94, 0xac, 0x6b, 0x6e, 0x74, 0x79, 0xaf, 0x7a, 0x5a, 0x8c, 0xad,
  0x80, 0x51, 0x66, 0x7a, 0x80, 0x56, 0xa0, 0xa5, 0x8f, 0x7b, 0x8b, 0x61,
  0x6e, 0xad, 0x7e, 0x91, 0x7c, 0x7b, 0x6d, 0x88, 0x7c, 0x7a, 0x78, 0x3b,
  0x7c, 0x95, 0x8e, 0x84, 0xa4, 0x57, 0x53, 0x6a, 0xa4, 0x6a, 0x57, 0x94,
  0x51, 0x75, 0x7b, 0x8c, 0xa7, 0xa2, 0x55, 0x5c, 0x9c, 0x7f, 0x90, 0x87,
  0xc8, 0x81, 0xcc, 0x9e, 0x78, 0x66, 0x78, 0x65, 0xa9, 0x59, 0x48, 0x9c,
  0x6b, 0x6b, 0xa8, 0xb1, 0xb6, 0x62, 0x82, 0x61, 0x95, 0x93, 0x8c, 0x54,
  0x5c, 0x79, 0x73, 0x83, 0xa6, 0xcc, 0x64, 0x90, 0x53, 0x9e, 0x8e, 0x99,
  0x5a, 0x98, 0x81, 0xbd, 0x76, 0x9b, 0x70, 0x7b, 0x63, 0x6d, 0x6f, 0x59,
  0x53, 0x9c, 0x8f, 0x3d, 0x70, 0x7d, 0x59, 0x6e, 0x8e, 0x5e, 0x5e, 0x84,
  0x62, 0xaa, 0x61, 0x5c, 0x65, 0x9c, 0x87, 0x8e, 0x5b, 0xf4, 0x70, 0xd5,
  0x6d, 0xda, 0xc0, 0x82, 0xae, 0xd2, 0x78, 0xb8, 0x60, 0x65, 0xdb, 0x7b,
  0x96, 0x5d, 0x5e, 0xb5, 0x45, 0x5d, 0x8b, 0xe6, 0x67, 0xae, 0xb4, 0x5b,
  0x69, 0x60, 0xab, 0xab, 0x83, 0x76, 0x79, 0x83, 0xa1, 0x52, 0x51, 0x6d,
  0x77, 0x44, 0xbe, 0x44, 0x49, 0x72, 0xdb, 0xa6, 0x53, 0x50, 0x55, 0x3c,
  0x75, 0x7c, 0x6b, 0x7d, 0x82, 0x6c, 0xcc, 0x69, 0x9e, 0x9d, 0x54, 0x6c,
  0x78, 0xc9, 0xa8, 0x7a, 0x85, 0x9b, 0xb0, 0x30, 0x9e, 0x81, 0xa0, 0xa2,
  0xa1, 0x56, 0x80, 0x46, 0xc0, 0x5d, 0x74, 0x8e, 0x60, 0x92, 0x47, 0x86,
  0xac, 0x59, 0x71, 0x8e, 0x82, 0x44, 0x67, 0x5d, 0x85, 0x87, 0x62, 0x74,
  0x53, 0x6b, 0x62, 0x76, 0x8c, 0x50, 0x7b, 0x77, 0xa4, 0x68, 0x98, 0x82,
  0x76, 0x94, 0xa2, 0x63, 0x78, 0x71, 0x72, 0x80, 0x9e, 0x79, 0x6e, 0x81,
  0x5f, 0x99, 0x66, 0x7c, 0x77, 0x7b, 0x69, 0x7b, 0x83, 0x5d, 0x92, 0x85,
  0x7d, 0x78, 0x83, 0x66, 0x78, 0x6c, 0x81, 0x7d, 0x5a, 0x61, 0x6e, 0x89,
  0x98, 0x7b, 0x89, 0x67, 0x8f, 0x80, 0x8f, 0x54, 0xa0, 0x68, 0x6f, 0x60,
  0xa8, 0x7f, 0x84, 0x7b, 0x89, 0x62, 0x62, 0x6e, 0x7e, 0x64, 0x69, 0x7e,
  0xa0, 0x60, 0x91, 0x8b, 0x7e, 0x74, 0x5f, 0x84, 0x72, 0x88, 0x6e, 0x91,
  0x8c, 0x5e, 0x6a, 0x82, 0x8d, 0xb0, 0x94, 0x84, 0x65, 0x6c, 0x8f, 0x53,
  0x86, 0x93, 0x80, 0x64, 0x93, 0x57, 0x8c, 0x6c, 0x8e, 0x75, 0x89, 0x75,
  0x77, 0x9e, 0x8c, 0x70, 0x7d, 0x6f, 0x80, 0x64, 0x8d, 0xa6, 0x8f, 0x8d,
  0x85, 0x8d, 0x75, 0x80, 0x6f, 0x79, 0x85, 0x70, 0x76, 0x6e, 0x58, 0xa4,
  0x5e, 0x97, 0x7c, 0x88, 0xa6, 0x57, 0xb4, 0x8b, 0x61, 0x82, 0xa9, 0x57,
  0x58, 0x61, 0x59, 0x76, 0x6d, 0x78, 0x9a, 0x84, 0xa6, 0x4c, 0x93, 0x8f,
  0x60, 0x6f, 0x89, 0x7e, 0x79, 0x7b, 0x70, 0x71, 0x65, 0x7c, 0x7c, 0xa3,
  0x7b, 0x92, 0x6c, 0x87, 0xb5, 0x7e, 0x8e, 0x7e, 0x76, 0x7b, 0x7f, 0x5a,
  0xad, 0xab, 0x6f, 0x78, 0x65, 0x57, 0x6c, 0x46, 0x5e, 0x70, 0x7c, 0xae,
  0x78, 0xb5, 0xa8, 0x9b, 0x71, 0x6f, 0x75, 0xa1, 0x82, 0x6a, 0x98, 0x6f,
  0x3d, 0x7e, 0xb8, 0xa1, 0x90, 0x77, 0x9d, 0x9d, 0x61, 0x72, 0x75, 0x6e,
  0x81, 0x90, 0x54, 0x5e, 0x94, 0x73, 0x82, 0x7e, 0x8f, 0x70, 0x60, 0x65,
  0xa1, 0x9a, 0x7d, 0x6b, 0x96, 0x72, 0x71, 0x4a, 0x6a, 0x73, 0x6c, 0x7e,
  0x93, 0xa5, 0x56, 0x95, 0x6d, 0x98, 0x6b, 0x74, 0xa8, 0xcf, 0x71, 0x73,
  0x2f, 0x82, 0x92, 0xa4, 0x82, 0x8d, 0x9a, 0x74, 0xcd, 0x94, 0x8d, 0x68,
  0x81, 0x8e, 0x65, 0x8a, 0xa3, 0x60, 0x5b, 0x7a, 0x82, 0x69, 0x88, 0x60,
  0x46, 0x55, 0x49, 0x8f, 0xa5, 0x6d, 0x6f, 0x5d, 0x6e, 0x77, 0xa7, 0x83,
  0x7f, 0x92, 0x79, 0x5e, 0x78, 0x78, 0x57, 0x5a, 0x7f, 0x8a, 0x81, 0x74,
  0x7a, 0x60, 0x6c, 0x77, 0x87, 0x92, 0x7c, 0x5f, 0x59, 0xaf, 0x6b, 0x8e,
  0x78, 0x54, 0x6f, 0x61, 0x7c, 0xa1, 0x84, 0x80, 0x7f, 0x8f, 0x84, 0xae,
  0x7c, 0x83, 0x43, 0x8f, 0x45, 0x98, 0x9c, 0x8d, 0x85, 0xb8, 0x74, 0x86,
  0x70, 0x7a, 0x8a, 0x97, 0x66, 0x80, 0x8a, 0x58, 0x7d, 0x8a, 0x6b, 0x80,
  0x86, 0x38, 0x7a, 0x7a, 0x5c, 0xbd, 0x97, 0x6d, 0x7c, 0xa1, 0xa2, 0x87,
  0x79, 0x80, 0x6f, 0x50, 0xa9, 0x9a, 0x6a, 0x84, 0x7e, 0x82, 0x93, 0x97,
  0x80, 0x6d, 0x4b, 0x70, 0xa1, 0x85, 0x71, 0x80, 0x8c, 0x96, 0x6a, 0xaf,
  0x40, 0x5e, 0x67, 0x91, 0x7a, 0xa8, 0xa3, 0x52, 0x66, 0x7c, 0x4d, 0x7f,
  0x7b, 0x5a, 0x64, 0x6a, 0x90, 0x65, 0x9e, 0x71, 0xa3, 0xa2, 0x6b, 0x8b,
  0x81, 0x77, 0x9a, 0x58, 0x9b, 0x44, 0x5f, 0x4f, 0x6f, 0x6b, 0x88, 0x6b,
  0x80, 0x64, 0x8c, 0x78, 0x8e, 0x53, 0x7a, 0xa1, 0x9f, 0x5f, 0xc1, 0xb5,
  0x5d, 0x87, 0xb1, 0x6e, 0x64, 0xa0, 0x5b, 0x87, 0x65, 0x60, 0x74, 0x64,
  0x52, 0xaa, 0x74, 0x79, 0x7a, 0x84, 0x68, 0x84, 0x6b, 0x81, 0x9e, 0x46,
  0x89, 0x90, 0x42, 0x8f, 0x70, 0xc6, 0xcd, 0xad, 0x81, 0x70, 0x6e, 0x6d,
  0x7f, 0x5c, 0x7a, 0x82, 0x56, 0x43, 0x28, 0xb6, 0x7b, 0x82, 0xb1, 0xbe,
  0x7e, 0x52, 0x7b, 0xa1, 0x6f, 0xbc, 0x73, 0x57, 0xb4, 0x66, 0x89, 0x81,
  0x63, 0x89, 0x93, 0x8a, 0x7a, 0xa1, 0x77, 0x78, 0x6e, 0x7d, 0x90, 0x9d,
  0x99, 0x6e, 0x62, 0x97, 0x59, 0x77, 0x97, 0x9e, 0x56, 0x69, 0x53, 0x83,
  0x98, 0x85, 0x53, 0x89, 0x67, 0xa3, 0x9d, 0x87, 0x89, 0x42, 0x74, 0x98,
  0x63, 0x48, 0x5b, 0x7a, 0x74, 0x6c, 0x84, 0x49, 0x80, 0x76, 0x63, 0x58,
  0x55, 0x5c, 0xa9, 0x81, 0x7e, 0x4f, 0x71, 0x3e, 0x6e, 0x86, 0x3d, 0x69,
  0x48, 0xb1, 0x6c, 0x78, 0x69, 0x73, 0xac, 0x71, 0x7c, 0x7c, 0x73, 0x54,
  0x7e, 0x64, 0x80, 0xb0, 0x75, 0x6a, 0x56, 0x94, 0xa1, 0x61, 0x62, 0x2c,
  0x71, 0xa6, 0x5f, 0x78, 0x6b, 0x7f, 0x94, 0x6e, 0x8f, 0xa5, 0x6e, 0x88,
  0x82, 0x94, 0x75, 0x8b, 0x61, 0x79, 0x73, 0x6b, 0x8b, 0x90, 0x78, 0x7c,
  0xb5, 0x76, 0x74, 0x6b, 0x70, 0x89, 0x73, 0x9a, 0xac, 0x7d, 0x66, 0x82,
  0x8d, 0x6c, 0x84, 0x98, 0x6b, 0x5b, 0x71, 0x65, 0xc9, 0x99, 0x9d, 0x67,
  0x64, 0x80, 0x7f, 0x8c, 0x86, 0x71, 0x5c, 0x6d, 0x85, 0x52, 0x8b, 0x70,
  0x86, 0xac, 0xab, 0x87, 0x90, 0x7b, 0xab, 0x94, 0x77, 0x5b, 0xa6, 0x89,
  0x84, 0x8e, 0x6d, 0x96, 0x99, 0x76, 0x51, 0x6f, 0x75, 0x8e, 0x8e, 0x7e,
  0x73, 0x7c, 0x7a, 0x94, 0x99, 0x98, 0x69, 0x63, 0x5b, 0x7d, 0x97, 0xa0,
  0x87, 0x4b, 0x7c, 0x9c, 0x52, 0x6e, 0x6a, 0x90, 0x49, 0x77, 0x83, 0x7b,
  0x7b, 0x7d, 0x82, 0xa3, 0x9a, 0x7e, 0x83, 0xa3, 0x64, 0x5b, 0x77, 0x62,
  0x6b, 0x8d, 0x77, 0x82, 0x83, 0x58, 0x73, 0x7a, 0x78, 0x83, 0x40, 0x95,
  0x83, 0x8d, 0x64, 0x96, 0x75, 0x74, 0x55, 0x7e, 0x87, 0xbe, 0x87, 0x91,
  0x82, 0x7f, 0x6b, 0x8c, 0x67, 0x8f, 0x89, 0x64, 0x92, 0x85, 0x70, 0x7e,
  0x62, 0x67, 0x6e, 0x89, 0x5e, 0x88, 0x83, 0x8e, 0x8d, 0x6a, 0x8c, 0x6c,
  0x82, 0x59, 0xb9, 0x95, 0xbb, 0x61, 0x5e, 0x70, 0x9c, 0x90, 0x97, 0x83,
  0x6e, 0x76, 0x9c, 0x6b, 0xae, 0x97, 0x82, 0xd5, 0x5e, 0x91, 0x8d, 0x96,
  0x5e, 0x8b, 0x4c, 0x6a, 0xb9, 0x66, 0x79, 0x92, 0x91, 0x75, 0x90, 0x93,
  0x80, 0x68, 0x80, 0x6d, 0x9c, 0x8a, 0x88, 0x8a, 0x70, 0xa1, 0x89, 0x5a,
  0x68, 0x99, 0x82, 0x83, 0x88, 0x89, 0x88, 0x5d, 0x83, 0x6d, 0x7a, 0x65,
  0x88, 0x87, 0x7b, 0x6e, 0x87, 0x6d, 0x88, 0x4b, 0x7a, 0x9a, 0x95, 0x8f,
  0x81, 0x60, 0x9c, 0x89, 0x8a, 0x82, 0x72, 0x88, 0x70, 0x7a, 0x6b, 0x7d,
  0x8c, 0x81, 0x70, 0xc4, 0x74, 0x98, 0xa5, 0x87, 0x67, 0x6f, 0x82, 0x64,
  0x91, 0x94, 0x90, 0x83, 0x79, 0x95, 0x8a, 0x92, 0x7f, 0x8a, 0x8e, 0x6a,
  0x88, 0x8a, 0x77, 0x79, 0x69, 0x9d, 0x7a, 0x71, 0x8b, 0x7c, 0xb0, 0x89,
  0x6e, 0x78, 0x85, 0x5e, 0x93, 0x8f, 0x98, 0x90, 0xa2, 0x7e, 0x99, 0x98,
  0x96, 0x94, 0x78, 0x80, 0x6f, 0x6b, 0x6d, 0x70, 0x7e, 0x8c, 0x78, 0x6c,
  0x4a, 0x74, 0x83, 0x86, 0x7d, 0x80, 0xa0, 0x61, 0x6b, 0x73, 0x86, 0x95,
  0x5a, 0x9d, 0x74, 0x92, 0x9f, 0x52, 0x67, 0x84, 0x90, 0x5f, 0x91, 0x9c,
  0x77, 0x6e, 0x60, 0x7a, 0x73, 0x73, 0x49, 0x67, 0x71, 0x7d, 0x8b, 0x4b,
  0x49, 0x61, 0x78, 0x52, 0x79, 0xb5, 0x76, 0x6d, 0xac, 0x62, 0x6d, 0x65,
  0x3e, 0x7a, 0x69, 0x80, 0x6c, 0x45, 0x9b, 0x5d, 0xbd, 0x86, 0xac, 0x6d,
  0xa7, 0x7b, 0x85, 0x76, 0x74, 0x77, 0x64, 0x7f, 0x8a, 0x85, 0x8a, 0xb3,
  0x81, 0x65, 0xbb, 0x84, 0x68, 0x79, 0x65, 0x71, 0x95, 0x9b, 0x48, 0x90,
  0x5b, 0xb7, 0x79, 0xb4, 0x57, 0x7e, 0x6f, 0x79, 0x87, 0x70, 0x7e, 0x8b,
  0x8f, 0x7e, 0x61, 0x7e, 0x64, 0x62, 0x74, 0x66, 0x75, 0x5b, 0x96, 0x7c,
  0x61, 0x5d, 0xa6, 0xab, 0x91, 0x86, 0x6a, 0x98, 0x80, 0x64, 0x6e, 0x9c,
  0x6c, 0x45, 0x9b, 0x83, 0x8e, 0x4d, 0xa0, 0x83, 0x73, 0x5d, 0x6c, 0x62,
  0x43, 0x71, 0xab, 0x85, 0x8b, 0x7c, 0x85, 0x7d, 0x66, 0x7c, 0x7e, 0x6f,
  0x99, 0x72, 0x5d, 0x48, 0x58, 0xaf, 0x83, 0x9b, 0x7f, 0x6c, 0x9a, 0x8c,
  0x6c, 0x79, 0x6b, 0x56, 0x9f, 0x8f, 0x89, 0x8c, 0x71, 0x60, 0xa7, 0x67,
  0x78, 0x1b, 0x8d, 0x83, 0x73, 0xa3, 0xa2, 0x9c, 0x9a, 0x7b, 0x73, 0xa7,
  0xa0, 0x58, 0x71, 0x64, 0x71, 0x71, 0x88, 0x73, 0x88, 0x63, 0x70, 0xbb,
  0x87, 0x87, 0x68, 0x6e, 0x88, 0x46, 0x8f, 0x52, 0x7f, 0x71, 0x69, 0x95,
  0x60, 0xa3, 0x43, 0x66, 0x92, 0x4b, 0x7b, 0xc2, 0x99, 0xce, 0x9b, 0x75,
  0x72, 0x5f, 0x5d, 0xae, 0x7a, 0x83, 0xe4, 0x73, 0x87, 0xc9, 0x4f, 0x90,
  0x4d, 0x74, 0x7f, 0x99, 0x99, 0x9c, 0x77, 0xa9, 0x93, 0x53, 0x55, 0x59,
  0x7a, 0x5a, 0x9f, 0xcf, 0x55, 0x45, 0xbf, 0x5c, 0x6a, 0x9f, 0xae, 0xa6,
  0x58, 0xc0, 0x8e, 0x8c, 0x65, 0x6e, 0x7a, 0x60, 0x4a, 0x54, 0x90, 0x9d,
  0xd0, 0x57, 0x32, 0x6f, 0x4c, 0x74, 0x7b, 0x79, 0xa9, 0x43, 0xa9, 0x54,
  0x5e, 0x6e, 0x5b, 0x7e, 0xc7, 0x63, 0x83, 0x6c, 0x7b, 0x63, 0x8b, 0x64,
  0x74, 0x89, 0x47, 0x6a, 0x75, 0x78, 0x4f, 0x86, 0x8f, 0x83, 0x77, 0xa6,
  0x85, 0x8b, 0x99, 0x63, 0x74, 0x57, 0xb3, 0xac, 0x67, 0xa1, 0x64, 0x6b,
  0x86, 0x8e, 0x88, 0x54, 0x89, 0x8e, 0x82, 0x61, 0x6f, 0x7e, 0x7a, 0x6d,
  0x78, 0x87, 0x78, 0x7c, 0x7c, 0x63, 0x87, 0x95, 0x7e, 0x66, 0x66, 0x60,
  0x7b, 0x4e, 0x64, 0x8b, 0x7e, 0x8f, 0x7d, 0x83, 0x7c, 0xcc, 0x90, 0x73,
  0x91, 0x6f, 0x5e, 0x7c, 0x9c, 0xa6, 0x9e, 0xad, 0x71, 0x9e, 0x7b, 0x75,
  0x65, 0x7e, 0x69, 0x98, 0x8c, 0x67, 0x8f, 0x54, 0x5a, 0x9d, 0x6d, 0x5e,
  0x69, 0x6c, 0x97, 0x76, 0x93, 0x67, 0x93, 0x69, 0x69, 0x85, 0x56, 0x88,
  0x83, 0x78, 0x64, 0x96, 0x88, 0x53, 0xa1, 0x81, 0x8a, 0x6e, 0x50, 0x6c,
  0xb1, 0x78, 0x93, 0xc2, 0x80, 0x84, 0x96, 0x87, 0x90, 0xb6, 0x85, 0x50,
  0x60, 0x90, 0x73, 0xb0, 0x73, 0x7e, 0x60, 0x8e, 0x85, 0x87, 0x8b, 0x81,
  0x96, 0x98, 0x82, 0x7e, 0x79, 0x6a, 0x84, 0x9c, 0x94, 0x52, 0x8d, 0x94,
  0x4b, 0x62, 0x86, 0x65, 0x9e, 0x8a, 0x70, 0x6b, 0x69, 0x98, 0x90, 0x7d,
  0x92, 0x9e, 0x8a, 0x8a, 0x8e, 0x91, 0xa7, 0x77, 0x5c, 0x6d, 0x3e, 0xb6,
  0x7f, 0x70, 0x82, 0x66, 0x76, 0x81, 0x83, 0x5a, 0x5d, 0x6e, 0xa8, 0xa3,
