/* Copyright 2019 The TensorFlow Authors. All Rights Reserved.

Licensed under the Apache License, Version 2.0 (the "License");
you may not use this file except in compliance with the License.
You may obtain a copy of the License at

    http://www.apache.org/licenses/LICENSE-2.0

Unless required by applicable law or agreed to in writing, software
distributed under the License is distributed on an "AS IS" BASIS,
WITHOUT WARRANTIES OR CONDITIONS OF ANY KIND, either express or implied.
See the License for the specific language governing permissions and
limitations under the License.
==============================================================================*/

// Automatically created from a TensorFlow Lite flatbuffer using the command:
// xxd -i sine_model.tflite > sine_model_data.cc
// See the README for a full description of the creation process.

#include "tensorflow/lite/experimental/micro/examples/hello_xmos/sine_model_data.h"

// We need to keep the data array aligned on some architectures.
#ifdef __has_attribute
#define HAVE_ATTRIBUTE(x) __has_attribute(x)
#else
#define HAVE_ATTRIBUTE(x) 0
#endif
#if HAVE_ATTRIBUTE(aligned) || (defined(__GNUC__) && !defined(__clang__))
#define DATA_ALIGN_ATTRIBUTE __attribute__((aligned(4)))
#else
#define DATA_ALIGN_ATTRIBUTE
#endif

// model data from xxd -i  model_quant.tflite > model_quant.cc
extern const unsigned char g_sine_model_data[] = {
    0x18, 0x00, 0x00, 0x00, 0x54, 0x46, 0x4c, 0x33, 0x00, 0x00, 0x0e, 0x00,
  0x18, 0x00, 0x04, 0x00, 0x08, 0x00, 0x0c, 0x00, 0x10, 0x00, 0x14, 0x00,
  0x0e, 0x00, 0x00, 0x00, 0x03, 0x00, 0x00, 0x00, 0x98, 0x7d, 0x00, 0x00,
  0x0c, 0x00, 0x00, 0x00, 0x10, 0x00, 0x00, 0x00, 0x20, 0x00, 0x00, 0x00,
  0x01, 0x00, 0x00, 0x00, 0x10, 0x7b, 0x00, 0x00, 0x0f, 0x00, 0x00, 0x00,
  0x54, 0x4f, 0x43, 0x4f, 0x20, 0x43, 0x6f, 0x6e, 0x76, 0x65, 0x72, 0x74,
  0x65, 0x64, 0x2e, 0x00, 0x06, 0x00, 0x00, 0x00, 0xe4, 0x7a, 0x00, 0x00,
  0xac, 0x7a, 0x00, 0x00, 0x1c, 0x00, 0x00, 0x00, 0x14, 0x00, 0x00, 0x00,
  0x0c, 0x00, 0x00, 0x00, 0x04, 0x00, 0x00, 0x00, 0xb8, 0x82, 0xff, 0xff,
  0xbc, 0x82, 0xff, 0xff, 0xc0, 0x82, 0xff, 0xff, 0x1a, 0x83, 0xff, 0xff,
  0x04, 0x00, 0x00, 0x00, 0x80, 0x7a, 0x00, 0x00, 0x18, 0x4d, 0x8e, 0xbc,
  0x40, 0xc1, 0x42, 0xbd, 0x35, 0x6c, 0x4f, 0xbd, 0x90, 0x60, 0xef, 0x3c,
  0xf2, 0xb2, 0x5d, 0xbd, 0xc8, 0x43, 0x14, 0x3c, 0x08, 0xe0, 0xf4, 0x3c,
  0xb9, 0xaa, 0x87, 0xbd, 0x7c, 0x88, 0x5a, 0xbd, 0xef, 0x69, 0xae, 0x3d,
  0xa6, 0x24, 0x20, 0xbd, 0x26, 0x47, 0x25, 0xbd, 0xff, 0x3c, 0x4b, 0x3c,
  0x0e, 0x5c, 0x16, 0xbb, 0x94, 0xaf, 0xea, 0xbd, 0x31, 0x75, 0x1d, 0xbd,
  0xf6, 0x59, 0x46, 0x3d, 0x40, 0xba, 0x04, 0xbd, 0xde, 0x62, 0x2a, 0x3d,
  0xbd, 0xc3, 0x92, 0xbd, 0x64, 0x8d, 0x7c, 0xbd, 0x00, 0xc8, 0x0c, 0xba,
  0x62, 0x32, 0x29, 0x3d, 0x60, 0x43, 0x72, 0x3b, 0xb6, 0x4c, 0x35, 0x3d,
  0xbe, 0xca, 0x07, 0xbd, 0x47, 0x54, 0xb1, 0x3d, 0xd8, 0xed, 0x79, 0xbc,
  0x4f, 0x0a, 0x84, 0x3d, 0xd5, 0x1b, 0x89, 0x3d, 0x9e, 0x79, 0xa6, 0xbd,
  0x18, 0xc2, 0x1b, 0x3d, 0xa1, 0xa3, 0x0d, 0xbd, 0x88, 0x10, 0x64, 0xbc,
  0x2b, 0xaf, 0x97, 0x3c, 0x3b, 0x21, 0xde, 0xbd, 0xc7, 0x50, 0xee, 0xbd,
  0x7a, 0x96, 0xdf, 0xbd, 0x59, 0xf3, 0xd2, 0xbe, 0x9d, 0xa5, 0x40, 0x3e,
  0x38, 0xb8, 0x42, 0x3e, 0x3e, 0x58, 0x8d, 0x3e, 0x3a, 0x0b, 0x17, 0xbf,
  0xf6, 0x22, 0x78, 0x3e, 0x20, 0x7a, 0x86, 0x3e, 0x03, 0x82, 0x0f, 0x3e,
  0x54, 0x72, 0xd7, 0xbe, 0x8a, 0x83, 0xaf, 0xbe, 0xac, 0xac, 0x76, 0xbe,
  0xab, 0xc6, 0x31, 0xbe, 0x75, 0xf1, 0x0c, 0xbc, 0xf7, 0xe3, 0x9b, 0x3d,
  0x3e, 0x2a, 0x78, 0x3d, 0xda, 0x4f, 0x50, 0xbd, 0x5e, 0x5d, 0xa1, 0xbd,
  0x26, 0x46, 0x55, 0x3d, 0xfe, 0x3b, 0x3c, 0x3d, 0x74, 0xff, 0xa0, 0x3c,
  0xef, 0x1a, 0x1b, 0xbc, 0x11, 0xd3, 0x94, 0x3e, 0x2a, 0x9d, 0x4b, 0x3e,
  0xac, 0xfc, 0x36, 0xbe, 0xb1, 0x13, 0xcc, 0xbe, 0xd7, 0x3b, 0x28, 0xbe,
  0x2f, 0x63, 0x04, 0xbf, 0xc9, 0x5c, 0x47, 0xbf, 0x8f, 0xbb, 0xa6, 0xbf,
  0x68, 0x03, 0xc8, 0xbe, 0x8f, 0x54, 0xed, 0xbe, 0x80, 0x2e, 0x17, 0xbf,
  0x39, 0xc6, 0x6c, 0xbf, 0x13, 0xff, 0xac, 0xbf, 0xfb, 0x7b, 0x30, 0xbf,
  0x8a, 0xd6, 0x95, 0xbf, 0xb6, 0x80, 0xae, 0xbf, 0x4b, 0x09, 0x49, 0xbf,
  0xd4, 0x70, 0x77, 0xbf, 0x3f, 0x0b, 0x83, 0xbf, 0xdc, 0x63, 0x36, 0xbf,
  0x95, 0x3b, 0x08, 0xbf, 0x58, 0xd0, 0x82, 0xbe, 0xbf, 0x3d, 0xe8, 0xbd,
  0x12, 0x89, 0x6e, 0x3d, 0x49, 0xf5, 0x51, 0xbd, 0xf0, 0x5a, 0xf9, 0x3c,
  0x6e, 0xed, 0x0e, 0xbd, 0x61, 0xd4, 0x69, 0xbd, 0x92, 0x96, 0xc4, 0x3d,
  0xe3, 0x4c, 0x69, 0xbe, 0xe4, 0xc3, 0x83, 0xbe, 0xd0, 0x5a, 0xc8, 0xbe,
  0x4b, 0x94, 0x0d, 0xbf, 0xed, 0x35, 0xf4, 0xbd, 0xfd, 0x7f, 0x61, 0xbe,
  0xc0, 0xee, 0xc4, 0xbd, 0xc4, 0x5f, 0x65, 0x3d, 0x9d, 0x9e, 0x4f, 0xbe,
  0x05, 0x79, 0x19, 0x3e, 0x65, 0x65, 0xe4, 0x3d, 0x8e, 0x34, 0x74, 0xba,
  0xab, 0x46, 0x9b, 0x3d, 0x2c, 0xfb, 0xd4, 0xbc, 0x85, 0x39, 0xb6, 0xbe,
  0xf7, 0x4c, 0xa0, 0xbe, 0x5c, 0x13, 0x9f, 0xbe, 0x7c, 0x30, 0x0e, 0xbf,
  0xf6, 0x10, 0x0b, 0xbf, 0xec, 0xf6, 0x32, 0xbe, 0xe6, 0xf5, 0xa1, 0xbe,
  0x13, 0x2e, 0x4e, 0x3c, 0x90, 0x3b, 0x76, 0xbe, 0xb3, 0x2c, 0xae, 0x3d,
  0x19, 0x07, 0x9c, 0x3d, 0x38, 0x54, 0xa7, 0x3b, 0x54, 0xf9, 0xa0, 0xbd,
  0x96, 0x95, 0xde, 0xbd, 0x91, 0x4d, 0x0b, 0xbf, 0xda, 0x1a, 0x10, 0xbf,
  0x0b, 0xca, 0x0d, 0xbf, 0x29, 0xbf, 0x7e, 0xbe, 0x55, 0xc7, 0x0c, 0x3d,
  0xc8, 0x69, 0xac, 0x3d, 0x40, 0xfe, 0x0f, 0xbd, 0x81, 0xfb, 0x33, 0x3e,
  0xd8, 0x94, 0xdf, 0xbd, 0x9e, 0x21, 0x28, 0x3b, 0x63, 0x75, 0x9d, 0xbd,
  0x2a, 0xcc, 0x6b, 0x3d, 0x1f, 0x79, 0xf5, 0xbd, 0x79, 0x66, 0x98, 0x3d,
  0xed, 0xbc, 0x6f, 0x3d, 0x4a, 0xe1, 0xa6, 0xbd, 0xf5, 0xe1, 0xdf, 0xbd,
  0x24, 0xa1, 0x37, 0xbe, 0x8e, 0xe4, 0xb0, 0xbc, 0x2a, 0xed, 0x9e, 0xbc,
  0x63, 0x9f, 0xf5, 0xbe, 0x98, 0x05, 0xbf, 0xbe, 0x30, 0xcb, 0xcd, 0xbe,
  0x16, 0x9e, 0x43, 0xbe, 0x10, 0xf4, 0x7f, 0x3c, 0x6a, 0x2f, 0xa6, 0xbd,
  0x81, 0x41, 0xe8, 0xbe, 0xa1, 0x35, 0x7f, 0xbe, 0x08, 0xe4, 0x0c, 0xbf,
  0xc8, 0xea, 0x20, 0xbf, 0xc7, 0x21, 0x12, 0xbe, 0x2f, 0x6d, 0x0d, 0xbd,
  0x5c, 0x35, 0x14, 0x3d, 0x10, 0xde, 0x0b, 0x3d, 0xa3, 0x57, 0xb9, 0x3d,
  0x92, 0x87, 0xa1, 0x3d, 0x43, 0xe0, 0x6b, 0xbd, 0x0b, 0xd9, 0x20, 0x3e,
  0x03, 0x29, 0xad, 0x3d, 0x00, 0x38, 0x0d, 0x3e, 0xc5, 0xe0, 0xde, 0xbb,
  0x14, 0xbe, 0x4a, 0x3e, 0x63, 0xed, 0x09, 0x3e, 0x88, 0x08, 0xb9, 0x3b,
  0x21, 0x7f, 0x20, 0xbd, 0x94, 0xa0, 0xa5, 0xbd, 0x61, 0x93, 0x9d, 0x3c,
  0x58, 0x31, 0x98, 0xbe, 0x07, 0x21, 0xea, 0xbe, 0xd2, 0x9d, 0x65, 0xbf,
  0xe3, 0x86, 0x43, 0xbf, 0xc7, 0x12, 0x95, 0xbe, 0xbb, 0x95, 0x9c, 0x3d,
  0xd3, 0xf3, 0x15, 0xbe, 0x55, 0xa2, 0x83, 0xbe, 0x49, 0x0c, 0x20, 0xbf,
  0x19, 0x6f, 0x22, 0xbf, 0x51, 0x35, 0xd6, 0xbd, 0xad, 0x56, 0x05, 0x3d,
  0xf3, 0x8a, 0xa4, 0x3c, 0xa4, 0x1a, 0xca, 0xbd, 0x33, 0x32, 0xc4, 0xbe,
  0xf8, 0xdb, 0x00, 0xbd, 0xdb, 0xf0, 0x04, 0xbd, 0x7d, 0xf1, 0x35, 0xbe,
  0x4e, 0x0c, 0x39, 0x3e, 0xb9, 0x59, 0x13, 0x3e, 0x4d, 0x50, 0x32, 0x3c,
  0x2c, 0xec, 0x5e, 0x3d, 0xde, 0x2b, 0xd7, 0x3d, 0x04, 0xe5, 0x5d, 0x3e,
  0xc2, 0xbe, 0xcb, 0x3d, 0x5d, 0x2f, 0x8b, 0x3d, 0x87, 0x8b, 0x38, 0x3e,
  0x37, 0x6a, 0x9e, 0x3e, 0x59, 0xf4, 0x92, 0xbd, 0x35, 0x23, 0x4a, 0xbf,
  0x58, 0x70, 0xc5, 0xbf, 0xe3, 0xd8, 0x87, 0xbf, 0xf5, 0x6f, 0xc4, 0xbe,
  0x82, 0x0d, 0x92, 0xbd, 0xe9, 0x0b, 0xd6, 0xbe, 0x51, 0x7d, 0xa1, 0xbe,
  0xfa, 0xac, 0xd1, 0xbe, 0xbe, 0xfa, 0x37, 0xbf, 0x39, 0x65, 0xaf, 0xbd,
  0x33, 0x4c, 0x98, 0x3d, 0x98, 0xf6, 0xc8, 0xbd, 0x60, 0xc4, 0x96, 0xbe,
  0xdc, 0x04, 0xc6, 0x38, 0x74, 0x0d, 0xa8, 0x3c, 0xc3, 0xf2, 0x4a, 0x3d,
  0x6a, 0x44, 0x6d, 0x3d, 0x96, 0x94, 0x8d, 0x3d, 0x79, 0x54, 0xa3, 0x3d,
  0xa5, 0x41, 0x86, 0x3d, 0x55, 0x51, 0xd0, 0x3c, 0xfe, 0x7c, 0xa1, 0x3e,
  0x41, 0xf8, 0x83, 0x3e, 0x4b, 0x70, 0x18, 0x3e, 0x3c, 0x40, 0xc3, 0x3d,
  0xb9, 0x8c, 0xfe, 0xbb, 0xf9, 0x1a, 0xa6, 0xbc, 0xd6, 0xfa, 0x26, 0x3e,
  0xda, 0x04, 0x0b, 0xbe, 0xb8, 0x4e, 0x8f, 0xbf, 0x9d, 0x05, 0x8a, 0xbf,
  0xd8, 0x0d, 0x01, 0xbf, 0x81, 0x95, 0x7f, 0x3e, 0xe7, 0xd5, 0x53, 0xbe,
  0x24, 0xc3, 0x1b, 0x3e, 0x58, 0x78, 0x5f, 0x3e, 0x9d, 0xd9, 0x30, 0xbf,
  0xc9, 0x4e, 0x01, 0xbe, 0x4a, 0xe7, 0xf1, 0xbb, 0x7a, 0xb4, 0x0a, 0xbe,
  0xbe, 0x4c, 0xec, 0xbd, 0x52, 0xf0, 0x2c, 0x3e, 0x4f, 0x96, 0x5e, 0xbc,
  0xca, 0xbc, 0x40, 0xbc, 0xdc, 0xef, 0x07, 0x3e, 0xb8, 0x14, 0x55, 0x3d,
  0xe7, 0x4e, 0x1b, 0x3e, 0x59, 0x77, 0x26, 0x3e, 0xfb, 0x6d, 0xcb, 0x3e,
  0x69, 0x4b, 0x7e, 0x3e, 0x73, 0x81, 0x38, 0x3e, 0xa5, 0x1d, 0x51, 0x3c,
  0xe7, 0xcc, 0x00, 0x3e, 0x35, 0x9a, 0xf9, 0x3d, 0xf1, 0x36, 0x08, 0x3e,
  0xde, 0xb3, 0x98, 0x3e, 0x56, 0xd2, 0xe0, 0x3d, 0xff, 0x60, 0xc7, 0xbf,
  0x02, 0x84, 0xad, 0xbf, 0x24, 0xd4, 0x18, 0xbf, 0xfd, 0xa7, 0x30, 0xbc,
  0x1e, 0x1d, 0x51, 0xbe, 0xa8, 0x72, 0x88, 0x3e, 0x15, 0x4f, 0x75, 0x3c,
  0x92, 0x86, 0x68, 0xbe, 0x47, 0x57, 0xb3, 0xbd, 0x28, 0xf0, 0x70, 0xbe,
  0x1c, 0x28, 0x17, 0xbe, 0xb3, 0xa5, 0x21, 0xbe, 0x14, 0x87, 0x79, 0xbc,
  0xd3, 0x88, 0xbf, 0x3d, 0x05, 0x1b, 0xa1, 0xbd, 0x00, 0xad, 0xe2, 0x3a,
  0x55, 0xbb, 0x60, 0x3e, 0x98, 0xd9, 0xd8, 0x3d, 0x04, 0x55, 0xe3, 0xbd,
  0x7d, 0xb3, 0x83, 0x3e, 0xce, 0x8b, 0x78, 0x3e, 0x70, 0x49, 0x87, 0x3e,
  0x87, 0xf5, 0x8b, 0x3e, 0xee, 0x33, 0xea, 0x3d, 0x5e, 0x28, 0xd8, 0xbd,
  0x5b, 0x2d, 0x1f, 0xbe, 0x50, 0xd6, 0xa3, 0x3e, 0x83, 0x31, 0x47, 0x3e,
  0x50, 0xf1, 0x97, 0xbf, 0xcc, 0x72, 0x98, 0xbf, 0x0b, 0xc0, 0x0b, 0xbf,
  0x4f, 0x02, 0x13, 0x3d, 0x53, 0x06, 0x63, 0xbe, 0x68, 0xa2, 0x1e, 0x3e,
  0x56, 0x82, 0x1b, 0x3e, 0x47, 0xc6, 0xa2, 0xbd, 0xf8, 0x70, 0x18, 0x3d,
  0x72, 0x6e, 0x39, 0xbe, 0x9a, 0x70, 0xd6, 0xbd, 0x51, 0x91, 0x02, 0xbe,
  0xce, 0x3d, 0x4e, 0x3d, 0x49, 0xee, 0x2a, 0xbe, 0xbc, 0x1e, 0x87, 0x3d,
  0x1f, 0x25, 0x01, 0x3d, 0x23, 0x60, 0xf4, 0x3c, 0x2e, 0x0a, 0x16, 0x3d,
  0xe8, 0x7a, 0x70, 0xbe, 0x31, 0x69, 0x37, 0xbd, 0x84, 0xb0, 0x49, 0x3e,
  0xa1, 0x3f, 0x61, 0x3e, 0x35, 0xc1, 0x94, 0x3d, 0x98, 0x04, 0xa4, 0x3d,
  0x17, 0x69, 0x20, 0x3e, 0x0b, 0x7a, 0x19, 0x3e, 0xfb, 0x64, 0x90, 0x3e,
  0x91, 0xbb, 0x2a, 0x3e, 0xc9, 0xb0, 0x6b, 0xbf, 0x1a, 0x56, 0x8a, 0xbf,
  0x15, 0xab, 0x64, 0xbe, 0x3a, 0xb5, 0x87, 0x3a, 0x16, 0x63, 0x42, 0x3e,
  0x45, 0x97, 0x9c, 0xbe, 0x39, 0x0a, 0xb0, 0xbd, 0x79, 0x77, 0xd9, 0xbe,
  0xdc, 0x2e, 0x61, 0xbe, 0x0a, 0x49, 0x70, 0x3b, 0x59, 0xe8, 0x9e, 0xbd,
  0x55, 0xb6, 0x81, 0xbd, 0x8f, 0xa7, 0x6d, 0xbe, 0xb3, 0x53, 0x96, 0xbd,
  0x72, 0xe8, 0x84, 0xbd, 0x8e, 0xe2, 0x38, 0xbe, 0xaa, 0x47, 0xc8, 0xbd,
  0x76, 0xd3, 0x02, 0xbf, 0xd3, 0x56, 0x12, 0xbf, 0x68, 0xb8, 0x1f, 0xbf,
  0x4e, 0xe4, 0xe2, 0xbc, 0xfc, 0x39, 0xe9, 0xbd, 0x6f, 0xa6, 0x52, 0xbd,
  0x4d, 0xde, 0x50, 0x3e, 0x78, 0x17, 0x72, 0x3e, 0x2a, 0x37, 0x4c, 0x3e,
  0xe9, 0xfb, 0x5a, 0x3e, 0x6c, 0xc9, 0x96, 0x3e, 0x89, 0x8c, 0x23, 0xbf,
  0xe9, 0x77, 0x91, 0xbf, 0x05, 0x55, 0x13, 0xbe, 0x18, 0x1d, 0x00, 0xbd,
  0x9c, 0xc8, 0x26, 0x3e, 0xf6, 0x05, 0xaf, 0xbe, 0x71, 0xea, 0x71, 0xbe,
  0x77, 0x72, 0x8c, 0xbe, 0x6a, 0x6e, 0xc8, 0xbd, 0x2c, 0x6c, 0x5f, 0x3e,
  0x39, 0x5d, 0xff, 0x3c, 0x85, 0x24, 0xea, 0xbd, 0xc2, 0x3d, 0x05, 0xbe,
  0x4c, 0xcb, 0xa4, 0x3c, 0x8a, 0x10, 0xd0, 0x3b, 0x55, 0xca, 0xbe, 0xbb,
  0x76, 0xf7, 0xa7, 0xbd, 0xb7, 0x22, 0x27, 0xbf, 0x30, 0xa0, 0x54, 0xbf,
  0x27, 0x0b, 0x33, 0xbf, 0x67, 0xa9, 0x4d, 0xbe, 0x8d, 0x4a, 0x6f, 0xbd,
  0xeb, 0xdd, 0x0b, 0xbb, 0xf9, 0xcf, 0xbc, 0x3d, 0x88, 0xf9, 0x47, 0x3d,
  0x90, 0xb5, 0x8a, 0x3e, 0x53, 0xe8, 0x70, 0x3e, 0x06, 0xae, 0x19, 0x3f,
  0xc7, 0x52, 0x30, 0xbe, 0x23, 0x9e, 0x40, 0xbf, 0xb0, 0x21, 0xb9, 0xbe,
  0x0c, 0x41, 0x8a, 0x3d, 0xe5, 0x9d, 0x2d, 0x3e, 0xb6, 0xe2, 0x05, 0x3e,
  0xe5, 0x25, 0x40, 0xbe, 0xec, 0x92, 0x9b, 0x3d, 0xa4, 0xfe, 0x52, 0x3b,
  0x19, 0xed, 0x46, 0x3e, 0xdf, 0x4d, 0x35, 0x3e, 0xb1, 0x0d, 0x0a, 0x3e,
  0xe0, 0x8a, 0xb6, 0x3c, 0xfa, 0x9f, 0x11, 0x3d, 0xe5, 0xda, 0x9f, 0xba,
  0x56, 0xbe, 0x43, 0x3d, 0x17, 0x0a, 0x02, 0xbf, 0x24, 0x52, 0x43, 0xbf,
  0x4d, 0xa1, 0x6e, 0xbf, 0xd9, 0x67, 0x23, 0xbf, 0x25, 0x30, 0x1e, 0xbe,
  0x8d, 0xd6, 0xae, 0xbd, 0xbe, 0x24, 0x10, 0xbe, 0x81, 0x0a, 0x90, 0xbe,
  0xee, 0x40, 0x3c, 0xbd, 0xc6, 0x7c, 0x04, 0x3e, 0xc5, 0xb0, 0x9a, 0x3e,
  0x7d, 0x59, 0xfb, 0x3e, 0x20, 0x88, 0xd7, 0x3d, 0x51, 0x2b, 0x0d, 0xbf,
  0xa3, 0x15, 0xd4, 0xbe, 0x5b, 0xa7, 0xdf, 0xbd, 0x87, 0xfc, 0x39, 0xbe,
  0x80, 0xa0, 0xae, 0xbe, 0x1c, 0xb1, 0x0d, 0xbf, 0x17, 0x22, 0x06, 0xbe,
  0x36, 0x84, 0x6e, 0x3e, 0xa5, 0x9c, 0x03, 0x3e, 0x4d, 0x1d, 0x9e, 0x3e,
  0x39, 0x44, 0x00, 0x3e, 0xef, 0x7a, 0x40, 0x3e, 0xa0, 0xfb, 0xcc, 0x3b,
  0x30, 0xb7, 0x9f, 0x3d, 0x04, 0x2b, 0x21, 0x3e, 0x40, 0x8e, 0xa5, 0xbe,
  0x49, 0x1b, 0x54, 0xbf, 0x6f, 0x07, 0x61, 0xbf, 0x07, 0x22, 0x49, 0xbf,
  0x47, 0x5c, 0x0c, 0xbe, 0x51, 0x5d, 0x20, 0xbe, 0xee, 0xfd, 0x14, 0xbe,
  0x7d, 0xa1, 0x9a, 0xbb, 0x61, 0x45, 0x90, 0x3d, 0x6d, 0x6d, 0x9e, 0x3d,
  0xfb, 0x0d, 0x6c, 0x3e, 0xa8, 0x84, 0xc3, 0x3e, 0x53, 0x57, 0x1b, 0x3e,
  0xd5, 0x2b, 0x5b, 0xbf, 0xb6, 0xc0, 0x9f, 0xbe, 0xf3, 0x4e, 0x24, 0xbe,
  0x87, 0xc8, 0x6e, 0xbd, 0xf8, 0x6f, 0x26, 0xbf, 0x61, 0xd0, 0x28, 0xbf,
  0xfb, 0x97, 0x34, 0x3e, 0xea, 0xfa, 0x60, 0x3e, 0x58, 0x77, 0xc4, 0xbc,
  0x52, 0xc4, 0xa1, 0x3e, 0xcb, 0x1a, 0x34, 0x3e, 0x38, 0x82, 0x83, 0x3e,
  0x8b, 0x13, 0x4c, 0x3e, 0xa7, 0x9c, 0xca, 0x3d, 0x4c, 0xa3, 0xc6, 0xbd,
  0x7b, 0x6e, 0x16, 0xbf, 0x8e, 0xae, 0x81, 0xbf, 0xd6, 0xb6, 0x28, 0xbf,
  0xca, 0x88, 0x02, 0xbf, 0x24, 0x9e, 0xa3, 0xbe, 0x73, 0x67, 0x08, 0xbe,
  0x20, 0x5f, 0x64, 0xbd, 0x75, 0xdc, 0x1c, 0x3e, 0xf3, 0x11, 0xee, 0x3c,
  0x7e, 0xd4, 0xd8, 0x3d, 0x11, 0x5e, 0x45, 0x3e, 0x39, 0xa8, 0x87, 0x3e,
  0x58, 0xe7, 0xd1, 0xbd, 0xa6, 0xf6, 0x5a, 0xbf, 0x94, 0xa6, 0xf2, 0xbe,
  0xb5, 0xb8, 0xcf, 0xbd, 0xb2, 0x7f, 0xfb, 0xbd, 0xe4, 0x4d, 0x10, 0xbf,
  0x29, 0xbb, 0xbf, 0xbe, 0x3e, 0xf9, 0x40, 0x3e, 0x47, 0x4c, 0x8b, 0x3e,
  0xc0, 0x81, 0x49, 0x3c, 0xa6, 0x98, 0x44, 0x3e, 0xda, 0xfa, 0x95, 0x3e,
  0x85, 0xda, 0x45, 0x3e, 0xa4, 0xe2, 0x4e, 0x3e, 0x8d, 0x8d, 0x3f, 0x3e,
  0x57, 0xb6, 0xa5, 0xbe, 0xe5, 0x76, 0x73, 0xbf, 0xec, 0x33, 0x5b, 0xbf,
  0xb2, 0x6b, 0xea, 0xbe, 0x6e, 0xe3, 0xcf, 0xbe, 0x76, 0xa5, 0x72, 0xbc,
  0xf0, 0x86, 0xdf, 0x3a, 0x80, 0x59, 0xe8, 0xbc, 0xc2, 0xc7, 0x12, 0x3e,
  0x99, 0x8c, 0x3c, 0x3d, 0xd0, 0x14, 0x92, 0x3c, 0xb5, 0x36, 0xca, 0x3d,
  0x9f, 0xe1, 0x37, 0x3c, 0xf1, 0x39, 0xe0, 0xbe, 0xc1, 0xd1, 0x42, 0xbf,
  0x45, 0xba, 0xac, 0xbd, 0xa6, 0x32, 0x8f, 0xbd, 0xcc, 0xc4, 0x68, 0xbe,
  0xc4, 0x96, 0x1a, 0xbf, 0x2a, 0x48, 0xba, 0xbe, 0x70, 0xe8, 0x81, 0x3d,
  0x61, 0x42, 0x24, 0x3e, 0x5f, 0x09, 0x35, 0x3e, 0xfa, 0xd0, 0xc2, 0x3d,
  0x0b, 0x23, 0xd0, 0x3d, 0x65, 0xcc, 0x9d, 0x3e, 0x34, 0xfb, 0xb9, 0x3e,
  0x18, 0xca, 0xaa, 0x3d, 0x39, 0x44, 0x8b, 0xbe, 0xe8, 0x0f, 0x47, 0xbf,
  0xde, 0x38, 0x30, 0xbf, 0xf8, 0xc3, 0xb0, 0xbe, 0x8e, 0xc9, 0xd7, 0xbd,
  0x95, 0x50, 0x76, 0x3d, 0xf1, 0xb5, 0xcd, 0xbd, 0x91, 0x7f, 0x87, 0x3d,
  0xbe, 0x68, 0x08, 0x3e, 0xc2, 0x53, 0x22, 0xbd, 0x41, 0x06, 0xc3, 0x3d,
  0x76, 0x15, 0xbe, 0xbd, 0x2f, 0x43, 0x88, 0xbd, 0x00, 0x56, 0xb2, 0xbe,
  0xdc, 0xac, 0x3e, 0xbf, 0x8e, 0x26, 0x2d, 0x3e, 0x18, 0x19, 0x86, 0xbe,
  0x7b, 0xec, 0xb9, 0xbd, 0xaf, 0x4a, 0x21, 0xbf, 0xa8, 0xf0, 0x00, 0xbf,
  0x25, 0x62, 0xba, 0xbd, 0xca, 0x67, 0xe8, 0xbd, 0xfe, 0x23, 0xc1, 0x3b,
  0x15, 0xdd, 0x85, 0x3b, 0xa8, 0x7c, 0x64, 0x3e, 0x44, 0xd3, 0x39, 0x3e,
  0xbb, 0x5d, 0x95, 0x3e, 0xec, 0xd4, 0xdd, 0x3d, 0x83, 0x98, 0x90, 0xbe,
  0x7a, 0x12, 0x25, 0xbf, 0x52, 0x64, 0xe6, 0xbe, 0x1c, 0xbf, 0x8a, 0xbe,
  0x96, 0x51, 0xf5, 0xbd, 0xf5, 0x38, 0x8d, 0xbd, 0x7e, 0x0c, 0x2a, 0xbd,
  0xd2, 0x56, 0x02, 0xbd, 0xbb, 0xb3, 0xa1, 0xbd, 0xcb, 0x8f, 0xbd, 0xbc,
  0xe8, 0x88, 0x44, 0x3e, 0x8f, 0x45, 0xaf, 0xbd, 0x21, 0x99, 0xde, 0xbd,
  0x60, 0xfa, 0xe6, 0xbe, 0xdd, 0xfe, 0xd3, 0xbe, 0xde, 0x61, 0xaf, 0xbe,
  0x03, 0x82, 0x8a, 0xbc, 0xde, 0x3c, 0x93, 0x3e, 0x1f, 0x9d, 0x15, 0xbe,
  0x56, 0x19, 0xaa, 0xbe, 0xc8, 0x74, 0x1e, 0xbe, 0x9b, 0x3e, 0x98, 0xbc,
  0xfb, 0xa7, 0xdf, 0x3b, 0xf0, 0x47, 0x0b, 0x3e, 0xd4, 0xe2, 0xf9, 0x3d,
  0xee, 0x46, 0xbb, 0x3d, 0x5e, 0x9d, 0x7e, 0x3e, 0xfa, 0x27, 0x98, 0x3e,
  0x72, 0x2e, 0xa9, 0x3d, 0x2f, 0x04, 0x44, 0xbe, 0xc1, 0xfe, 0x5a, 0xbe,
  0x53, 0x40, 0xda, 0xbd, 0xbc, 0xf1, 0x47, 0xbe, 0x16, 0xef, 0x07, 0xbd,
  0x2e, 0x39, 0x0f, 0xbd, 0x5e, 0x1f, 0x15, 0xbe, 0x16, 0x09, 0xa8, 0xbd,
  0xc8, 0xb2, 0x4c, 0x3b, 0x4f, 0xc2, 0x09, 0x3e, 0xf9, 0x0f, 0x24, 0xbe,
  0x6c, 0x1a, 0xf3, 0xbc, 0x32, 0x43, 0x3e, 0xbf, 0x81, 0x01, 0x03, 0xbf,
  0xfe, 0x26, 0x77, 0xbe, 0xab, 0xd3, 0x9b, 0x3d, 0xb7, 0x6c, 0xa5, 0x3e,
  0xcb, 0x14, 0xc9, 0xbd, 0xe2, 0x53, 0xb4, 0xbe, 0x44, 0x99, 0x04, 0x3d,
  0x01, 0x60, 0x10, 0x3e, 0x8c, 0x81, 0x84, 0x3c, 0xca, 0x79, 0x09, 0x3d,
  0xe8, 0xfa, 0x8d, 0x3d, 0x69, 0x21, 0x9e, 0xbc, 0x15, 0xc2, 0x9c, 0x3e,
  0x0d, 0x5c, 0xa2, 0x3e, 0xee, 0xde, 0xd7, 0x3e, 0x9d, 0x71, 0x0e, 0x3e,
  0x5a, 0x15, 0x9a, 0xbd, 0x5e, 0x91, 0x30, 0xbd, 0xc1, 0x90, 0x8e, 0xbd,
  0xbb, 0x8e, 0x76, 0x3b, 0xbc, 0x61, 0x31, 0xbe, 0x24, 0xa2, 0x32, 0xbe,
  0xe8, 0x08, 0x8b, 0xbd, 0x41, 0xf2, 0xe3, 0xbc, 0x21, 0x91, 0xa4, 0x3d,
  0xb5, 0x81, 0xaf, 0xbe, 0xa0, 0x73, 0x78, 0xbe, 0x52, 0xa5, 0x42, 0xbf,
  0x83, 0xcf, 0xa3, 0xbe, 0x99, 0x11, 0x47, 0xbd, 0x51, 0xe8, 0x10, 0x3c,
  0xf0, 0x83, 0x06, 0xbe, 0x37, 0xa2, 0x3f, 0xbe, 0x4d, 0xea, 0xd0, 0xbd,
  0x87, 0x2e, 0xc4, 0xbd, 0x1c, 0x53, 0xcd, 0x3d, 0xc7, 0x7f, 0x3c, 0x3d,
  0x12, 0x80, 0x6e, 0x3d, 0xd0, 0xed, 0x0f, 0xbe, 0x11, 0x70, 0x34, 0xbd,
  0x18, 0x28, 0x18, 0x3e, 0x6f, 0x0b, 0x92, 0x3e, 0x42, 0x8b, 0x5b, 0x3e,
  0x4d, 0xa4, 0x18, 0x3e, 0x3c, 0x52, 0xde, 0xbc, 0xab, 0x24, 0x8f, 0xbb,
  0xa8, 0x7e, 0x80, 0xbd, 0x26, 0x98, 0x93, 0xbe, 0xe2, 0xe7, 0x27, 0xbe,
  0x59, 0x5c, 0xa8, 0xbe, 0xb8, 0x54, 0x3d, 0xbe, 0x2e, 0x73, 0x03, 0xbb,
  0xb2, 0x3d, 0x9a, 0xbd, 0x25, 0x5b, 0x29, 0xbe, 0xe6, 0xa0, 0xca, 0xbe,
  0x13, 0xe8, 0x1a, 0xbf, 0x9e, 0x5d, 0x95, 0x3e, 0xa4, 0x1f, 0x07, 0x3e,
  0x8f, 0x9f, 0x19, 0x3d, 0x05, 0x81, 0xb3, 0xbc, 0x6e, 0xd8, 0xc8, 0xbe,
  0x2c, 0x81, 0xd2, 0xbe, 0xf6, 0xe3, 0x09, 0xbf, 0xfe, 0xc4, 0xde, 0xbd,
  0x64, 0xc5, 0xdd, 0x3d, 0x9a, 0xa7, 0x04, 0xbe, 0xda, 0x29, 0xd1, 0x3d,
  0x93, 0xa7, 0xe6, 0x3d, 0x41, 0x02, 0x43, 0x3d, 0x5d, 0x52, 0x20, 0x3e,
  0x2d, 0xb3, 0x31, 0x3e, 0x3e, 0xb4, 0xa4, 0x3e, 0x47, 0x2a, 0x99, 0x3d,
  0x5a, 0xe8, 0x63, 0x3d, 0xee, 0x3b, 0xa8, 0x3d, 0x05, 0x93, 0x80, 0xbd,
  0xe3, 0x6b, 0x00, 0xbe, 0xf2, 0x7f, 0x11, 0xbe, 0xd2, 0x7f, 0x01, 0xbe,
  0x25, 0xa0, 0x34, 0xbd, 0xa2, 0x8e, 0x06, 0x3e, 0x69, 0x98, 0x23, 0xbd,
  0x8a, 0x6e, 0xbc, 0xbe, 0xcc, 0x91, 0x8d, 0xbe, 0xcd, 0x8a, 0x9e, 0x3e,
  0x46, 0x8d, 0x76, 0x3d, 0x14, 0xca, 0x69, 0xbd, 0xad, 0x5f, 0x27, 0xbd,
  0x9f, 0x51, 0xb6, 0xbe, 0x17, 0x41, 0x49, 0xbf, 0xf9, 0x9c, 0x39, 0xbf,
  0xd1, 0x5c, 0x94, 0xbe, 0x1e, 0x0b, 0xcd, 0xbd, 0xbb, 0x60, 0x14, 0x3d,
  0x63, 0xff, 0x8a, 0x3d, 0x46, 0x12, 0x46, 0x3e, 0x73, 0x6a, 0x8b, 0x3e,
  0x37, 0x1b, 0xae, 0x3e, 0x49, 0x44, 0x5e, 0x3e, 0xe8, 0x8c, 0x84, 0x3e,
  0x43, 0x03, 0x45, 0x3e, 0x07, 0xb5, 0x1f, 0x3e, 0x48, 0xcd, 0x54, 0xbd,
  0x1b, 0x44, 0x21, 0x3d, 0x08, 0x6c, 0xbd, 0xbe, 0xf6, 0x16, 0xd9, 0xbe,
  0x69, 0x4d, 0xce, 0xbe, 0xd1, 0x6c, 0x20, 0xbe, 0xa3, 0xf1, 0x20, 0xbd,
  0x14, 0x5d, 0xd3, 0xbe, 0x4d, 0xe6, 0x04, 0xbf, 0x34, 0x12, 0xc2, 0xbe,
  0x10, 0x3a, 0x63, 0xbe, 0x60, 0x69, 0xeb, 0x3b, 0x01, 0xf4, 0x58, 0xbd,
  0x14, 0xfd, 0xb8, 0xbc, 0x46, 0xc8, 0xa5, 0xbe, 0xe4, 0x48, 0xad, 0xbe,
  0x6c, 0x7e, 0xf2, 0xbd, 0xac, 0xae, 0xac, 0xbe, 0xda, 0x4f, 0xfc, 0xbe,
  0xe6, 0xd1, 0xc7, 0xbe, 0x63, 0xcf, 0xb4, 0xbd, 0xb5, 0x8a, 0x8a, 0xbd,
  0xff, 0xca, 0x99, 0x3d, 0x8b, 0xfd, 0xaf, 0xbc, 0xaf, 0xbe, 0x3f, 0x3e,
  0xad, 0xfc, 0x1e, 0x3e, 0x78, 0x1c, 0xda, 0x3c, 0x80, 0x61, 0xc9, 0x3d,
  0x00, 0x38, 0xa2, 0xbd, 0x14, 0xfe, 0xd8, 0xbd, 0x1b, 0xa6, 0xa6, 0xbe,
  0xc9, 0xf4, 0x35, 0xbf, 0xe2, 0x06, 0x5e, 0xbf, 0x65, 0x80, 0x6d, 0xbf,
  0xa0, 0x32, 0x49, 0xbf, 0xa9, 0x05, 0x74, 0xbf, 0xcf, 0xad, 0x1d, 0xbf,
  0x3e, 0xfc, 0xa1, 0xbe, 0x90, 0xe4, 0x34, 0x3d, 0x9f, 0x4e, 0x90, 0x3d,
  0x5f, 0x98, 0x23, 0xbd, 0x82, 0xc7, 0x2a, 0xbd, 0xe9, 0x24, 0xeb, 0xbd,
  0xed, 0xbd, 0x96, 0xbe, 0xcc, 0x2d, 0xec, 0xbe, 0x1e, 0x79, 0x69, 0xbf,
  0x38, 0xec, 0x4e, 0xbf, 0x71, 0xe8, 0x28, 0xbf, 0xf4, 0x4e, 0x57, 0xbf,
  0x16, 0xe1, 0x70, 0xbf, 0xba, 0x2f, 0x8a, 0xbf, 0x8f, 0x3d, 0x36, 0xbf,
  0xb9, 0xfd, 0x84, 0xbf, 0x40, 0x16, 0x76, 0xbf, 0x62, 0x39, 0x90, 0xbf,
  0x3f, 0x74, 0xa3, 0xbf, 0x35, 0x1c, 0x8b, 0xbf, 0xb3, 0x19, 0x7c, 0xbf,
  0x59, 0x42, 0x81, 0xbf, 0x6b, 0x46, 0x9e, 0xbf, 0x58, 0x38, 0x5d, 0xbf,
  0x91, 0xae, 0x6a, 0xbf, 0x75, 0x72, 0x34, 0xbf, 0xa8, 0xed, 0x1d, 0xbf,
  0xf9, 0x60, 0x02, 0xbf, 0xdf, 0x08, 0xa9, 0xbd, 0xdc, 0x67, 0x9d, 0xbd,
  0x8e, 0x37, 0x50, 0x3d, 0xd0, 0x61, 0x6b, 0x3c, 0x36, 0x89, 0xe9, 0xbc,
  0x8f, 0x11, 0xb1, 0x3d, 0xee, 0x08, 0x6d, 0xbd, 0x88, 0x49, 0xb5, 0xbd,
  0xb5, 0x74, 0xea, 0xbe, 0xc7, 0x0e, 0x38, 0xbf, 0x9d, 0xb9, 0x0e, 0xbf,
  0x05, 0xd4, 0x5c, 0xbf, 0xa9, 0xb4, 0x88, 0xbf, 0x54, 0x87, 0x92, 0xbf,
  0x6c, 0xb6, 0x91, 0xbf, 0x0f, 0xf6, 0xa3, 0xbf, 0xed, 0x27, 0x59, 0xbf,
  0x42, 0x28, 0x59, 0xbf, 0xf0, 0xff, 0x71, 0xbf, 0x28, 0x7e, 0x4b, 0xbf,
  0x98, 0x89, 0x42, 0xbf, 0xf7, 0x74, 0x28, 0xbf, 0x2a, 0xbd, 0x46, 0xbf,
  0x9d, 0x37, 0xd3, 0xbe, 0x82, 0x3e, 0x29, 0xbf, 0xf8, 0xcd, 0xc6, 0xbe,
  0x8a, 0xe1, 0xcf, 0xbe, 0x77, 0xce, 0xa1, 0x3b, 0x0e, 0x80, 0x92, 0xbd,
  0x4c, 0x8c, 0xbf, 0xbc, 0xbe, 0x99, 0x5e, 0xbd, 0x04, 0x14, 0xee, 0xbc,
  0x85, 0xcb, 0x97, 0x3d, 0xb9, 0x0d, 0x96, 0x3d, 0x0f, 0xf3, 0x2d, 0xbd,
  0x9a, 0x20, 0xee, 0xbd, 0x70, 0xc4, 0x8d, 0xbd, 0x4b, 0x61, 0x11, 0xbe,
  0x14, 0xe6, 0x3d, 0xbe, 0x6b, 0xec, 0x3c, 0xbe, 0x64, 0xb3, 0x91, 0xbe,
  0x57, 0x5c, 0x98, 0xbe, 0x37, 0x59, 0xd3, 0xbe, 0xae, 0x06, 0x25, 0xbf,
  0xb7, 0x9c, 0xd8, 0xbe, 0x17, 0xc3, 0x10, 0xbf, 0xf5, 0x96, 0xe8, 0xbe,
  0x52, 0x92, 0xae, 0xbe, 0xd1, 0x6a, 0xc0, 0xbe, 0xdb, 0xb4, 0xac, 0xbe,
  0x75, 0xcc, 0x8b, 0xbe, 0x7f, 0xef, 0x7e, 0xbe, 0x6c, 0x56, 0xd7, 0xbe,
  0xf7, 0x5a, 0xbd, 0xbe, 0x56, 0x87, 0x9f, 0xbe, 0xe4, 0xec, 0xeb, 0x3c,
  0xb5, 0x8e, 0xa2, 0x3d, 0x22, 0xd4, 0xe8, 0xbc, 0xae, 0x06, 0x12, 0xbd,
  0x74, 0x2b, 0x97, 0x3c, 0x48, 0xc6, 0x08, 0x3c, 0x46, 0x4c, 0x70, 0x3d,
  0x1e, 0x61, 0x78, 0xbd, 0xee, 0xba, 0x12, 0x3d, 0x54, 0x57, 0xdf, 0x3c,
  0x88, 0xe7, 0x0d, 0x3d, 0x10, 0xad, 0xc5, 0x3c, 0xf3, 0x17, 0x03, 0xbd,
  0x48, 0x60, 0x8a, 0x3c, 0x34, 0xbb, 0x89, 0xbc, 0x60, 0x70, 0x12, 0xbb,
  0x36, 0xf2, 0xa0, 0xbc, 0x7c, 0x25, 0x6d, 0x3c, 0xdb, 0xe4, 0x88, 0xbc,
  0xd0, 0xe7, 0xa9, 0xbd, 0xd0, 0x60, 0x80, 0xbc, 0x14, 0x21, 0xa0, 0xbc,
  0x4b, 0xf5, 0x94, 0x3d, 0xb8, 0x93, 0x07, 0x3d, 0xad, 0xe5, 0x84, 0x3d,
  0xb1, 0xd0, 0xac, 0xbd, 0x52, 0x13, 0x11, 0x3d, 0xcf, 0x57, 0x96, 0x3d,
  0x80, 0x8b, 0xf9, 0xbb, 0x89, 0x85, 0xa0, 0x3d, 0xae, 0x27, 0x88, 0xbd,
  0x45, 0xf9, 0x94, 0x3d, 0x22, 0x46, 0x42, 0x3d, 0x26, 0x19, 0x15, 0xbd,
  0xa4, 0xa5, 0xcf, 0x3c, 0x43, 0xbc, 0xa1, 0xbd, 0xb9, 0xb1, 0x7a, 0x3c,
  0x3a, 0x2e, 0x9d, 0xbd, 0x82, 0x30, 0x7d, 0xbd, 0x39, 0xb1, 0x85, 0xbe,
  0xbd, 0xef, 0x7d, 0xbe, 0x15, 0xec, 0x3a, 0xbe, 0x50, 0x59, 0x73, 0xbe,
  0x68, 0x46, 0x9c, 0xbe, 0xf6, 0xc4, 0xa8, 0xbe, 0x7a, 0x71, 0x0a, 0xbf,
  0xfe, 0x71, 0xd3, 0x3e, 0x37, 0xa2, 0x8c, 0x3e, 0x7a, 0x26, 0x1a, 0xbf,
  0xf9, 0x57, 0x14, 0xbf, 0x9e, 0x90, 0x7a, 0xbe, 0xf4, 0x18, 0xcc, 0xbc,
  0x1e, 0x2d, 0xc2, 0xbc, 0xbd, 0x25, 0x28, 0xbd, 0x61, 0x67, 0xb3, 0xbd,
  0x96, 0x68, 0x5b, 0x3d, 0xbe, 0xb2, 0x1a, 0xbd, 0x60, 0x37, 0xf9, 0xbb,
  0x47, 0xda, 0x81, 0x3d, 0x85, 0x7b, 0x47, 0xbd, 0x0b, 0x69, 0x91, 0xbd,
  0x64, 0x18, 0xfa, 0x3c, 0xfb, 0x87, 0xd1, 0x3c, 0x34, 0xd1, 0xd9, 0xbc,
  0x3e, 0xcc, 0x3b, 0xbd, 0x0f, 0x6f, 0x13, 0xbd, 0x8b, 0xb4, 0x02, 0xbe,
  0x4a, 0xd0, 0xaa, 0xbe, 0xd6, 0x42, 0xef, 0xbe, 0x58, 0xc8, 0xcd, 0xbe,
  0x06, 0xa5, 0x30, 0xbf, 0x27, 0xcb, 0xf3, 0xbe, 0x51, 0xcf, 0x95, 0xbd,
  0xe5, 0x86, 0xac, 0x3e, 0xe7, 0x6d, 0x9f, 0x3e, 0x02, 0x96, 0xe2, 0x3e,
  0xb1, 0xb9, 0xc6, 0x3e, 0xd6, 0x05, 0xc3, 0x3c, 0xad, 0x02, 0x79, 0xbd,
  0x31, 0xfe, 0x0e, 0xbc, 0x49, 0xda, 0x06, 0xbe, 0xb0, 0xc5, 0x1b, 0xbf,
  0x52, 0x76, 0xac, 0xbe, 0x1e, 0x92, 0x9b, 0xbe, 0x69, 0xa0, 0x8c, 0xbe,
  0xfd, 0x53, 0x32, 0xbe, 0x7f, 0x26, 0x8d, 0xbd, 0x7a, 0x0a, 0x52, 0x3d,
  0xec, 0x36, 0xcb, 0x3c, 0xcc, 0xbc, 0x57, 0xbd, 0xe5, 0xd0, 0x8e, 0x3e,
  0x4c, 0x3e, 0x57, 0x3e, 0x35, 0x8e, 0x58, 0xbe, 0x0c, 0x3f, 0xee, 0xbe,
  0xf0, 0x17, 0x14, 0xbf, 0xf9, 0x36, 0x17, 0xbf, 0xa6, 0x9b, 0x20, 0xbf,
  0x4c, 0x51, 0xaa, 0xbe, 0xac, 0x8a, 0x25, 0xbf, 0x6f, 0x37, 0x57, 0xbf,
  0x46, 0x91, 0x9e, 0xbe, 0x33, 0xaf, 0xad, 0xbd, 0xf6, 0xc0, 0x7a, 0xbe,
  0x6e, 0x65, 0x59, 0xbd, 0xa5, 0x2d, 0xf0, 0x3c, 0x82, 0x47, 0x44, 0xbe,
  0xce, 0x91, 0xea, 0xbe, 0x84, 0xa7, 0xbb, 0xbe, 0x71, 0xf4, 0xe8, 0xbe,
  0x2e, 0xb4, 0xb2, 0xbe, 0x83, 0x50, 0x2d, 0xbf, 0x49, 0x2c, 0x49, 0xbf,
  0x46, 0xd1, 0x53, 0xbf, 0xcd, 0xf2, 0xe2, 0xbe, 0x4a, 0xc5, 0xa2, 0xbe,
  0xd3, 0xd8, 0xa6, 0x3d, 0xee, 0x84, 0x09, 0xbd, 0xa2, 0x9a, 0x6c, 0xbd,
  0x0a, 0x1d, 0xa8, 0x3e, 0x75, 0x91, 0x37, 0x3c, 0x9f, 0x7b, 0x26, 0x3e,
  0x15, 0x20, 0xc3, 0x3d, 0x7a, 0x31, 0x05, 0xbc, 0xbc, 0x3e, 0xbc, 0xbd,
  0x18, 0x36, 0x8e, 0x3d, 0x08, 0xf8, 0x47, 0xbe, 0xd5, 0xa6, 0xa0, 0xbd,
  0xe0, 0x03, 0xbc, 0xbe, 0xc9, 0x95, 0x60, 0xbe, 0x4e, 0xdb, 0x01, 0x3e,
  0x36, 0x5e, 0xc7, 0xbc, 0x3a, 0x18, 0xb3, 0x3c, 0x0e, 0x05, 0xa1, 0xbd,
  0xce, 0xa1, 0x27, 0xbe, 0x92, 0x99, 0x55, 0xbe, 0xc3, 0xf7, 0x06, 0x3e,
  0xba, 0x50, 0x9d, 0x3c, 0xc4, 0x79, 0x51, 0x3c, 0xd7, 0x33, 0x37, 0xbe,
  0xed, 0x53, 0x63, 0xbe, 0x63, 0x41, 0x30, 0xbf, 0xac, 0x98, 0x50, 0xbf,
  0x79, 0xe7, 0x0c, 0xbf, 0xfd, 0x88, 0xc1, 0xbe, 0x3a, 0x1d, 0x72, 0x3d,
  0x6d, 0x24, 0xab, 0x3d, 0x5d, 0x75, 0xa1, 0x3e, 0xc9, 0x84, 0x87, 0x3e,
  0x6e, 0xcd, 0xf5, 0x3e, 0x2d, 0x63, 0x68, 0x3e, 0xbb, 0x8d, 0x90, 0x3e,
  0x14, 0x73, 0x32, 0xbe, 0x91, 0x40, 0xc3, 0xbe, 0xab, 0xff, 0xc7, 0xbe,
  0x5a, 0x37, 0xb1, 0xbe, 0x7e, 0x92, 0xdf, 0xbe, 0xe6, 0xfc, 0xa5, 0xbe,
  0xd1, 0xd9, 0xd4, 0xbd, 0x1e, 0xb9, 0x22, 0xbe, 0x64, 0xea, 0xc1, 0x3a,
  0x18, 0x58, 0x42, 0xbe, 0xfc, 0xd0, 0xce, 0xbe, 0x7a, 0xf0, 0x09, 0xbe,
  0xd5, 0xee, 0x4a, 0xbe, 0x64, 0x10, 0x58, 0xbc, 0xc2, 0xa3, 0x24, 0x3e,
  0x9d, 0x5b, 0x2f, 0x3e, 0x0b, 0x5e, 0x10, 0x3e, 0x5f, 0xf4, 0xd4, 0xbd,
  0x56, 0xa1, 0x89, 0xbf, 0xa8, 0x68, 0xeb, 0xbe, 0xc0, 0x79, 0xa5, 0xbe,
  0x71, 0x71, 0x86, 0x3d, 0xfe, 0x42, 0x72, 0xbd, 0x1a, 0xdb, 0xbd, 0xbe,
  0x8b, 0xd7, 0x9a, 0xbc, 0xaf, 0xf1, 0x53, 0x3e, 0x16, 0x6a, 0x52, 0xbd,
  0x4e, 0xe3, 0x48, 0xbd, 0x1b, 0xdc, 0x97, 0xbe, 0x12, 0x2d, 0xe2, 0xbe,
  0x75, 0x92, 0xe5, 0xbe, 0xcb, 0xe9, 0x7f, 0xbe, 0x9a, 0x77, 0xdc, 0xbd,
  0x5e, 0xfa, 0x8f, 0xbe, 0xea, 0x04, 0x9a, 0xbe, 0x8f, 0xdd, 0x5a, 0xbe,
  0xba, 0x17, 0x92, 0xbe, 0x3b, 0xc8, 0xb0, 0xbe, 0x8d, 0x20, 0xaf, 0xbe,
  0x8a, 0xa9, 0xca, 0xbd, 0xba, 0xe1, 0xec, 0xbd, 0xf2, 0x6a, 0x51, 0xbd,
  0x24, 0x84, 0x3f, 0x3c, 0xc6, 0xd1, 0xb9, 0xbd, 0x14, 0xa7, 0x38, 0xbc,
  0xcf, 0xb7, 0x54, 0xbe, 0x32, 0x7f, 0xba, 0xbf, 0xa3, 0x67, 0xea, 0xbe,
  0x7e, 0x35, 0x7b, 0xbe, 0x10, 0x27, 0xe0, 0x3c, 0xac, 0x88, 0xb2, 0xbe,
  0x0c, 0x15, 0xbe, 0xbe, 0x46, 0x0a, 0xba, 0xbe, 0x21, 0x29, 0xa5, 0xbd,
  0x30, 0x5b, 0xf0, 0xbe, 0x9a, 0xc2, 0xdf, 0xbe, 0xa1, 0xab, 0x87, 0xbe,
  0xe9, 0xf4, 0x04, 0xbf, 0x75, 0x5c, 0x74, 0xbe, 0xbd, 0xb6, 0x22, 0xbe,
  0x55, 0xff, 0x86, 0xbe, 0x7e, 0x40, 0x50, 0xbd, 0x3a, 0x22, 0x66, 0xbe,
  0xc6, 0x31, 0x42, 0xbe, 0xe4, 0x08, 0xd3, 0xbe, 0xdc, 0xd6, 0xa8, 0xbe,
  0xa1, 0xb9, 0x54, 0xbe, 0x97, 0xcd, 0x71, 0xbe, 0x3f, 0x5b, 0xad, 0xbd,
  0x73, 0x38, 0xe1, 0x3d, 0x18, 0x7f, 0x41, 0xbc, 0x99, 0xad, 0x08, 0xbe,
  0x83, 0xd4, 0x70, 0xbe, 0x49, 0x04, 0x58, 0xbf, 0xbe, 0x48, 0xba, 0xbf,
  0x8e, 0xb8, 0x25, 0xbf, 0xf5, 0x62, 0x94, 0xbe, 0xbb, 0xf6, 0x80, 0xbd,
  0xfe, 0x32, 0xa2, 0xbe, 0x43, 0xe1, 0x98, 0xbe, 0x56, 0x34, 0xe2, 0xbe,
  0x64, 0x78, 0x05, 0xbe, 0x73, 0x9f, 0x12, 0xbf, 0x35, 0x77, 0x0b, 0xbf,
  0x5d, 0x95, 0x80, 0xbe, 0x24, 0x5e, 0xa5, 0xbe, 0xf3, 0x6f, 0x0e, 0xbf,
  0xd4, 0xdd, 0x14, 0xbe, 0xbe, 0x5c, 0x5a, 0xbe, 0x0a, 0x73, 0xe5, 0xbd,
  0x2b, 0x42, 0x63, 0x3d, 0x24, 0x3d, 0x95, 0x3d, 0x29, 0xa8, 0x3b, 0xbc,
  0x7e, 0x7b, 0x29, 0xbe, 0x13, 0x7a, 0xab, 0x3d, 0x2c, 0x74, 0xdf, 0xbd,
  0x8d, 0xa4, 0x36, 0xbd, 0x71, 0x7e, 0x9d, 0xbe, 0x47, 0xc7, 0xa9, 0xbe,
  0x77, 0x5f, 0x67, 0xbe, 0x21, 0x83, 0x07, 0xbf, 0x8c, 0x95, 0x8f, 0xbf,
  0x6c, 0x95, 0xb3, 0xbf, 0x06, 0x58, 0x33, 0xbf, 0x47, 0x88, 0xbb, 0xbe,
  0x09, 0x87, 0xa1, 0xbd, 0xd7, 0x09, 0x71, 0xbe, 0x8c, 0xeb, 0xba, 0xbe,
  0xc3, 0x43, 0xbe, 0xbe, 0xd1, 0xce, 0xb0, 0xbe, 0xc7, 0x3b, 0x2b, 0xbf,
  0xf7, 0xc5, 0xd6, 0xbe, 0x93, 0x90, 0x8c, 0xbd, 0xf3, 0xed, 0xf1, 0xbd,
  0x70, 0xf2, 0xb2, 0xbe, 0xa3, 0x8d, 0x1f, 0xbe, 0xba, 0x70, 0x85, 0xbc,
  0xcf, 0x5d, 0x44, 0xbd, 0xe1, 0xb6, 0xae, 0x3c, 0x8a, 0xa0, 0x4c, 0x3e,
  0x72, 0xb2, 0xdf, 0x3e, 0x93, 0x20, 0x5d, 0x3e, 0x7a, 0xdb, 0x98, 0xbc,
  0x15, 0x61, 0x07, 0xbe, 0x63, 0x17, 0xa2, 0xbe, 0x6a, 0x56, 0xca, 0xbe,
  0x7b, 0xb4, 0x9f, 0xbe, 0xf1, 0xa7, 0xd4, 0xbe, 0xa9, 0xde, 0x45, 0xbf,
  0x6a, 0xbb, 0x65, 0xbf, 0xbf, 0x3e, 0xad, 0xbf, 0x17, 0xd9, 0x28, 0xbf,
  0x46, 0x8f, 0xa3, 0xbe, 0x72, 0x90, 0x82, 0xbd, 0x0a, 0x2a, 0xbf, 0x3d,
  0x0a, 0xb7, 0xa9, 0xbe, 0x69, 0x2b, 0xbd, 0xbe, 0x10, 0xa5, 0xa0, 0xbe,
  0x1d, 0xa3, 0x66, 0xbf, 0xd1, 0xcb, 0x1b, 0xbf, 0xbe, 0xfb, 0xa6, 0xbe,
  0x42, 0xa6, 0xa8, 0xbd, 0xe7, 0x89, 0x71, 0xbe, 0x65, 0x37, 0x96, 0xbd,
  0x52, 0x91, 0xa9, 0x3d, 0xce, 0x30, 0xa8, 0xbc, 0x68, 0x43, 0x7b, 0x3e,
  0x10, 0x1d, 0x09, 0x3f, 0xf8, 0x79, 0x31, 0x3f, 0x43, 0xe2, 0x91, 0x3e,
  0x76, 0xef, 0xa1, 0x3d, 0x44, 0xc3, 0x52, 0xbe, 0x01, 0xcb, 0x37, 0xbe,
  0xf7, 0x91, 0xcf, 0xbe, 0xec, 0x95, 0x3d, 0xbe, 0xb7, 0x9b, 0xfb, 0xbe,
  0x3c, 0x09, 0x5e, 0xbf, 0xb5, 0xdc, 0xcd, 0xbf, 0xfc, 0xa7, 0xec, 0xbe,
  0x93, 0xbc, 0xbf, 0xbe, 0x9e, 0xd9, 0x66, 0x3e, 0xfa, 0x25, 0xe2, 0x3c,
  0x90, 0xd4, 0x23, 0x3e, 0xef, 0xb1, 0xab, 0x3d, 0x80, 0xfe, 0x7c, 0xbe,
  0xa4, 0x10, 0xb7, 0xbd, 0x65, 0x06, 0x10, 0xbf, 0x18, 0xd9, 0x46, 0xbf,
  0xb3, 0x5a, 0xe9, 0xbe, 0xcb, 0x88, 0xba, 0xbe, 0xc9, 0x98, 0xaf, 0xbe,
  0x59, 0x92, 0xf1, 0xbd, 0xec, 0x16, 0x65, 0xbe, 0xab, 0x4a, 0x38, 0xbe,
  0xbb, 0x09, 0xa5, 0x3e, 0xdb, 0xcc, 0x20, 0x3f, 0x26, 0x9d, 0x24, 0x3f,
  0x79, 0x92, 0x18, 0x3e, 0xe3, 0x31, 0x07, 0xbe, 0xf4, 0xbf, 0xc5, 0xbc,
  0x3f, 0xa1, 0x72, 0xbe, 0xfb, 0xf2, 0xdb, 0xbd, 0x73, 0xdc, 0x2e, 0xbe,
  0x59, 0x7d, 0xa9, 0xbe, 0x0e, 0x36, 0xd7, 0xbe, 0x8c, 0x72, 0xa4, 0xbf,
  0x25, 0xe0, 0x9e, 0xbe, 0x76, 0x92, 0x75, 0xbe, 0x34, 0x1c, 0x9a, 0x3e,
  0x2f, 0x77, 0x36, 0xbd, 0x02, 0x31, 0x8e, 0xbe, 0xc5, 0x63, 0x83, 0xbe,
  0x8b, 0x70, 0x29, 0xbe, 0x76, 0x6f, 0xfe, 0x3d, 0x13, 0xdf, 0xa5, 0xbe,
  0xc4, 0xcd, 0xf9, 0xbd, 0xd4, 0x07, 0xde, 0xbc, 0xde, 0x1e, 0x81, 0xbe,
  0x75, 0x73, 0xfa, 0xbd, 0x8a, 0xaa, 0xa9, 0xbe, 0x7e, 0xf6, 0xda, 0xbe,
  0xfd, 0xb2, 0xb2, 0xbd, 0x42, 0xd6, 0xa5, 0x3e, 0xe0, 0x55, 0x48, 0x3f,
  0xca, 0x34, 0x07, 0x3f, 0x45, 0x8e, 0x25, 0x3e, 0x72, 0x28, 0xb2, 0x3d,
  0xee, 0x85, 0xaa, 0xbd, 0x51, 0x82, 0x93, 0xbe, 0xaf, 0x69, 0x84, 0xbe,
  0x4b, 0x13, 0x49, 0x3d, 0x83, 0x0f, 0x1f, 0xbe, 0x84, 0x52, 0xc5, 0x3c,
  0x17, 0x68, 0x73, 0xbf, 0xa9, 0x5e, 0xa1, 0xbe, 0xe7, 0x00, 0xf5, 0xbe,
  0xcf, 0xe2, 0x6d, 0x3d, 0xf2, 0xa1, 0x6b, 0x3e, 0x27, 0x00, 0x37, 0xbe,
  0x05, 0xa6, 0x52, 0xbe, 0xdf, 0x1f, 0xaa, 0x3e, 0xa1, 0x09, 0xeb, 0x3d,
  0xcd, 0xdf, 0x61, 0xbe, 0x24, 0x7c, 0xf6, 0xbc, 0x0f, 0xc8, 0xf5, 0xbd,
  0x64, 0xe3, 0xd3, 0x3d, 0x48, 0x9a, 0x40, 0xbe, 0x25, 0x3b, 0x36, 0xbf,
  0xf2, 0x1b, 0x32, 0xbf, 0x55, 0x8d, 0xaf, 0xbd, 0x55, 0x37, 0x71, 0x3e,
  0x12, 0xf9, 0x0f, 0x3f, 0x35, 0x1f, 0xcd, 0x3e, 0x44, 0x28, 0xe4, 0x3d,
  0xfd, 0xa8, 0x68, 0x3e, 0xbc, 0x95, 0x8e, 0xbe, 0xe0, 0x43, 0xdb, 0xbe,
  0xe5, 0x2e, 0xa2, 0xbe, 0x92, 0x32, 0x2d, 0xbe, 0x7f, 0x64, 0x0f, 0xbf,
  0x85, 0xb9, 0x2a, 0xbf, 0x74, 0x22, 0x83, 0xbf, 0xad, 0xd1, 0x1b, 0xbf,
  0x02, 0xb0, 0xff, 0xbe, 0x14, 0xff, 0xa0, 0xbe, 0x87, 0x24, 0x63, 0xbd,
  0x7d, 0x0c, 0x00, 0xbe, 0x8f, 0x12, 0x67, 0x3e, 0xbc, 0x17, 0xac, 0x3e,
  0x06, 0x43, 0xd0, 0x3e, 0x28, 0x5c, 0x8e, 0xbd, 0x99, 0x3c, 0xf8, 0xbe,
  0x89, 0x48, 0x04, 0xbf, 0x97, 0xb7, 0x26, 0x3e, 0x4b, 0x96, 0x8e, 0xbe,
  0x15, 0xd2, 0x53, 0xbf, 0xcd, 0xfc, 0x0a, 0xbf, 0x1f, 0xaa, 0x8e, 0x3c,
  0x64, 0x57, 0x8d, 0x3e, 0x5a, 0x01, 0x0f, 0x3f, 0x46, 0xab, 0xd2, 0x3e,
  0xe1, 0x09, 0x2e, 0x3e, 0xed, 0xac, 0xd3, 0xbd, 0xce, 0xc9, 0x08, 0xbf,
  0x86, 0x86, 0x1a, 0xbf, 0x77, 0x42, 0x9a, 0xbe, 0x77, 0x6d, 0x84, 0xbe,
  0xb7, 0xac, 0x3e, 0xbe, 0x0c, 0x62, 0x87, 0xbe, 0x4b, 0x98, 0x47, 0xbe,
  0x4e, 0xc6, 0x01, 0xbe, 0xe2, 0x59, 0x4a, 0x3d, 0x11, 0x0e, 0x7a, 0xbe,
  0xb4, 0x63, 0x9d, 0x3c, 0xd0, 0x45, 0x44, 0x3d, 0x07, 0x0f, 0xb1, 0x3e,
  0x44, 0x45, 0xbd, 0x3e, 0x3c, 0x89, 0x8b, 0x3e, 0x40, 0xb3, 0x33, 0xbf,
  0x7f, 0x55, 0x52, 0xbf, 0xcc, 0xb1, 0x5f, 0xbe, 0x41, 0x89, 0x20, 0x3e,
  0x57, 0xba, 0x69, 0xbe, 0x95, 0xaf, 0x14, 0xbf, 0x5a, 0x4c, 0x68, 0xbe,
  0x59, 0x69, 0xa9, 0x3d, 0xba, 0xb7, 0xe9, 0x3e, 0xaa, 0xc6, 0x10, 0x3f,
  0xb9, 0x29, 0x2b, 0x3e, 0x48, 0x3a, 0x0f, 0x3e, 0x48, 0x60, 0xc7, 0xbe,
  0x34, 0x3a, 0x1c, 0xbf, 0x18, 0x7a, 0x7e, 0xbf, 0x01, 0x2f, 0x5c, 0xbf,
  0x90, 0x70, 0xa5, 0xbe, 0xe4, 0x38, 0x1a, 0xbf, 0xfa, 0x40, 0x3a, 0xbf,
  0x8d, 0x89, 0xe4, 0xbe, 0x8b, 0x12, 0xd2, 0xbe, 0xfa, 0x5d, 0xaf, 0xbe,
  0x14, 0x19, 0xd1, 0xbe, 0x01, 0x42, 0xb6, 0x3c, 0x9a, 0x12, 0x45, 0x3e,
  0xf2, 0x3e, 0x99, 0x3e, 0xeb, 0xfe, 0x8a, 0xbe, 0xf1, 0x1e, 0xd0, 0xbd,
  0x7e, 0x18, 0xe5, 0xbe, 0x24, 0x4a, 0x22, 0xbf, 0x1d, 0x64, 0x93, 0xbe,
  0x86, 0xc2, 0x73, 0xbe, 0x64, 0xfa, 0x95, 0xbd, 0x66, 0x1f, 0x09, 0xbe,
  0x60, 0x97, 0x30, 0xbe, 0xc2, 0x1a, 0xac, 0xbd, 0x60, 0x22, 0x92, 0x3e,
  0x1b, 0xba, 0x11, 0x3f, 0xc1, 0x36, 0x96, 0xbd, 0xb5, 0x61, 0x23, 0xbe,
  0x16, 0x92, 0x6a, 0xbf, 0xb1, 0xce, 0x3d, 0xbf, 0x79, 0x61, 0x3f, 0xbf,
  0xf4, 0x1f, 0xe1, 0xbe, 0xe9, 0xa9, 0xa3, 0xbe, 0x89, 0x25, 0xe6, 0xbe,
  0x69, 0xdd, 0x3b, 0xbf, 0x08, 0x56, 0xa5, 0xbd, 0x0d, 0x1c, 0x26, 0xbf,
  0x32, 0x12, 0x6c, 0xbe, 0xf8, 0x2a, 0x15, 0xbf, 0x2a, 0xf7, 0x6a, 0x3d,
  0x8e, 0xda, 0xa9, 0x3e, 0x42, 0x44, 0xcb, 0x3d, 0x84, 0x8b, 0x0b, 0xbf,
  0x53, 0x18, 0x32, 0xbe, 0x7e, 0x2c, 0x3a, 0xbf, 0xc6, 0x80, 0x22, 0xbf,
  0x28, 0x19, 0xc7, 0xbe, 0x64, 0x2d, 0x10, 0xbe, 0x1a, 0xec, 0x29, 0xbe,
  0x2a, 0xf5, 0xd2, 0xbd, 0x3c, 0x87, 0x98, 0xbe, 0xe7, 0xd8, 0xad, 0xbb,
  0xb8, 0xcc, 0x9d, 0x3e, 0xeb, 0xc4, 0x03, 0x3f, 0xa4, 0x2d, 0x2b, 0xbc,
  0x49, 0x28, 0xd0, 0xbe, 0xfd, 0x67, 0x39, 0xbf, 0x77, 0x85, 0xd5, 0xbe,
  0x1f, 0x11, 0x35, 0xbe, 0x1b, 0xda, 0x40, 0xbe, 0xb9, 0xf8, 0x9e, 0xbd,
  0x2f, 0xb5, 0xd6, 0xbc, 0xd8, 0xdf, 0x23, 0xbe, 0x69, 0x9a, 0xc5, 0xbd,
  0x8d, 0xd1, 0x11, 0xbf, 0x97, 0x95, 0xe1, 0xbd, 0xd6, 0xae, 0xfc, 0xbe,
  0x45, 0x92, 0x0e, 0xbe, 0x7f, 0x70, 0xd2, 0x3e, 0x73, 0xb1, 0x62, 0xbe,
  0x0e, 0x0d, 0x33, 0xbf, 0xcf, 0x88, 0x84, 0xbf, 0x23, 0x0a, 0x88, 0xbf,
  0xc4, 0x77, 0x96, 0xbf, 0x76, 0xd4, 0xd2, 0xbe, 0xf0, 0x7e, 0x4b, 0xbd,
  0x54, 0x21, 0x36, 0xbd, 0xa0, 0xa7, 0x89, 0xbe, 0x81, 0xfd, 0x98, 0xbe,
  0x59, 0xa8, 0xaf, 0x3b, 0x65, 0x27, 0x31, 0x3e, 0xa4, 0x2b, 0x32, 0x3e,
  0x42, 0xd2, 0x4f, 0xbe, 0x33, 0x02, 0xf6, 0xbe, 0x00, 0x20, 0x8c, 0xbe,
  0x80, 0xed, 0x37, 0xbc, 0xc8, 0x6a, 0x61, 0xbc, 0xdb, 0x39, 0x11, 0x3e,
  0x00, 0x3f, 0xaf, 0x3d, 0x12, 0xaf, 0x58, 0xbe, 0xf1, 0x35, 0x4a, 0xbe,
  0x9c, 0x8f, 0x5d, 0xbe, 0xff, 0xc8, 0xf7, 0xbd, 0x95, 0xb7, 0xb9, 0x3d,
  0x77, 0xf7, 0x81, 0x3e, 0x99, 0x73, 0x96, 0x3e, 0xe6, 0x3e, 0x89, 0x3e,
  0x94, 0xf4, 0xe3, 0xbd, 0x1f, 0x87, 0xd1, 0xbe, 0xa2, 0x38, 0x76, 0xbf,
  0x53, 0x03, 0xb1, 0xbf, 0xf9, 0x4f, 0xc3, 0xbe, 0x28, 0x7f, 0xef, 0xbc,
  0x3d, 0xb5, 0x09, 0xbe, 0xd7, 0x7e, 0x8b, 0x3d, 0x2e, 0x8b, 0x4b, 0xbd,
  0x7a, 0x57, 0xee, 0xbd, 0x23, 0xdd, 0x08, 0xbe, 0x5f, 0xd2, 0x1a, 0x3e,
  0x6a, 0xef, 0x25, 0xbd, 0x06, 0xe9, 0xa0, 0xbd, 0x0d, 0xdd, 0x42, 0x3d,
  0xdc, 0xe8, 0x8c, 0x3a, 0x23, 0x70, 0x48, 0x3e, 0x8f, 0x31, 0x53, 0x3e,
  0xca, 0x65, 0xfa, 0x3d, 0xe0, 0xc3, 0x76, 0xbd, 0x88, 0xa0, 0xcf, 0xbd,
  0x36, 0xaa, 0x8b, 0xba, 0x7b, 0x08, 0x84, 0x3d, 0x15, 0xb7, 0x30, 0x3e,
  0xa7, 0xe5, 0x8b, 0x3d, 0x8f, 0x1c, 0xe3, 0x3e, 0xc2, 0x7a, 0x1a, 0x3d,
  0xbe, 0x41, 0x0a, 0xbe, 0xd7, 0x28, 0xc9, 0xbe, 0x8b, 0x7a, 0x1e, 0xbe,
  0x58, 0xa0, 0xe2, 0xbe, 0xce, 0x06, 0x39, 0xbf, 0x9b, 0xbd, 0xa5, 0xbd,
  0xcf, 0x69, 0x80, 0xb9, 0x08, 0x43, 0x43, 0x3d, 0x86, 0xdb, 0x6d, 0x3d,
  0x09, 0x28, 0x39, 0x3e, 0xe1, 0x21, 0x28, 0x3e, 0xdd, 0xd5, 0x8e, 0x3d,
  0x93, 0xb7, 0xc4, 0xbd, 0x6e, 0xf9, 0x6c, 0xbd, 0x29, 0x18, 0xfa, 0x3b,
  0xc8, 0x66, 0x95, 0x3e, 0xa6, 0x86, 0x34, 0x3e, 0xc8, 0x32, 0xaa, 0x3e,
  0xbe, 0x64, 0xbe, 0x3e, 0xed, 0x4e, 0xb7, 0x3d, 0x03, 0xf1, 0xa3, 0x3d,
  0x8f, 0xea, 0xf7, 0xbd, 0x29, 0x8c, 0x3a, 0xbe, 0x28, 0x4d, 0x3c, 0x3e,
  0xc7, 0xb9, 0x5e, 0x3e, 0xd9, 0x4d, 0x8d, 0x3e, 0x09, 0x2f, 0x83, 0x3e,
  0x70, 0x69, 0xac, 0x3e, 0xb1, 0xec, 0x6f, 0x3d, 0xb5, 0xd7, 0x8a, 0xbe,
  0x88, 0x73, 0x3c, 0x3e, 0x9e, 0x0a, 0x84, 0x3e, 0x87, 0x83, 0xcf, 0x3e,
  0x1a, 0xd7, 0x7e, 0x3e, 0xf7, 0x9a, 0x40, 0x3e, 0xab, 0xa4, 0x13, 0x3e,
  0xe3, 0x11, 0x0b, 0x3c, 0xbc, 0x90, 0xf6, 0x3d, 0x74, 0xde, 0x96, 0xbd,
  0x01, 0xeb, 0x2f, 0xbe, 0x16, 0x8d, 0xfb, 0xbd, 0x32, 0xcc, 0x2a, 0xbc,
  0x04, 0x28, 0xac, 0x3d, 0x89, 0x8d, 0xd6, 0x3d, 0x94, 0x93, 0xdc, 0x3d,
  0x9e, 0x3e, 0x9e, 0x3e, 0x6d, 0x3c, 0x60, 0x3e, 0x35, 0x35, 0xb0, 0x3e,
  0xa1, 0x09, 0x80, 0x3e, 0xc1, 0x41, 0xab, 0xbe, 0xd9, 0xd1, 0xa7, 0xbe,
  0xd7, 0x82, 0x27, 0x3e, 0xd7, 0xea, 0x88, 0x3e, 0x65, 0x36, 0xf3, 0x3c,
  0x7c, 0xdb, 0xa4, 0x3c, 0xd6, 0x54, 0x6e, 0x3e, 0xbc, 0x6f, 0x45, 0x3e,
  0xc6, 0xff, 0xed, 0xbd, 0xbc, 0x96, 0xdc, 0x3b, 0x58, 0x89, 0x77, 0x3e,
  0x59, 0x4d, 0x59, 0x3f, 0x01, 0xd9, 0xd8, 0x3e, 0xf2, 0x01, 0xd9, 0x3c,
  0x03, 0x5d, 0xf2, 0x3d, 0xd3, 0x15, 0xa2, 0x3d, 0xb1, 0x09, 0xa3, 0xbd,
  0x85, 0x91, 0xb2, 0xbe, 0x1e, 0xd2, 0xe2, 0xbe, 0x57, 0x82, 0xd1, 0xbe,
  0x25, 0x2d, 0x33, 0xbd, 0x79, 0x4a, 0x36, 0xbb, 0x7b, 0xf3, 0x82, 0x3b,
  0xee, 0x22, 0x80, 0x3e, 0x05, 0x29, 0xbe, 0x3e, 0x8d, 0x88, 0x5d, 0x3e,
  0x37, 0x6d, 0x9f, 0x3e, 0xd1, 0x3c, 0x9a, 0x3b, 0x66, 0x6c, 0xe0, 0xbe,
  0x55, 0x4f, 0x74, 0xbe, 0x1c, 0x68, 0x04, 0x3e, 0x96, 0xc1, 0x5d, 0x3e,
  0x5b, 0x8c, 0xa1, 0x3e, 0x9d, 0xad, 0x59, 0xbd, 0xb4, 0xe1, 0xc0, 0x3c,
  0x39, 0xe0, 0xa7, 0xbd, 0x3a, 0xca, 0xee, 0xbe, 0xc5, 0xf6, 0xd6, 0xbe,
  0x86, 0x41, 0xc3, 0xbe, 0x58, 0xec, 0xaa, 0x3e, 0x29, 0x44, 0x71, 0x3e,
  0x5f, 0x71, 0xa7, 0x3b, 0x57, 0x0f, 0x33, 0xbe, 0xa1, 0x85, 0x14, 0xbd,
  0x3d, 0x0b, 0x4e, 0xbe, 0xf9, 0xfd, 0x0a, 0xbe, 0xd6, 0x75, 0x6e, 0x3d,
  0x38, 0xcc, 0x4a, 0xbe, 0x59, 0x3b, 0x64, 0xbe, 0xed, 0xca, 0x85, 0x3c,
  0xf6, 0xb0, 0x84, 0x3d, 0xeb, 0xc5, 0x9f, 0x3e, 0xce, 0x1a, 0x72, 0xbd,
  0xff, 0xb1, 0xb1, 0xbc, 0xcb, 0x82, 0x8f, 0x3c, 0xe4, 0xa5, 0xaa, 0xbe,
  0xee, 0xf9, 0xbc, 0xbe, 0xd0, 0x15, 0x5b, 0xbf, 0x96, 0x8c, 0xd1, 0xbe,
  0xb2, 0x17, 0x85, 0x3d, 0xff, 0xfc, 0xc2, 0x3e, 0x5e, 0x25, 0x38, 0xbd,
  0x71, 0xbd, 0xa4, 0xbd, 0xf8, 0xdd, 0x7c, 0x3c, 0xdc, 0x2f, 0xba, 0x3a,
  0x65, 0xcb, 0xe4, 0xbe, 0xe3, 0xc9, 0x67, 0xbf, 0x8f, 0x33, 0x30, 0xbe,
  0x6a, 0x46, 0x74, 0xbd, 0x71, 0xaf, 0x8b, 0xbe, 0xaf, 0x42, 0x8b, 0xbe,
  0x5d, 0x66, 0x46, 0xbe, 0x77, 0x26, 0x77, 0xbe, 0xce, 0xb5, 0xa5, 0xbe,
  0x8c, 0x04, 0x75, 0xbe, 0xa9, 0xfa, 0xbd, 0xbe, 0x07, 0x74, 0xc8, 0xbe,
  0x66, 0xc1, 0xa7, 0xbe, 0xf9, 0x7f, 0x31, 0xbf, 0xcb, 0xcc, 0xe6, 0xbd,
  0xfe, 0x8b, 0xb7, 0x3d, 0x43, 0x57, 0x1f, 0x3e, 0x16, 0x43, 0x37, 0xbe,
  0x75, 0x6c, 0x70, 0xbe, 0xf9, 0x01, 0xe4, 0xbe, 0xf8, 0xa9, 0x0e, 0xbf,
  0x6f, 0xb1, 0xc8, 0xbe, 0x7d, 0x92, 0x8e, 0x3e, 0xdc, 0xe2, 0x8d, 0x3e,
  0xda, 0x3a, 0x67, 0xbd, 0xbc, 0x3d, 0xf4, 0x3c, 0x85, 0x7f, 0xa8, 0x3d,
  0x96, 0x6e, 0xe0, 0x3c, 0x76, 0x2b, 0xdc, 0xbe, 0xe8, 0xce, 0x5e, 0xbf,
  0xb6, 0xc4, 0x8d, 0xbf, 0xd9, 0xbc, 0x53, 0xbf, 0x45, 0x74, 0x8a, 0xbf,
  0x28, 0xe1, 0x00, 0xbf, 0x78, 0xa3, 0x1d, 0xbf, 0x6a, 0xaa, 0xb2, 0xbf,
  0xa1, 0x72, 0xbc, 0xbf, 0x8e, 0x59, 0x22, 0xbf, 0x7d, 0x13, 0x4d, 0xbf,
  0xf7, 0x13, 0x2a, 0xbf, 0xa4, 0xb8, 0x62, 0xbf, 0x10, 0x21, 0xd2, 0xbf,
  0x82, 0xc9, 0xcb, 0xbf, 0x56, 0x98, 0xcf, 0xbf, 0x8e, 0xad, 0x9e, 0xbf,
  0xdb, 0xae, 0x79, 0xbf, 0x7d, 0xd1, 0x0b, 0xbf, 0xfa, 0x5c, 0xcb, 0xbe,
  0x5a, 0xe6, 0x93, 0xbe, 0x5d, 0x79, 0x58, 0xbe, 0xaf, 0x4c, 0x9c, 0xbd,
  0x00, 0x20, 0x71, 0xbe, 0x82, 0xa5, 0x17, 0xbd, 0x80, 0x63, 0x65, 0xbd,
  0xa3, 0x14, 0x9d, 0xbd, 0x6e, 0x29, 0x49, 0xbd, 0xd9, 0x5d, 0x9d, 0xbe,
  0x16, 0x12, 0x03, 0xbf, 0xd9, 0xbd, 0x39, 0xbf, 0xe9, 0x0c, 0x07, 0xbf,
  0x96, 0x1d, 0x0c, 0xbf, 0x85, 0xe5, 0x65, 0xbf, 0x35, 0x29, 0x85, 0xbf,
  0x50, 0xa0, 0x37, 0xbf, 0x21, 0x78, 0x6e, 0xbf, 0xea, 0x6f, 0xaa, 0xbf,
  0x76, 0x1f, 0x8d, 0xbf, 0x59, 0x69, 0x83, 0xbf, 0x56, 0xa8, 0x08, 0xbf,
  0xf4, 0x73, 0x07, 0xbf, 0x9f, 0x8f, 0x8a, 0xbf, 0x1a, 0xbf, 0x24, 0xbf,
  0x3a, 0x83, 0x4d, 0xbf, 0xb2, 0x43, 0x1d, 0xbf, 0x2d, 0xd2, 0xdc, 0xbe,
  0xd2, 0x9e, 0xee, 0xbe, 0x22, 0x7f, 0xaf, 0xbe, 0x54, 0x90, 0x9a, 0xbc,
  0x4e, 0xc6, 0x49, 0xbd, 0xd9, 0xbb, 0x13, 0xbd, 0x00, 0xaa, 0xa0, 0xbc,
  0xc1, 0xc2, 0xa5, 0x3d, 0x88, 0x15, 0xca, 0xbc, 0x44, 0x6c, 0x96, 0x3c,
  0xde, 0x68, 0x0f, 0xbd, 0x45, 0x78, 0x9e, 0xbd, 0x9e, 0x4d, 0x27, 0x3d,
  0x30, 0x92, 0xb7, 0xbd, 0xbf, 0x55, 0xbd, 0xbc, 0x15, 0xf2, 0xf8, 0xbd,
  0x4d, 0x5e, 0x64, 0xbd, 0x20, 0x06, 0xbc, 0xbe, 0x41, 0xb2, 0xb5, 0xbe,
  0xa2, 0xe6, 0xc9, 0xbe, 0x16, 0x1e, 0xd5, 0xbe, 0x80, 0xb4, 0x1d, 0xbf,
  0x0e, 0x43, 0x57, 0xbe, 0x16, 0x5a, 0x94, 0xbe, 0x61, 0x9e, 0xb1, 0xbe,
  0xf6, 0x56, 0x98, 0xbe, 0x8c, 0x59, 0xa4, 0xbe, 0xb2, 0x41, 0x0c, 0xbe,
  0xd0, 0x8d, 0xb8, 0xbd, 0x7b, 0x79, 0x01, 0xbd, 0xb6, 0x8b, 0x1c, 0x3b,
  0x7c, 0xe7, 0x66, 0xbd, 0x47, 0x14, 0xab, 0x3d, 0x68, 0x34, 0x65, 0xbd,
  0x60, 0xa9, 0x1b, 0xbb, 0xec, 0x57, 0x09, 0x3d, 0xe0, 0x2d, 0x5d, 0x3b,
  0x0e, 0x87, 0x86, 0xbd, 0x65, 0x9d, 0x6c, 0xbd, 0x40, 0xa0, 0x48, 0xbc,
  0x74, 0x18, 0x1f, 0xbd, 0x61, 0x77, 0x00, 0xbd, 0x87, 0x89, 0x94, 0x3d,
  0x26, 0xea, 0x7c, 0x3d, 0x7e, 0x8e, 0x2b, 0x3d, 0xe0, 0xd2, 0x99, 0xbd,
  0x8f, 0x0b, 0x8d, 0xbd, 0xc6, 0x11, 0x9d, 0xbe, 0x25, 0x33, 0x81, 0xbe,
  0xe2, 0x12, 0xbf, 0x3d, 0xa2, 0x75, 0xf8, 0x3c, 0x9b, 0x19, 0x9a, 0xbd,
  0x91, 0x6e, 0x80, 0x3d, 0x01, 0xb8, 0x94, 0xbd, 0x6e, 0x28, 0x19, 0x3d,
  0x1f, 0x94, 0x8e, 0x3d, 0xcf, 0x00, 0xa3, 0x3d, 0x90, 0x0d, 0xc2, 0x3c,
  0xc8, 0x79, 0x0a, 0xbc, 0x00, 0xb9, 0x34, 0x3c, 0xa4, 0x4e, 0x1a, 0x3d,
  0x90, 0x17, 0x32, 0x3c, 0xf7, 0x55, 0x24, 0xbd, 0x3b, 0x66, 0x98, 0x3d,
  0x48, 0x81, 0xac, 0xbd, 0xe9, 0x73, 0x88, 0x3d, 0xaa, 0xa7, 0x48, 0xbd,
  0xd7, 0x64, 0x58, 0xbd, 0xd8, 0xa7, 0xf6, 0xbd, 0xb7, 0xef, 0xa7, 0xbe,
  0x55, 0x5d, 0xd1, 0xbe, 0x16, 0x1f, 0x84, 0xbd, 0x7f, 0x62, 0x4d, 0xbe,
  0xd6, 0x70, 0x89, 0xbe, 0x79, 0x8b, 0xf3, 0xbe, 0xa4, 0xc8, 0x26, 0xbf,
  0x30, 0xa4, 0x10, 0xbf, 0xa8, 0x5b, 0x53, 0x3d, 0xca, 0xf4, 0x10, 0x3e,
  0xa6, 0x58, 0x1a, 0x3f, 0x01, 0xb0, 0x45, 0x3d, 0x2c, 0xef, 0x05, 0xbf,
  0x04, 0x9e, 0x3f, 0xbf, 0x07, 0x93, 0x09, 0xbf, 0x53, 0x2d, 0xef, 0xbe,
  0x32, 0xd2, 0xa3, 0xbe, 0x1b, 0xda, 0x02, 0xbe, 0xc6, 0x65, 0xab, 0xbd,
  0x67, 0xbf, 0x9c, 0xbd, 0xfa, 0x73, 0x5f, 0x3d, 0x0a, 0xfc, 0xfd, 0xbc,
  0xf6, 0x51, 0x50, 0xbd, 0xb0, 0x17, 0xb0, 0xbb, 0x44, 0xb6, 0x12, 0x3c,
  0x9d, 0x8b, 0x64, 0xbe, 0x8a, 0xf7, 0xae, 0xbe, 0x19, 0x91, 0xd4, 0xbb,
  0x7d, 0xac, 0x41, 0xbd, 0x94, 0xc1, 0x80, 0xbe, 0xc1, 0x50, 0x1e, 0x3e,
  0x00, 0xd3, 0x8f, 0x3e, 0x4b, 0x58, 0xc7, 0x3d, 0xbc, 0x17, 0x3e, 0x3e,
  0x68, 0x71, 0x7a, 0x3e, 0xa4, 0x9d, 0x78, 0x3d, 0xd5, 0x09, 0xb2, 0xbd,
  0x31, 0x97, 0x6d, 0x3d, 0xff, 0x42, 0x0d, 0x3e, 0x2e, 0xbb, 0x5b, 0x3c,
  0xb4, 0x15, 0x03, 0xbe, 0xad, 0x4a, 0x8c, 0xbe, 0xae, 0xfd, 0x9c, 0xbe,
  0xdc, 0xa4, 0x54, 0xbe, 0x47, 0x40, 0x31, 0xbf, 0xd1, 0x71, 0xc4, 0x3b,
  0xc6, 0x17, 0x7c, 0x3e, 0x15, 0x4b, 0xad, 0x3e, 0xb4, 0x75, 0x30, 0xbd,
  0xed, 0x1d, 0xa4, 0xbd, 0x8f, 0xf7, 0xad, 0x3d, 0xa6, 0x16, 0x0b, 0x3d,
  0x3f, 0x72, 0x51, 0xbe, 0xe1, 0x74, 0x0c, 0xbf, 0x72, 0x65, 0xbc, 0xbe,
  0xd6, 0x4c, 0x3d, 0xbe, 0x71, 0x2c, 0x93, 0xbb, 0xbc, 0x6d, 0xb6, 0x3d,
  0x62, 0x1d, 0x12, 0x3e, 0x6d, 0x87, 0x01, 0x3f, 0x47, 0x0a, 0x9b, 0x3e,
  0x81, 0x6c, 0xb1, 0x3e, 0xf7, 0x00, 0xb3, 0x3e, 0x00, 0xd4, 0xc3, 0x3e,
  0x64, 0xac, 0x80, 0x3e, 0x45, 0x86, 0x0a, 0x3e, 0x9a, 0x91, 0x19, 0x3e,
  0x7d, 0x7c, 0x37, 0x3d, 0x19, 0xde, 0x10, 0xbe, 0x15, 0xa0, 0x8d, 0xbe,
  0xe9, 0x40, 0xbf, 0xbe, 0xab, 0xbb, 0x57, 0xbe, 0x5e, 0x8b, 0x89, 0xbe,
  0x9d, 0x49, 0x8f, 0xbf, 0x8f, 0x7f, 0xbf, 0xbd, 0x21, 0x6e, 0x5a, 0x3e,
  0x29, 0xcf, 0x2b, 0xbe, 0xf8, 0xee, 0x9f, 0xbc, 0xa8, 0x60, 0x69, 0xbc,
  0x86, 0x27, 0x8a, 0xbe, 0xee, 0x5f, 0xd6, 0xbe, 0xa7, 0x24, 0xe5, 0xbe,
  0xee, 0x73, 0xfe, 0xbe, 0xc6, 0x5f, 0x9c, 0x3c, 0xc5, 0x2f, 0xf6, 0x3e,
  0x92, 0xd9, 0x0c, 0x3e, 0x24, 0xe3, 0xd4, 0x3d, 0x8a, 0xc8, 0x98, 0x3e,
  0xcf, 0x31, 0x48, 0x3e, 0x86, 0x30, 0x5c, 0x3e, 0x46, 0x6c, 0x40, 0x3e,
  0xfb, 0x27, 0x5b, 0x3e, 0xfd, 0x89, 0x37, 0x3e, 0x72, 0x63, 0xe8, 0x3d,
  0x50, 0xe9, 0x91, 0x3d, 0x6e, 0x6f, 0x97, 0x3c, 0x1c, 0xbd, 0x51, 0xb9,
  0xe6, 0xa1, 0xfe, 0xbd, 0x9f, 0x8f, 0x03, 0xbe, 0xa9, 0x5e, 0xbf, 0xbe,
  0x5d, 0x4d, 0x0a, 0xbf, 0x8d, 0x1a, 0x3e, 0xbf, 0xfa, 0x9d, 0x39, 0xbf,
  0x3f, 0x33, 0x2e, 0x3a, 0x87, 0xb9, 0xc5, 0xbe, 0x9f, 0xa6, 0x9b, 0xbe,
  0x5e, 0x57, 0x64, 0x3d, 0x04, 0xd5, 0xb1, 0xbd, 0x22, 0x75, 0x23, 0x3d,
  0x9d, 0x1f, 0x2e, 0xbe, 0xad, 0x7d, 0xc3, 0x3d, 0xa1, 0x74, 0x3a, 0xbd,
  0x8e, 0x45, 0x8a, 0x3d, 0xa3, 0xa6, 0x4a, 0x3c, 0x76, 0x0e, 0xd2, 0x3d,
  0x71, 0x15, 0x2e, 0x3d, 0x5e, 0xa5, 0xc2, 0x3c, 0x9e, 0x85, 0x59, 0x3e,
  0xf7, 0x5d, 0x22, 0x3e, 0x84, 0xd4, 0x0b, 0x3e, 0xbb, 0x44, 0x21, 0x3d,
  0xc6, 0xe6, 0x33, 0x3e, 0xbb, 0x7a, 0x41, 0x3e, 0x18, 0xc6, 0x36, 0x3e,
  0x03, 0xbb, 0x13, 0x3d, 0x4b, 0xfd, 0x80, 0xbd, 0xf0, 0xa7, 0xf0, 0xbc,
  0x41, 0xa4, 0x0d, 0xbd, 0x57, 0x29, 0xf7, 0x3b, 0x78, 0x94, 0x64, 0xbe,
  0x34, 0x42, 0x46, 0xbf, 0xa3, 0xd6, 0x63, 0xbe, 0xa3, 0x7f, 0xd1, 0xbe,
  0x78, 0xda, 0x72, 0xbe, 0x40, 0xd1, 0xe5, 0xbc, 0x02, 0xa2, 0xa0, 0xbe,
  0x2e, 0x59, 0x5e, 0xbe, 0x8b, 0x82, 0x24, 0xbe, 0x73, 0x45, 0x96, 0x3e,
  0x7b, 0x60, 0x7f, 0x3d, 0xa7, 0xe5, 0xc6, 0x3d, 0x22, 0x80, 0xce, 0x3d,
  0x03, 0xf3, 0x9f, 0x3d, 0x63, 0x11, 0xe3, 0x3d, 0x2c, 0x15, 0xf5, 0x3d,
  0xdb, 0x0c, 0x1e, 0xbc, 0x46, 0x50, 0x2a, 0x3d, 0x73, 0x13, 0x03, 0x3d,
  0x85, 0x21, 0xac, 0x3d, 0xe7, 0x9b, 0x9c, 0x3d, 0x81, 0x78, 0xd4, 0x3d,
  0x02, 0xec, 0x5a, 0xbd, 0x51, 0x3d, 0x00, 0xbd, 0xe0, 0x97, 0xb8, 0xbd,
  0xd4, 0xb3, 0x37, 0xbe, 0x48, 0xab, 0xa0, 0xbd, 0x88, 0x69, 0x64, 0xbe,
  0xb1, 0xc1, 0x32, 0xbf, 0xec, 0xf5, 0x3f, 0xbf, 0xb3, 0x52, 0xfe, 0xbe,
  0x23, 0xdd, 0x2d, 0xbf, 0x3d, 0xba, 0xec, 0xbe, 0x7e, 0xd8, 0x3c, 0xbd,
  0xf4, 0x70, 0x06, 0xbf, 0xfe, 0xa5, 0xa5, 0x3d, 0x3d, 0xfa, 0x8b, 0x3b,
  0x53, 0x8e, 0xcb, 0x3e, 0xbf, 0x64, 0x3f, 0x3d, 0x90, 0xe7, 0xe1, 0x3d,
  0xf7, 0x68, 0xf8, 0xbc, 0xb3, 0x4e, 0x96, 0x3d, 0x1b, 0x56, 0x87, 0x3c,
  0x6e, 0x10, 0xba, 0xbd, 0xa3, 0x06, 0x67, 0x3d, 0x1d, 0x32, 0xe3, 0xbc,
  0xfe, 0x52, 0x20, 0x3e, 0x30, 0xdf, 0x19, 0x3c, 0xa0, 0x95, 0xb0, 0xbd,
  0x15, 0x57, 0x97, 0xbd, 0xeb, 0x17, 0x77, 0xbe, 0x71, 0x8a, 0xa1, 0xbd,
  0x2c, 0xd2, 0x20, 0xbd, 0xbf, 0xaa, 0xb7, 0xbd, 0x50, 0x6a, 0x9e, 0xbd,
  0x51, 0x8a, 0x98, 0x3d, 0x1e, 0x10, 0x29, 0xbf, 0x05, 0x04, 0x79, 0xbf,
  0xac, 0x2f, 0x89, 0xbe, 0xec, 0xb2, 0x16, 0xbf, 0xf1, 0xc1, 0x08, 0xbf,
  0xf1, 0xd0, 0xa3, 0xbe, 0x8b, 0xbc, 0xd9, 0x3d, 0xa2, 0x9c, 0xaf, 0xba,
  0xc7, 0x66, 0x81, 0xbc, 0xcb, 0xca, 0xca, 0x3e, 0x1d, 0x38, 0xea, 0x3d,
  0xce, 0xfe, 0x64, 0xbd, 0x37, 0x9f, 0x74, 0x3d, 0x50, 0x0b, 0xf4, 0xbc,
  0x4d, 0x09, 0xac, 0xbb, 0x67, 0xfc, 0x4b, 0x3e, 0xdc, 0x0a, 0xb7, 0x3d,
  0x0d, 0xb1, 0x4e, 0xbd, 0xba, 0x0a, 0x33, 0x3c, 0xaf, 0x10, 0x87, 0x3d,
  0x66, 0x9e, 0xb2, 0x3d, 0x42, 0xad, 0x77, 0xbd, 0xe2, 0x8c, 0xf7, 0xbc,
  0x90, 0x9d, 0x12, 0xbe, 0x92, 0x77, 0x27, 0x3d, 0x6c, 0xd1, 0xf4, 0x3c,
  0xe1, 0x1c, 0x0d, 0xbe, 0x8f, 0x75, 0x97, 0x3a, 0xe7, 0xe0, 0x34, 0x3d,
  0x01, 0xb5, 0xa7, 0xbf, 0x25, 0xa3, 0xbc, 0xbf, 0xc3, 0xe5, 0x4f, 0xbf,
  0xd9, 0x82, 0xfe, 0xbe, 0xaa, 0x2e, 0xcf, 0xbd, 0x40, 0x99, 0x0a, 0xbf,
  0x6b, 0x64, 0x0f, 0xbe, 0xc0, 0x45, 0x6a, 0x3c, 0xfd, 0xd6, 0x10, 0x3e,
  0xec, 0xd1, 0x88, 0x3e, 0x61, 0x56, 0x75, 0xbd, 0xd3, 0xca, 0x2f, 0xbd,
  0x42, 0xd6, 0xe2, 0xbd, 0x12, 0xd4, 0x4e, 0x3d, 0x05, 0x1f, 0x2b, 0x3e,
  0x24, 0xc7, 0x19, 0x3c, 0xeb, 0x0c, 0xc0, 0xbb, 0x2e, 0xa4, 0x5d, 0x3c,
  0x39, 0x51, 0x13, 0x3e, 0xce, 0x1c, 0x21, 0x3e, 0x28, 0x70, 0x2d, 0x3e,
  0x46, 0xf4, 0xcc, 0x3d, 0x28, 0xf2, 0xe8, 0x3c, 0x6e, 0xbc, 0x98, 0x3d,
  0xbc, 0x10, 0x27, 0xbd, 0x05, 0xf4, 0x46, 0xbe, 0x85, 0xb0, 0x83, 0xbd,
  0x29, 0xcb, 0x2e, 0xbe, 0x03, 0x82, 0xa1, 0xbf, 0x09, 0xa8, 0x9c, 0xbf,
  0xec, 0x89, 0x83, 0xbe, 0xd3, 0x4d, 0xf7, 0xbe, 0x87, 0x9b, 0xa2, 0xbd,
  0xf7, 0x5d, 0xca, 0xbe, 0x54, 0x96, 0xab, 0xbd, 0xed, 0x74, 0x71, 0x3e,
  0x4d, 0x66, 0x16, 0xbe, 0x45, 0x07, 0xa7, 0x3e, 0xff, 0x58, 0x4e, 0x3e,
  0x4f, 0xf1, 0xc8, 0xbd, 0x22, 0xa9, 0x83, 0xbd, 0xe7, 0xb8, 0x0f, 0xbe,
  0x0a, 0x5d, 0x25, 0xbe, 0x8b, 0xf3, 0x5f, 0xbd, 0x89, 0x15, 0xbe, 0xbd,
  0xb5, 0x51, 0x78, 0xbe, 0x2e, 0x08, 0xde, 0xbd, 0x50, 0xf6, 0x8c, 0xbd,
  0xdb, 0xe0, 0x8a, 0xbc, 0xe4, 0x8f, 0x8b, 0x3c, 0x96, 0x91, 0xe1, 0xbc,
  0x58, 0xf7, 0xbe, 0xbd, 0xb1, 0xe9, 0xb1, 0xbd, 0x28, 0x39, 0xbd, 0xbd,
  0x36, 0x63, 0x2d, 0xbe, 0x22, 0x31, 0x27, 0xbe, 0x4c, 0xc3, 0x6d, 0xbf,
  0x27, 0x97, 0x19, 0xbf, 0x26, 0x97, 0xf1, 0xb8, 0xec, 0xcd, 0x03, 0xbf,
  0xe3, 0x60, 0x04, 0xbd, 0x6c, 0xee, 0xdf, 0xbe, 0x60, 0x58, 0x00, 0xbf,
  0xbc, 0xaf, 0xab, 0xbe, 0x27, 0x4c, 0x1d, 0xbe, 0x2c, 0xd1, 0xd9, 0x3d,
  0x32, 0xcc, 0x8f, 0xbd, 0x51, 0x25, 0xc3, 0xbe, 0x75, 0x59, 0x0e, 0xbf,
  0x7b, 0xa8, 0x06, 0xbf, 0x67, 0xb9, 0x2e, 0xbf, 0x53, 0x21, 0x1d, 0xbf,
  0x16, 0xbb, 0x38, 0xbf, 0xd1, 0xcb, 0x52, 0xbf, 0x0e, 0x02, 0x35, 0xbf,
  0x18, 0x98, 0xf6, 0xbe, 0xd3, 0x8d, 0x4a, 0xbe, 0xfa, 0xc8, 0x65, 0xbe,
  0x5e, 0x7b, 0x1f, 0xbd, 0xfc, 0x05, 0x13, 0x3e, 0xd1, 0xa4, 0x6c, 0xbd,
  0xac, 0x74, 0x95, 0xbd, 0xc9, 0x00, 0xa8, 0xbd, 0x0e, 0x1c, 0x85, 0xbe,
  0x61, 0x60, 0xa6, 0xbe, 0x60, 0xad, 0x17, 0x3e, 0x98, 0xf9, 0xc6, 0xbd,
  0x83, 0xff, 0x8d, 0xbe, 0x2c, 0x8e, 0xf1, 0xbd, 0x90, 0x74, 0xbb, 0xbe,
  0x48, 0xf1, 0x0f, 0xbf, 0xe9, 0x58, 0x0f, 0xbf, 0xa2, 0x13, 0xa9, 0xbe,
  0xb7, 0x16, 0xe8, 0xbe, 0x94, 0xcf, 0x63, 0xbf, 0x39, 0xb3, 0x83, 0xbf,
  0x95, 0xf0, 0x25, 0xbf, 0xe6, 0xd9, 0x02, 0xbf, 0x8e, 0xa4, 0x25, 0xbf,
  0x35, 0x2f, 0x0f, 0xbf, 0xb7, 0x5c, 0x0e, 0xbf, 0x81, 0x2c, 0xeb, 0xbe,
  0x28, 0x32, 0xe9, 0xbe, 0x10, 0xf7, 0xe7, 0xbe, 0xa9, 0x39, 0xab, 0xbe,
  0xbe, 0x42, 0xb3, 0xbe, 0xe3, 0x5b, 0x36, 0xbe, 0xe3, 0x74, 0xb0, 0xbc,
  0x81, 0x1e, 0xb1, 0xbd, 0xd5, 0x68, 0x43, 0xbd, 0x28, 0x76, 0x3a, 0xbe,
  0x4e, 0x70, 0xbe, 0xbe, 0xc4, 0x79, 0x13, 0x3e, 0x0f, 0xd6, 0x07, 0x3f,
  0xfb, 0xd3, 0x14, 0x3f, 0x31, 0x0a, 0xde, 0x3d, 0x83, 0x01, 0x0e, 0xbe,
  0x5a, 0xe8, 0x62, 0xbe, 0x87, 0x10, 0x81, 0xbe, 0xec, 0xa3, 0x03, 0xbf,
  0x53, 0xdf, 0x74, 0xbf, 0xf0, 0x78, 0x84, 0xbf, 0x21, 0x4d, 0x86, 0xbf,
  0x42, 0xc2, 0x42, 0xbf, 0x07, 0xc5, 0xcc, 0xbe, 0x1f, 0xc6, 0xab, 0xbe,
  0x60, 0x63, 0x58, 0xbe, 0xb3, 0x65, 0x2e, 0xbd, 0x43, 0xb4, 0xc1, 0xbd,
  0xe5, 0x46, 0x42, 0x3b, 0x2d, 0xbb, 0xef, 0xbd, 0x27, 0xa2, 0xa9, 0xbe,
  0xe5, 0x52, 0x97, 0xbe, 0xcb, 0xdd, 0x44, 0xbe, 0x43, 0xef, 0x40, 0xbe,
  0xc2, 0xf5, 0xb4, 0xbd, 0x19, 0xe6, 0x04, 0xbe, 0x61, 0x2c, 0xc4, 0xbd,
  0x62, 0xf0, 0x22, 0xbe, 0x80, 0xb8, 0x40, 0xbe, 0x7c, 0x32, 0x09, 0x3f,
  0x80, 0x76, 0x5a, 0x3f, 0x35, 0xfa, 0x8d, 0x3f, 0xef, 0x8c, 0xc6, 0x3e,
  0x41, 0x98, 0x11, 0xbe, 0xb5, 0x51, 0xd6, 0xbe, 0x68, 0x5a, 0xb6, 0xbe,
  0x1e, 0x7c, 0xb7, 0xbe, 0x17, 0xd0, 0x21, 0xbf, 0x4a, 0xf7, 0x4a, 0xbf,
  0x30, 0x06, 0xdb, 0xbe, 0x8c, 0xa6, 0x34, 0xbe, 0x61, 0x81, 0xf7, 0xbd,
  0x1c, 0xd0, 0x42, 0xbe, 0x39, 0xc8, 0x87, 0xbd, 0xf6, 0x0c, 0x30, 0x3b,
  0x51, 0xca, 0x84, 0xbd, 0x04, 0xd5, 0xf4, 0x3d, 0xb5, 0xf9, 0x72, 0x3c,
  0x2b, 0xc6, 0x37, 0xbe, 0x42, 0x64, 0x85, 0xbd, 0xcf, 0xb4, 0x73, 0xbe,
  0xa4, 0xc2, 0xda, 0xbd, 0x71, 0xa0, 0x3c, 0xbe, 0x04, 0x64, 0xb7, 0xbd,
  0x9e, 0xbc, 0x3b, 0xbe, 0xb0, 0x42, 0x40, 0xbe, 0x65, 0x73, 0x49, 0x3c,
  0x38, 0x4c, 0x6b, 0x3e, 0x30, 0x69, 0x16, 0x3f, 0x4b, 0x09, 0x88, 0x3f,
  0x17, 0xe2, 0xda, 0x3e, 0x90, 0xc8, 0x77, 0xbe, 0x24, 0xa2, 0x55, 0xbe,
  0xd7, 0x59, 0xb5, 0xbe, 0xf8, 0x9f, 0x09, 0x3e, 0x81, 0x24, 0xd0, 0x3d,
  0xd7, 0xd8, 0x9e, 0x3e, 0xbd, 0x10, 0x82, 0x3e, 0x51, 0x46, 0xc2, 0xbc,
  0x3d, 0x9e, 0x3f, 0xbd, 0x74, 0xe9, 0x33, 0x38, 0x8f, 0x64, 0x0f, 0xbd,
  0x87, 0xd5, 0x85, 0xbc, 0x53, 0xbf, 0x50, 0xbd, 0xa8, 0xf5, 0xac, 0x3d,
  0x11, 0x6d, 0x9d, 0x3d, 0x4a, 0x80, 0x52, 0xbd, 0x6a, 0x16, 0xa3, 0xbd,
  0x34, 0xd7, 0x07, 0xbe, 0xe5, 0x08, 0xf8, 0xbd, 0xee, 0x15, 0x26, 0xbd,
  0xdb, 0x6d, 0x4b, 0xbe, 0xa4, 0xac, 0x1c, 0xbe, 0xb2, 0x0d, 0x81, 0xbe,
  0x01, 0xcf, 0x7f, 0xbe, 0xdc, 0x5e, 0xe3, 0x3e, 0x67, 0x63, 0x1a, 0x3f,
  0x06, 0x78, 0x6d, 0x3f, 0xcc, 0x87, 0x1e, 0x3f, 0x10, 0x28, 0x6b, 0xbd,
  0xb8, 0x21, 0x98, 0xbe, 0xac, 0x03, 0x4b, 0xbc, 0x89, 0xbd, 0xf5, 0x3e,
  0x26, 0xd7, 0xb5, 0x3e, 0x14, 0xa4, 0x86, 0x3e, 0x71, 0x95, 0x66, 0x3e,
  0x04, 0x4e, 0x1a, 0xbd, 0xb6, 0x04, 0x40, 0xbe, 0xcf, 0x4f, 0x93, 0x3d,
  0x9c, 0xc0, 0x3b, 0x3e, 0x57, 0x81, 0x07, 0x3e, 0x29, 0x7d, 0x9d, 0x3e,
  0x62, 0x67, 0x49, 0x3e, 0x24, 0x95, 0xc6, 0x3d, 0x3a, 0x36, 0x40, 0xbd,
  0xb9, 0x90, 0x51, 0x3d, 0x57, 0x1e, 0x29, 0x3e, 0x32, 0x42, 0x6f, 0xbd,
  0x08, 0xbc, 0x33, 0xbd, 0x31, 0xac, 0x03, 0xbe, 0x7f, 0xed, 0x1a, 0x3e,
  0x0f, 0xd7, 0x16, 0x3e, 0x58, 0x86, 0xf1, 0x3d, 0xad, 0x04, 0xb3, 0x3e,
  0x51, 0xa0, 0x84, 0x3f, 0x15, 0x51, 0x87, 0x3f, 0x3b, 0x28, 0x08, 0x3f,
  0xb9, 0xd2, 0x68, 0xbd, 0x5c, 0xb2, 0xc4, 0xbe, 0x59, 0x46, 0xe2, 0x3d,
  0x78, 0x32, 0xae, 0x3e, 0x18, 0xbe, 0x83, 0x3e, 0xa7, 0xe7, 0x81, 0x3e,
  0xbc, 0xdb, 0xa2, 0x3e, 0x51, 0xf1, 0x9d, 0x3d, 0xfa, 0xb6, 0x16, 0xbd,
  0xa4, 0x57, 0x0c, 0x3e, 0x36, 0xe8, 0x59, 0x3e, 0xca, 0x6f, 0x73, 0x3e,
  0xb2, 0x22, 0x8b, 0x3e, 0x3c, 0x6c, 0x3d, 0x3e, 0x2d, 0xb0, 0xfa, 0xbc,
  0xe8, 0xe4, 0xcd, 0x3d, 0xfa, 0xa5, 0x38, 0xbd, 0x84, 0xec, 0x0f, 0xbd,
  0x51, 0x6c, 0x35, 0x3d, 0x81, 0x81, 0x50, 0xbd, 0xf6, 0xc7, 0x7a, 0xbc,
  0xf5, 0x86, 0x07, 0x3e, 0x42, 0xc1, 0xc3, 0x3d, 0x9c, 0x24, 0x39, 0xbd,
  0x6c, 0x5a, 0x7b, 0x3e, 0x0b, 0x27, 0x86, 0x3f, 0xc5, 0x79, 0x3f, 0x3f,
  0x28, 0x19, 0x45, 0x3f, 0x34, 0x5a, 0x28, 0xbe, 0x47, 0xf7, 0xdd, 0xbe,
  0x31, 0x9e, 0xe1, 0xbc, 0x1d, 0x16, 0xf8, 0x3d, 0xeb, 0xd8, 0x9f, 0x3e,
  0x1f, 0xaa, 0x9f, 0x3e, 0xbf, 0xc2, 0xe3, 0x3d, 0x6d, 0x86, 0x8d, 0x3e,
  0xe0, 0x60, 0x90, 0x3d, 0x0b, 0x7c, 0x98, 0x3d, 0x76, 0xa8, 0x1d, 0x3e,
  0x0b, 0x39, 0x10, 0x3e, 0x6c, 0x8d, 0x96, 0x3e, 0xa5, 0x2b, 0x22, 0x3e,
  0xa3, 0x6f, 0x23, 0x3e, 0x32, 0x92, 0x8c, 0xbc, 0x93, 0x0a, 0xe0, 0x3d,
  0x5f, 0x60, 0x21, 0x3e, 0x74, 0x1b, 0xd7, 0x3d, 0x9e, 0x8e, 0xb4, 0x3d,
  0xe1, 0xca, 0xfd, 0xbc, 0x4f, 0xe6, 0x85, 0x3d, 0x57, 0xb1, 0x77, 0x3e,
  0x3e, 0xac, 0xa2, 0x3e, 0xa6, 0x9c, 0x0d, 0x3f, 0x52, 0x7e, 0x63, 0x3f,
  0xb9, 0xe3, 0x7f, 0x3e, 0xe1, 0xe8, 0x13, 0x3f, 0x5e, 0x28, 0x8b, 0xbe,
  0xb3, 0x0e, 0xe0, 0xbe, 0x29, 0x65, 0x91, 0xbd, 0x36, 0xdf, 0x4d, 0xbe,
  0x27, 0x69, 0x18, 0x3e, 0xe1, 0x73, 0x2c, 0x3d, 0xe5, 0xea, 0x07, 0x3d,
  0xa9, 0xf1, 0x8d, 0x3e, 0x5c, 0x96, 0x41, 0x3e, 0x27, 0x2f, 0xdb, 0x3d,
  0x8f, 0x58, 0x8b, 0x3e, 0x4e, 0xe0, 0x4a, 0x3e, 0x3c, 0xb4, 0x69, 0x3e,
  0x04, 0xd6, 0xa1, 0x3e, 0xea, 0x6c, 0x87, 0x3d, 0xb8, 0x51, 0x40, 0x3e,
  0x37, 0x0d, 0x23, 0x3e, 0xe9, 0xf1, 0x90, 0x3e, 0x76, 0xbd, 0x95, 0x3d,
  0x9e, 0xe2, 0x8e, 0xbd, 0xe1, 0x59, 0x83, 0x3d, 0x78, 0xdc, 0x45, 0x3e,
  0x7a, 0x26, 0x5c, 0x3e, 0xae, 0xfe, 0x17, 0x3e, 0x64, 0xb0, 0x22, 0x3e,
  0xe9, 0xc7, 0x4e, 0x3f, 0x49, 0x00, 0x12, 0x3f, 0x9f, 0x78, 0x4a, 0x3e,
  0xe0, 0xa2, 0x49, 0xbc, 0xc6, 0x79, 0xb7, 0xbe, 0x9c, 0x70, 0x0b, 0x3e,
  0xbb, 0x24, 0x9e, 0xbd, 0x4f, 0xb4, 0x25, 0x3e, 0x17, 0x97, 0x22, 0x3e,
  0xd7, 0xc3, 0x38, 0x3e, 0x81, 0x5f, 0x9a, 0x3e, 0xd5, 0x2b, 0x1b, 0x3e,
  0xff, 0x4e, 0x63, 0x3e, 0xed, 0x63, 0xf7, 0x3d, 0xbe, 0xdc, 0x93, 0x3e,
  0x18, 0xdd, 0x08, 0x3e, 0x39, 0x37, 0x0d, 0x3e, 0x1e, 0xdc, 0xc8, 0x3c,
  0x83, 0x05, 0xc9, 0x3d, 0x0c, 0x5c, 0x51, 0x3d, 0x37, 0x44, 0xc7, 0xbd,
  0x98, 0x9d, 0x5e, 0x3d, 0xda, 0x23, 0x7f, 0x3e, 0xdb, 0x12, 0x5c, 0x3e,
  0x5a, 0x43, 0x48, 0x3e, 0xa0, 0xce, 0x56, 0x3e, 0x00, 0xce, 0x29, 0x3e,
  0xe2, 0x14, 0x7c, 0x3e, 0xd1, 0xd5, 0xea, 0x3e, 0x20, 0x73, 0x3e, 0x3e,
  0xd5, 0xcf, 0x79, 0xbe, 0xaf, 0xd5, 0x34, 0xbe, 0xb5, 0x20, 0x9b, 0x3d,
  0xf0, 0xf2, 0x6f, 0x3e, 0xb1, 0xac, 0x0a, 0x3e, 0xc6, 0xa5, 0xec, 0xbb,
  0x92, 0x4d, 0xbe, 0x3d, 0x48, 0x97, 0xd5, 0x3d, 0xe4, 0xba, 0xe8, 0x3d,
  0xac, 0x51, 0x14, 0x3c, 0xd1, 0x58, 0x0f, 0x3e, 0x4d, 0xe1, 0xd6, 0x3d,
  0x6a, 0x24, 0x00, 0x3e, 0xa1, 0x40, 0xb3, 0x3d, 0x81, 0x5e, 0x24, 0x3d,
  0xc8, 0x2c, 0x13, 0x3b, 0x8b, 0x1f, 0xf9, 0xbd, 0xeb, 0x8d, 0x8f, 0x3d,
  0xb7, 0x05, 0x56, 0x3e, 0x47, 0xff, 0x73, 0x3e, 0xe3, 0x4d, 0xa7, 0x3e,
  0xae, 0xcd, 0x02, 0x3e, 0x74, 0x38, 0x94, 0x3d, 0x87, 0x59, 0x81, 0x3e,
  0xa7, 0x4c, 0xbd, 0x3e, 0x66, 0xf2, 0x50, 0x3e, 0x07, 0xb3, 0xce, 0x3e,
  0x6a, 0x9f, 0x11, 0x3e, 0x45, 0xa7, 0x0c, 0x3d, 0x56, 0xb5, 0x42, 0xbe,
  0xd9, 0xef, 0x4c, 0xbe, 0x88, 0xb5, 0x18, 0x3e, 0xa4, 0x3e, 0x6b, 0x3e,
  0x4f, 0xb5, 0x31, 0x3e, 0x9a, 0x49, 0x71, 0x3d, 0xf2, 0xfb, 0x8a, 0x3e,
  0xf0, 0xd2, 0x4b, 0x3e, 0x98, 0x77, 0x71, 0x3e, 0x36, 0x68, 0xa4, 0x3e,
  0x45, 0x6c, 0x9e, 0x3d, 0x8f, 0xc6, 0x26, 0x3e, 0xcf, 0xb4, 0x6d, 0x3d,
  0x55, 0x72, 0xe6, 0x3b, 0x97, 0xa8, 0xbb, 0xbc, 0x3b, 0xc0, 0xcd, 0xbd,
  0x58, 0x40, 0x7d, 0x3d, 0x16, 0x5a, 0x00, 0x3d, 0x9f, 0x75, 0x4f, 0x3e,
  0xf2, 0xfb, 0x44, 0x3e, 0xd1, 0x5a, 0x08, 0x3e, 0x90, 0x8c, 0x1f, 0x3e,
  0xd9, 0x01, 0x41, 0x3e, 0xd4, 0x1a, 0xc9, 0x3d, 0x3b, 0x2e, 0x91, 0x3e,
  0xf0, 0xd1, 0x01, 0x3e, 0x7e, 0x1f, 0xb0, 0xbe, 0x09, 0x4f, 0x80, 0xbb,
  0x4e, 0x2f, 0x77, 0xbd, 0x94, 0x12, 0xd9, 0x3c, 0xf5, 0xa8, 0xb4, 0xbd,
  0x3b, 0xa8, 0x7d, 0xbe, 0xa9, 0xc5, 0x11, 0xbd, 0x4c, 0x1b, 0x14, 0xbe,
  0x29, 0xc8, 0xc5, 0x3d, 0xf3, 0x60, 0xc7, 0x3d, 0x1f, 0x8b, 0x08, 0x3e,
  0xbc, 0x4f, 0x40, 0x3d, 0x19, 0xec, 0x10, 0x3d, 0x91, 0xe6, 0xff, 0x3d,
  0x4d, 0x91, 0xc3, 0x3d, 0x94, 0x53, 0xb1, 0xbd, 0x20, 0xf7, 0xc1, 0xbd,
  0xe2, 0x32, 0xf3, 0xbc, 0x12, 0x46, 0x03, 0xbe, 0xdf, 0x59, 0x8c, 0xbc,
  0x60, 0x38, 0x45, 0x3e, 0x70, 0x43, 0xbd, 0x3e, 0x62, 0x8e, 0x74, 0x3e,
  0xf6, 0xaf, 0xa4, 0x3e, 0xd2, 0x7c, 0xbd, 0x3e, 0xcc, 0xe2, 0x98, 0x3e,
  0xf8, 0x3c, 0xd5, 0x3e, 0x6d, 0x5b, 0xa4, 0x3d, 0xec, 0xc5, 0xba, 0xbe,
  0x84, 0x95, 0x52, 0xbd, 0x44, 0xf2, 0x82, 0xbc, 0x4d, 0xa2, 0x8b, 0x3d,
  0x67, 0x2b, 0xe9, 0xbe, 0xde, 0xbb, 0x3c, 0xbf, 0xc7, 0xe1, 0x07, 0xbf,
  0x62, 0x20, 0x3c, 0xbf, 0x00, 0xc5, 0xec, 0xbe, 0x82, 0x20, 0xd5, 0xbe,
  0x15, 0x9e, 0xc4, 0xbd, 0x38, 0x53, 0xac, 0xbd, 0x44, 0x63, 0x46, 0xbe,
  0x56, 0xe7, 0xdc, 0xbd, 0xc9, 0x5a, 0xad, 0x3c, 0xd0, 0x8d, 0xe5, 0x3b,
  0x0e, 0x0c, 0x08, 0x3e, 0x32, 0x7a, 0x68, 0xbc, 0xa0, 0x1a, 0x16, 0xbe,
  0x6c, 0xf0, 0xe7, 0x3d, 0xd1, 0x0d, 0x6c, 0x3e, 0x72, 0x95, 0xd7, 0x3d,
  0x36, 0xe3, 0x51, 0xbd, 0x0f, 0xcd, 0x81, 0x3e, 0xba, 0xf4, 0x56, 0xbd,
  0x6b, 0x1e, 0x9b, 0x3b, 0xc8, 0xad, 0x5a, 0x3f, 0xc0, 0x07, 0x1c, 0x3f,
  0xfe, 0x90, 0x99, 0x3e, 0x60, 0xe2, 0xbe, 0xbb, 0x38, 0x30, 0xb7, 0x3c,
  0x10, 0x72, 0x79, 0x3c, 0x10, 0xb8, 0x9f, 0xbe, 0x6a, 0xb9, 0xac, 0xbe,
  0x3f, 0xc7, 0x49, 0xbf, 0x40, 0xdb, 0xbc, 0xbf, 0xbd, 0xa6, 0xdc, 0xbe,
  0xa4, 0xd4, 0x23, 0xbf, 0x48, 0x16, 0x8c, 0xbf, 0x1c, 0x7c, 0x9f, 0xbf,
  0xd9, 0x4a, 0x7d, 0xbf, 0x9b, 0xae, 0x42, 0xbf, 0xc9, 0xa3, 0x12, 0xbf,
  0x2e, 0xa7, 0xc5, 0xbe, 0x5a, 0xae, 0xa0, 0xbd, 0x64, 0x44, 0x9a, 0xbc,
  0x2f, 0xae, 0xe9, 0xbd, 0x0d, 0x12, 0x80, 0xbe, 0x03, 0xe8, 0xc5, 0xbe,
  0x3b, 0x2b, 0x1c, 0xbf, 0xa0, 0x0b, 0xdc, 0xbe, 0x3b, 0x8a, 0xfd, 0xbe,
  0x98, 0x4a, 0x52, 0xbf, 0x04, 0xab, 0x23, 0xbf, 0x80, 0x1c, 0xe1, 0xbe,
  0x42, 0x6c, 0x6c, 0x3e, 0x1b, 0x5f, 0x6c, 0x3e, 0x68, 0x46, 0x78, 0xbc,
  0xe0, 0x3e, 0xfd, 0xbb, 0x10, 0x5a, 0x6a, 0xbc, 0xf6, 0xcd, 0x48, 0x3d,
  0x6d, 0x90, 0xae, 0xbd, 0x6b, 0xbd, 0xcb, 0xbe, 0x9e, 0x1b, 0x4a, 0xbf,
  0x62, 0x93, 0x48, 0xbf, 0x69, 0xde, 0x49, 0xbf, 0x62, 0x53, 0x4e, 0xbf,
  0xd4, 0x57, 0x45, 0xbf, 0x3a, 0xe0, 0x9d, 0xbf, 0x09, 0x82, 0x18, 0xbf,
  0xde, 0xfd, 0x97, 0xbf, 0xa1, 0x3b, 0x99, 0xbf, 0x05, 0x83, 0xb9, 0xbf,
  0xa7, 0xdc, 0x7f, 0xbf, 0x05, 0x30, 0x70, 0xbf, 0xf9, 0x88, 0x31, 0xbf,
  0x12, 0x85, 0x80, 0xbf, 0x26, 0xc6, 0xa8, 0xbf, 0xae, 0xff, 0x85, 0xbf,
  0x18, 0x5c, 0x4c, 0xbf, 0xc1, 0xd8, 0xf3, 0xbe, 0x50, 0x2e, 0xd6, 0xbe,
  0x2a, 0x92, 0x41, 0x3b, 0x80, 0x6f, 0xc7, 0xbc, 0x98, 0x69, 0xd2, 0xbc,
  0x08, 0x5c, 0x3c, 0x3c, 0x60, 0x6c, 0x9d, 0x3b, 0xcc, 0xd1, 0x74, 0xbd,
  0x80, 0xc4, 0xff, 0x3a, 0x65, 0xb3, 0x84, 0xbd, 0x13, 0x9e, 0x3c, 0x3c,
  0xfb, 0xba, 0x80, 0x3d, 0x95, 0x65, 0xac, 0xbd, 0x11, 0x5f, 0x0f, 0xbe,
  0xfd, 0xe8, 0x5a, 0xbe, 0x88, 0x65, 0x52, 0xbe, 0x4f, 0x67, 0x97, 0xbe,
  0xe0, 0x96, 0xf7, 0xbe, 0x89, 0x69, 0xd9, 0xbe, 0x98, 0x6b, 0xe5, 0xbe,
  0xfb, 0x5a, 0x0b, 0xbf, 0x62, 0xaf, 0xcf, 0xbe, 0x3e, 0x1c, 0xef, 0xbe,
  0xce, 0xa5, 0xb2, 0xbe, 0x61, 0x5d, 0xa9, 0xbe, 0x46, 0xda, 0x8c, 0xbe,
  0xaf, 0x3d, 0xc9, 0xbe, 0xcd, 0x9a, 0xff, 0xbe, 0x54, 0x69, 0xba, 0xbe,
  0x2b, 0xdc, 0x8d, 0xbe, 0x21, 0x66, 0x9d, 0x3d, 0x2a, 0x8a, 0x88, 0xbd,
  0x2c, 0xec, 0xb9, 0xbc, 0xa2, 0xfe, 0x95, 0xbd, 0x92, 0xed, 0x02, 0xbd,
  0x4a, 0xa5, 0x7f, 0x3d, 0x03, 0xeb, 0x83, 0x3d, 0x84, 0x49, 0xf5, 0x3c,
  0xac, 0x41, 0xcf, 0x3c, 0x54, 0xd9, 0xe5, 0x3c, 0x11, 0x5d, 0xa5, 0x3d,
  0x40, 0xfb, 0x9f, 0xbd, 0x40, 0x71, 0xe1, 0xba, 0x30, 0x61, 0x03, 0x3d,
  0x6c, 0x49, 0xf9, 0x3c, 0x74, 0xc2, 0xac, 0x3c, 0x34, 0xd7, 0xd4, 0xbd,
  0xf1, 0x14, 0x45, 0xbe, 0xb1, 0x08, 0xcf, 0xbd, 0x81, 0x1f, 0xcb, 0xbd,
  0x1d, 0x04, 0x50, 0xbd, 0x7a, 0xdf, 0x5e, 0x3d, 0x53, 0x3b, 0x84, 0x3d,
  0x48, 0x65, 0xb5, 0x3c, 0xd4, 0x51, 0x04, 0xbd, 0x22, 0xf4, 0x54, 0x3d,
  0xa1, 0xa0, 0x8c, 0x3d, 0x02, 0x10, 0xd1, 0xbc, 0x2a, 0x9a, 0x75, 0x3d,
  0xfc, 0xe4, 0x9f, 0xbd, 0x90, 0xa9, 0xa0, 0xbd, 0x3c, 0xf3, 0xeb, 0x3c,
  0x0a, 0x22, 0x42, 0x3d, 0xde, 0xa9, 0x12, 0x3d, 0x90, 0x66, 0x12, 0x3d,
  0x11, 0x06, 0xad, 0xbd, 0xe2, 0x0c, 0x76, 0xbd, 0xf0, 0x8c, 0x89, 0x3d,
  0x61, 0xfd, 0xd1, 0xbd, 0x0b, 0xb2, 0x9f, 0xbd, 0x9c, 0x24, 0x37, 0xbe,
  0xba, 0xd9, 0x18, 0xbe, 0x95, 0xa9, 0xeb, 0xbe, 0x1c, 0x59, 0xf7, 0xbe,
  0xc3, 0xdb, 0x07, 0xbf, 0x34, 0xe5, 0x25, 0xbf, 0x5d, 0x33, 0xcc, 0xbe,
  0xeb, 0xf6, 0xd9, 0xbe, 0x67, 0x48, 0x37, 0xbf, 0x4e, 0x97, 0x0f, 0xbf,
  0x3b, 0x38, 0x9e, 0xbe, 0x86, 0xa8, 0x91, 0xbe, 0x46, 0x7b, 0x73, 0xbe,
  0xf3, 0x33, 0x4c, 0xbe, 0x23, 0x0a, 0x39, 0xbd, 0x92, 0x84, 0x82, 0xbb,
  0x08, 0x2e, 0x04, 0xbc, 0xec, 0x44, 0xc5, 0x3c, 0x13, 0x10, 0x82, 0xbd,
  0x28, 0xff, 0x17, 0x3d, 0x20, 0x7f, 0x6b, 0x3b, 0xfd, 0xe0, 0xad, 0xbd,
  0x77, 0x1d, 0x42, 0xbc, 0xb2, 0x51, 0xac, 0xba, 0x68, 0xac, 0xa6, 0xbd,
  0x5c, 0xda, 0x78, 0xbe, 0x5e, 0xe0, 0x5f, 0xbe, 0x04, 0x69, 0xf1, 0xbe,
  0x84, 0x17, 0x00, 0xbf, 0x7c, 0xeb, 0x4d, 0xbf, 0x5f, 0xff, 0x11, 0xbe,
  0xae, 0x14, 0xc9, 0xbd, 0xa3, 0xf1, 0x49, 0x3d, 0xa9, 0x1a, 0x5c, 0xbe,
  0x9b, 0xd4, 0x08, 0xbe, 0x48, 0xc0, 0xac, 0xbe, 0xe5, 0xfc, 0x8c, 0xbe,
  0x09, 0x8b, 0x87, 0xbe, 0x68, 0xe0, 0x99, 0xbe, 0xad, 0xab, 0x09, 0xbf,
  0x2a, 0x31, 0x10, 0xbf, 0xdc, 0x60, 0x25, 0xbf, 0x5c, 0xf7, 0xfe, 0xbe,
  0x67, 0xd7, 0xf4, 0xbe, 0xe3, 0xd3, 0x55, 0xbe, 0xbb, 0x7a, 0x60, 0xbd,
  0x2c, 0xed, 0x8e, 0x3c, 0x0a, 0xe0, 0x3b, 0x3d, 0xc6, 0x93, 0x58, 0x3d,
  0xf0, 0xca, 0x0e, 0x3d, 0x90, 0xae, 0x80, 0xbe, 0xc4, 0x10, 0xf4, 0xbe,
  0xbb, 0x16, 0xa5, 0xbe, 0x4d, 0xda, 0xdb, 0x3e, 0xa0, 0xaf, 0x53, 0x3e,
  0xf3, 0xa6, 0x34, 0x3e, 0xae, 0x31, 0xd8, 0x3e, 0x1d, 0x8d, 0xa3, 0x3d,
  0xe2, 0x26, 0x61, 0x3e, 0x25, 0x98, 0xbb, 0x3e, 0xaf, 0xa4, 0xfa, 0x3e,
  0xf6, 0xad, 0x74, 0x3e, 0x63, 0xf0, 0xb3, 0x3e, 0xd3, 0x97, 0xa5, 0x3e,
  0xd0, 0x62, 0x23, 0x3e, 0xcd, 0x11, 0x8a, 0x3e, 0xec, 0x51, 0x90, 0x3e,
  0xc8, 0x5d, 0x0b, 0x3e, 0x4c, 0xf4, 0xe6, 0x3e, 0x3c, 0x9d, 0xa5, 0xbe,
  0xdd, 0xe1, 0x33, 0xbf, 0x57, 0x72, 0x2a, 0xbf, 0xcf, 0x4f, 0xb6, 0xbe,
  0x10, 0xb7, 0x7f, 0xbe, 0x39, 0x03, 0xc3, 0xbc, 0x25, 0x43, 0x85, 0x3d,
  0x58, 0xcc, 0x2f, 0xbd, 0xb1, 0xe4, 0x67, 0x3e, 0xcf, 0x9e, 0x61, 0x3e,
  0x02, 0xfc, 0xdb, 0x3e, 0x05, 0x33, 0x5c, 0x3e, 0xe6, 0x39, 0x10, 0x3f,
  0xdd, 0xbe, 0xa1, 0x3e, 0xe1, 0x9c, 0x85, 0x3e, 0x6b, 0x8a, 0x9e, 0x3e,
  0x42, 0xbd, 0x39, 0x3e, 0xea, 0x25, 0xb3, 0x3e, 0x9f, 0x3b, 0x73, 0x3e,
  0xe0, 0x72, 0xa9, 0x3e, 0xdd, 0xe3, 0x8b, 0x3e, 0x82, 0x6d, 0x1f, 0x3e,
  0xcd, 0x1c, 0x4f, 0x3e, 0xcd, 0xb5, 0x4b, 0x3e, 0xed, 0x7d, 0xef, 0x3c,
  0x8a, 0xe8, 0x7d, 0x3e, 0xa8, 0x35, 0xa3, 0x3c, 0x00, 0xb6, 0x41, 0xbd,
  0x3c, 0xfa, 0x91, 0xbe, 0xc3, 0x6b, 0x10, 0xbe, 0xee, 0x5c, 0x81, 0xbf,
  0xaa, 0x02, 0xa1, 0xbf, 0x28, 0xff, 0x3c, 0xbf, 0xf4, 0xf3, 0x03, 0xbe,
  0xae, 0xe4, 0x03, 0xbe, 0x35, 0xcf, 0x0f, 0xbd, 0x36, 0x41, 0x74, 0xbd,
  0x08, 0xb3, 0xce, 0x3d, 0xc0, 0x4f, 0xbb, 0x3e, 0x00, 0xc0, 0xc1, 0x3e,
  0x76, 0x64, 0xe9, 0x3e, 0x06, 0x7b, 0xb6, 0x3e, 0x95, 0x51, 0x49, 0x3e,
  0x27, 0xf0, 0x02, 0x3e, 0xa4, 0x75, 0x9d, 0x3d, 0xd3, 0xac, 0x0d, 0x3e,
  0x94, 0x3c, 0xb8, 0x3d, 0xb1, 0x96, 0x13, 0x3e, 0xe2, 0x6e, 0xfc, 0x3d,
  0x38, 0x29, 0x6f, 0x3a, 0x08, 0x30, 0x01, 0x3e, 0x29, 0x2d, 0x50, 0x3e,
  0x03, 0x41, 0xda, 0xbc, 0xc1, 0xba, 0x7f, 0xbc, 0x1b, 0x55, 0xc3, 0x3d,
  0x92, 0x80, 0xf1, 0xbd, 0xf9, 0x04, 0x15, 0xbe, 0x98, 0x25, 0x32, 0xbe,
  0xb8, 0x9b, 0xe8, 0xbe, 0x8c, 0xf1, 0x4c, 0xbf, 0xda, 0x7c, 0xcd, 0xbf,
  0xae, 0x86, 0x18, 0xbf, 0x15, 0x1e, 0x96, 0xbe, 0x5e, 0x1b, 0x23, 0x3d,
  0xbb, 0xe7, 0x72, 0x3e, 0x73, 0xfc, 0x8f, 0x3d, 0xc2, 0x41, 0x82, 0x3e,
  0x9a, 0xf9, 0x36, 0x3e, 0xc3, 0xee, 0x15, 0x3e, 0x6a, 0xa4, 0x7d, 0x3e,
  0xc0, 0x13, 0xb5, 0x3c, 0xdc, 0x34, 0xe9, 0x3d, 0x2b, 0xeb, 0x2e, 0x3e,
  0x4b, 0x75, 0x87, 0x3e, 0xce, 0x1f, 0xac, 0x3d, 0x12, 0x05, 0x98, 0x3d,
  0xfe, 0x42, 0x29, 0x3e, 0x38, 0xd1, 0xd6, 0x3d, 0xce, 0x1a, 0x14, 0x3e,
  0x65, 0x9d, 0x36, 0x3e, 0x9f, 0x12, 0x49, 0x3d, 0x42, 0xab, 0xe3, 0x3d,
  0x33, 0x47, 0xa5, 0xbc, 0x37, 0xdc, 0xe7, 0xbc, 0x3a, 0x83, 0xa1, 0xbc,
  0xe3, 0xcc, 0x23, 0xbe, 0x13, 0x46, 0x6e, 0xbe, 0x4b, 0xd4, 0xce, 0xbe,
  0x55, 0x49, 0xec, 0xbf, 0x26, 0xc1, 0x26, 0xbf, 0x0b, 0x31, 0x9c, 0xbe,
  0x51, 0xa6, 0xa0, 0xbd, 0x7f, 0x2b, 0x19, 0x3f, 0xb1, 0x42, 0x84, 0xbe,
  0x23, 0x26, 0x1d, 0x3e, 0xcf, 0x0f, 0x80, 0x3e, 0x9c, 0x52, 0x68, 0x3e,
  0x2a, 0x08, 0x07, 0x3e, 0x7c, 0xba, 0x18, 0xbd, 0x6b, 0x0a, 0x95, 0x3d,
  0xab, 0xbb, 0x84, 0x3c, 0x78, 0x5a, 0x10, 0xbd, 0xee, 0x69, 0x96, 0x3b,
  0xe3, 0xf1, 0xdc, 0x3d, 0x55, 0x97, 0x80, 0x3d, 0x96, 0xb2, 0x80, 0x3e,
  0x5d, 0x52, 0xdd, 0x3d, 0x56, 0x36, 0xcc, 0xbc, 0x69, 0x28, 0xad, 0x3d,
  0xc4, 0xae, 0xc2, 0x3b, 0xdf, 0xb5, 0x5b, 0x3d, 0x32, 0x42, 0x0d, 0xbd,
  0xe9, 0x54, 0x87, 0xbe, 0x77, 0x18, 0x18, 0xbe, 0xf0, 0xfa, 0xb1, 0xbe,
  0x50, 0x34, 0x2d, 0xbf, 0x5d, 0x2f, 0xe9, 0xbf, 0xf8, 0x52, 0x3b, 0xbf,
  0xec, 0x18, 0xb1, 0xbe, 0x67, 0x76, 0x3d, 0xbe, 0x67, 0x23, 0x59, 0xbe,
  0xdc, 0xdc, 0x4a, 0xbe, 0x29, 0x91, 0x9a, 0x3d, 0x9c, 0xfe, 0x8c, 0x3e,
  0x4f, 0xe0, 0xe7, 0x3d, 0xce, 0xc0, 0xbf, 0x3b, 0x85, 0x8d, 0xbc, 0x3d,
  0x35, 0x71, 0xc7, 0xbd, 0x43, 0xb4, 0x2a, 0xbd, 0xb8, 0x37, 0xa9, 0x3a,
  0x5a, 0xfc, 0x97, 0xbb, 0x0e, 0xea, 0xda, 0x3d, 0x44, 0xb9, 0x22, 0x3d,
  0x87, 0x82, 0x20, 0x3e, 0xfd, 0xef, 0x09, 0x3e, 0xb6, 0x13, 0xda, 0x3d,
  0xb3, 0xcc, 0x86, 0x3d, 0xc3, 0x56, 0x4e, 0x3e, 0x93, 0x4e, 0x06, 0x3e,
  0xbb, 0x9c, 0x0a, 0x3e, 0xc7, 0x1c, 0xdf, 0xbc, 0xc3, 0x3a, 0x10, 0x3e,
  0x0d, 0xec, 0x02, 0xbf, 0xe7, 0xc6, 0xc8, 0xbf, 0x53, 0xa4, 0xf0, 0xbf,
  0x0f, 0x92, 0x48, 0xbf, 0x00, 0xa4, 0xc6, 0xbe, 0x9c, 0x36, 0x83, 0xbe,
  0xc1, 0xf4, 0x9e, 0xbe, 0x73, 0x33, 0x4b, 0x3e, 0x28, 0x6d, 0x47, 0x3e,
  0x56, 0x1e, 0xf4, 0x3e, 0xd8, 0x6e, 0xc9, 0x3d, 0xc0, 0xa4, 0x97, 0x3d,
  0x10, 0x3a, 0x21, 0x3e, 0x52, 0xce, 0x6c, 0x3c, 0xfc, 0xd8, 0xc5, 0x3a,
  0xf7, 0x3a, 0x10, 0xbe, 0xa6, 0x4c, 0x9c, 0xbe, 0xf7, 0x33, 0x81, 0xbe,
  0x93, 0x2e, 0x03, 0xbe, 0x3a, 0xbf, 0x62, 0x3e, 0x52, 0xc2, 0xb1, 0x3e,
  0xa5, 0xfe, 0x7b, 0x3e, 0xf4, 0xd8, 0x35, 0x3e, 0x8a, 0x9b, 0x39, 0x3d,
  0x06, 0x7c, 0xff, 0x3d, 0xea, 0x18, 0x8a, 0x3e, 0xbd, 0x22, 0x14, 0x3e,
  0x08, 0xc4, 0x81, 0x3e, 0x75, 0x33, 0x8c, 0xbe, 0x45, 0x6e, 0x17, 0xc0,
  0xed, 0x65, 0x42, 0xbf, 0x73, 0x90, 0x3d, 0xbf, 0x32, 0xa6, 0x85, 0xbe,
  0xb9, 0x21, 0x86, 0xbe, 0x26, 0xc5, 0x86, 0xbe, 0xe0, 0xf0, 0x83, 0x3c,
  0x0a, 0xcf, 0x12, 0x3f, 0x4e, 0x26, 0xf8, 0x3d, 0x01, 0xb3, 0xe0, 0xbd,
  0x40, 0x8a, 0x98, 0x3d, 0x0f, 0x24, 0x69, 0xbd, 0x6c, 0xc8, 0x8e, 0xbe,
  0x24, 0x84, 0xfc, 0xbe, 0x3b, 0x80, 0xf9, 0xbe, 0x2f, 0x13, 0xf3, 0xbe,
  0x7a, 0xe9, 0xec, 0xbe, 0x2d, 0x25, 0x03, 0x3d, 0xe4, 0xdb, 0x03, 0x3e,
  0xe6, 0xff, 0x02, 0x3e, 0xaf, 0xc2, 0x12, 0x3e, 0x52, 0xfc, 0xe3, 0x3d,
  0x66, 0x51, 0x2c, 0x3e, 0x9f, 0xfc, 0x5d, 0x3e, 0x5d, 0x65, 0x28, 0x3e,
  0x8d, 0x5b, 0x31, 0x3d, 0x05, 0xee, 0x6a, 0x3e, 0xf9, 0x78, 0xd8, 0xbc,
  0x37, 0x8d, 0x15, 0xc0, 0x11, 0x50, 0x8b, 0xbe, 0xf5, 0x54, 0x41, 0xbf,
  0x0c, 0xa0, 0x7d, 0xbe, 0x16, 0x5e, 0xdf, 0xbe, 0x86, 0xe3, 0x97, 0xbe,
  0xab, 0xd1, 0xb0, 0x3d, 0x0b, 0xfa, 0x25, 0x3f, 0xf5, 0x2b, 0x83, 0x3e,
  0x29, 0xe1, 0x57, 0xbe, 0x45, 0x0f, 0x55, 0xbe, 0xb5, 0x46, 0x17, 0xbf,
  0xe7, 0x23, 0x18, 0xbf, 0x02, 0x0f, 0xfc, 0xbe, 0x18, 0x07, 0xa7, 0xbe,
  0x97, 0xb6, 0x88, 0xbe, 0x6f, 0x1c, 0xe8, 0xbd, 0x07, 0x6b, 0x89, 0x3d,
  0xa6, 0x90, 0x7c, 0x3d, 0xd0, 0xc4, 0x0b, 0x3e, 0x1e, 0x43, 0x1b, 0xbd,
  0x51, 0xd4, 0x53, 0x3e, 0x16, 0x54, 0x01, 0x3e, 0xe4, 0x01, 0x48, 0x3d,
  0x87, 0x5a, 0x77, 0x3e, 0x41, 0xd7, 0xe4, 0xbd, 0x2f, 0x9f, 0x47, 0xbd,
  0x49, 0xb3, 0x97, 0xbe, 0xa2, 0x06, 0xab, 0xbf, 0x55, 0x07, 0x93, 0xbd,
  0x09, 0xef, 0x1b, 0xbf, 0xc1, 0x79, 0x88, 0xbe, 0x4a, 0xdd, 0xad, 0xbe,
  0x0d, 0xef, 0xd7, 0xbe, 0x1d, 0x99, 0x06, 0xbf, 0xc4, 0xf3, 0x20, 0x3d,
  0x71, 0xd8, 0x8c, 0xbd, 0x03, 0xb4, 0xc5, 0xbe, 0x0e, 0x22, 0x00, 0xbf,
  0xef, 0x2c, 0xd1, 0xbe, 0x86, 0xbd, 0xcc, 0xbe, 0x50, 0x4e, 0x40, 0xbe,
  0x4c, 0x5b, 0x4b, 0xbc, 0x9b, 0x95, 0x27, 0xbe, 0x43, 0x71, 0xf2, 0x3c,
  0x4c, 0x07, 0xe5, 0x3d, 0x4b, 0x9b, 0x8b, 0x3e, 0x90, 0xba, 0xae, 0x3d,
  0x97, 0x56, 0x7f, 0x3c, 0xf2, 0x16, 0x96, 0x3d, 0xdd, 0x77, 0xe9, 0x3d,
  0x36, 0xf5, 0xdf, 0xbc, 0xa9, 0x7c, 0xfa, 0xbd, 0xd2, 0x76, 0x1e, 0xbf,
  0x20, 0x06, 0x30, 0xbf, 0x6c, 0x11, 0x36, 0xbf, 0x6d, 0x86, 0x9c, 0xbf,
  0x02, 0x11, 0x94, 0x3e, 0xa0, 0x6c, 0x1a, 0xbf, 0xa9, 0xfa, 0xc2, 0xbe,
  0x04, 0xa8, 0x83, 0xbe, 0xff, 0x06, 0xd2, 0xbe, 0x63, 0x33, 0x0d, 0xbf,
  0x25, 0x95, 0x2c, 0x3c, 0xb4, 0xff, 0xbc, 0xbe, 0xb5, 0x3a, 0xf2, 0xbe,
  0x39, 0x95, 0x8e, 0xbe, 0x47, 0x6c, 0xb4, 0xbe, 0x66, 0x3d, 0x49, 0xbe,
  0x17, 0x21, 0x41, 0xbe, 0xb1, 0x35, 0x46, 0xbe, 0x74, 0x4f, 0x2f, 0xbe,
  0xb6, 0xb3, 0x12, 0xbd, 0xcd, 0x61, 0x5e, 0x3e, 0xcd, 0x64, 0x22, 0x3e,
  0xe1, 0xf9, 0xcd, 0xbd, 0x4b, 0x71, 0x30, 0x3d, 0x18, 0x4a, 0x6a, 0xbb,
  0xa6, 0xf6, 0xf3, 0x3d, 0x99, 0xce, 0x3e, 0xbe, 0x6b, 0xef, 0xd5, 0xbe,
  0xc5, 0x81, 0x15, 0xbf, 0x64, 0x82, 0x47, 0xbf, 0x62, 0x86, 0xdd, 0xbe,
  0x93, 0x64, 0x8c, 0xbe, 0xa8, 0x00, 0x8c, 0xbd, 0x6c, 0x62, 0x3b, 0xbf,
  0x05, 0xde, 0x86, 0xbe, 0x0d, 0x62, 0x7e, 0xbe, 0x8d, 0x50, 0x1b, 0x3e,
  0xfa, 0xbb, 0xb3, 0xbd, 0x95, 0x9b, 0x32, 0xbd, 0x30, 0x34, 0x4c, 0xbe,
  0xff, 0x7d, 0xf8, 0xbe, 0xf3, 0x78, 0x01, 0xbf, 0xda, 0x73, 0xe2, 0xbe,
  0x99, 0x98, 0x42, 0xbe, 0xdd, 0x28, 0xd7, 0xbd, 0x51, 0x5e, 0x31, 0xbe,
  0x3f, 0xbc, 0x74, 0xbe, 0x51, 0x96, 0xe9, 0x3d, 0x9e, 0x16, 0x0d, 0xbd,
  0x4c, 0x03, 0xdd, 0x3d, 0xd2, 0xbd, 0x71, 0xbd, 0x59, 0x97, 0x9b, 0xbb,
  0x10, 0xde, 0x84, 0xbd, 0x01, 0x9d, 0x9c, 0xbb, 0x78, 0x8d, 0x39, 0xbe,
  0x33, 0x4b, 0x11, 0xbe, 0x25, 0x52, 0x1f, 0xbe, 0x26, 0x77, 0xb2, 0xbe,
  0x27, 0xdd, 0x3a, 0xbe, 0x95, 0x65, 0x3e, 0xbe, 0xca, 0xce, 0x13, 0xbf,
  0xac, 0xc1, 0x00, 0xbf, 0x9c, 0x85, 0x52, 0xbe, 0x69, 0x7c, 0x55, 0xbe,
  0x1f, 0xea, 0x98, 0x3e, 0x0c, 0x3d, 0xab, 0x3e, 0x80, 0xfe, 0x3d, 0xbd,
  0x95, 0x7c, 0x92, 0xbd, 0x42, 0x38, 0x32, 0xbe, 0xeb, 0xb0, 0x9a, 0xbe,
  0x03, 0xef, 0xbb, 0xbe, 0x50, 0x6f, 0xc7, 0xbe, 0x69, 0x0a, 0x63, 0xbe,
  0xe0, 0x41, 0x81, 0xbe, 0xfd, 0x6b, 0x52, 0x3b, 0x1b, 0xcc, 0x21, 0x3d,
  0x2a, 0xd4, 0x84, 0x3d, 0x9f, 0xe4, 0x05, 0x3e, 0xdd, 0x2d, 0xda, 0xba,
  0x14, 0x64, 0xb9, 0xbd, 0xd1, 0x8c, 0x60, 0xbd, 0xf3, 0x28, 0x1a, 0xbe,
  0x04, 0x59, 0xa7, 0x3d, 0xe0, 0xe9, 0xe2, 0x3d, 0x1e, 0xe3, 0x44, 0x3e,
  0xaf, 0x57, 0x50, 0x3e, 0xd9, 0x89, 0xbf, 0x3e, 0x3b, 0x16, 0x88, 0x3e,
  0xc7, 0xc6, 0xb9, 0xbf, 0x2d, 0x19, 0xcd, 0x3d, 0xce, 0xc4, 0xe8, 0xbe,
  0xe1, 0x57, 0x69, 0xbe, 0x14, 0xdd, 0xd3, 0x3e, 0x59, 0x5d, 0xf2, 0x3e,
  0xb3, 0x00, 0xc4, 0x3d, 0x6c, 0x88, 0xc1, 0x3e, 0x79, 0xbc, 0x01, 0x3e,
  0xbd, 0xc3, 0x35, 0xbe, 0xa5, 0x0c, 0xa2, 0xbe, 0x41, 0x92, 0xf4, 0xbe,
  0x24, 0x2b, 0x77, 0xbe, 0x81, 0xe8, 0x1a, 0xbe, 0x2c, 0xe2, 0xd1, 0xbd,
  0x02, 0x11, 0xa3, 0x3b, 0x92, 0x3d, 0x2d, 0x3e, 0x46, 0x9b, 0xa4, 0xbd,
  0x8c, 0x9f, 0x2f, 0xbe, 0x12, 0x29, 0xaf, 0xbe, 0x27, 0x0b, 0x01, 0xbe,
  0xf0, 0xb6, 0x8a, 0x3d, 0xb6, 0x4d, 0x82, 0x3e, 0xd0, 0x11, 0x0d, 0x3e,
  0x3e, 0xca, 0x9b, 0x3d, 0xdc, 0x86, 0x25, 0x3e, 0x2c, 0xa6, 0xf3, 0x3e,
  0xb9, 0x77, 0x1e, 0x3f, 0x9c, 0x9d, 0x83, 0xbf, 0x19, 0x15, 0x54, 0xbf,
  0xb0, 0xfe, 0x09, 0xbf, 0xe8, 0x29, 0x82, 0xbd, 0x4c, 0xc4, 0xdb, 0x3e,
  0x17, 0x38, 0xce, 0x3d, 0x3a, 0xe6, 0xb9, 0x3e, 0x6d, 0x84, 0xcc, 0x3e,
  0xae, 0xe1, 0xaf, 0x3d, 0xf7, 0x26, 0xf0, 0xbd, 0xbb, 0x97, 0x0b, 0xbe,
  0x65, 0xbe, 0x87, 0xbe, 0xc2, 0x53, 0x03, 0xbf, 0x7c, 0xf7, 0x19, 0xbf,
  0x24, 0x48, 0x01, 0xbf, 0x12, 0x99, 0x98, 0xbe, 0xef, 0x8d, 0x85, 0xbe,
  0x6c, 0xaa, 0xef, 0xbe, 0x2b, 0xfa, 0xa6, 0xbe, 0x1b, 0x99, 0x30, 0xbd,
  0x42, 0x8b, 0xcd, 0x3d, 0x86, 0x87, 0xf7, 0x3d, 0x41, 0x60, 0x88, 0x3e,
  0xa1, 0xa1, 0x17, 0x3a, 0x18, 0xbb, 0xba, 0x3d, 0x6c, 0x40, 0x79, 0x3e,
  0x5f, 0xdc, 0x62, 0x3e, 0x1c, 0x87, 0x41, 0xbe, 0xc0, 0xd5, 0x93, 0xbf,
  0x90, 0x23, 0x6c, 0xbf, 0x6f, 0x8e, 0xa3, 0xbe, 0x3a, 0x30, 0xaf, 0xbe,
  0x69, 0xf9, 0xda, 0x3e, 0xf8, 0xde, 0x55, 0x3e, 0x4a, 0x1b, 0x1e, 0x3f,
  0x19, 0xbd, 0x72, 0x3e, 0x64, 0x6f, 0x38, 0x3e, 0xf4, 0xad, 0x00, 0x3e,
  0x6d, 0xc7, 0x73, 0xbe, 0x28, 0xcc, 0x0b, 0xbe, 0x3a, 0xee, 0xd3, 0xbe,
  0x50, 0xb4, 0xde, 0xbe, 0x7f, 0x34, 0xbd, 0xbe, 0xa2, 0xf3, 0x14, 0xbf,
  0x7c, 0x54, 0xc9, 0xbe, 0x33, 0x5c, 0x92, 0xbe, 0xb1, 0xac, 0xe3, 0x3d,
  0xda, 0x16, 0x93, 0x3e, 0x49, 0xc7, 0x61, 0x3e, 0x5f, 0x5c, 0x19, 0x3e,
  0x41, 0xf4, 0x26, 0x3e, 0x92, 0x88, 0xf3, 0x3d, 0x74, 0x3d, 0x82, 0x3e,
  0xaa, 0xb7, 0xab, 0x3e, 0xe7, 0xce, 0xaf, 0x3d, 0xa3, 0x31, 0x0e, 0xbf,
  0xe9, 0x12, 0xa5, 0xbf, 0xb9, 0x78, 0x1d, 0xbf, 0xf4, 0xa4, 0xea, 0xbe,
  0x71, 0xb6, 0x3b, 0xbe, 0xd6, 0x06, 0x5a, 0xbd, 0xf6, 0xf6, 0x75, 0xbe,
  0x49, 0x5b, 0x0d, 0x3f, 0x4d, 0x85, 0x42, 0x3e, 0xb9, 0x88, 0xb0, 0x3e,
  0xa4, 0x49, 0xa3, 0x3d, 0x04, 0x38, 0x99, 0xbd, 0x0b, 0x71, 0x64, 0xbd,
  0x52, 0x34, 0xef, 0xbd, 0xfc, 0x6c, 0xc8, 0xbd, 0xc8, 0x79, 0x93, 0xbe,
  0xa9, 0x4c, 0x57, 0xbe, 0x24, 0x00, 0xe6, 0xbd, 0x6a, 0xae, 0x4e, 0x3a,
  0xc1, 0x17, 0x53, 0x3c, 0x68, 0x44, 0x17, 0x3e, 0x7f, 0x66, 0x8a, 0x3e,
  0x88, 0x7e, 0x45, 0x3e, 0x06, 0x33, 0xec, 0x3d, 0x03, 0x2d, 0x05, 0x3d,
  0x38, 0x88, 0x54, 0x3e, 0xbe, 0xfc, 0xc9, 0xbc, 0xad, 0xf5, 0xde, 0x3d,
  0xf2, 0x50, 0x8a, 0xbe, 0xa4, 0x6d, 0xde, 0xbf, 0xd8, 0x4b, 0x4b, 0xbf,
  0x6c, 0xc9, 0xa7, 0xbe, 0xd6, 0xae, 0x37, 0xbd, 0xcc, 0xa8, 0x7e, 0xbd,
  0x54, 0xa8, 0xae, 0xbe, 0x17, 0x93, 0xe8, 0x3e, 0x20, 0xbc, 0x80, 0x3e,
  0x9c, 0x3d, 0x8e, 0x3e, 0x86, 0x6d, 0xb1, 0x3e, 0x85, 0x24, 0x24, 0x3e,
  0xfe, 0xc9, 0x24, 0x3e, 0x60, 0x71, 0xda, 0x3d, 0xaf, 0x6d, 0xa1, 0xbd,
  0x9b, 0xb4, 0x61, 0xbe, 0xa3, 0xf8, 0xa3, 0xbe, 0x9d, 0x46, 0xf8, 0xbd,
  0x61, 0x9d, 0xb1, 0x3c, 0x7e, 0x06, 0xbf, 0xba, 0x0f, 0x17, 0x02, 0x3e,
  0xc6, 0xf9, 0xcb, 0x3d, 0x1c, 0x23, 0x7e, 0x3e, 0x92, 0x65, 0x19, 0x3e,
  0x4f, 0xcb, 0x4b, 0x3e, 0xd4, 0x00, 0x37, 0x3d, 0x11, 0xd3, 0xeb, 0xbd,
  0xad, 0xfe, 0xb1, 0x3d, 0x1f, 0x0a, 0x44, 0xbe, 0x88, 0xba, 0xc1, 0xbf,
  0xb4, 0xa1, 0x68, 0x3b, 0x03, 0x0b, 0xdb, 0xbd, 0xad, 0x4a, 0x00, 0xbe,
  0x14, 0x33, 0xf0, 0x3d, 0xaf, 0x9b, 0x4f, 0x3e, 0x59, 0x15, 0x9a, 0x3e,
  0x73, 0x75, 0x57, 0x3e, 0x43, 0xb0, 0x59, 0xbd, 0x95, 0x99, 0x3d, 0x3e,
  0x6b, 0x24, 0xe3, 0x3d, 0xb6, 0x06, 0x8d, 0x3d, 0x7a, 0xf8, 0x1a, 0xbe,
  0x28, 0xee, 0xf9, 0xbd, 0xfb, 0x99, 0x00, 0xbe, 0x05, 0xa9, 0x00, 0xbd,
  0x3a, 0x18, 0x0a, 0xbe, 0xb0, 0xb3, 0x5e, 0xbc, 0x1b, 0x7c, 0x1d, 0xbd,
  0x54, 0x8d, 0x1f, 0x3e, 0x1e, 0x9b, 0xa4, 0x3d, 0x7b, 0xed, 0x00, 0x3e,
  0x95, 0x35, 0x2b, 0x3e, 0x1b, 0x42, 0x16, 0xbd, 0xdb, 0x55, 0x29, 0xbe,
  0x03, 0x1f, 0xd7, 0xbd, 0x7f, 0xd5, 0x80, 0xbe, 0x59, 0x6e, 0x4e, 0xbf,
  0xe4, 0xa7, 0xba, 0xbf, 0xba, 0xee, 0x56, 0xbe, 0x9c, 0x69, 0x94, 0xbc,
  0x82, 0x13, 0x84, 0xbe, 0x3f, 0xe9, 0x4c, 0xbc, 0x26, 0xee, 0x4c, 0x3e,
  0x0b, 0xb6, 0xbf, 0x3e, 0x63, 0xd0, 0xb1, 0x3d, 0xf5, 0xe7, 0x69, 0xbd,
  0xce, 0x18, 0x15, 0x3e, 0x13, 0xf7, 0x70, 0x3d, 0xf4, 0x07, 0xa4, 0x3b,
  0x4a, 0xa1, 0x07, 0x3a, 0x0d, 0x73, 0x23, 0xbd, 0xae, 0xc6, 0xbe, 0x3d,
  0xf3, 0x17, 0xf0, 0xbc, 0x32, 0x6b, 0xdf, 0xbd, 0xdc, 0x2a, 0xdb, 0xbd,
  0x1c, 0x7d, 0xca, 0x3d, 0x75, 0x20, 0x4e, 0x3d, 0x22, 0xaa, 0x3d, 0x3e,
  0x31, 0xcf, 0x69, 0x3d, 0x24, 0xcf, 0x5a, 0x3e, 0xfe, 0x89, 0x7d, 0x3d,
  0x98, 0x3c, 0xd0, 0xbd, 0x4a, 0x3a, 0x22, 0x3d, 0x9f, 0x6d, 0x4b, 0xbe,
  0xc0, 0x6d, 0x64, 0xbf, 0x42, 0x8c, 0x00, 0xbf, 0xaf, 0x29, 0x81, 0x3d,
  0x08, 0x40, 0x73, 0xbd, 0xf4, 0x75, 0x80, 0xbd, 0xf8, 0x7a, 0x9a, 0xbc,
  0x4b, 0x64, 0x15, 0x3f, 0xd7, 0x0d, 0x47, 0x3f, 0x3d, 0xbf, 0xd9, 0x3e,
  0x72, 0xcb, 0x79, 0x3e, 0x6a, 0x5c, 0x55, 0x3e, 0xeb, 0x18, 0x90, 0x3e,
  0xdd, 0xd2, 0x2d, 0xbd, 0x09, 0x19, 0x2d, 0x3e, 0xf7, 0xa3, 0x4d, 0x3e,
  0xf0, 0xca, 0x1a, 0x3e, 0x66, 0x03, 0x4e, 0xbd, 0xb0, 0x7b, 0x39, 0x3d,
  0x0b, 0xcb, 0x7a, 0x3b, 0xc3, 0x37, 0xb0, 0x3c, 0x94, 0x9b, 0x42, 0xbe,
  0xad, 0x55, 0x20, 0x3d, 0xd8, 0x38, 0x69, 0x3e, 0xf5, 0x6c, 0x2f, 0xbd,
  0x40, 0xbe, 0xdb, 0xbc, 0x62, 0x13, 0x6e, 0xbe, 0xd7, 0x1d, 0xc1, 0xbe,
  0x76, 0x10, 0xe2, 0xbe, 0x09, 0x8a, 0x90, 0xbe, 0xcc, 0xff, 0x92, 0xbe,
  0x8a, 0xd9, 0x66, 0x3e, 0x92, 0x54, 0x5a, 0x3d, 0x4e, 0x11, 0xe5, 0xbc,
  0x28, 0x20, 0x24, 0xbc, 0xeb, 0x89, 0xb2, 0x3e, 0xfc, 0x62, 0x1a, 0x3f,
  0x36, 0x79, 0x31, 0x3f, 0x32, 0xa9, 0xee, 0x3d, 0xbc, 0x2e, 0xdb, 0x3e,
  0xcb, 0xc8, 0xba, 0x3e, 0xc6, 0x82, 0x3a, 0x3e, 0x25, 0x7e, 0xde, 0x3d,
  0xc8, 0xae, 0xa4, 0x3e, 0x99, 0xa1, 0x7f, 0x3e, 0x28, 0xb6, 0x53, 0x3e,
  0xc1, 0x63, 0x62, 0x3e, 0x1d, 0x54, 0x40, 0x3e, 0xdf, 0x64, 0xa9, 0x3d,
  0x44, 0x46, 0x3b, 0x3e, 0x12, 0x1b, 0x95, 0x3d, 0xa6, 0xd5, 0x25, 0xbe,
  0x20, 0x87, 0x70, 0xbe, 0x79, 0xf3, 0x27, 0xbe, 0xf9, 0xd6, 0x01, 0xbe,
  0xfa, 0xf6, 0xca, 0xbd, 0x9e, 0xb2, 0x61, 0xbe, 0x4b, 0xf0, 0x17, 0xbf,
  0x0d, 0x04, 0xb3, 0xbe, 0x7d, 0x63, 0x20, 0xbe, 0x92, 0xa0, 0x7b, 0x3d,
  0x52, 0x88, 0x27, 0x3d, 0x0c, 0xb9, 0x94, 0x3c, 0xbd, 0xc4, 0xdc, 0x3e,
  0x82, 0x7f, 0xb7, 0xbe, 0x43, 0x40, 0x9a, 0xbd, 0x8a, 0xa1, 0xbb, 0x3d,
  0x63, 0xd1, 0xdc, 0x3e, 0x0b, 0xc4, 0x15, 0x3f, 0x04, 0x13, 0x48, 0x3f,
  0x79, 0x4a, 0x27, 0x3f, 0xf2, 0x9e, 0xfb, 0x3e, 0xda, 0x7f, 0xe0, 0x3e,
  0xff, 0x14, 0x16, 0x3f, 0x77, 0xa2, 0xdf, 0x3e, 0xb5, 0xa9, 0x97, 0x3e,
  0xb4, 0x23, 0x37, 0x3d, 0xf7, 0x2d, 0x70, 0x3e, 0x15, 0x98, 0x33, 0x3c,
  0x08, 0x66, 0xfc, 0x3d, 0x7b, 0x28, 0x94, 0x3e, 0xcf, 0xe7, 0x98, 0xbd,
  0x25, 0x42, 0xac, 0xbe, 0xa7, 0x0c, 0x2d, 0xbd, 0xcf, 0xd7, 0x4c, 0xbf,
  0x16, 0xb9, 0xc6, 0xbe, 0xbe, 0xb2, 0x56, 0xbe, 0x68, 0xef, 0xc7, 0xbd,
  0x6f, 0x00, 0xae, 0x3d, 0x60, 0x8b, 0x32, 0xbb, 0xf3, 0x61, 0x88, 0x3d,
  0x96, 0xe2, 0x90, 0xbd, 0x11, 0xc1, 0xa8, 0xbe, 0x64, 0x4b, 0x97, 0xbe,
  0xcb, 0x86, 0x85, 0xbd, 0xe0, 0x82, 0x2d, 0xbe, 0x5f, 0xff, 0xda, 0xbd,
  0x2c, 0x8d, 0x5c, 0xbe, 0x3b, 0x45, 0x97, 0xbe, 0xee, 0x11, 0x95, 0xbd,
  0x88, 0xb1, 0x27, 0xbe, 0x02, 0xf0, 0x61, 0xbe, 0x01, 0x0e, 0xd1, 0x3c,
  0x1e, 0x92, 0xa6, 0xbc, 0x32, 0x2c, 0xf8, 0xbd, 0x3d, 0x90, 0x35, 0x3e,
  0xe1, 0xd5, 0xef, 0x3c, 0x79, 0x11, 0x5b, 0x3d, 0x5a, 0x9e, 0x00, 0x3d,
  0xdb, 0xd6, 0x1e, 0x3d, 0xbd, 0xa7, 0x3d, 0xbe, 0x2f, 0xdb, 0x46, 0xbe,
  0x07, 0xc8, 0x06, 0xbf, 0x40, 0x1a, 0x3d, 0xbd, 0x8b, 0x1e, 0x16, 0x3d,
  0x44, 0x06, 0xc1, 0x3c, 0xe8, 0x6b, 0xee, 0x3c, 0x80, 0x85, 0x25, 0xbd,
  0x67, 0xe2, 0x4b, 0xbd, 0x60, 0xc0, 0xff, 0xbc, 0xcc, 0xa8, 0xc4, 0xbc,
  0x4d, 0x80, 0xa4, 0x39, 0xdc, 0xd7, 0x04, 0x3d, 0x50, 0xc6, 0x47, 0xbe,
  0xa5, 0x87, 0xfa, 0xbe, 0xae, 0x96, 0x16, 0xbf, 0xa1, 0x2a, 0x22, 0xbf,
  0x99, 0x5a, 0x11, 0xbf, 0x25, 0xbe, 0x63, 0xbf, 0xe9, 0xa7, 0x5e, 0xbf,
  0xcc, 0x00, 0x8a, 0xbf, 0x2b, 0xcb, 0x86, 0xbf, 0x7c, 0xdc, 0xb1, 0xbf,
  0xe2, 0xe2, 0x57, 0xbf, 0xbd, 0x03, 0x7a, 0xbf, 0x8b, 0x26, 0x00, 0xbf,
  0xd5, 0x84, 0x12, 0xbf, 0x78, 0x42, 0x14, 0xbf, 0x8c, 0x0d, 0x19, 0xbf,
  0x23, 0xa0, 0x80, 0xbe, 0xa7, 0x02, 0x40, 0xbe, 0x66, 0x6f, 0x29, 0x3d,
  0x64, 0x5e, 0xc5, 0xbc, 0xc0, 0x7e, 0x2a, 0xbb, 0x30, 0x2d, 0x58, 0x3c,
  0x10, 0x1c, 0x92, 0xbd, 0x5b, 0x29, 0x8f, 0x3d, 0xee, 0xc0, 0x5a, 0x3d,
  0x42, 0x60, 0x8e, 0xbd, 0x65, 0xc9, 0x00, 0xbd, 0x4c, 0x73, 0xe8, 0xbc,
  0xd1, 0xa9, 0x91, 0xbd, 0xa9, 0xab, 0x2c, 0xbd, 0xd6, 0x10, 0x48, 0x3d,
  0x31, 0x1a, 0x2d, 0xbd, 0xe6, 0x4b, 0x6f, 0xbd, 0x1f, 0x10, 0xa6, 0x3d,
  0x24, 0x1a, 0x71, 0xbe, 0x75, 0x13, 0x27, 0xbe, 0xec, 0x8f, 0x0d, 0xbd,
  0xe0, 0x30, 0x8c, 0xbd, 0xbb, 0xc6, 0x8f, 0x3d, 0x8a, 0x51, 0x0a, 0x3d,
  0x3e, 0x7b, 0x88, 0xbd, 0xc0, 0xd4, 0xa4, 0x3a, 0x56, 0xbf, 0x38, 0x3d,
  0xf8, 0xeb, 0xc7, 0xbc, 0xf0, 0xab, 0x84, 0x3b, 0x10, 0xc1, 0x75, 0x3c,
  0x60, 0xd7, 0x2f, 0x3b, 0x10, 0x4d, 0x9b, 0xbb, 0x5f, 0x5a, 0x20, 0xbd,
  0xcc, 0x2c, 0x8b, 0xbd, 0x00, 0xbd, 0xcf, 0xb9, 0xfe, 0x4d, 0x3c, 0x3d,
  0x1e, 0x3a, 0x89, 0xbd, 0x4f, 0x6e, 0xb1, 0xbd, 0x72, 0x2d, 0xc7, 0xbd,
  0x91, 0x13, 0x5d, 0xbe, 0x88, 0x15, 0xf9, 0xbe, 0x2a, 0x21, 0x19, 0xbf,
  0xd1, 0xe6, 0x0d, 0xbf, 0x30, 0x19, 0x45, 0xbf, 0xdd, 0x2c, 0x18, 0xbf,
  0xc1, 0x3a, 0x56, 0xbf, 0xfe, 0xb3, 0x5d, 0xbf, 0x5d, 0x59, 0x46, 0xbf,
  0x9c, 0x78, 0x5c, 0xbd, 0x26, 0x2f, 0x49, 0xbf, 0x4c, 0xc4, 0x2f, 0xbf,
  0x1c, 0xeb, 0x0d, 0xbf, 0x13, 0xca, 0x68, 0xbf, 0x0c, 0xe1, 0xd9, 0xbe,
  0xec, 0x55, 0x2a, 0xbf, 0x9e, 0x18, 0xbc, 0xbe, 0xbb, 0xe1, 0xbb, 0xbe,
  0x47, 0x88, 0xa6, 0xbe, 0xb5, 0x11, 0xb1, 0xbd, 0x1f, 0xa7, 0x8d, 0x3d,
  0x8b, 0x58, 0x84, 0x3d, 0x11, 0x4e, 0xa8, 0x3d, 0x9c, 0x16, 0x84, 0x3c,
  0x80, 0xcb, 0xec, 0x3a, 0xc5, 0x35, 0xd4, 0xbd, 0x38, 0x1e, 0x5b, 0xbe,
  0xb9, 0x23, 0xd3, 0xbe, 0xc0, 0xfa, 0xab, 0xbe, 0x44, 0xe8, 0xf6, 0xbe,
  0x17, 0x3e, 0x37, 0xbf, 0xa4, 0x4b, 0x83, 0xbf, 0x53, 0x8f, 0xa0, 0xbf,
  0xd1, 0x79, 0x96, 0xbf, 0xd0, 0xe5, 0xf3, 0xbf, 0x53, 0x55, 0x9a, 0xbf,
  0x1d, 0xbb, 0x24, 0xbf, 0xe0, 0x9f, 0xf7, 0xbe, 0xfc, 0xd2, 0x37, 0xbf,
  0xda, 0x32, 0x5b, 0xbf, 0xc8, 0x92, 0xff, 0xbe, 0x12, 0x22, 0xab, 0xbf,
  0xc9, 0x79, 0x83, 0xbf, 0xb5, 0x5c, 0x75, 0xbf, 0x62, 0x56, 0x20, 0xbf,
  0x44, 0x0a, 0xfe, 0xbe, 0x7e, 0x3d, 0x3c, 0xbf, 0x6d, 0x8a, 0xd3, 0xbe,
  0x26, 0x2b, 0xb6, 0xbe, 0x10, 0xe3, 0xb4, 0xbc, 0x73, 0x97, 0x9e, 0xbd,
  0x28, 0xa1, 0xf7, 0x3c, 0x20, 0x9b, 0x91, 0xbd, 0x12, 0x26, 0x01, 0xbe,
  0x6a, 0x02, 0xaa, 0xbe, 0x7a, 0x3a, 0x05, 0xbf, 0x91, 0x6b, 0xc9, 0xbe,
  0x57, 0xb7, 0x0b, 0xbf, 0x33, 0x4d, 0xff, 0xbe, 0x98, 0x8a, 0x4b, 0xbf,
  0x3f, 0x05, 0x84, 0xbf, 0x55, 0xa6, 0x4d, 0xbf, 0x66, 0xac, 0x8c, 0xbf,
  0x0a, 0xb5, 0x9d, 0xbf, 0x7e, 0x6e, 0xc2, 0xbf, 0x7e, 0x1a, 0x67, 0xbf,
  0x90, 0x8f, 0x54, 0xbf, 0x02, 0x5f, 0x3e, 0xbf, 0x37, 0x84, 0x0c, 0xbf,
  0xd4, 0xb6, 0x21, 0xbf, 0x55, 0x14, 0x21, 0xbe, 0x2a, 0x7f, 0x03, 0xbe,
  0x1b, 0xc8, 0x90, 0xbd, 0xb9, 0xaa, 0xf6, 0xbd, 0x7c, 0xaf, 0xc4, 0xbc,
  0x9c, 0xdb, 0xb1, 0xbe, 0x7c, 0xa0, 0x01, 0xbf, 0x2f, 0x3c, 0x72, 0xbe,
  0x89, 0x54, 0x96, 0x3d, 0x1d, 0x42, 0xad, 0x3d, 0x7b, 0x4b, 0x0a, 0xbc,
  0x41, 0x49, 0x78, 0xbc, 0xc6, 0xd1, 0xe0, 0xbe, 0x81, 0xe7, 0x0d, 0x3e,
  0x62, 0xee, 0xe8, 0x3d, 0x0d, 0x21, 0xd8, 0xbe, 0xfd, 0xa9, 0xfd, 0xbc,
  0xa6, 0xdf, 0x8c, 0xbe, 0x47, 0xef, 0xe4, 0xbe, 0xe7, 0xc4, 0x11, 0xbf,
  0xad, 0x4e, 0xd0, 0xbe, 0xa1, 0xdc, 0xbc, 0xbe, 0x88, 0x63, 0x9e, 0xbe,
  0x7f, 0x17, 0xd5, 0xbe, 0xb2, 0x4e, 0x01, 0xbf, 0xef, 0x7e, 0x8f, 0xbe,
  0xe7, 0x43, 0x84, 0xbe, 0x58, 0x3d, 0x6d, 0xbe, 0x9e, 0xa8, 0x27, 0x3e,
  0x2a, 0xea, 0xde, 0x3e, 0xb3, 0x82, 0xfa, 0x3e, 0x37, 0xc3, 0x0f, 0x3f,
  0x1e, 0xa4, 0xf4, 0x3e, 0x9a, 0xb7, 0xb4, 0x3e, 0xef, 0x68, 0x0d, 0xbc,
  0xe3, 0xca, 0xbf, 0xbe, 0xf8, 0x2e, 0x9f, 0xbe, 0xe3, 0x5a, 0x9f, 0xbd,
  0x3c, 0x0d, 0x80, 0xbc, 0x42, 0x89, 0x95, 0xbe, 0xdc, 0xc1, 0xd0, 0xbd,
  0x96, 0x18, 0x61, 0x3e, 0x74, 0xe9, 0x00, 0x3c, 0xa0, 0x6b, 0x05, 0xbe,
  0x8a, 0x37, 0x0d, 0xbe, 0x60, 0xd0, 0x9e, 0xbd, 0x08, 0x11, 0x80, 0x3d,
  0xfc, 0x66, 0x11, 0xbe, 0xb0, 0xdd, 0xf2, 0xbd, 0xfd, 0xdf, 0x65, 0xbd,
  0x5b, 0x69, 0x87, 0xbe, 0x8f, 0xe7, 0xc3, 0xbd, 0x03, 0x7b, 0x27, 0xbc,
  0x52, 0x7d, 0xa1, 0xbb, 0xff, 0x44, 0x0e, 0x3d, 0x7f, 0x07, 0x9e, 0x3d,
  0xee, 0xbf, 0x86, 0x3d, 0x2b, 0x52, 0x8f, 0x3d, 0x74, 0xa2, 0x92, 0xbd,
  0x0a, 0x00, 0xe8, 0x3d, 0x9f, 0x79, 0x0a, 0x3f, 0x81, 0x1e, 0x4c, 0x3e,
  0x52, 0x37, 0x63, 0xbe, 0x23, 0x8e, 0x09, 0xbf, 0x23, 0x12, 0xdb, 0xbe,
  0x5e, 0x03, 0x45, 0x3d, 0x82, 0xb3, 0xa1, 0x3c, 0x08, 0x90, 0xdc, 0xbe,
  0x43, 0xd4, 0xac, 0xbe, 0xdb, 0xdc, 0x6b, 0x3d, 0x1a, 0x20, 0x78, 0x3e,
  0x5f, 0xdc, 0xdf, 0xbd, 0x61, 0xc0, 0x50, 0x3d, 0xca, 0xc8, 0x56, 0xbc,
  0x59, 0xc8, 0x02, 0xbd, 0xd2, 0x34, 0x25, 0xbe, 0x4a, 0xc7, 0x9e, 0xbe,
  0x99, 0x8e, 0xbf, 0xbe, 0x5e, 0x39, 0xfb, 0xbe, 0x51, 0xfc, 0xdc, 0xbe,
  0x89, 0x2b, 0xeb, 0xbe, 0xc4, 0x8e, 0x08, 0xbf, 0x3d, 0x04, 0xb9, 0xbe,
  0x3a, 0x13, 0xd4, 0xbe, 0x60, 0x10, 0x70, 0xbe, 0x57, 0x3a, 0x4a, 0xbe,
  0x88, 0x5b, 0x54, 0xbe, 0x91, 0x27, 0xe5, 0x3d, 0x06, 0xd1, 0xaa, 0x3e,
  0x7a, 0x4b, 0xca, 0x3c, 0xca, 0xe0, 0x8a, 0xbe, 0xcc, 0xce, 0xab, 0x3d,
  0xab, 0xe6, 0x26, 0xbf, 0x15, 0xd5, 0x81, 0x3d, 0x9b, 0x47, 0xbb, 0xbe,
  0x34, 0x85, 0x15, 0xbf, 0x1b, 0x95, 0x04, 0xbe, 0x58, 0x60, 0xa1, 0x3d,
  0x65, 0xee, 0x90, 0x3e, 0x01, 0xe9, 0x9d, 0xbd, 0xf6, 0xd1, 0x3b, 0xbd,
  0x34, 0x1e, 0x8d, 0x3b, 0xd4, 0xd1, 0xcd, 0xbc, 0x79, 0x14, 0x8d, 0xbe,
  0x65, 0x4a, 0x4e, 0xbe, 0x2b, 0x62, 0xde, 0xbe, 0x4d, 0x94, 0xd7, 0xbe,
  0x60, 0xa2, 0xe1, 0xbe, 0x43, 0xea, 0x05, 0xbf, 0x00, 0xca, 0x07, 0xbf,
  0x46, 0x91, 0x2b, 0xbe, 0x7c, 0xdb, 0x66, 0xbe, 0x42, 0x08, 0x00, 0xbe,
  0x7b, 0x16, 0xa0, 0xbd, 0x29, 0x1a, 0x24, 0xbd, 0xef, 0x23, 0x84, 0x3d,
  0x3e, 0x23, 0x50, 0x3e, 0xb0, 0xdb, 0x91, 0xbd, 0xaf, 0x6d, 0xa6, 0xbd,
  0x34, 0xdf, 0x5d, 0x3e, 0x2f, 0x6b, 0x2b, 0xbf, 0x3b, 0xaa, 0x93, 0xbe,
  0x3f, 0xaa, 0xd3, 0xbe, 0x09, 0x90, 0x2e, 0x3e, 0xf1, 0x0a, 0x1d, 0xbe,
  0x18, 0xa9, 0xd9, 0xbd, 0xc9, 0xc6, 0x11, 0x3e, 0x2e, 0x08, 0x89, 0x3d,
  0x5a, 0x68, 0xa8, 0x3c, 0x0f, 0x2e, 0x13, 0xbe, 0xf9, 0x24, 0xb6, 0x3c,
  0x86, 0xb1, 0x1d, 0xbe, 0x56, 0x05, 0x06, 0xbe, 0x93, 0x34, 0x87, 0xbe,
  0x39, 0x30, 0x9d, 0xbe, 0x5a, 0x93, 0xe6, 0xbe, 0x56, 0x98, 0xa8, 0xbe,
  0x2d, 0xec, 0xc8, 0xbe, 0x3b, 0xc3, 0x82, 0xbe, 0x49, 0x0c, 0xae, 0xbd,
  0xf6, 0x00, 0x16, 0xbe, 0xb5, 0xc7, 0x9e, 0xbd, 0x9e, 0x08, 0x80, 0xbd,
  0xfb, 0xa8, 0x1c, 0xbe, 0x7b, 0x9d, 0xa8, 0xbb, 0x0e, 0xb0, 0xff, 0xbd,
  0xb0, 0x7a, 0x9d, 0x3d, 0xe8, 0x58, 0x12, 0xbe, 0xef, 0x18, 0xe5, 0xbe,
  0x85, 0xd3, 0x31, 0xbe, 0xc4, 0x21, 0xfa, 0xbe, 0xc4, 0x76, 0x6d, 0xbd,
  0x3e, 0x50, 0x1a, 0xbf, 0x00, 0x27, 0xca, 0xbe, 0x0e, 0x00, 0x21, 0xbe,
  0x67, 0x73, 0x46, 0xbe, 0xef, 0xdf, 0x39, 0xbd, 0xdb, 0x34, 0xa6, 0xbd,
  0x91, 0xc2, 0xc4, 0xbd, 0x81, 0xe7, 0x29, 0xbe, 0x92, 0x5e, 0xb2, 0xbd,
  0x5a, 0x51, 0x7c, 0xbd, 0x0c, 0x3a, 0x39, 0xbe, 0x9a, 0x0f, 0x1a, 0xbf,
  0x30, 0x03, 0xce, 0xbe, 0x75, 0x87, 0x91, 0xbd, 0x68, 0x58, 0x6d, 0xbe,
  0x52, 0x2b, 0x60, 0xbd, 0xfe, 0x86, 0x9f, 0xbc, 0x02, 0xf4, 0x00, 0xbc,
  0xa2, 0xb5, 0x12, 0xbd, 0x88, 0xbc, 0xeb, 0xbd, 0x07, 0x51, 0xbe, 0xbd,
  0xe7, 0x20, 0x25, 0xbf, 0xf0, 0x51, 0x1d, 0xbf, 0x4b, 0x3a, 0xd9, 0xbe,
  0x0c, 0x2d, 0x0f, 0xbf, 0x71, 0x44, 0x48, 0xbe, 0x2f, 0xc2, 0xae, 0xbe,
  0x68, 0xaf, 0x8d, 0xbe, 0x28, 0x5d, 0x0d, 0xbf, 0x27, 0x2c, 0x98, 0xbe,
  0x84, 0x38, 0xa7, 0xbe, 0x15, 0x66, 0x8c, 0xbe, 0x00, 0x62, 0x8a, 0xbd,
  0xf1, 0x3c, 0xb5, 0xbd, 0x2e, 0xc7, 0x10, 0x3e, 0xb3, 0xe6, 0x34, 0x3d,
  0xb2, 0x30, 0x02, 0x3d, 0xbb, 0x9b, 0xd0, 0x3d, 0xfb, 0xb7, 0x8c, 0xbe,
  0x55, 0xbc, 0x4f, 0xbf, 0xa1, 0xde, 0x30, 0xbe, 0xc4, 0xae, 0x8a, 0xbd,
  0x82, 0x96, 0x4a, 0xbb, 0x37, 0x1c, 0x0b, 0xbd, 0x78, 0x17, 0xe8, 0x3c,
  0xd7, 0x36, 0x33, 0xbe, 0xa2, 0x3f, 0x9e, 0xbc, 0x24, 0x89, 0xbc, 0xbd,
  0xa9, 0xac, 0x17, 0xbf, 0xb0, 0xe8, 0x16, 0xbf, 0xc6, 0x11, 0x35, 0xbf,
  0xce, 0x04, 0x67, 0xbf, 0x78, 0xb6, 0xf5, 0xbe, 0x02, 0xb5, 0x71, 0xbe,
  0x34, 0x82, 0x02, 0xbf, 0x2e, 0xc9, 0x3c, 0xbf, 0x05, 0x95, 0x27, 0xbe,
  0x0e, 0x2b, 0x97, 0xbe, 0x36, 0x53, 0x1a, 0xbe, 0xdd, 0x32, 0x04, 0x3b,
  0x53, 0xd6, 0xa0, 0x3c, 0x2c, 0x07, 0xcf, 0x3d, 0xcf, 0xd5, 0x84, 0x3e,
  0xc7, 0x79, 0xa0, 0x3e, 0xbf, 0xb6, 0xef, 0x3d, 0xe3, 0xd4, 0xd5, 0x3e,
  0x48, 0xfc, 0x21, 0xbf, 0x4a, 0xfa, 0x49, 0xbf, 0x49, 0xfe, 0x10, 0x3d,
  0x96, 0xf4, 0xa7, 0x3e, 0x11, 0xc6, 0x1b, 0x3e, 0x0c, 0x3f, 0x70, 0xbb,
  0x0d, 0x47, 0x5a, 0xbd, 0x5f, 0x77, 0x14, 0xbe, 0x54, 0xa6, 0x46, 0xbe,
  0x67, 0xd6, 0x53, 0xbe, 0x39, 0x07, 0x15, 0xbf, 0xcc, 0x1c, 0x7a, 0xbf,
  0x8b, 0x75, 0x63, 0xbf, 0x0d, 0x1d, 0x31, 0xbf, 0x56, 0xc5, 0xbe, 0xbe,
  0x3e, 0x3b, 0xbe, 0xbb, 0x73, 0xfb, 0xe9, 0xbe, 0x71, 0x52, 0xfe, 0xbe,
  0xce, 0xdf, 0xc9, 0xbe, 0x7d, 0x12, 0xc5, 0xbe, 0x4f, 0xd2, 0x63, 0x3c,
  0x57, 0xb3, 0xeb, 0x3d, 0x1b, 0x2d, 0xb4, 0x3e, 0xca, 0x09, 0x98, 0x3e,
  0x54, 0xed, 0x87, 0x3e, 0x02, 0xdf, 0xdd, 0x3e, 0x28, 0x29, 0xf8, 0x3e,
  0x45, 0xb6, 0x35, 0x3f, 0x4e, 0x14, 0xc4, 0xbd, 0x6e, 0x68, 0xda, 0xbe,
  0x92, 0x4f, 0x2d, 0x3e, 0x40, 0xc2, 0x89, 0x3e, 0x70, 0x6c, 0xd7, 0x3c,
  0xc8, 0x3d, 0xfb, 0x3c, 0x59, 0x7d, 0x44, 0x3d, 0xc8, 0x09, 0xc4, 0x3d,
  0x5a, 0x46, 0x45, 0x3e, 0x8d, 0x80, 0x6b, 0x3d, 0x72, 0x70, 0xc2, 0xbe,
  0x09, 0xb5, 0x32, 0xbe, 0x49, 0x2c, 0xe9, 0xbe, 0xa3, 0xcf, 0xab, 0xbe,
  0x72, 0x3b, 0x06, 0xbf, 0x8c, 0x54, 0x2f, 0xbc, 0x6f, 0xfa, 0xf6, 0xbd,
  0x47, 0x37, 0xc6, 0xbe, 0x0b, 0x39, 0xee, 0xbe, 0xb0, 0x90, 0x17, 0xbe,
  0x80, 0xaf, 0x07, 0x3e, 0xba, 0x5a, 0xca, 0x3e, 0xc2, 0x75, 0x9b, 0x3e,
  0x3c, 0x14, 0xb0, 0x3e, 0x96, 0x7e, 0xa7, 0x3e, 0x2f, 0x71, 0xd5, 0x3e,
  0x59, 0x65, 0x0a, 0x3f, 0x46, 0x05, 0xb8, 0x3e, 0x1a, 0x04, 0x74, 0xbe,
  0x81, 0xb1, 0xbd, 0xbd, 0x59, 0x51, 0x7b, 0x3e, 0xd0, 0x92, 0x8a, 0x3e,
  0xdb, 0x9b, 0x9b, 0x3e, 0x25, 0x20, 0x41, 0x3e, 0x72, 0x02, 0x4b, 0x3e,
  0x9a, 0x9e, 0x96, 0x3e, 0x17, 0xa5, 0xcf, 0x3e, 0xf2, 0xdb, 0x78, 0x3e,
  0xf2, 0x32, 0x68, 0xbe, 0xe4, 0x63, 0xd7, 0xbe, 0x3b, 0xbf, 0x50, 0xbe,
  0xd5, 0x55, 0xc7, 0xbe, 0xa7, 0x99, 0xb5, 0xbe, 0x2d, 0xc5, 0x3d, 0xbe,
  0xfa, 0x54, 0x1b, 0xbd, 0x4e, 0x7e, 0xdf, 0xbe, 0xfc, 0xd8, 0xff, 0x3a,
  0x93, 0x03, 0xdc, 0x3e, 0x58, 0x30, 0xb5, 0x3e, 0x72, 0x61, 0x68, 0x3e,
  0xc6, 0x85, 0x95, 0x3e, 0x48, 0x00, 0x8b, 0x3e, 0xe7, 0xc0, 0x56, 0x3e,
  0x74, 0x2a, 0x6c, 0x3e, 0x96, 0xa3, 0xbf, 0x3e, 0xd1, 0x55, 0x81, 0x3e,
  0xb4, 0xe7, 0x75, 0xbe, 0x12, 0x78, 0xa4, 0xbd, 0x04, 0x6f, 0x34, 0x3e,
  0xf3, 0x6d, 0xb8, 0x3e, 0x60, 0xd5, 0xbc, 0x3e, 0x01, 0x9e, 0x6e, 0x3e,
  0x09, 0xb2, 0xc1, 0x3e, 0x82, 0xe2, 0x27, 0x3e, 0x3b, 0xf7, 0xb4, 0x3d,
  0x9e, 0x6e, 0x0d, 0x3e, 0x9a, 0x84, 0x98, 0xbe, 0x17, 0x6a, 0xf4, 0xbe,
  0x9a, 0x35, 0x64, 0xbe, 0x4f, 0x55, 0x28, 0xbf, 0xbc, 0xf0, 0x9a, 0xbe,
  0xd5, 0xc0, 0x9e, 0xbe, 0x8e, 0xf5, 0x6e, 0x3e, 0x5b, 0xe8, 0xed, 0x3e,
  0x54, 0x61, 0x30, 0x3e, 0xe7, 0x17, 0x69, 0x3e, 0x48, 0x80, 0xe8, 0x3d,
  0x15, 0x6b, 0x46, 0x3e, 0xfe, 0x97, 0x88, 0x3e, 0xbd, 0x02, 0x96, 0x3e,
  0xa9, 0x36, 0x95, 0x3e, 0x37, 0x36, 0x36, 0x3e, 0xe7, 0x0c, 0x9c, 0x3e,
  0x7f, 0x87, 0x90, 0x3d, 0x67, 0x76, 0xde, 0xbd, 0x37, 0x2e, 0xb0, 0xbc,
  0x75, 0xf6, 0x9b, 0x3e, 0xa8, 0xb2, 0xf4, 0x3e, 0x17, 0xb5, 0xc2, 0x3e,
  0x46, 0x03, 0x8d, 0x3d, 0xaa, 0x44, 0x59, 0x3e, 0x5b, 0x68, 0xaf, 0xbd,
  0x73, 0x1e, 0xc7, 0xbd, 0x74, 0xcb, 0xcb, 0x3d, 0x87, 0x54, 0x42, 0xbe,
  0xad, 0xa8, 0x50, 0xbf, 0x2a, 0x84, 0x1b, 0xbf, 0x7e, 0x62, 0x02, 0xbe,
  0x73, 0xbb, 0x96, 0xbe, 0x87, 0x4d, 0x6a, 0xbe, 0x01, 0x7a, 0xde, 0xbc,
  0xb0, 0x64, 0x67, 0xbe, 0x16, 0xec, 0x62, 0xbe, 0x72, 0x98, 0xfa, 0xbe,
  0xbd, 0xd6, 0x68, 0xbe, 0x0d, 0xbf, 0xd8, 0xbc, 0xdb, 0x6a, 0x95, 0x3e,
  0xf7, 0x01, 0xb6, 0x3e, 0x23, 0x8b, 0x30, 0x3e, 0xe6, 0xec, 0x88, 0xbc,
  0x74, 0x08, 0x18, 0xbc, 0x6e, 0x6d, 0x70, 0xbc, 0x89, 0x33, 0x2a, 0xbd,
  0x05, 0x63, 0x69, 0x3e, 0xa0, 0x05, 0xfa, 0x3e, 0x67, 0xbe, 0xac, 0x3e,
  0xdc, 0x3d, 0x90, 0x3e, 0x02, 0x84, 0x39, 0x3e, 0xc8, 0xfb, 0xce, 0x3d,
  0x6e, 0x9d, 0x5c, 0x3e, 0x86, 0x04, 0x29, 0x3e, 0x16, 0xfb, 0x8d, 0xbd,
  0xc7, 0x88, 0x5f, 0xbe, 0x4d, 0xce, 0x07, 0xbf, 0xa0, 0xc1, 0x0f, 0xbf,
  0xab, 0xef, 0x13, 0xbf, 0x35, 0x69, 0xe6, 0xbe, 0xb8, 0x84, 0x83, 0xbd,
  0xd1, 0xd1, 0x28, 0x3c, 0x19, 0x47, 0x67, 0xbd, 0x62, 0x7c, 0x2f, 0xbf,
  0x4d, 0x32, 0xe5, 0xbe, 0x3f, 0xa6, 0x9a, 0xbe, 0x92, 0x79, 0xd6, 0xbd,
  0x28, 0x38, 0x89, 0x3d, 0x3d, 0x80, 0x71, 0x3e, 0x3d, 0x4c, 0x07, 0xbc,
  0xa7, 0x9a, 0x5b, 0xbd, 0x60, 0xc1, 0xfc, 0xbd, 0xd4, 0xa5, 0xbf, 0xbd,
  0x12, 0xb9, 0x25, 0x3e, 0x83, 0xb5, 0xce, 0x3e, 0xb4, 0x4f, 0xc4, 0x3e,
  0x4a, 0xfc, 0xa8, 0x3e, 0x60, 0xfb, 0x43, 0x3e, 0xfb, 0x50, 0x1b, 0x3e,
  0x0f, 0x33, 0xd8, 0xbd, 0x8f, 0x3e, 0x45, 0x3d, 0x5f, 0x06, 0x72, 0x3d,
  0xc3, 0x5a, 0xf7, 0xbd, 0xfc, 0xca, 0x8b, 0xbe, 0x57, 0x62, 0x23, 0xbf,
  0x09, 0xac, 0x63, 0xbf, 0x77, 0x2b, 0x02, 0xbf, 0xbb, 0x75, 0xc8, 0xbe,
  0x9c, 0xd9, 0x81, 0xbe, 0xbe, 0x61, 0x6a, 0xbd, 0x6f, 0x71, 0x84, 0xbd,
  0xad, 0x8a, 0xdf, 0xbe, 0x06, 0x34, 0x4c, 0xbe, 0x50, 0x90, 0x9d, 0xbe,
  0x38, 0x66, 0x24, 0xbe, 0x81, 0x01, 0x21, 0xbd, 0xb1, 0x49, 0x73, 0x3d,
  0xf3, 0x0e, 0x58, 0xbb, 0xa0, 0x48, 0x91, 0xbe, 0xe5, 0x60, 0xe9, 0xbd,
  0xbc, 0xf8, 0x2a, 0x3e, 0x4b, 0xf4, 0x79, 0x3e, 0x79, 0xe3, 0x96, 0x3e,
  0xf0, 0xe2, 0x6f, 0x3e, 0x0c, 0x94, 0x52, 0x3e, 0xa5, 0x0a, 0x0e, 0xbe,
  0x4f, 0x10, 0x06, 0xbe, 0x8b, 0x5b, 0x95, 0xbd, 0xbc, 0x8a, 0x37, 0x3d,
  0x40, 0xc4, 0x00, 0xbb, 0xb1, 0xbc, 0xc0, 0xbe, 0x89, 0xe1, 0xb7, 0xbe,
  0x5a, 0xdd, 0x2f, 0xbf, 0xa6, 0x5b, 0x85, 0xbf, 0xb7, 0xb1, 0xf4, 0xbe,
  0xbb, 0xcd, 0x23, 0xbe, 0xe0, 0x4f, 0x5e, 0x3d, 0xfe, 0xf2, 0x6f, 0xbe,
  0xbd, 0x29, 0xd8, 0xbd, 0x71, 0x75, 0x01, 0x3d, 0xe8, 0xf6, 0x0b, 0xbe,
  0xa4, 0x58, 0x1b, 0xbd, 0xd4, 0xf8, 0x13, 0xbe, 0x5d, 0x1c, 0x78, 0xbe,
  0x9e, 0x7c, 0xb5, 0xbe, 0x9f, 0x2b, 0xfb, 0xbe, 0xec, 0x0d, 0x10, 0xbf,
  0x6a, 0x6c, 0x64, 0xbe, 0xc1, 0xf8, 0xb5, 0xbe, 0xca, 0x5a, 0xec, 0xbd,
  0x86, 0xc0, 0x8a, 0x3d, 0xa7, 0xe7, 0xb6, 0x3d, 0x3c, 0x02, 0xa8, 0xbd,
  0x17, 0x77, 0x0e, 0xbe, 0x1a, 0xfa, 0x12, 0xbe, 0x1a, 0x01, 0x7f, 0xbe,
  0x16, 0xf8, 0x80, 0xbe, 0xbe, 0x9a, 0x2c, 0xbe, 0x1e, 0x0b, 0x38, 0xbf,
  0xb4, 0xd8, 0x22, 0xbf, 0x9b, 0xb9, 0x1b, 0xbf, 0xef, 0x99, 0x3b, 0xbf,
  0x1a, 0x4c, 0x7a, 0xbe, 0xcd, 0x6a, 0x0d, 0x3c, 0x68, 0x22, 0xcb, 0x3c,
  0x0b, 0x87, 0x85, 0xbe, 0x66, 0x5d, 0xa4, 0x3d, 0xfb, 0x01, 0xc9, 0xbd,
  0xd1, 0x0c, 0x08, 0xbe, 0x18, 0x07, 0xbc, 0xbe, 0x88, 0x93, 0xa2, 0xbe,
  0x80, 0x7c, 0x12, 0xbf, 0x1c, 0x3b, 0x1d, 0xbf, 0xef, 0xac, 0xd4, 0xbe,
  0x9f, 0x00, 0x14, 0xbf, 0xa6, 0x06, 0x7e, 0xbe, 0xcd, 0x86, 0x91, 0xbe,
  0x51, 0x05, 0xa0, 0xbe, 0x73, 0xed, 0x47, 0xbd, 0xa9, 0x9c, 0x0e, 0x3d,
  0xb2, 0x3d, 0x5e, 0x3d, 0x11, 0x59, 0xb3, 0x3d, 0x1b, 0xe2, 0x1d, 0xbc,
  0x3b, 0xed, 0x6d, 0xbe, 0xc4, 0x2b, 0x9f, 0xbe, 0x8e, 0xec, 0xb9, 0xbd,
  0xbc, 0xad, 0xd3, 0xbe, 0x7e, 0xed, 0x13, 0xbf, 0x1d, 0x38, 0xc8, 0xbe,
  0xba, 0x6c, 0x13, 0xbf, 0x2b, 0xd9, 0x0d, 0xbf, 0x25, 0xda, 0x4a, 0xbe,
  0x5a, 0x71, 0x92, 0xbd, 0x57, 0x6f, 0xc4, 0xbc, 0xc3, 0x78, 0xfd, 0xbd,
  0x39, 0x71, 0xc7, 0xbe, 0xb8, 0x3f, 0xd5, 0xbe, 0x40, 0xe0, 0x9c, 0xbe,
  0xa6, 0xb7, 0x2c, 0xbf, 0x13, 0x2d, 0x3c, 0xbf, 0x06, 0x14, 0xb2, 0xbd,
  0xad, 0x31, 0x3b, 0xbe, 0x75, 0x93, 0x84, 0xbe, 0x67, 0x9d, 0x08, 0xbe,
  0xcc, 0x5e, 0x89, 0xbe, 0xc9, 0x51, 0x87, 0xbe, 0x74, 0x34, 0x58, 0xbe,
  0xb1, 0xb1, 0x1f, 0x3a, 0x06, 0xfa, 0xe4, 0xbd, 0x4c, 0x6c, 0xac, 0xbd,
  0xe0, 0x9d, 0x59, 0xbe, 0xcd, 0x5f, 0x4e, 0xbd, 0xe1, 0x17, 0x04, 0xbc,
  0xa9, 0x3d, 0x1c, 0xbd, 0xa4, 0x1e, 0x9f, 0xbd, 0x61, 0xc7, 0xeb, 0xbd,
  0xcb, 0x7b, 0xa1, 0xbe, 0x91, 0x3b, 0x16, 0xbf, 0x1d, 0x32, 0x88, 0xbe,
  0x09, 0xb3, 0xf0, 0xbb, 0x30, 0xa4, 0x82, 0x3d, 0xda, 0xff, 0x55, 0xbc,
  0x7b, 0x5d, 0x3c, 0xbe, 0x4a, 0x01, 0xe7, 0xbe, 0x8b, 0x44, 0x2c, 0xbf,
  0xba, 0x03, 0x1f, 0xbf, 0x8a, 0x8e, 0xf8, 0xbe, 0xd8, 0xc6, 0xcb, 0xbe,
  0x5a, 0xc1, 0x3d, 0xbe, 0xf0, 0x6c, 0xa4, 0xbe, 0x1d, 0x0c, 0x6a, 0xbe,
  0x1f, 0xf7, 0x38, 0xbe, 0xa3, 0x63, 0x40, 0xbe, 0xb6, 0x75, 0x69, 0xbe,
  0x35, 0xad, 0x89, 0xbe, 0xb4, 0x3c, 0x35, 0xbe, 0xb8, 0x42, 0x0e, 0xbe,
  0xa2, 0xec, 0xdc, 0x3c, 0x8d, 0xa1, 0x07, 0xbd, 0x73, 0xaf, 0xf9, 0x3d,
  0x15, 0x6e, 0x17, 0xbd, 0x0c, 0x1a, 0x29, 0x3e, 0xe8, 0xaf, 0x26, 0x3d,
  0x7d, 0x02, 0xc7, 0xbc, 0x83, 0x8a, 0x43, 0xbe, 0xc7, 0x10, 0xbd, 0xbe,
  0x66, 0x24, 0x3b, 0x3e, 0x3f, 0x65, 0x8a, 0x3c, 0x87, 0x3a, 0xa9, 0x3d,
  0x8a, 0x6d, 0x1d, 0x3d, 0x41, 0x2f, 0x67, 0xbe, 0xda, 0x9c, 0xaf, 0xbe,
  0xa5, 0x77, 0x2d, 0xbf, 0xdf, 0x60, 0x30, 0xbf, 0x73, 0x66, 0x3e, 0xbc,
  0xe9, 0xe2, 0x87, 0xbd, 0x62, 0xb8, 0x9b, 0xbd, 0xf7, 0xf0, 0x9a, 0x3d,
  0x4b, 0x68, 0x9b, 0xbd, 0xc5, 0x55, 0x82, 0xbd, 0xbe, 0x7f, 0x29, 0xbe,
  0x69, 0x0b, 0xe1, 0xbd, 0xe0, 0xbc, 0xcc, 0xbd, 0x68, 0xed, 0x74, 0xbd,
  0xb8, 0xfc, 0x9d, 0x3d, 0xcb, 0x47, 0xde, 0x3c, 0x2f, 0xf3, 0xae, 0x3d,
  0xb4, 0x73, 0xd4, 0x3d, 0x63, 0x9e, 0x9a, 0x3d, 0x0e, 0x05, 0x3f, 0x3e,
  0x2f, 0xdb, 0x98, 0xbe, 0x8c, 0xd6, 0xc8, 0xbe, 0xd9, 0xe1, 0xcf, 0xbe,
  0xbc, 0xdd, 0xb0, 0xbd, 0xa3, 0x30, 0x8a, 0x3e, 0x27, 0xd3, 0x89, 0x3d,
  0x0d, 0x96, 0x87, 0x3d, 0xb4, 0xe6, 0x93, 0xbd, 0xe3, 0x0a, 0x81, 0xbd,
  0x77, 0xb1, 0xaa, 0xbe, 0x68, 0x96, 0x64, 0xbf, 0xd3, 0x37, 0x0f, 0xbe,
  0x2c, 0x51, 0x98, 0x3d, 0xb1, 0x4e, 0xb4, 0xbd, 0x78, 0xb8, 0x82, 0xbd,
  0x54, 0x4a, 0xd9, 0x3a, 0x90, 0xc4, 0xad, 0xbd, 0x2b, 0xec, 0xd3, 0x3d,
  0x08, 0x31, 0x33, 0xbe, 0xb4, 0xb4, 0x4d, 0xbe, 0x9c, 0x5d, 0xe0, 0xbd,
  0x66, 0x57, 0x2e, 0xbe, 0x7b, 0x54, 0x08, 0xbd, 0xff, 0x4a, 0x16, 0xbe,
  0x47, 0xf5, 0x78, 0xbc, 0xf3, 0x97, 0x01, 0x3e, 0x57, 0x6a, 0x11, 0xbd,
  0xf5, 0xf4, 0x9d, 0x3d, 0xad, 0xac, 0x7b, 0xbc, 0xa0, 0x2e, 0x3e, 0x3c,
  0xfc, 0xe4, 0x1e, 0xbf, 0x74, 0x1d, 0x3f, 0x3e, 0xbb, 0x41, 0x93, 0xbe,
  0xd4, 0xbf, 0x06, 0x3d, 0xfa, 0x70, 0x54, 0x3d, 0xf9, 0x7f, 0x1a, 0xbd,
  0x2a, 0xa9, 0x6b, 0xbe, 0xb9, 0xbb, 0x64, 0xbe, 0x62, 0x81, 0xd2, 0xbd,
  0x7a, 0xb3, 0x97, 0xbe, 0x61, 0x6a, 0xce, 0xbe, 0x49, 0xfb, 0x09, 0xbf,
  0xb4, 0x6b, 0x1f, 0xbf, 0x39, 0x3c, 0xd5, 0xbe, 0x16, 0x53, 0x09, 0xbe,
  0xcd, 0xbc, 0xb1, 0xbe, 0x60, 0xd3, 0x19, 0xbf, 0x09, 0x54, 0xa9, 0xbe,
  0x46, 0xf8, 0x8e, 0xbe, 0x15, 0x3e, 0x2e, 0xbe, 0x30, 0x55, 0xf6, 0xbe,
  0x50, 0xae, 0xeb, 0xbe, 0x3c, 0xbe, 0xb7, 0xbe, 0x2d, 0x76, 0x0f, 0xbf,
  0x0b, 0x8e, 0xd7, 0xbe, 0x19, 0xdf, 0x01, 0xbf, 0x30, 0xab, 0x5a, 0xbe,
  0x18, 0xd7, 0x68, 0x3c, 0x06, 0x01, 0xeb, 0xbe, 0x16, 0xad, 0xce, 0xbe,
  0x20, 0xe3, 0x34, 0xbe, 0xae, 0xa9, 0x09, 0x3d, 0x20, 0xd3, 0x14, 0xbc,
  0x49, 0xc5, 0x94, 0xbd, 0xf0, 0x27, 0x65, 0xbc, 0xbd, 0x67, 0x49, 0xbe,
  0x61, 0x13, 0xa8, 0x3c, 0x52, 0xc0, 0x18, 0xbe, 0x7b, 0x2c, 0x94, 0xbe,
  0xbb, 0xbe, 0x87, 0xbf, 0x9d, 0x03, 0x61, 0xbf, 0x3b, 0x2a, 0xa8, 0xbf,
  0x55, 0xfa, 0x5e, 0xbf, 0x54, 0x90, 0x9d, 0xbf, 0x8b, 0x83, 0x85, 0xbf,
  0x62, 0x3f, 0xa5, 0xbf, 0xf6, 0x82, 0xd8, 0xbf, 0xc6, 0x62, 0x97, 0xbf,
  0xd0, 0x5a, 0xb3, 0xbf, 0x2c, 0x17, 0x91, 0xbf, 0x43, 0x6d, 0xb4, 0xbf,
  0x2f, 0x59, 0x95, 0xbf, 0xf5, 0x50, 0x9e, 0xbf, 0xe0, 0x5a, 0x81, 0xbf,
  0x59, 0x6b, 0x5e, 0xbf, 0xeb, 0xc1, 0x56, 0xbe, 0xb6, 0x50, 0x4a, 0xbe,
  0xaa, 0x65, 0x74, 0xbd, 0x08, 0x4d, 0xfa, 0x3c, 0x00, 0x84, 0xdc, 0xb9,
  0x4a, 0x34, 0x9f, 0xbd, 0xf3, 0xdf, 0x92, 0xbd, 0xc2, 0x31, 0x25, 0x3d,
  0x40, 0xde, 0xa3, 0xbb, 0xa1, 0x34, 0xdc, 0xbd, 0xc8, 0x8c, 0x82, 0xbc,
  0xc5, 0xbf, 0x78, 0xbe, 0x63, 0x30, 0xbe, 0xbe, 0xf8, 0xa1, 0xb9, 0xbe,
  0xf6, 0x9f, 0x26, 0xbf, 0x66, 0x2b, 0x06, 0xbf, 0xa5, 0x99, 0x08, 0xbf,
  0xeb, 0xfc, 0x3f, 0xbf, 0x10, 0x16, 0x81, 0xbf, 0xdb, 0x6b, 0x76, 0xbf,
  0xc1, 0x7d, 0xe8, 0xbe, 0x52, 0x40, 0x30, 0xbf, 0x2f, 0x19, 0x58, 0xbf,
  0xe2, 0x5d, 0x36, 0xbf, 0x1c, 0x00, 0xa7, 0xbe, 0x5c, 0x49, 0x0b, 0xbf,
  0x73, 0xfa, 0xe9, 0xbe, 0x5e, 0xb3, 0x05, 0xbf, 0x61, 0x2f, 0xd4, 0xbe,
  0xce, 0xe2, 0xf3, 0xbc, 0x32, 0xc0, 0x73, 0x3d, 0xc8, 0x69, 0xf6, 0x3c,
  0xd0, 0x16, 0x2c, 0x3c, 0xaa, 0x16, 0x60, 0xbd, 0xb8, 0xec, 0x0c, 0x3c,
  0x4f, 0x70, 0xa7, 0x3d, 0xee, 0xeb, 0x90, 0xbd, 0xd0, 0xf6, 0x70, 0x3c,
  0x9a, 0x81, 0x1a, 0x3d, 0x92, 0x5d, 0x4d, 0x3d, 0xa9, 0xce, 0x99, 0xbd,
  0x9a, 0xe1, 0x1b, 0x3d, 0x18, 0x05, 0x19, 0xbd, 0xf1, 0x16, 0xad, 0xbd,
  0x47, 0x75, 0x8c, 0x3d, 0x89, 0xf7, 0x0a, 0xbe, 0xc1, 0x71, 0x76, 0xbe,
  0x13, 0xe2, 0xc6, 0xbd, 0x25, 0x27, 0x0e, 0x3c, 0x1a, 0x2b, 0x2d, 0x3d,
  0xda, 0xdc, 0x30, 0x3d, 0xeb, 0x2d, 0x8d, 0x3d, 0x04, 0x02, 0xcb, 0xbc,
  0x39, 0x4d, 0x83, 0x3d, 0x68, 0x4a, 0x6d, 0xbd, 0xf6, 0xe8, 0x39, 0xbd,
  0x95, 0x0f, 0x56, 0xbd, 0x87, 0x14, 0x35, 0xbd, 0x31, 0x07, 0x84, 0x3d,
  0x52, 0x73, 0x86, 0xbd, 0xe0, 0x37, 0xb6, 0xbc, 0x40, 0x16, 0xaf, 0xbb,
  0x00, 0x92, 0xe3, 0x39, 0xf9, 0x44, 0xb1, 0x3d, 0x70, 0xaf, 0xf1, 0x3b,
  0x7f, 0x88, 0x47, 0x3d, 0xb8, 0x37, 0x70, 0x3d, 0x7d, 0xef, 0xb7, 0xbd,
  0xfe, 0x2c, 0x1f, 0xbe, 0xe8, 0xca, 0xc1, 0xbd, 0xb6, 0x79, 0x58, 0xbe,
  0x73, 0x83, 0x99, 0xbe, 0xd4, 0x6d, 0xae, 0xbe, 0x71, 0x8b, 0xda, 0xbe,
  0xf5, 0x56, 0x11, 0xbf, 0xbe, 0xaf, 0x1e, 0xbf, 0xe9, 0x71, 0x4f, 0xbf,
