/* Copyright 2018 The TensorFlow Authors. All Rights Reserved.

Licensed under the Apache License, Version 2.0 (the "License");
you may not use this file except in compliance with the License.
You may obtain a copy of the License at

    http://www.apache.org/licenses/LICENSE-2.0

Unless required by applicable law or agreed to in writing, software
distributed under the License is distributed on an "AS IS" BASIS,
WITHOUT WARRANTIES OR CONDITIONS OF ANY KIND, either express or implied.
See the License for the specific language governing permissions and
limitations under the License.
==============================================================================*/

// Automatically created from a TensorFlow Lite flatbuffer using the command:
// xxd -i tiny_conv.tflite > tiny_conv_model_data.cc
// See the README for a full description of the creation process.

#include "tensorflow/lite/experimental/micro/examples/micro_speech/tiny_conv_model_data.h"

const unsigned char g_tiny_conv_model_data[] = {
    0x18, 0x00, 0x00, 0x00, 0x54, 0x46, 0x4c, 0x33, 0x00, 0x00, 0x0e, 0x00,
    0x18, 0x00, 0x04, 0x00, 0x08, 0x00, 0x0c, 0x00, 0x10, 0x00, 0x14, 0x00,
    0x0e, 0x00, 0x00, 0x00, 0x03, 0x00, 0x00, 0x00, 0x08, 0x4d, 0x00, 0x00,
    0x0c, 0x00, 0x00, 0x00, 0x10, 0x00, 0x00, 0x00, 0x20, 0x00, 0x00, 0x00,
    0x01, 0x00, 0x00, 0x00, 0xf4, 0x47, 0x00, 0x00, 0x0f, 0x00, 0x00, 0x00,
    0x54, 0x4f, 0x43, 0x4f, 0x20, 0x43, 0x6f, 0x6e, 0x76, 0x65, 0x72, 0x74,
    0x65, 0x64, 0x2e, 0x00, 0x09, 0x00, 0x00, 0x00, 0xd4, 0x47, 0x00, 0x00,
    0xb4, 0x47, 0x00, 0x00, 0xe4, 0x02, 0x00, 0x00, 0xb4, 0x02, 0x00, 0x00,
    0xac, 0x02, 0x00, 0x00, 0x1c, 0x00, 0x00, 0x00, 0x14, 0x00, 0x00, 0x00,
    0x0c, 0x00, 0x00, 0x00, 0x04, 0x00, 0x00, 0x00, 0xb8, 0xb3, 0xff, 0xff,
    0xbc, 0xb3, 0xff, 0xff, 0xc0, 0xb3, 0xff, 0xff, 0x1e, 0xb4, 0xff, 0xff,
    0x04, 0x00, 0x00, 0x00, 0x80, 0x02, 0x00, 0x00, 0x89, 0xa5, 0xe8, 0xc1,
    0xb1, 0x89, 0x5b, 0xc6, 0x4f, 0x9b, 0xd3, 0x74, 0x93, 0x88, 0xff, 0xaf,
    0x89, 0xff, 0xf4, 0x70, 0xcc, 0x75, 0x78, 0xbf, 0x92, 0xcd, 0xa9, 0xa8,
    0xd6, 0x6a, 0x6f, 0x7b, 0x7f, 0xd8, 0xa8, 0xb1, 0xe6, 0x32, 0x21, 0x70,
    0xa0, 0x9c, 0x6f, 0xc8, 0xc6, 0x59, 0x67, 0x93, 0x97, 0xca, 0x3f, 0xde,
    0xcb, 0x74, 0x7c, 0xb5, 0xa4, 0xd9, 0x66, 0xc6, 0x87, 0x98, 0xa5, 0xd0,
    0xbb, 0xb9, 0xc2, 0xb2, 0xaa, 0x79, 0x25, 0xb9, 0x6d, 0x5a, 0xc8, 0x7f,
    0x70, 0x85, 0x79, 0xbc, 0x6a, 0x9b, 0xd1, 0x9a, 0x9c, 0x51, 0x53, 0x71,
    0x89, 0xc0, 0xb4, 0xac, 0xae, 0x47, 0x67, 0x70, 0x79, 0xd2, 0x81, 0xa5,
    0xd2, 0x09, 0x38, 0x82, 0x74, 0xc9, 0x5d, 0xaf, 0xc1, 0x4f, 0x53, 0x99,
    0xcb, 0xb7, 0x3a, 0xba, 0xe8, 0x7f, 0x76, 0xb9, 0xb3, 0xd3, 0x60, 0xc0,
    0x93, 0x9f, 0x87, 0xbd, 0xd0, 0xb8, 0xca, 0xc1, 0xb6, 0x6c, 0x01, 0xc1,
    0x5c, 0x5d, 0xb2, 0x82, 0x76, 0x77, 0x39, 0xbc, 0x72, 0x6a, 0xc3, 0xb4,
    0x79, 0x21, 0x48, 0x42, 0x86, 0xa6, 0xbd, 0xaf, 0xae, 0x23, 0x9c, 0x69,
    0x78, 0xc3, 0x6b, 0xb3, 0xab, 0x43, 0xb2, 0x88, 0x71, 0xc6, 0x6b, 0xbe,
    0xc3, 0x75, 0xc2, 0xc3, 0xa5, 0xcf, 0x32, 0xbe, 0xcb, 0xb0, 0xb8, 0xc1,
    0x9c, 0xcf, 0x64, 0xc4, 0xb4, 0x96, 0xa8, 0xb9, 0xcb, 0xc0, 0xc0, 0xb8,
    0xb8, 0x77, 0x65, 0xc0, 0xc4, 0xb3, 0xc5, 0x77, 0x9b, 0x61, 0xd4, 0xac,
    0x7e, 0x36, 0xb1, 0xae, 0x36, 0x36, 0xb8, 0x39, 0x6b, 0x70, 0x9c, 0xb5,
    0x88, 0x5c, 0xb3, 0x6a, 0xad, 0xc5, 0x7b, 0xb4, 0xad, 0xaa, 0xc4, 0x84,
    0x5e, 0xc4, 0x67, 0xc1, 0xde, 0xba, 0xcf, 0xbd, 0xa0, 0xd3, 0x35, 0xb3,
    0xe7, 0xc8, 0xb8, 0xb8, 0xaf, 0xb4, 0x59, 0xb8, 0xb4, 0xac, 0xac, 0xaa,
    0xc7, 0xad, 0xc8, 0xb6, 0xac, 0x99, 0xa0, 0xcb, 0xc1, 0xc8, 0xcb, 0x89,
    0xc3, 0xac, 0xca, 0x8b, 0x97, 0x1f, 0xbd, 0xbf, 0x13, 0xad, 0xc8, 0x41,
    0x56, 0x3c, 0x86, 0xb2, 0x61, 0xc4, 0xbb, 0x71, 0xba, 0x92, 0x8d, 0xc3,
    0x86, 0xcb, 0xc5, 0x8d, 0x88, 0xc8, 0x6a, 0xbf, 0x9c, 0xcd, 0xcd, 0xc0,
    0x81, 0xb1, 0x47, 0xb5, 0xf0, 0xce, 0xb1, 0xc1, 0xaa, 0xa8, 0x54, 0xcb,
    0xbc, 0xc7, 0xc5, 0x8e, 0xc3, 0xce, 0xc7, 0xb9, 0xb9, 0xa1, 0xc5, 0xbd,
    0xb8, 0xb8, 0xb7, 0x81, 0xb6, 0xba, 0xd2, 0x90, 0xbc, 0x96, 0xbe, 0xba,
    0x53, 0xb5, 0xc7, 0x3c, 0x3c, 0x1f, 0x90, 0xaa, 0x5a, 0xb8, 0xba, 0x7e,
    0xbc, 0x9e, 0xc2, 0xb1, 0x6e, 0xc0, 0xc4, 0x91, 0xf0, 0xb5, 0x60, 0xad,
    0x73, 0xba, 0xcd, 0xba, 0x6e, 0x94, 0x39, 0xb5, 0xe4, 0xbe, 0xb4, 0xb5,
    0xa0, 0xa9, 0x51, 0xac, 0xbc, 0xc2, 0xb3, 0x8a, 0xbd, 0x9a, 0xca, 0xb3,
    0xbf, 0xaf, 0xb5, 0x9a, 0xb9, 0xc3, 0xb6, 0x92, 0xb5, 0xc1, 0xb0, 0x95,
    0xd6, 0xcc, 0xbb, 0xbb, 0xa9, 0xb9, 0xac, 0x4a, 0x62, 0x27, 0xa7, 0xa7,
    0x30, 0xbd, 0xb1, 0x73, 0xa1, 0x74, 0xc2, 0xb7, 0x58, 0xc0, 0xae, 0x8f,
    0xe1, 0xac, 0x4e, 0xb0, 0x55, 0xc9, 0xc8, 0x9f, 0x83, 0x8e, 0x3e, 0xd5,
    0xb5, 0xbe, 0xcd, 0xb2, 0xa6, 0xc8, 0x64, 0xac, 0xc0, 0xc8, 0xaf, 0x99,
    0xc5, 0x9e, 0xb8, 0xbd, 0xa9, 0xc2, 0xb3, 0x81, 0xb4, 0xc2, 0xb4, 0x8f,
    0xbc, 0xb8, 0x9c, 0x88, 0xbe, 0xc6, 0xbf, 0xba, 0xc8, 0xb4, 0xab, 0x5b,
    0x92, 0x51, 0xb1, 0x9a, 0x44, 0xb9, 0xab, 0x80, 0xa5, 0x3e, 0xc0, 0xa5,
    0x5c, 0xb6, 0xa8, 0xa2, 0xb3, 0x9a, 0x6b, 0xb3, 0x34, 0xc6, 0x7e, 0x96,
    0xcb, 0x88, 0x48, 0xc6, 0xa3, 0xbb, 0xd2, 0xa2, 0xaf, 0xd0, 0x6e, 0xae,
    0xb4, 0xce, 0xc8, 0x8f, 0xd7, 0xad, 0xc8, 0xb0, 0xae, 0xb7, 0xb2, 0x70,
    0xb9, 0xad, 0xc1, 0xa0, 0xcb, 0xa2, 0xb0, 0x9b, 0xbe, 0xd3, 0xca, 0xb6,
    0xbd, 0xaf, 0xa9, 0x82, 0xa1, 0xd7, 0xbc, 0x9b, 0x8b, 0xac, 0xaa, 0xac,
    0xad, 0x37, 0xb7, 0xb6, 0x46, 0xae, 0xa9, 0xbd, 0x6b, 0x90, 0x5e, 0xcd,
    0x23, 0xa4, 0x76, 0xa1, 0xc4, 0x96, 0x50, 0xcc, 0x95, 0x99, 0x93, 0xa7,
    0xb2, 0xe1, 0x7c, 0xbd, 0xbd, 0xb5, 0xbf, 0x9a, 0xca, 0x80, 0xd7, 0xae,
    0x79, 0xa8, 0xaa, 0xb2, 0xbc, 0x51, 0xda, 0xa3, 0x80, 0x8b, 0xa2, 0xc8,
    0xd1, 0x94, 0xe1, 0xc4, 0xbd, 0xae, 0xae, 0xcc, 0xb3, 0xca, 0xd5, 0xa1,
    0xd5, 0xa7, 0xaf, 0xd2, 0xb4, 0x8d, 0xcc, 0xc8, 0x63, 0xa3, 0xa4, 0xdf,
    0x6f, 0x7e, 0x98, 0xdf, 0x1b, 0x7b, 0x43, 0x99, 0xb0, 0x99, 0x71, 0xdb,
    0x63, 0x7b, 0x69, 0x9c, 0xba, 0xcd, 0x90, 0xd0, 0xb6, 0xa6, 0x9e, 0x95,
    0x50, 0xb6, 0xff, 0xff, 0xae, 0xb6, 0xff, 0xff, 0x04, 0x00, 0x00, 0x00,
    0x20, 0x00, 0x00, 0x00, 0x00, 0x00, 0x00, 0x00, 0x00, 0x00, 0x00, 0x00,
    0x00, 0x00, 0x00, 0x00, 0xc7, 0x05, 0x00, 0x00, 0x00, 0x00, 0x00, 0x00,
    0x00, 0x00, 0x00, 0x00, 0x00, 0x00, 0x00, 0x00, 0x77, 0x00, 0x00, 0x00,
    0xda, 0xb6, 0xff, 0xff, 0x04, 0x00, 0x00, 0x00, 0xc0, 0x44, 0x00, 0x00,
    0x2c, 0x30, 0x38, 0x5a, 0x3d, 0x4c, 0x44, 0x3b, 0x48, 0x48, 0x44, 0x57,
    0x3f, 0x43, 0x45, 0x3a, 0x24, 0x32, 0x21, 0x5c, 0x3f, 0x3a, 0x38, 0x3a,
    0x35, 0x35, 0x2f, 0x51, 0x3c, 0x3a, 0x45, 0x3a, 0x3b, 0x41, 0x39, 0x55,
    0x3c, 0x41, 0x39, 0x44, 0x3a, 0x40, 0x37, 0x48, 0x33, 0x47, 0x36, 0x3e,
    0x3c, 0x41, 0x3f, 0x3e, 0x3e, 0x47, 0x36, 0x3e, 0x41, 0x33, 0x3e, 0x3b,
    0x3a, 0x46, 0x45, 0x40, 0x48, 0x3a, 0x35, 0x4b, 0x45, 0x4d, 0x3c, 0x49,
    0x42, 0x44, 0x3c, 0x4c, 0x3e, 0x3c, 0x44, 0x32, 0x33, 0x41, 0x36, 0x4b,
    0x38, 0x3b, 0x3c, 0x38, 0x3b, 0x45, 0x34, 0x46, 0x40, 0x4e, 0x44, 0x35,
    0x43, 0x36, 0x3d, 0x40, 0x3e, 0x48, 0x40, 0x34, 0x3a, 0x46, 0x45, 0x43,
    0x45, 0x3f, 0x47, 0x37, 0x36, 0x35, 0x44, 0x3a, 0x3e, 0x37, 0x39, 0x40,
    0x3a, 0x3f, 0x3f, 0x4c, 0x3e, 0x41, 0x43, 0x35, 0x3f, 0x3d, 0x3d, 0x4c,
    0x3c, 0x4a, 0x46, 0x3c, 0x3a, 0x41, 0x40, 0x4e, 0x36, 0x47, 0x40, 0x3b,
    0x47, 0x42, 0x38, 0x4d, 0x48, 0x47, 0x3c, 0x3c, 0x33, 0x3b, 0x3e, 0x42,
    0x3f, 0x3e, 0x3a, 0x3d, 0x32, 0x39, 0x41, 0x46, 0x3a, 0x3a, 0x3e, 0x3e,
    0x47, 0x48, 0x4e, 0x36, 0x44, 0x40, 0x41, 0x45, 0x3a, 0x3c, 0x38, 0x55,
    0x2e, 0x26, 0x2f, 0x32, 0x3f, 0x41, 0x3e, 0x4c, 0x45, 0x36, 0x40, 0x31,
    0x17, 0x2e, 0x14, 0x53, 0x34, 0x30, 0x34, 0x3f, 0x2e, 0x44, 0x2b, 0x4e,
    0x34, 0x3e, 0x34, 0x43, 0x3d, 0x35, 0x3f, 0x46, 0x39, 0x40, 0x38, 0x3e,
    0x35, 0x3b, 0x35, 0x45, 0x3d, 0x40, 0x38, 0x37, 0x40, 0x3e, 0x32, 0x3e,
    0x41, 0x39, 0x30, 0x41, 0x3a, 0x32, 0x3e, 0x3d, 0x39, 0x31, 0x33, 0x3e,
    0x41, 0x47, 0x40, 0x47, 0x35, 0x33, 0x3c, 0x32, 0x40, 0x3c, 0x42, 0x49,
    0x34, 0x38, 0x39, 0x37, 0x39, 0x35, 0x40, 0x4d, 0x37, 0x43, 0x42, 0x3e,
    0x3f, 0x3c, 0x3e, 0x51, 0x36, 0x37, 0x42, 0x41, 0x36, 0x31, 0x43, 0x3d,
    0x46, 0x43, 0x37, 0x46, 0x32, 0x45, 0x42, 0x36, 0x3f, 0x42, 0x42, 0x41,
    0x3d, 0x46, 0x39, 0x41, 0x3c, 0x3f, 0x38, 0x3c, 0x43, 0x43, 0x3d, 0x3c,
    0x3d, 0x41, 0x38, 0x42, 0x3a, 0x3d, 0x43, 0x42, 0x41, 0x40, 0x39, 0x36,
    0x3a, 0x3c, 0x3c, 0x4f, 0x44, 0x36, 0x39, 0x35, 0x46, 0x46, 0x36, 0x4a,
    0x3a, 0x42, 0x43, 0x39, 0x3f, 0x3d, 0x3c, 0x47, 0x38, 0x3f, 0x43, 0x40,
    0x36, 0x3c, 0x45, 0x3b, 0x33, 0x36, 0x3b, 0x39, 0x3c, 0x35, 0x40, 0x38,
    0x40, 0x3e, 0x3f, 0x48, 0x3f, 0x34, 0x40, 0x53, 0x26, 0x2c, 0x29, 0x39,
    0x2a, 0x38, 0x3f, 0x45, 0x32, 0x31, 0x4a, 0x37, 0x1c, 0x28, 0x09, 0x43,
    0x35, 0x3b, 0x33, 0x3c, 0x32, 0x3f, 0x28, 0x41, 0x36, 0x35, 0x3a, 0x37,
    0x41, 0x39, 0x32, 0x3c, 0x40, 0x3c, 0x3c, 0x32, 0x38, 0x39, 0x37, 0x44,
    0x3a, 0x33, 0x41, 0x36, 0x37, 0x3c, 0x35, 0x3a, 0x3d, 0x30, 0x3d, 0x41,
    0x37, 0x3c, 0x45, 0x3a, 0x37, 0x2f, 0x36, 0x3c, 0x3a, 0x3d, 0x39, 0x48,
    0x46, 0x33, 0x3a, 0x3e, 0x40, 0x3d, 0x3b, 0x52, 0x38, 0x45, 0x34, 0x47,
    0x39, 0x36, 0x37, 0x56, 0x42, 0x3f, 0x33, 0x36, 0x38, 0x3f, 0x40, 0x53,
    0x3e, 0x37, 0x3d, 0x3c, 0x48, 0x3a, 0x3d, 0x33, 0x39, 0x40, 0x3e, 0x35,
    0x3d, 0x46, 0x38, 0x36, 0x37, 0x43, 0x3a, 0x3c, 0x40, 0x38, 0x39, 0x3b,
    0x39, 0x3a, 0x42, 0x3d, 0x34, 0x3f, 0x35, 0x43, 0x3a, 0x35, 0x46, 0x3a,
    0x48, 0x38, 0x3b, 0x48, 0x3c, 0x35, 0x42, 0x3d, 0x3a, 0x3d, 0x38, 0x42,
    0x3e, 0x3c, 0x33, 0x39, 0x34, 0x30, 0x42, 0x44, 0x41, 0x3d, 0x3c, 0x39,
    0x3c, 0x3a, 0x39, 0x41, 0x3d, 0x44, 0x3c, 0x40, 0x3f, 0x3e, 0x42, 0x3f,
    0x37, 0x40, 0x39, 0x3b, 0x42, 0x43, 0x49, 0x37, 0x39, 0x46, 0x35, 0x3c,
    0x3e, 0x39, 0x45, 0x52, 0x24, 0x2d, 0x38, 0x35, 0x3a, 0x3a, 0x3c, 0x44,
    0x39, 0x32, 0x51, 0x3f, 0x16, 0x34, 0x0a, 0x49, 0x39, 0x38, 0x39, 0x3e,
    0x2f, 0x36, 0x24, 0x3f, 0x37, 0x34, 0x38, 0x3b, 0x34, 0x34, 0x30, 0x3b,
    0x3d, 0x36, 0x35, 0x42, 0x33, 0x40, 0x37, 0x35, 0x43, 0x3f, 0x3f, 0x39,
    0x3a, 0x43, 0x36, 0x3e, 0x39, 0x3d, 0x3f, 0x3d, 0x47, 0x3b, 0x39, 0x37,
    0x35, 0x42, 0x3f, 0x3b, 0x41, 0x3a, 0x42, 0x4b, 0x3d, 0x3f, 0x3d, 0x3e,
    0x38, 0x3b, 0x34, 0x4e, 0x3f, 0x39, 0x36, 0x43, 0x39, 0x35, 0x41, 0x4d,
    0x3c, 0x39, 0x43, 0x33, 0x37, 0x3b, 0x41, 0x48, 0x3c, 0x3f, 0x39, 0x32,
    0x35, 0x3d, 0x42, 0x35, 0x3d, 0x3e, 0x37, 0x3b, 0x38, 0x3a, 0x44, 0x36,
    0x42, 0x35, 0x48, 0x40, 0x3a, 0x44, 0x44, 0x39, 0x43, 0x41, 0x3c, 0x37,
    0x47, 0x3b, 0x42, 0x42, 0x45, 0x3a, 0x40, 0x46, 0x35, 0x3f, 0x3a, 0x48,
    0x35, 0x44, 0x3f, 0x37, 0x33, 0x3e, 0x45, 0x49, 0x39, 0x43, 0x47, 0x37,
    0x3f, 0x3f, 0x3b, 0x44, 0x38, 0x3d, 0x39, 0x42, 0x37, 0x3e, 0x40, 0x45,
    0x3b, 0x3f, 0x40, 0x34, 0x42, 0x3f, 0x43, 0x3c, 0x43, 0x41, 0x38, 0x38,
    0x38, 0x41, 0x55, 0x33, 0x33, 0x39, 0x39, 0x3c, 0x35, 0x39, 0x38, 0x42,
    0x27, 0x26, 0x32, 0x41, 0x41, 0x32, 0x3f, 0x47, 0x3a, 0x38, 0x48, 0x37,
    0x11, 0x27, 0x08, 0x49, 0x35, 0x42, 0x3c, 0x2e, 0x34, 0x43, 0x25, 0x3b,
    0x3a, 0x33, 0x37, 0x30, 0x3c, 0x36, 0x2d, 0x3c, 0x3b, 0x39, 0x3b, 0x40,
    0x46, 0x3a, 0x30, 0x42, 0x35, 0x32, 0x36, 0x3a, 0x3a, 0x34, 0x34, 0x33,
    0x3d, 0x30, 0x3b, 0x42, 0x41, 0x3f, 0x3d, 0x3b, 0x44, 0x3d, 0x41, 0x41,
    0x3d, 0x3f, 0x40, 0x51, 0x42, 0x42, 0x36, 0x45, 0x30, 0x40, 0x32, 0x4f,
    0x3a, 0x3c, 0x40, 0x39, 0x3d, 0x3b, 0x3e, 0x4b, 0x3d, 0x37, 0x42, 0x46,
    0x40, 0x40, 0x47, 0x3d, 0x35, 0x3c, 0x3f, 0x46, 0x37, 0x37, 0x3a, 0x2e,
    0x3d, 0x3c, 0x3a, 0x46, 0x3a, 0x44, 0x3c, 0x3a, 0x32, 0x44, 0x31, 0x41,
    0x43, 0x36, 0x49, 0x39, 0x3d, 0x37, 0x3f, 0x41, 0x3b, 0x3b, 0x3c, 0x42,
    0x3c, 0x34, 0x3f, 0x3b, 0x40, 0x3e, 0x48, 0x47, 0x3e, 0x3c, 0x38, 0x39,
    0x3f, 0x35, 0x39, 0x3f, 0x3e, 0x3e, 0x3b, 0x43, 0x41, 0x40, 0x43, 0x41,
    0x3f, 0x37, 0x39, 0x41, 0x46, 0x32, 0x3d, 0x41, 0x36, 0x3f, 0x3e, 0x3f,
    0x36, 0x48, 0x43, 0x3d, 0x43, 0x3f, 0x34, 0x3d, 0x34, 0x35, 0x4f, 0x32,
    0x3c, 0x3f, 0x3d, 0x3f, 0x39, 0x3c, 0x3d, 0x47, 0x23, 0x36, 0x33, 0x45,
    0x37, 0x2e, 0x42, 0x42, 0x39, 0x34, 0x4f, 0x3f, 0x19, 0x2b, 0x01, 0x50,
    0x35, 0x3f, 0x37, 0x3c, 0x33, 0x35, 0x25, 0x32, 0x38, 0x3e, 0x40, 0x40,
    0x2f, 0x38, 0x35, 0x3d, 0x31, 0x42, 0x44, 0x3c, 0x3a, 0x3d, 0x2d, 0x3e,
    0x3b, 0x3e, 0x3d, 0x31, 0x3b, 0x37, 0x35, 0x31, 0x36, 0x35, 0x34, 0x31,
    0x41, 0x3a, 0x33, 0x32, 0x3c, 0x31, 0x3e, 0x3d, 0x40, 0x3b, 0x34, 0x45,
    0x36, 0x39, 0x3e, 0x3f, 0x3c, 0x45, 0x37, 0x4b, 0x42, 0x3d, 0x33, 0x43,
    0x3e, 0x40, 0x35, 0x4e, 0x38, 0x36, 0x3a, 0x33, 0x38, 0x44, 0x3f, 0x3c,
    0x3f, 0x40, 0x3a, 0x3c, 0x3c, 0x3c, 0x44, 0x29, 0x3a, 0x40, 0x35, 0x3a,
    0x3d, 0x48, 0x3b, 0x30, 0x45, 0x41, 0x45, 0x40, 0x37, 0x32, 0x3a, 0x35,
    0x3f, 0x38, 0x3b, 0x43, 0x3b, 0x3f, 0x33, 0x40, 0x3b, 0x40, 0x38, 0x33,
    0x39, 0x3c, 0x3c, 0x3f, 0x43, 0x33, 0x43, 0x40, 0x43, 0x3d, 0x33, 0x42,
    0x40, 0x32, 0x3e, 0x36, 0x40, 0x38, 0x43, 0x40, 0x44, 0x38, 0x34, 0x3c,
    0x3e, 0x39, 0x47, 0x43, 0x40, 0x3b, 0x3f, 0x3f, 0x3c, 0x3b, 0x4b, 0x33,
    0x36, 0x49, 0x32, 0x41, 0x48, 0x45, 0x57, 0x3a, 0x40, 0x42, 0x40, 0x46,
    0x36, 0x35, 0x3c, 0x46, 0x22, 0x2e, 0x33, 0x3e, 0x3c, 0x39, 0x44, 0x4d,
    0x3f, 0x41, 0x51, 0x44, 0x15, 0x2e, 0x02, 0x4e, 0x39, 0x3a, 0x3c, 0x35,
    0x30, 0x38, 0x1e, 0x31, 0x40, 0x3b, 0x39, 0x3d, 0x3a, 0x37, 0x35, 0x36,
    0x46, 0x36, 0x3c, 0x3e, 0x39, 0x3e, 0x32, 0x40, 0x3b, 0x35, 0x42, 0x41,
    0x41, 0x38, 0x41, 0x35, 0x42, 0x36, 0x3c, 0x42, 0x3d, 0x41, 0x35, 0x31,
    0x3f, 0x44, 0x3e, 0x41, 0x3f, 0x35, 0x42, 0x4b, 0x3e, 0x36, 0x37, 0x34,
    0x36, 0x3d, 0x40, 0x49, 0x41, 0x3e, 0x3d, 0x3b, 0x38, 0x37, 0x40, 0x47,
    0x35, 0x32, 0x43, 0x38, 0x36, 0x3b, 0x33, 0x47, 0x33, 0x34, 0x3d, 0x47,
    0x3c, 0x37, 0x3d, 0x2b, 0x3a, 0x36, 0x3b, 0x3d, 0x43, 0x38, 0x35, 0x32,
    0x32, 0x37, 0x43, 0x36, 0x3f, 0x48, 0x38, 0x30, 0x3a, 0x3c, 0x42, 0x34,
    0x37, 0x3c, 0x37, 0x40, 0x48, 0x3e, 0x35, 0x3b, 0x3f, 0x38, 0x39, 0x3e,
    0x37, 0x35, 0x36, 0x3d, 0x3b, 0x3c, 0x40, 0x3d, 0x34, 0x40, 0x46, 0x42,
    0x3f, 0x3c, 0x3c, 0x3e, 0x40, 0x40, 0x3d, 0x3f, 0x3f, 0x44, 0x46, 0x41,
    0x32, 0x43, 0x40, 0x41, 0x3c, 0x42, 0x39, 0x38, 0x48, 0x44, 0x3d, 0x38,
    0x34, 0x40, 0x4e, 0x31, 0x3c, 0x42, 0x39, 0x48, 0x3c, 0x33, 0x3e, 0x40,
    0x20, 0x27, 0x39, 0x45, 0x45, 0x36, 0x47, 0x4c, 0x35, 0x3e, 0x4a, 0x36,
    0x16, 0x2f, 0x04, 0x4f, 0x3a, 0x35, 0x36, 0x3a, 0x2d, 0x36, 0x21, 0x34,
    0x3b, 0x32, 0x3d, 0x3c, 0x3c, 0x3f, 0x3b, 0x3b, 0x41, 0x46, 0x40, 0x3d,
    0x3b, 0x44, 0x33, 0x42, 0x34, 0x33, 0x3e, 0x45, 0x3f, 0x46, 0x39, 0x33,
    0x3b, 0x37, 0x37, 0x37, 0x42, 0x47, 0x3c, 0x35, 0x31, 0x41, 0x44, 0x3a,
    0x3b, 0x33, 0x39, 0x44, 0x42, 0x33, 0x3d, 0x3f, 0x43, 0x33, 0x41, 0x4a,
    0x35, 0x46, 0x36, 0x3e, 0x39, 0x41, 0x41, 0x4c, 0x34, 0x3d, 0x38, 0x33,
    0x3c, 0x3f, 0x43, 0x44, 0x37, 0x35, 0x35, 0x3c, 0x43, 0x34, 0x3e, 0x2d,
    0x3f, 0x35, 0x38, 0x3c, 0x33, 0x35, 0x43, 0x2a, 0x40, 0x33, 0x34, 0x40,
    0x3d, 0x38, 0x36, 0x2d, 0x36, 0x3c, 0x43, 0x3d, 0x37, 0x3d, 0x39, 0x38,
    0x3b, 0x3e, 0x3c, 0x46, 0x35, 0x35, 0x43, 0x44, 0x39, 0x40, 0x34, 0x39,
    0x3d, 0x34, 0x40, 0x45, 0x38, 0x35, 0x3e, 0x39, 0x3c, 0x44, 0x48, 0x44,
    0x41, 0x3e, 0x3c, 0x45, 0x3a, 0x3c, 0x3c, 0x46, 0x3a, 0x40, 0x39, 0x43,
    0x35, 0x35, 0x3e, 0x45, 0x3a, 0x34, 0x3c, 0x39, 0x46, 0x3a, 0x4f, 0x35,
    0x32, 0x3d, 0x36, 0x41, 0x32, 0x38, 0x3f, 0x45, 0x2d, 0x34, 0x2a, 0x35,
    0x43, 0x3f, 0x41, 0x49, 0x41, 0x3c, 0x4b, 0x3f, 0x17, 0x31, 0x02, 0x4f,
    0x30, 0x38, 0x39, 0x40, 0x33, 0x3a, 0x25, 0x38, 0x35, 0x3c, 0x39, 0x35,
    0x34, 0x41, 0x34, 0x43, 0x40, 0x40, 0x46, 0x3d, 0x40, 0x38, 0x3f, 0x3b,
    0x35, 0x39, 0x3c, 0x39, 0x34, 0x38, 0x3f, 0x36, 0x3a, 0x38, 0x44, 0x3f,
    0x3f, 0x38, 0x3c, 0x33, 0x41, 0x42, 0x38, 0x33, 0x3c, 0x3b, 0x3c, 0x46,
    0x38, 0x3b, 0x3f, 0x33, 0x3f, 0x48, 0x3b, 0x49, 0x3f, 0x3a, 0x3d, 0x3f,
    0x47, 0x3d, 0x30, 0x45, 0x36, 0x42, 0x3d, 0x36, 0x43, 0x38, 0x3b, 0x3d,
    0x3c, 0x30, 0x3b, 0x43, 0x3d, 0x41, 0x34, 0x2e, 0x43, 0x3d, 0x43, 0x46,
    0x43, 0x3c, 0x3c, 0x2e, 0x3c, 0x43, 0x34, 0x43, 0x3e, 0x43, 0x3f, 0x2b,
    0x45, 0x40, 0x3a, 0x43, 0x36, 0x39, 0x3f, 0x3d, 0x3a, 0x3c, 0x35, 0x3b,
    0x36, 0x3f, 0x45, 0x3e, 0x45, 0x40, 0x3f, 0x36, 0x45, 0x42, 0x35, 0x3e,
    0x3a, 0x3a, 0x3f, 0x40, 0x3e, 0x3c, 0x39, 0x46, 0x43, 0x3e, 0x3f, 0x3f,
    0x40, 0x3c, 0x40, 0x4b, 0x41, 0x35, 0x3b, 0x3e, 0x49, 0x32, 0x3e, 0x41,
    0x31, 0x37, 0x3d, 0x3b, 0x3f, 0x45, 0x50, 0x3a, 0x3f, 0x3c, 0x44, 0x36,
    0x43, 0x37, 0x3d, 0x4b, 0x29, 0x39, 0x2f, 0x38, 0x45, 0x36, 0x40, 0x4e,
    0x39, 0x3f, 0x48, 0x43, 0x23, 0x3c, 0x06, 0x51, 0x37, 0x3b, 0x3e, 0x3b,
    0x28, 0x45, 0x2b, 0x37, 0x3f, 0x33, 0x3f, 0x41, 0x31, 0x36, 0x33, 0x3a,
    0x3a, 0x35, 0x3b, 0x33, 0x3e, 0x36, 0x35, 0x40, 0x3a, 0x34, 0x3a, 0x38,
    0x34, 0x3a, 0x3a, 0x34, 0x42, 0x45, 0x40, 0x3e, 0x40, 0x38, 0x39, 0x34,
    0x38, 0x37, 0x3f, 0x3e, 0x3c, 0x32, 0x3f, 0x46, 0x3f, 0x44, 0x3b, 0x3e,
    0x44, 0x45, 0x36, 0x3e, 0x36, 0x3f, 0x3b, 0x40, 0x39, 0x34, 0x38, 0x41,
    0x42, 0x3e, 0x3d, 0x47, 0x3e, 0x45, 0x33, 0x40, 0x3e, 0x3a, 0x44, 0x3d,
    0x3c, 0x3a, 0x3a, 0x2c, 0x3a, 0x3d, 0x35, 0x45, 0x3c, 0x41, 0x36, 0x30,
    0x32, 0x32, 0x3a, 0x3b, 0x35, 0x3c, 0x43, 0x2d, 0x35, 0x3f, 0x41, 0x37,
    0x3f, 0x46, 0x34, 0x39, 0x3c, 0x43, 0x40, 0x3e, 0x3e, 0x36, 0x3e, 0x3c,
    0x37, 0x3a, 0x3d, 0x3a, 0x3c, 0x38, 0x44, 0x41, 0x3f, 0x3b, 0x3c, 0x47,
    0x40, 0x3b, 0x41, 0x47, 0x3e, 0x45, 0x39, 0x3e, 0x37, 0x45, 0x4b, 0x4c,
    0x37, 0x37, 0x37, 0x3c, 0x3c, 0x3d, 0x40, 0x38, 0x39, 0x3e, 0x43, 0x3f,
    0x38, 0x45, 0x51, 0x3c, 0x31, 0x34, 0x3b, 0x48, 0x46, 0x41, 0x40, 0x40,
    0x2c, 0x39, 0x32, 0x42, 0x3c, 0x2e, 0x49, 0x4d, 0x3c, 0x3f, 0x45, 0x38,
    0x20, 0x38, 0x03, 0x55, 0x33, 0x3e, 0x32, 0x39, 0x32, 0x3b, 0x24, 0x2b,
    0x42, 0x35, 0x45, 0x32, 0x2e, 0x3b, 0x2f, 0x3f, 0x3c, 0x37, 0x39, 0x3b,
    0x34, 0x34, 0x3d, 0x36, 0x3d, 0x39, 0x3b, 0x30, 0x3c, 0x3e, 0x40, 0x32,
    0x3d, 0x3c, 0x3c, 0x3e, 0x33, 0x33, 0x3f, 0x3a, 0x33, 0x3e, 0x46, 0x36,
    0x3a, 0x3d, 0x40, 0x40, 0x3f, 0x41, 0x3a, 0x42, 0x34, 0x32, 0x34, 0x46,
    0x3b, 0x31, 0x40, 0x37, 0x37, 0x32, 0x3e, 0x47, 0x3f, 0x3b, 0x3e, 0x43,
    0x49, 0x45, 0x3a, 0x3d, 0x3e, 0x44, 0x40, 0x31, 0x39, 0x3e, 0x3b, 0x2d,
    0x3b, 0x3a, 0x33, 0x3d, 0x39, 0x37, 0x3e, 0x32, 0x41, 0x3c, 0x3a, 0x37,
    0x3b, 0x40, 0x39, 0x2f, 0x3e, 0x3f, 0x47, 0x32, 0x3e, 0x3b, 0x3e, 0x3e,
    0x40, 0x3e, 0x40, 0x3c, 0x41, 0x39, 0x38, 0x46, 0x45, 0x32, 0x47, 0x31,
    0x36, 0x47, 0x37, 0x49, 0x3a, 0x3f, 0x47, 0x3a, 0x41, 0x3b, 0x3c, 0x4f,
    0x3e, 0x36, 0x3b, 0x47, 0x35, 0x39, 0x41, 0x4e, 0x3d, 0x3e, 0x3b, 0x46,
    0x38, 0x39, 0x3b, 0x45, 0x3e, 0x3f, 0x44, 0x42, 0x44, 0x3f, 0x55, 0x3b,
    0x41, 0x3d, 0x43, 0x43, 0x37, 0x3f, 0x3d, 0x4c, 0x28, 0x3d, 0x36, 0x3c,
    0x3e, 0x3e, 0x48, 0x50, 0x3e, 0x39, 0x45, 0x41, 0x22, 0x37, 0x07, 0x4f,
    0x2e, 0x33, 0x38, 0x3f, 0x31, 0x3a, 0x1b, 0x36, 0x34, 0x38, 0x3c, 0x37,
    0x37, 0x3e, 0x36, 0x35, 0x36, 0x3b, 0x3d, 0x38, 0x42, 0x48, 0x3d, 0x40,
    0x40, 0x44, 0x3d, 0x39, 0x37, 0x3b, 0x3d, 0x33, 0x3d, 0x35, 0x42, 0x3c,
    0x39, 0x3e, 0x43, 0x2d, 0x3c, 0x40, 0x43, 0x43, 0x45, 0x35, 0x3c, 0x44,
    0x34, 0x3c, 0x3d, 0x31, 0x39, 0x40, 0x39, 0x3d, 0x3e, 0x34, 0x3e, 0x3b,
    0x40, 0x38, 0x42, 0x4a, 0x40, 0x3b, 0x35, 0x3d, 0x36, 0x38, 0x35, 0x42,
    0x3c, 0x3c, 0x3d, 0x3b, 0x38, 0x39, 0x45, 0x28, 0x3a, 0x37, 0x37, 0x35,
    0x3a, 0x3d, 0x35, 0x2a, 0x3c, 0x3f, 0x37, 0x34, 0x37, 0x3f, 0x3e, 0x2b,
    0x39, 0x43, 0x3b, 0x45, 0x35, 0x36, 0x36, 0x42, 0x33, 0x38, 0x3b, 0x35,
    0x31, 0x3f, 0x41, 0x41, 0x3c, 0x41, 0x45, 0x42, 0x3b, 0x3c, 0x39, 0x46,
    0x3c, 0x3e, 0x3a, 0x41, 0x39, 0x3d, 0x41, 0x4b, 0x40, 0x3f, 0x43, 0x3d,
    0x39, 0x39, 0x44, 0x44, 0x37, 0x42, 0x3f, 0x44, 0x3e, 0x37, 0x42, 0x35,
    0x44, 0x3f, 0x40, 0x42, 0x3f, 0x3a, 0x47, 0x3d, 0x38, 0x3a, 0x3b, 0x3a,
    0x42, 0x36, 0x3a, 0x97, 0x32, 0x31, 0x30, 0x36, 0x47, 0x3e, 0x46, 0x51,
    0x42, 0x34, 0x50, 0x34, 0x26, 0x3b, 0x06, 0x55, 0x3c, 0x3b, 0x2d, 0x3a,
    0x37, 0x37, 0x1b, 0x32, 0x39, 0x3d, 0x36, 0x40, 0x3b, 0x3f, 0x33, 0x33,
    0x3d, 0x37, 0x35, 0x37, 0x44, 0x3f, 0x35, 0x39, 0x33, 0x3c, 0x43, 0x39,
    0x3f, 0x42, 0x3e, 0x34, 0x38, 0x38, 0x39, 0x3c, 0x48, 0x3c, 0x2f, 0x30,
    0x40, 0x3c, 0x41, 0x3e, 0x3f, 0x3e, 0x36, 0x43, 0x40, 0x3c, 0x36, 0x43,
    0x43, 0x38, 0x3a, 0x47, 0x3e, 0x37, 0x39, 0x3a, 0x43, 0x45, 0x38, 0x43,
    0x3b, 0x45, 0x37, 0x44, 0x36, 0x45, 0x3a, 0x3e, 0x3e, 0x3e, 0x3d, 0x33,
    0x39, 0x36, 0x48, 0x33, 0x30, 0x42, 0x33, 0x39, 0x37, 0x3a, 0x3f, 0x34,
    0x34, 0x40, 0x40, 0x40, 0x3f, 0x3d, 0x3f, 0x33, 0x41, 0x40, 0x3b, 0x43,
    0x3b, 0x3a, 0x40, 0x3a, 0x38, 0x3e, 0x38, 0x3b, 0x38, 0x42, 0x40, 0x40,
    0x41, 0x35, 0x37, 0x38, 0x3b, 0x3c, 0x39, 0x4b, 0x32, 0x39, 0x42, 0x3c,
    0x36, 0x3d, 0x32, 0x52, 0x3a, 0x31, 0x40, 0x40, 0x3a, 0x43, 0x3d, 0x46,
    0x3c, 0x3e, 0x3e, 0x33, 0x3f, 0x41, 0x4d, 0x37, 0x39, 0x39, 0x3e, 0x3b,
    0x40, 0x39, 0x53, 0x2d, 0x46, 0x3c, 0x32, 0x42, 0x3d, 0x40, 0x40, 0x4d,
    0x2e, 0x34, 0x39, 0x3b, 0x46, 0x3b, 0x42, 0x4f, 0x3d, 0x39, 0x4e, 0x36,
    0x1a, 0x31, 0x0e, 0x56, 0x36, 0x42, 0x38, 0x44, 0x36, 0x3a, 0x20, 0x30,
    0x36, 0x34, 0x37, 0x38, 0x40, 0x41, 0x2a, 0x35, 0x3b, 0x3b, 0x3a, 0x38,
    0x33, 0x39, 0x36, 0x41, 0x43, 0x39, 0x35, 0x3d, 0x37, 0x3d, 0x33, 0x31,
    0x45, 0x33, 0x3f, 0x3b, 0x44, 0x38, 0x39, 0x34, 0x38, 0x39, 0x38, 0x3d,
    0x3a, 0x3a, 0x41, 0x40, 0x44, 0x3e, 0x3f, 0x45, 0x34, 0x31, 0x34, 0x43,
    0x3b, 0x34, 0x42, 0x3c, 0x3c, 0x43, 0x35, 0x45, 0x36, 0x38, 0x3d, 0x3c,
    0x3f, 0x3d, 0x3e, 0x45, 0x41, 0x43, 0x35, 0x3f, 0x40, 0x3f, 0x3a, 0x34,
    0x3d, 0x32, 0x41, 0x3d, 0x48, 0x42, 0x37, 0x2a, 0x3c, 0x3a, 0x3e, 0x49,
    0x38, 0x36, 0x38, 0x2e, 0x36, 0x37, 0x34, 0x3e, 0x3c, 0x43, 0x43, 0x39,
    0x39, 0x3b, 0x44, 0x46, 0x44, 0x43, 0x37, 0x46, 0x43, 0x34, 0x3b, 0x35,
    0x42, 0x41, 0x3f, 0x3d, 0x3d, 0x3a, 0x42, 0x3e, 0x38, 0x47, 0x3d, 0x49,
    0x45, 0x49, 0x3a, 0x3c, 0x3e, 0x37, 0x40, 0x46, 0x41, 0x33, 0x45, 0x36,
    0x37, 0x44, 0x49, 0x3b, 0x44, 0x40, 0x33, 0x46, 0x37, 0x39, 0x4e, 0x3a,
    0x43, 0x38, 0x3a, 0x42, 0x3a, 0x3d, 0x45, 0x50, 0x26, 0x34, 0x3b, 0x3c,
    0x46, 0x46, 0x4c, 0x54, 0x3f, 0x35, 0x4e, 0x47, 0x21, 0x39, 0x0e, 0x54,
    0x3a, 0x3a, 0x2f, 0x40, 0x2d, 0x3a, 0x1f, 0x31, 0x31, 0x42, 0x34, 0x45,
    0x37, 0x36, 0x30, 0x3b, 0x3a, 0x3a, 0x36, 0x40, 0x32, 0x36, 0x3c, 0x3c,
    0x37, 0x42, 0x35, 0x3e, 0x39, 0x47, 0x36, 0x32, 0x41, 0x30, 0x42, 0x39,
    0x39, 0x44, 0x37, 0x30, 0x41, 0x3b, 0x3d, 0x3d, 0x43, 0x3b, 0x38, 0x45,
    0x3b, 0x3a, 0x39, 0x3a, 0x31, 0x33, 0x43, 0x46, 0x3f, 0x41, 0x44, 0x3f,
    0x3b, 0x44, 0x3a, 0x4c, 0x33, 0x33, 0x33, 0x3e, 0x37, 0x3e, 0x45, 0x45,
    0x36, 0x42, 0x3e, 0x43, 0x40, 0x34, 0x36, 0x31, 0x38, 0x34, 0x41, 0x3b,
    0x32, 0x38, 0x3e, 0x29, 0x47, 0x33, 0x37, 0x45, 0x3c, 0x3d, 0x43, 0x2c,
    0x36, 0x3a, 0x3c, 0x40, 0x3d, 0x46, 0x3c, 0x37, 0x40, 0x44, 0x37, 0x38,
    0x3e, 0x41, 0x3c, 0x40, 0x33, 0x3f, 0x44, 0x32, 0x44, 0x3a, 0x43, 0x42,
    0x3e, 0x38, 0x44, 0x3b, 0x41, 0x48, 0x3f, 0x4e, 0x3f, 0x44, 0x35, 0x45,
    0x34, 0x3f, 0x42, 0x4b, 0x37, 0x37, 0x3e, 0x45, 0x46, 0x45, 0x46, 0x3d,
    0x3e, 0x39, 0x3b, 0x3a, 0x46, 0x3a, 0x56, 0x35, 0x46, 0x3d, 0x40, 0x3b,
    0x36, 0x39, 0x3f, 0x54, 0x27, 0x2b, 0x34, 0x3c, 0x48, 0x3d, 0x49, 0x4c,
    0x3e, 0x3d, 0x4e, 0x42, 0x25, 0x3b, 0x10, 0x4d, 0x30, 0x36, 0x3e, 0x36,
    0x2e, 0x31, 0x1d, 0x37, 0x3a, 0x39, 0x33, 0x3f, 0x39, 0x38, 0x2e, 0x36,
    0x44, 0x3e, 0x41, 0x37, 0x3b, 0x30, 0x3b, 0x48, 0x31, 0x39, 0x41, 0x3e,
    0x37, 0x37, 0x34, 0x2f, 0x35, 0x3b, 0x3a, 0x3e, 0x45, 0x3e, 0x3f, 0x35,
    0x39, 0x39, 0x3b, 0x44, 0x43, 0x3c, 0x3e, 0x46, 0x40, 0x3a, 0x36, 0x45,
    0x41, 0x40, 0x36, 0x44, 0x3a, 0x37, 0x47, 0x47, 0x3d, 0x36, 0x43, 0x4e,
    0x3b, 0x38, 0x40, 0x48, 0x44, 0x43, 0x45, 0x3f, 0x43, 0x3c, 0x3b, 0x37,
    0x43, 0x41, 0x39, 0x2f, 0x3d, 0x45, 0x3e, 0x3e, 0x42, 0x40, 0x41, 0x2f,
    0x47, 0x38, 0x3a, 0x48, 0x3e, 0x35, 0x37, 0x2a, 0x34, 0x38, 0x41, 0x3b,
    0x3d, 0x37, 0x3b, 0x35, 0x38, 0x3e, 0x41, 0x3c, 0x41, 0x43, 0x3d, 0x46,
    0x47, 0x47, 0x3d, 0x35, 0x48, 0x41, 0x3d, 0x3e, 0x34, 0x47, 0x38, 0x38,
    0x39, 0x3e, 0x38, 0x4d, 0x43, 0x36, 0x42, 0x40, 0x3e, 0x41, 0x3f, 0x4c,
    0x3e, 0x3e, 0x37, 0x44, 0x3e, 0x3b, 0x47, 0x3e, 0x3f, 0x3b, 0x39, 0x3c,
    0x3c, 0x3c, 0x53, 0x3b, 0x3b, 0x32, 0x3e, 0x3f, 0x32, 0x3c, 0x37, 0x4b,
    0x33, 0x30, 0x2f, 0x41, 0x47, 0x42, 0x49, 0x4f, 0x3b, 0x42, 0x4c, 0x44,
    0x1f, 0x37, 0x16, 0x4e, 0x3b, 0x3f, 0x30, 0x36, 0x35, 0x38, 0x26, 0x36,
    0x32, 0x3b, 0x38, 0x3c, 0x30, 0x3e, 0x34, 0x3e, 0x3d, 0x34, 0x39, 0x3c,
    0x36, 0x47, 0x34, 0x41, 0x31, 0x39, 0x44, 0x3e, 0x39, 0x41, 0x32, 0x36,
    0x3b, 0x3f, 0x32, 0x3d, 0x36, 0x3e, 0x40, 0x3d, 0x45, 0x32, 0x45, 0x42,
    0x38, 0x43, 0x40, 0x42, 0x34, 0x3a, 0x43, 0x38, 0x47, 0x3f, 0x41, 0x47,
    0x34, 0x44, 0x41, 0x39, 0x3c, 0x46, 0x36, 0x4f, 0x41, 0x3e, 0x38, 0x38,
    0x3a, 0x3b, 0x43, 0x44, 0x37, 0x3f, 0x35, 0x43, 0x34, 0x3d, 0x40, 0x32,
    0x3a, 0x3b, 0x3d, 0x34, 0x35, 0x43, 0x31, 0x2c, 0x3b, 0x36, 0x38, 0x41,
    0x3c, 0x38, 0x3d, 0x31, 0x45, 0x46, 0x42, 0x41, 0x33, 0x3f, 0x3f, 0x3a,
    0x36, 0x3f, 0x3c, 0x3c, 0x3c, 0x3e, 0x39, 0x3e, 0x40, 0x37, 0x47, 0x3e,
    0x35, 0x39, 0x3d, 0x3d, 0x37, 0x36, 0x3e, 0x45, 0x38, 0x3d, 0x45, 0x43,
    0x3a, 0x32, 0x3b, 0x3a, 0x32, 0x3c, 0x3d, 0x43, 0x3d, 0x33, 0x3b, 0x3d,
    0x46, 0x3a, 0x44, 0x45, 0x3b, 0x3e, 0x3c, 0x42, 0x37, 0x37, 0x52, 0x2a,
    0x3a, 0x35, 0x35, 0x3f, 0x40, 0x38, 0x40, 0x5b, 0x35, 0x32, 0x2b, 0x3d,
    0x4a, 0x3c, 0x46, 0x56, 0x44, 0x30, 0x4d, 0x39, 0x20, 0x32, 0x0f, 0x4f,
    0x33, 0x3c, 0x35, 0x35, 0x3a, 0x45, 0x29, 0x3b, 0x31, 0x38, 0x34, 0x38,
    0x42, 0x45, 0x37, 0x3e, 0x37, 0x2e, 0x36, 0x43, 0x3f, 0x38, 0x2f, 0x41,
    0x3f, 0x41, 0x3c, 0x31, 0x37, 0x36, 0x37, 0x39, 0x41, 0x3a, 0x3a, 0x40,
    0x3e, 0x47, 0x3d, 0x37, 0x3c, 0x38, 0x35, 0x39, 0x3a, 0x43, 0x3f, 0x42,
    0x42, 0x38, 0x3e, 0x40, 0x3c, 0x3a, 0x45, 0x48, 0x37, 0x3a, 0x3e, 0x35,
    0x3a, 0x3d, 0x45, 0x4a, 0x3d, 0x37, 0x38, 0x3a, 0x3d, 0x46, 0x46, 0x41,
    0x37, 0x41, 0x40, 0x48, 0x37, 0x34, 0x3b, 0x2c, 0x39, 0x34, 0x37, 0x35,
    0x3a, 0x43, 0x39, 0x2e, 0x39, 0x3f, 0x40, 0x3e, 0x40, 0x40, 0x3c, 0x2d,
    0x3e, 0x3c, 0x37, 0x39, 0x3c, 0x3b, 0x3d, 0x3f, 0x41, 0x48, 0x3b, 0x3d,
    0x3b, 0x41, 0x45, 0x3e, 0x3a, 0x38, 0x3f, 0x3c, 0x3d, 0x3e, 0x40, 0x42,
    0x46, 0x38, 0x43, 0x34, 0x35, 0x47, 0x3d, 0x46, 0x3f, 0x3e, 0x32, 0x3f,
    0x3e, 0x3d, 0x47, 0x46, 0x38, 0x41, 0x45, 0x3f, 0x34, 0x3f, 0x41, 0x43,
    0x3e, 0x3e, 0x44, 0x3b, 0x3b, 0x36, 0x51, 0x32, 0x37, 0x3c, 0x42, 0x43,
    0x33, 0x39, 0x42, 0x61, 0x2c, 0x3b, 0x2e, 0x39, 0x42, 0x39, 0x42, 0x54,
    0x3c, 0x3a, 0x48, 0x35, 0x26, 0x34, 0x15, 0x51, 0x35, 0x40, 0x36, 0x3c,
    0x2d, 0x37, 0x25, 0x38, 0x33, 0x3d, 0x3d, 0x39, 0x3e, 0x3b, 0x2e, 0x4b,
    0x3d, 0x3b, 0x42, 0x37, 0x37, 0x40, 0x37, 0x40, 0x35, 0x45, 0x37, 0x37,
    0x3f, 0x41, 0x36, 0x39, 0x3c, 0x32, 0x3e, 0x38, 0x41, 0x40, 0x3e, 0x3f,
    0x3b, 0x3c, 0x43, 0x35, 0x3e, 0x3d, 0x44, 0x44, 0x3a, 0x36, 0x39, 0x3f,
    0x3a, 0x31, 0x42, 0x4d, 0x40, 0x33, 0x40, 0x45, 0x44, 0x3d, 0x40, 0x49,
    0x41, 0x3f, 0x42, 0x3a, 0x34, 0x46, 0x38, 0x46, 0x42, 0x34, 0x3a, 0x40,
    0x40, 0x41, 0x3d, 0x32, 0x35, 0x48, 0x35, 0x3e, 0x44, 0x41, 0x40, 0x2c,
    0x46, 0x38, 0x38, 0x3f, 0x36, 0x40, 0x38, 0x2a, 0x43, 0x41, 0x3e, 0x35,
    0x46, 0x3a, 0x45, 0x46, 0x46, 0x42, 0x3a, 0x3b, 0x40, 0x38, 0x35, 0x43,
    0x38, 0x3d, 0x3b, 0x41, 0x36, 0x44, 0x3f, 0x3f, 0x34, 0x3e, 0x3c, 0x3d,
    0x49, 0x36, 0x37, 0x4b, 0x38, 0x3c, 0x43, 0x37, 0x3a, 0x3f, 0x31, 0x45,
    0x3b, 0x39, 0x3f, 0x40, 0x37, 0x3c, 0x42, 0x3f, 0x3c, 0x33, 0x40, 0x3b,
    0x32, 0x3c, 0x52, 0x31, 0x3d, 0x44, 0x3b, 0x31, 0x46, 0x38, 0x40, 0x60,
    0x2b, 0x3c, 0x37, 0x34, 0x43, 0x38, 0x45, 0x57, 0x37, 0x39, 0x49, 0x33,
    0x2d, 0x3f, 0x18, 0x4e, 0x39, 0x39, 0x32, 0x3b, 0x34, 0x3b, 0x2c, 0x45,
    0x33, 0x37, 0x45, 0x42, 0x3d, 0x37, 0x2a, 0x4c, 0x3d, 0x3f, 0x3c, 0x36,
    0x37, 0x3c, 0x39, 0x47, 0x3d, 0x44, 0x3d, 0x40, 0x3d, 0x41, 0x34, 0x3e,
    0x40, 0x34, 0x3b, 0x3a, 0x41, 0x36, 0x37, 0x40, 0x3e, 0x3f, 0x3a, 0x36,
    0x3e, 0x35, 0x3b, 0x48, 0x41, 0x40, 0x3c, 0x42, 0x34, 0x41, 0x3f, 0x44,
    0x34, 0x39, 0x33, 0x39, 0x39, 0x47, 0x40, 0x48, 0x38, 0x3a, 0x43, 0x43,
    0x48, 0x3a, 0x3f, 0x46, 0x35, 0x3a, 0x33, 0x36, 0x32, 0x3c, 0x40, 0x34,
    0x40, 0x3a, 0x42, 0x3a, 0x39, 0x38, 0x41, 0x35, 0x3a, 0x3f, 0x35, 0x40,
    0x3f, 0x39, 0x39, 0x36, 0x38, 0x40, 0x3e, 0x3e, 0x3a, 0x31, 0x32, 0x44,
    0x40, 0x47, 0x3a, 0x3c, 0x43, 0x43, 0x46, 0x48, 0x40, 0x35, 0x3d, 0x37,
    0x44, 0x37, 0x33, 0x44, 0x3b, 0x3e, 0x3f, 0x37, 0x36, 0x3a, 0x38, 0x47,
    0x3a, 0x44, 0x36, 0x42, 0x3e, 0x44, 0x34, 0x46, 0x33, 0x43, 0x44, 0x3e,
    0x30, 0x48, 0x37, 0x38, 0x33, 0x3c, 0x46, 0x42, 0x38, 0x3d, 0x50, 0x39,
    0x33, 0x38, 0x3e, 0x40, 0x3b, 0x2b, 0x3b, 0x5f, 0x2b, 0x32, 0x2f, 0x37,
    0x3f, 0x3a, 0x40, 0x4e, 0x34, 0x38, 0x47, 0x37, 0x27, 0x2b, 0x1b, 0x4f,
    0x36, 0x38, 0x3a, 0x3a, 0x3b, 0x38, 0x2e, 0x3f, 0x3f, 0x42, 0x42, 0x42,
    0x36, 0x3e, 0x3c, 0x55, 0x39, 0x40, 0x44, 0x43, 0x3e, 0x33, 0x3c, 0x43,
    0x38, 0x44, 0x3b, 0x46, 0x3f, 0x45, 0x34, 0x38, 0x3c, 0x41, 0x42, 0x3d,
    0x42, 0x36, 0x43, 0x3f, 0x3c, 0x39, 0x3e, 0x39, 0x39, 0x42, 0x33, 0x47,
    0x36, 0x3d, 0x3f, 0x3b, 0x40, 0x39, 0x3b, 0x49, 0x36, 0x40, 0x3d, 0x41,
    0x40, 0x34, 0x3b, 0x4e, 0x3b, 0x36, 0x3b, 0x45, 0x40, 0x32, 0x3b, 0x49,
    0x37, 0x38, 0x3a, 0x47, 0x37, 0x40, 0x3e, 0x38, 0x40, 0x3f, 0x3c, 0x3a,
    0x47, 0x41, 0x42, 0x30, 0x40, 0x3c, 0x42, 0x3f, 0x31, 0x44, 0x39, 0x38,
    0x3b, 0x38, 0x42, 0x43, 0x41, 0x35, 0x3a, 0x39, 0x3e, 0x38, 0x39, 0x3e,
    0x3c, 0x42, 0x3d, 0x49, 0x47, 0x3c, 0x3f, 0x35, 0x41, 0x3a, 0x36, 0x43,
    0x43, 0x3b, 0x39, 0x3b, 0x36, 0x43, 0x43, 0x4e, 0x3e, 0x35, 0x37, 0x3b,
    0x3f, 0x37, 0x41, 0x48, 0x32, 0x44, 0x43, 0x32, 0x38, 0x39, 0x45, 0x39,
    0x3e, 0x3d, 0x35, 0x39, 0x35, 0x39, 0x50, 0x37, 0x39, 0x40, 0x43, 0x47,
    0x32, 0x2a, 0x40, 0x62, 0x24, 0x30, 0x36, 0x3e, 0x41, 0x32, 0x47, 0x58,
    0x39, 0x36, 0x44, 0x34, 0x26, 0x34, 0x1e, 0x50, 0x3c, 0x3b, 0x3f, 0x42,
    0x35, 0x3d, 0x2a, 0x4e, 0x40, 0x38, 0x36, 0x31, 0x3a, 0x30, 0x37, 0x4b,
    0x3c, 0x3b, 0x3b, 0x41, 0x3b, 0x3c, 0x2e, 0x45, 0x44, 0x3f, 0x3b, 0x35,
    0x3e, 0x33, 0x37, 0x3d, 0x40, 0x39, 0x39, 0x37, 0x40, 0x3e, 0x3a, 0x3e,
    0x3c, 0x3c, 0x45, 0x40, 0x3c, 0x3f, 0x3a, 0x51, 0x47, 0x3a, 0x34, 0x39,
    0x3b, 0x34, 0x44, 0x4c, 0x36, 0x3d, 0x3a, 0x35, 0x34, 0x36, 0x38, 0x4b,
    0x3f, 0x40, 0x3f, 0x3e, 0x40, 0x41, 0x47, 0x43, 0x32, 0x38, 0x46, 0x44,
    0x46, 0x43, 0x43, 0x37, 0x39, 0x49, 0x37, 0x36, 0x3e, 0x3d, 0x37, 0x3c,
    0x39, 0x37, 0x34, 0x43, 0x45, 0x32, 0x3a, 0x3a, 0x38, 0x43, 0x3b, 0x40,
    0x3b, 0x3f, 0x3d, 0x41, 0x40, 0x3d, 0x3a, 0x3b, 0x48, 0x37, 0x3d, 0x41,
    0x40, 0x3e, 0x38, 0x41, 0x3d, 0x3a, 0x38, 0x49, 0x40, 0x3c, 0x42, 0x41,
    0x3a, 0x38, 0x38, 0x4c, 0x3e, 0x41, 0x40, 0x3b, 0x3d, 0x3e, 0x3c, 0x46,
    0x3e, 0x42, 0x41, 0x38, 0x42, 0x42, 0x41, 0x3e, 0x3e, 0x37, 0x3c, 0x43,
    0x43, 0x3b, 0x54, 0x2b, 0x45, 0x3b, 0x43, 0x41, 0x41, 0x26, 0x3f, 0x60,
    0x25, 0x2b, 0x2e, 0x3a, 0x40, 0x31, 0x40, 0x49, 0x40, 0x31, 0x46, 0x3c,
    0x1e, 0x2a, 0x1a, 0x47, 0x33, 0x37, 0x37, 0x34, 0x31, 0x36, 0x25, 0x41,
    0x2e, 0x36, 0x35, 0x33, 0x33, 0x34, 0x31, 0x45, 0x3a, 0x3f, 0x3d, 0x40,
    0x3c, 0x41, 0x30, 0x3c, 0x3f, 0x46, 0x37, 0x3c, 0x3a, 0x3c, 0x36, 0x3a,
    0x47, 0x3d, 0x31, 0x3f, 0x40, 0x3e, 0x36, 0x44, 0x41, 0x3d, 0x36, 0x3f,
    0x37, 0x3f, 0x34, 0x4b, 0x31, 0x47, 0x43, 0x3e, 0x3e, 0x3a, 0x3b, 0x4b,
    0x37, 0x32, 0x38, 0x3d, 0x37, 0x47, 0x46, 0x4d, 0x36, 0x3c, 0x3f, 0x3a,
    0x41, 0x31, 0x47, 0x43, 0x3d, 0x3d, 0x3e, 0x35, 0x3d, 0x46, 0x49, 0x2a,
    0x37, 0x3c, 0x39, 0x3d, 0x47, 0x3c, 0x34, 0x2c, 0x3e, 0x38, 0x47, 0x32,
    0x36, 0x36, 0x41, 0x38, 0x35, 0x44, 0x48, 0x3b, 0x39, 0x3e, 0x38, 0x3e,
    0x40, 0x36, 0x37, 0x46, 0x39, 0x3b, 0x34, 0x45, 0x40, 0x3b, 0x48, 0x36,
    0x34, 0x44, 0x37, 0x46, 0x3f, 0x42, 0x33, 0x36, 0x43, 0x3c, 0x41, 0x46,
    0x31, 0x42, 0x43, 0x44, 0x44, 0x3e, 0x42, 0x3b, 0x3b, 0x3a, 0x3c, 0x37,
    0x42, 0x41, 0x46, 0x38, 0x41, 0x3b, 0x40, 0x44, 0x37, 0x3c, 0x4c, 0x2e,
    0x3a, 0x3e, 0x3b, 0x36, 0x33, 0x27, 0x37, 0x5d, 0x27, 0x34, 0x32, 0x41,
    0x41, 0x3f, 0x40, 0x5d, 0x40, 0x3d, 0x48, 0x39, 0x2e, 0x30, 0x1f, 0x3f,
    0x38, 0x3f, 0x40, 0x33, 0x40, 0x38, 0x31, 0x3f, 0x42, 0x3e, 0x3b, 0x3a,
    0x42, 0x36, 0x3a, 0x42, 0x3c, 0x3b, 0x3d, 0x41, 0x3d, 0x40, 0x40, 0x3e,
    0x36, 0x41, 0x47, 0x3d, 0x33, 0x32, 0x33, 0x44, 0x3e, 0x3a, 0x3e, 0x3d,
    0x45, 0x3f, 0x38, 0x3f, 0x40, 0x3a, 0x3c, 0x46, 0x32, 0x42, 0x3c, 0x51,
    0x33, 0x38, 0x3a, 0x38, 0x41, 0x34, 0x45, 0x4e, 0x35, 0x3c, 0x42, 0x3e,
    0x3f, 0x45, 0x44, 0x4e, 0x39, 0x47, 0x3a, 0x33, 0x3e, 0x3b, 0x45, 0x42,
    0x37, 0x3a, 0x3e, 0x33, 0x41, 0x48, 0x32, 0x2a, 0x3b, 0x37, 0x3f, 0x3d,
    0x3a, 0x42, 0x41, 0x2f, 0x34, 0x3e, 0x49, 0x3b, 0x38, 0x3e, 0x3d, 0x3a,
    0x37, 0x3c, 0x44, 0x41, 0x39, 0x42, 0x3f, 0x39, 0x40, 0x35, 0x3d, 0x41,
    0x3b, 0x45, 0x44, 0x48, 0x3d, 0x42, 0x36, 0x33, 0x3e, 0x44, 0x3f, 0x41,
    0x42, 0x40, 0x49, 0x34, 0x48, 0x41, 0x3f, 0x40, 0x3c, 0x45, 0x47, 0x34,
    0x41, 0x37, 0x47, 0x3e, 0x41, 0x41, 0x39, 0x42, 0x3f, 0x3a, 0x46, 0x33,
    0x39, 0x41, 0x38, 0x38, 0x3e, 0x42, 0x41, 0x38, 0x35, 0x32, 0x33, 0x38,
    0x3a, 0x3f, 0x45, 0x66, 0x33, 0x47, 0x38, 0x3c, 0x41, 0x2f, 0x48, 0x55,
    0x33, 0x3e, 0x49, 0x3b, 0x3c, 0x30, 0x24, 0x45, 0x3c, 0x44, 0x43, 0x32,
    0x3d, 0x3f, 0x35, 0x3b, 0x3e, 0x36, 0x38, 0x3a, 0x36, 0x37, 0x3b, 0x41,
    0x38, 0x42, 0x3e, 0x43, 0x39, 0x3f, 0x3c, 0x40, 0x37, 0x43, 0x3e, 0x3b,
    0x3d, 0x35, 0x35, 0x3d, 0x43, 0x3f, 0x3a, 0x35, 0x37, 0x3c, 0x31, 0x47,
    0x44, 0x45, 0x40, 0x32, 0x44, 0x36, 0x38, 0x51, 0x3c, 0x41, 0x45, 0x37,
    0x39, 0x44, 0x3e, 0x4f, 0x3c, 0x3a, 0x38, 0x40, 0x3f, 0x34, 0x39, 0x4e,
    0x3d, 0x39, 0x45, 0x3f, 0x3e, 0x3c, 0x3b, 0x42, 0x3b, 0x3b, 0x34, 0x3d,
    0x41, 0x44, 0x39, 0x2e, 0x37, 0x44, 0x45, 0x37, 0x3d, 0x41, 0x3f, 0x33,
    0x3f, 0x3e, 0x3e, 0x40, 0x44, 0x3f, 0x37, 0x32, 0x35, 0x3e, 0x43, 0x41,
    0x39, 0x37, 0x35, 0x3f, 0x48, 0x3d, 0x43, 0x49, 0x38, 0x35, 0x3f, 0x48,
    0x3b, 0x3a, 0x34, 0x3f, 0x3c, 0x44, 0x3a, 0x40, 0x36, 0x35, 0x44, 0x36,
    0x44, 0x3b, 0x3d, 0x38, 0x3c, 0x44, 0x47, 0x3a, 0x3b, 0x45, 0x41, 0x3a,
    0x39, 0x35, 0x44, 0x3a, 0x49, 0x36, 0x48, 0x31, 0x42, 0x43, 0x42, 0x34,
    0x41, 0x40, 0x4d, 0x36, 0x3e, 0x35, 0x39, 0x3b, 0x3f, 0x41, 0x38, 0x39,
    0x3c, 0x44, 0x3f, 0x39, 0x3a, 0x36, 0x3d, 0x36, 0x3a, 0x3a, 0x34, 0x3b,
    0x38, 0x2f, 0x40, 0x34, 0x32, 0x4d, 0x43, 0x45, 0x4e, 0x3f, 0x48, 0x35,
    0x3b, 0x4d, 0x4f, 0x39, 0x42, 0x36, 0x46, 0x36, 0x4a, 0x3c, 0x37, 0x41,
    0x40, 0x43, 0x50, 0x36, 0x3e, 0x39, 0x44, 0x40, 0x36, 0x47, 0x3f, 0x36,
    0x45, 0x40, 0x45, 0x41, 0x3b, 0x37, 0x41, 0x39, 0x3b, 0x48, 0x37, 0x34,
    0x41, 0x45, 0x49, 0x3f, 0x39, 0x49, 0x3f, 0x3a, 0x42, 0x34, 0x38, 0x37,
    0x44, 0x34, 0x3c, 0x3d, 0x40, 0x47, 0x3a, 0x36, 0x3f, 0x3c, 0x41, 0x3e,
    0x47, 0x46, 0x46, 0x43, 0x3f, 0x38, 0x3b, 0x40, 0x3f, 0x48, 0x3b, 0x4c,
    0x3d, 0x4b, 0x34, 0x3b, 0x44, 0x43, 0x3c, 0x49, 0x38, 0x42, 0x41, 0x36,
    0x33, 0x36, 0x40, 0x46, 0x40, 0x3a, 0x42, 0x3c, 0x3d, 0x35, 0x3c, 0x52,
    0x3e, 0x40, 0x43, 0x43, 0x41, 0x3b, 0x3e, 0x44, 0x3f, 0x40, 0x40, 0x43,
    0x3d, 0x3f, 0x36, 0x42, 0x3f, 0x3c, 0x34, 0x3d, 0x33, 0x41, 0x3c, 0x39,
    0x34, 0x43, 0x3f, 0x34, 0x3c, 0x3a, 0x3a, 0x37, 0x42, 0x41, 0x40, 0x3e,
    0x3d, 0x3c, 0x41, 0x3c, 0x38, 0x33, 0x49, 0x46, 0x40, 0x40, 0x3a, 0x46,
    0x38, 0x3c, 0x37, 0x34, 0x3e, 0x3d, 0x32, 0x38, 0x3c, 0x4c, 0x3a, 0x34,
    0x35, 0x32, 0x39, 0x40, 0x3a, 0x58, 0x40, 0x46, 0x42, 0x33, 0x45, 0x39,
    0x34, 0x4f, 0x53, 0x45, 0x43, 0x3e, 0x41, 0x36, 0x3e, 0x3f, 0x40, 0x47,
    0x4e, 0x3d, 0x53, 0x2b, 0x41, 0x36, 0x3e, 0x38, 0x47, 0x41, 0x3f, 0x34,
    0x47, 0x40, 0x38, 0x39, 0x3d, 0x42, 0x3f, 0x3c, 0x48, 0x3a, 0x35, 0x3c,
    0x45, 0x49, 0x3c, 0x33, 0x33, 0x3f, 0x3c, 0x46, 0x43, 0x3f, 0x45, 0x31,
    0x35, 0x43, 0x46, 0x3a, 0x45, 0x3c, 0x37, 0x3a, 0x37, 0x36, 0x35, 0x3f,
    0x38, 0x49, 0x34, 0x3f, 0x3c, 0x42, 0x49, 0x3e, 0x3e, 0x3c, 0x39, 0x49,
    0x3e, 0x3c, 0x3b, 0x43, 0x44, 0x45, 0x39, 0x4b, 0x47, 0x47, 0x3e, 0x33,
    0x3c, 0x31, 0x34, 0x4f, 0x45, 0x43, 0x40, 0x3d, 0x42, 0x3b, 0x43, 0x50,
    0x3c, 0x3b, 0x37, 0x42, 0x47, 0x42, 0x3e, 0x4a, 0x3f, 0x3a, 0x48, 0x3d,
    0x48, 0x45, 0x3e, 0x40, 0x3a, 0x3c, 0x3d, 0x39, 0x41, 0x42, 0x3c, 0x42,
    0x43, 0x3c, 0x3b, 0x3d, 0x47, 0x49, 0x38, 0x3c, 0x46, 0x3a, 0x3c, 0x3f,
    0x3a, 0x46, 0x3a, 0x3b, 0x3d, 0x3a, 0x49, 0x46, 0x38, 0x40, 0x3e, 0x38,
    0x37, 0x32, 0x40, 0x3c, 0x42, 0x3d, 0x3b, 0x40, 0x3a, 0x38, 0x49, 0x33,
    0x40, 0x38, 0x2b, 0x3a, 0x3c, 0x4f, 0x4d, 0x3e, 0x35, 0x3d, 0x3b, 0x40,
    0x3a, 0x54, 0x3e, 0x3e, 0x43, 0x30, 0x47, 0x3d, 0x3b, 0x53, 0x52, 0x4a,
    0x43, 0x41, 0x49, 0x37, 0x3b, 0x35, 0x44, 0x3c, 0x45, 0x40, 0x4f, 0x36,
    0x4b, 0x42, 0x41, 0x3a, 0x41, 0x44, 0x47, 0x32, 0x43, 0x35, 0x3f, 0x37,
    0x43, 0x41, 0x43, 0x36, 0x3f, 0x3b, 0x3d, 0x38, 0x3d, 0x40, 0x42, 0x36,
    0x44, 0x3a, 0x39, 0x47, 0x37, 0x34, 0x42, 0x3a, 0x37, 0x38, 0x37, 0x3f,
    0x36, 0x3b, 0x45, 0x3f, 0x3f, 0x3d, 0x39, 0x3d, 0x39, 0x41, 0x37, 0x3f,
    0x3f, 0x3d, 0x3f, 0x41, 0x43, 0x41, 0x45, 0x43, 0x41, 0x3c, 0x3e, 0x40,
    0x40, 0x39, 0x41, 0x4f, 0x47, 0x42, 0x46, 0x48, 0x3b, 0x3b, 0x3c, 0x46,
    0x47, 0x3e, 0x46, 0x37, 0x38, 0x3d, 0x38, 0x52, 0x36, 0x46, 0x3c, 0x3a,
    0x3b, 0x37, 0x48, 0x4b, 0x3f, 0x42, 0x3c, 0x36, 0x40, 0x37, 0x33, 0x4c,
    0x39, 0x34, 0x41, 0x34, 0x3f, 0x3b, 0x35, 0x4b, 0x3b, 0x45, 0x43, 0x31,
    0x3e, 0x39, 0x30, 0x3d, 0x32, 0x43, 0x44, 0x3c, 0x3e, 0x38, 0x43, 0x41,
    0x3e, 0x37, 0x41, 0x39, 0x39, 0x44, 0x43, 0x38, 0x3f, 0x37, 0x48, 0x3f,
    0x3b, 0x44, 0x37, 0x3f, 0x3a, 0x3f, 0x3b, 0x33, 0x42, 0x3e, 0x2f, 0x42,
    0x44, 0x4f, 0x52, 0x3c, 0x34, 0x33, 0x39, 0x46, 0x31, 0x55, 0x43, 0x4e,
    0x49, 0x38, 0x4d, 0x48, 0x34, 0x4d, 0x5c, 0x4d, 0x49, 0x37, 0x4f, 0x40,
    0x3c, 0x3d, 0x41, 0x42, 0x3f, 0x51, 0x4b, 0x2f, 0x46, 0x35, 0x39, 0x3c,
    0x49, 0x3d, 0x4e, 0x32, 0x43, 0x47, 0x31, 0x3e, 0x42, 0x4a, 0x4c, 0x39,
    0x43, 0x46, 0x3e, 0x3f, 0x44, 0x3c, 0x42, 0x30, 0x3e, 0x34, 0x3b, 0x3b,
    0x3a, 0x3c, 0x42, 0x3d, 0x3d, 0x48, 0x48, 0x36, 0x3a, 0x45, 0x38, 0x40,
    0x3c, 0x41, 0x3f, 0x49, 0x42, 0x41, 0x38, 0x3d, 0x3d, 0x44, 0x3b, 0x3d,
    0x35, 0x48, 0x43, 0x3b, 0x32, 0x41, 0x3e, 0x3a, 0x46, 0x41, 0x40, 0x54,
    0x38, 0x3f, 0x3c, 0x36, 0x3b, 0x36, 0x43, 0x50, 0x38, 0x3c, 0x44, 0x3b,
    0x43, 0x47, 0x32, 0x50, 0x3d, 0x46, 0x3d, 0x3b, 0x39, 0x37, 0x3b, 0x4a,
    0x47, 0x43, 0x46, 0x3d, 0x3d, 0x41, 0x43, 0x45, 0x3b, 0x3c, 0x39, 0x47,
    0x43, 0x42, 0x39, 0x4c, 0x34, 0x41, 0x45, 0x3b, 0x38, 0x3e, 0x37, 0x3f,
    0x45, 0x43, 0x39, 0x42, 0x3c, 0x3d, 0x3d, 0x3c, 0x48, 0x39, 0x3b, 0x3a,
    0x46, 0x45, 0x3d, 0x3a, 0x3f, 0x3a, 0x45, 0x36, 0x3d, 0x43, 0x36, 0x43,
    0x42, 0x3d, 0x41, 0x3f, 0x3a, 0x3f, 0x31, 0x37, 0x48, 0x4f, 0x4e, 0x36,
    0x30, 0x3a, 0x3e, 0x3e, 0x38, 0x57, 0x40, 0x47, 0x47, 0x38, 0x4f, 0x46,
    0x3d, 0x4a, 0x50, 0x4c, 0x42, 0x3b, 0x4d, 0x3d, 0x3d, 0x33, 0x40, 0x41,
    0x48, 0x4b, 0x46, 0x39, 0x4d, 0x30, 0x45, 0x38, 0x48, 0x3c, 0x48, 0x3b,
    0x4d, 0x40, 0x3b, 0x40, 0x46, 0x41, 0x51, 0x34, 0x40, 0x43, 0x3f, 0x42,
    0x45, 0x42, 0x3e, 0x35, 0x3d, 0x38, 0x37, 0x3a, 0x42, 0x40, 0x43, 0x3c,
    0x3c, 0x3d, 0x43, 0x40, 0x45, 0x3a, 0x3e, 0x3a, 0x3e, 0x40, 0x43, 0x35,
    0x37, 0x3f, 0x3f, 0x3e, 0x39, 0x3f, 0x47, 0x38, 0x3e, 0x44, 0x3b, 0x3c,
    0x3b, 0x32, 0x40, 0x3e, 0x42, 0x45, 0x3a, 0x52, 0x3a, 0x3e, 0x45, 0x40,
    0x41, 0x48, 0x3f, 0x4e, 0x3e, 0x42, 0x3d, 0x39, 0x3a, 0x33, 0x3f, 0x4b,
    0x3e, 0x38, 0x36, 0x3e, 0x31, 0x41, 0x3a, 0x40, 0x3b, 0x37, 0x3f, 0x3e,
    0x3e, 0x3f, 0x35, 0x44, 0x3d, 0x42, 0x3d, 0x44, 0x42, 0x3f, 0x3e, 0x44,
    0x3e, 0x45, 0x37, 0x3a, 0x3b, 0x42, 0x3f, 0x41, 0x3b, 0x3f, 0x41, 0x41,
    0x3e, 0x34, 0x47, 0x39, 0x46, 0x46, 0x37, 0x39, 0x3f, 0x45, 0x39, 0x39,
    0x3a, 0x40, 0x38, 0x3a, 0x31, 0x34, 0x3a, 0x41, 0x38, 0x41, 0x3a, 0x41,
    0x44, 0x37, 0x2d, 0x41, 0x43, 0x4d, 0x4b, 0x3b, 0x2c, 0x30, 0x42, 0x3b,
    0x31, 0x56, 0x43, 0x47, 0x47, 0x38, 0x50, 0x44, 0x40, 0x52, 0x5a, 0x50,
    0x44, 0x3f, 0x4b, 0x35, 0x3a, 0x36, 0x41, 0x44, 0x47, 0x4e, 0x52, 0x36,
    0x45, 0x39, 0x38, 0x3c, 0x42, 0x44, 0x40, 0x3b, 0x4b, 0x38, 0x35, 0x35,
    0x3f, 0x40, 0x4f, 0x39, 0x3d, 0x37, 0x34, 0x3e, 0x41, 0x4c, 0x40, 0x37,
    0x3d, 0x3b, 0x37, 0x37, 0x40, 0x42, 0x35, 0x39, 0x41, 0x42, 0x3d, 0x34,
    0x3c, 0x37, 0x3a, 0x3d, 0x46, 0x46, 0x46, 0x3f, 0x44, 0x3d, 0x3c, 0x40,
    0x3c, 0x3a, 0x3d, 0x3b, 0x3b, 0x41, 0x47, 0x3a, 0x43, 0x43, 0x43, 0x3b,
    0x3e, 0x3e, 0x42, 0x46, 0x36, 0x37, 0x45, 0x35, 0x3c, 0x3b, 0x31, 0x4b,
    0x3c, 0x3e, 0x3a, 0x3a, 0x42, 0x42, 0x34, 0x47, 0x37, 0x34, 0x41, 0x3d,
    0x3e, 0x39, 0x43, 0x47, 0x31, 0x3b, 0x40, 0x3b, 0x42, 0x3d, 0x44, 0x44,
    0x37, 0x39, 0x44, 0x3b, 0x40, 0x3a, 0x3d, 0x44, 0x3c, 0x40, 0x42, 0x3b,
    0x40, 0x3e, 0x32, 0x3d, 0x3c, 0x3e, 0x44, 0x3e, 0x47, 0x3d, 0x3f, 0x2e,
    0x3e, 0x3d, 0x3f, 0x3b, 0x3b, 0x43, 0x43, 0x3c, 0x3a, 0x3c, 0x3a, 0x36,
    0x38, 0x46, 0x30, 0x3e, 0x3f, 0x35, 0x3e, 0x34, 0x3c, 0x34, 0x32, 0x4a,
    0x41, 0x48, 0x48, 0x3f, 0x34, 0x37, 0x42, 0x43, 0x36, 0x59, 0x42, 0x3f,
    0x4b, 0x3d, 0x5d, 0x45, 0x3b, 0x51, 0x51, 0x4c, 0x41, 0x40, 0x4d, 0x36,
    0x3f, 0x34, 0x39, 0x3d, 0x4a, 0x4b, 0x4f, 0x33, 0x48, 0x32, 0x3c, 0x32,
    0x48, 0x4c, 0x4d, 0x3a, 0x49, 0x3a, 0x3a, 0x2e, 0x4b, 0x44, 0x4f, 0x33,
    0x3a, 0x48, 0x34, 0x43, 0x38, 0x45, 0x44, 0x35, 0x3b, 0x3f, 0x40, 0x37,
    0x35, 0x34, 0x38, 0x3e, 0x41, 0x3e, 0x3b, 0x47, 0x41, 0x47, 0x3c, 0x3c,
    0x39, 0x40, 0x3e, 0x45, 0x36, 0x41, 0x3f, 0x3f, 0x3c, 0x44, 0x3f, 0x43,
    0x3d, 0x3c, 0x49, 0x42, 0x3e, 0x3f, 0x48, 0x37, 0x43, 0x37, 0x43, 0x3d,
    0x32, 0x42, 0x44, 0x39, 0x36, 0x37, 0x40, 0x46, 0x47, 0x3d, 0x3a, 0x42,
    0x3f, 0x38, 0x37, 0x48, 0x39, 0x40, 0x3c, 0x37, 0x33, 0x38, 0x38, 0x40,
    0x41, 0x3c, 0x3f, 0x3b, 0x40, 0x3a, 0x47, 0x46, 0x3a, 0x37, 0x42, 0x47,
    0x3b, 0x3f, 0x3b, 0x40, 0x33, 0x3f, 0x3a, 0x3c, 0x38, 0x3a, 0x36, 0x38,
    0x36, 0x40, 0x48, 0x42, 0x48, 0x3c, 0x43, 0x36, 0x32, 0x3b, 0x34, 0x39,
    0x38, 0x46, 0x37, 0x3b, 0x44, 0x34, 0x36, 0x38, 0x3c, 0x43, 0x33, 0x3c,
    0x3b, 0x45, 0x38, 0x38, 0x44, 0x33, 0x36, 0x4a, 0x46, 0x4c, 0x4a, 0x34,
    0x36, 0x37, 0x43, 0x42, 0x33, 0x58, 0x43, 0x48, 0x44, 0x38, 0x5f, 0x3f,
    0x3c, 0x4d, 0x53, 0x52, 0x43, 0x47, 0x52, 0x3e, 0x3b, 0x2d, 0x3b, 0x3a,
    0x4b, 0x49, 0x53, 0x38, 0x4c, 0x2f, 0x38, 0x31, 0x42, 0x40, 0x48, 0x3f,
    0x44, 0x3c, 0x3c, 0x34, 0x46, 0x3f, 0x49, 0x3a, 0x43, 0x3d, 0x34, 0x42,
    0x36, 0x47, 0x51, 0x3c, 0x3d, 0x39, 0x39, 0x3a, 0x3b, 0x35, 0x35, 0x41,
    0x47, 0x3c, 0x3b, 0x43, 0x3f, 0x45, 0x3e, 0x40, 0x3c, 0x3f, 0x3c, 0x42,
    0x3b, 0x3e, 0x38, 0x3f, 0x3f, 0x41, 0x39, 0x39, 0x3d, 0x43, 0x4f, 0x3d,
    0x48, 0x3b, 0x44, 0x45, 0x3d, 0x3b, 0x49, 0x43, 0x44, 0x3d, 0x37, 0x3b,
    0x3c, 0x45, 0x46, 0x44, 0x35, 0x3e, 0x32, 0x35, 0x34, 0x3b, 0x40, 0x43,
    0x3e, 0x45, 0x37, 0x3d, 0x3f, 0x43, 0x36, 0x3f, 0x3f, 0x43, 0x39, 0x44,
    0x3e, 0x3e, 0x45, 0x40, 0x3e, 0x44, 0x3b, 0x3e, 0x42, 0x42, 0x3b, 0x3d,
    0x3a, 0x40, 0x39, 0x3a, 0x32, 0x36, 0x41, 0x30, 0x39, 0x46, 0x33, 0x3f,
    0x46, 0x40, 0x3c, 0x31, 0x41, 0x3a, 0x3f, 0x3f, 0x3b, 0x36, 0x3f, 0x38,
    0x36, 0x3e, 0x35, 0x35, 0x3b, 0x3d, 0x3f, 0x39, 0x46, 0x37, 0x3a, 0x47,
    0x37, 0x39, 0x2c, 0x55, 0x40, 0x4b, 0x4a, 0x39, 0x35, 0x42, 0x3d, 0x40,
    0x3a, 0x54, 0x41, 0x48, 0x51, 0x3b, 0x61, 0x3e, 0x3e, 0x4d, 0x51, 0x52,
    0x3e, 0x43, 0x52, 0x41, 0x48, 0x2d, 0x35, 0x35, 0x4b, 0x44, 0x4d, 0x3c,
    0x54, 0x33, 0x39, 0x27, 0x4a, 0x44, 0x4a, 0x41, 0x3c, 0x3a, 0x31, 0x2f,
    0x3d, 0x42, 0x48, 0x3f, 0x42, 0x40, 0x44, 0x3b, 0x40, 0x3e, 0x49, 0x3a,
    0x3c, 0x35, 0x30, 0x3e, 0x3e, 0x3d, 0x36, 0x3a, 0x3e, 0x3a, 0x4a, 0x3e,
    0x3d, 0x49, 0x40, 0x43, 0x3e, 0x45, 0x3f, 0x3c, 0x3b, 0x42, 0x3a, 0x39,
    0x3b, 0x47, 0x3f, 0x39, 0x49, 0x46, 0x3d, 0x34, 0x32, 0x44, 0x46, 0x42,
    0x47, 0x39, 0x49, 0x48, 0x3b, 0x38, 0x45, 0x45, 0x37, 0x38, 0x46, 0x46,
    0x37, 0x42, 0x35, 0x34, 0x45, 0x42, 0x35, 0x43, 0x3b, 0x3a, 0x43, 0x43,
    0x40, 0x42, 0x35, 0x3f, 0x38, 0x3f, 0x3a, 0x3a, 0x3b, 0x3f, 0x3e, 0x36,
    0x3f, 0x3c, 0x48, 0x3b, 0x3a, 0x41, 0x41, 0x35, 0x33, 0x3f, 0x3b, 0x45,
    0x48, 0x36, 0x40, 0x38, 0x47, 0x3d, 0x35, 0x40, 0x41, 0x42, 0x41, 0x37,
    0x41, 0x3e, 0x36, 0x48, 0x3e, 0x3c, 0x32, 0x39, 0x41, 0x40, 0x38, 0x3f,
    0x46, 0x43, 0x33, 0x40, 0x43, 0x43, 0x3a, 0x49, 0x3f, 0x35, 0x2c, 0x5d,
    0x43, 0x49, 0x52, 0x3b, 0x3c, 0x41, 0x40, 0x4a, 0x33, 0x50, 0x41, 0x46,
    0x52, 0x41, 0x68, 0x48, 0x44, 0x53, 0x54, 0x55, 0x42, 0x42, 0x57, 0x44,
    0x47, 0x35, 0x35, 0x3e, 0x4b, 0x44, 0x4e, 0x38, 0x55, 0x2f, 0x36, 0x2d,
    0x40, 0x48, 0x4b, 0x41, 0x48, 0x36, 0x32, 0x32, 0x44, 0x42, 0x47, 0x42,
    0x48, 0x3d, 0x3d, 0x39, 0x3e, 0x35, 0x4b, 0x39, 0x38, 0x3a, 0x39, 0x46,
    0x38, 0x3f, 0x3a, 0x42, 0x4b, 0x45, 0x3e, 0x32, 0x46, 0x43, 0x3b, 0x40,
    0x45, 0x41, 0x3e, 0x43, 0x37, 0x3d, 0x43, 0x3b, 0x46, 0x48, 0x42, 0x3b,
    0x3d, 0x48, 0x4a, 0x3c, 0x3b, 0x42, 0x40, 0x3c, 0x3a, 0x42, 0x38, 0x47,
    0x3b, 0x3b, 0x3d, 0x41, 0x3f, 0x38, 0x3f, 0x4a, 0x44, 0x3f, 0x47, 0x3a,
    0x47, 0x44, 0x43, 0x43, 0x34, 0x3d, 0x3a, 0x3c, 0x47, 0x3f, 0x3e, 0x39,
    0x42, 0x4a, 0x40, 0x36, 0x40, 0x41, 0x42, 0x3f, 0x3f, 0x43, 0x39, 0x38,
    0x3c, 0x3b, 0x4c, 0x2f, 0x41, 0x39, 0x40, 0x42, 0x3f, 0x42, 0x40, 0x36,
    0x3b, 0x45, 0x41, 0x41, 0x44, 0x45, 0x42, 0x37, 0x3d, 0x3a, 0x33, 0x3e,
    0x3b, 0x3b, 0x3c, 0x3d, 0x38, 0x49, 0x44, 0x39, 0x3f, 0x48, 0x3d, 0x41,
    0x42, 0x43, 0x44, 0x3e, 0x41, 0x3d, 0x32, 0x59, 0x45, 0x4b, 0x4b, 0x38,
    0x37, 0x3d, 0x48, 0x42, 0x3d, 0x52, 0x43, 0x46, 0x54, 0x48, 0x67, 0x4d,
    0x45, 0x4e, 0x49, 0x52, 0x45, 0x45, 0x58, 0x3b, 0x41, 0x38, 0x3f, 0x3f,
    0x49, 0x44, 0x4f, 0x48, 0x57, 0x31, 0x3c, 0x2a, 0x3e, 0x4c, 0x41, 0x40,
    0x47, 0x3f, 0x33, 0x34, 0x3f, 0x42, 0x48, 0x43, 0x4b, 0x38, 0x39, 0x3d,
    0x3f, 0x3e, 0x4b, 0x3f, 0x35, 0x36, 0x3c, 0x46, 0x3c, 0x45, 0x37, 0x3b,
    0x3c, 0x39, 0x41, 0x40, 0x41, 0x43, 0x44, 0x41, 0x45, 0x4f, 0x44, 0x43,
    0x44, 0x3c, 0x45, 0x34, 0x42, 0x45, 0x3f, 0x46, 0x3f, 0x43, 0x3d, 0x3a,
    0x39, 0x47, 0x45, 0x3d, 0x3f, 0x3b, 0x3d, 0x42, 0x38, 0x48, 0x48, 0x3b,
    0x3c, 0x3a, 0x3f, 0x41, 0x44, 0x4b, 0x44, 0x48, 0x41, 0x3c, 0x3d, 0x3c,
    0x3e, 0x3a, 0x4a, 0x3b, 0x49, 0x35, 0x3a, 0x3d, 0x41, 0x3f, 0x49, 0x39,
    0x44, 0x37, 0x3f, 0x3c, 0x42, 0x40, 0x4a, 0x46, 0x39, 0x38, 0x46, 0x37,
    0x41, 0x46, 0x41, 0x45, 0x40, 0x3b, 0x3b, 0x33, 0x3b, 0x39, 0x3c, 0x43,
    0x37, 0x3c, 0x44, 0x3d, 0x46, 0x39, 0x3c, 0x3c, 0x44, 0x48, 0x41, 0x44,
    0x41, 0x43, 0x46, 0x3b, 0x47, 0x41, 0x31, 0x41, 0x44, 0x40, 0x43, 0x42,
    0x3e, 0x43, 0x34, 0x65, 0x4f, 0x50, 0x4d, 0x3a, 0x37, 0x43, 0x4d, 0x4a,
    0x3d, 0x54, 0x40, 0x42, 0x5b, 0x3b, 0x71, 0x49, 0x44, 0x4f, 0x54, 0x56,
    0x48, 0x40, 0x52, 0x41, 0x42, 0x38, 0x3c, 0x49, 0x4a, 0x45, 0x51, 0x35,
    0x54, 0x2f, 0x35, 0x25, 0x4d, 0x3f, 0x4d, 0x43, 0x49, 0x33, 0x32, 0x3a,
    0x46, 0x48, 0x48, 0x3d, 0x43, 0x3a, 0x3c, 0x3a, 0x48, 0x40, 0x4b, 0x3b,
    0x45, 0x3b, 0x3f, 0x38, 0x37, 0x41, 0x31, 0x3b, 0x41, 0x43, 0x43, 0x37,
    0x48, 0x3f, 0x48, 0x37, 0x40, 0x4a, 0x43, 0x45, 0x3d, 0x39, 0x37, 0x37,
    0x3c, 0x3f, 0x47, 0x48, 0x43, 0x3e, 0x41, 0x3f, 0x3e, 0x38, 0x3e, 0x37,
    0x45, 0x45, 0x35, 0x44, 0x38, 0x3a, 0x49, 0x43, 0x40, 0x41, 0x40, 0x44,
    0x3c, 0x3e, 0x40, 0x38, 0x42, 0x41, 0x3c, 0x41, 0x3a, 0x3b, 0x3c, 0x3a,
    0x49, 0x3c, 0x42, 0x44, 0x3f, 0x39, 0x45, 0x32, 0x45, 0x43, 0x45, 0x39,
    0x43, 0x41, 0x4b, 0x39, 0x32, 0x3c, 0x3c, 0x36, 0x39, 0x3f, 0x46, 0x32,
    0x39, 0x35, 0x4f, 0x32, 0x3e, 0x40, 0x3d, 0x3e, 0x3a, 0x39, 0x4c, 0x38,
    0x43, 0x38, 0x49, 0x3b, 0x33, 0x39, 0x3b, 0x36, 0x36, 0x43, 0x3b, 0x3c,
    0x32, 0x3c, 0x3a, 0x45, 0x31, 0x3d, 0x37, 0x40, 0x3f, 0x3f, 0x35, 0xff,
    0x49, 0x4e, 0x4c, 0x3c, 0x36, 0x43, 0x46, 0x45, 0x41, 0x59, 0x44, 0x4a,
    0x53, 0x44, 0x71, 0x4a, 0x39, 0x4f, 0x50, 0x4b, 0x47, 0x42, 0x5a, 0x3c,
    0x45, 0x38, 0x3e, 0x42, 0x53, 0x43, 0x52, 0x3a, 0x52, 0x34, 0x31, 0x20,
    0x49, 0x4e, 0x46, 0x43, 0x4b, 0x3d, 0x2b, 0x27, 0x46, 0x46, 0x47, 0x41,
    0x42, 0x37, 0x39, 0x38, 0x45, 0x3f, 0x51, 0x3d, 0x48, 0x3f, 0x33, 0x3f,
    0x38, 0x45, 0x31, 0x38, 0x41, 0x3d, 0x47, 0x39, 0x42, 0x40, 0x4c, 0x3f,
    0x40, 0x42, 0x41, 0x41, 0x41, 0x42, 0x39, 0x35, 0x3f, 0x46, 0x45, 0x36,
    0x3f, 0x43, 0x3b, 0x39, 0x41, 0x38, 0x43, 0x37, 0x3d, 0x44, 0x3b, 0x40,
    0x36, 0x3d, 0x42, 0x41, 0x41, 0x3d, 0x38, 0x4a, 0x40, 0x4a, 0x4c, 0x38,
    0x3f, 0x40, 0x45, 0x3c, 0x3f, 0x4b, 0x43, 0x41, 0x43, 0x3e, 0x43, 0x3f,
    0x36, 0x40, 0x40, 0x39, 0x3f, 0x3a, 0x3a, 0x30, 0x41, 0x3c, 0x3c, 0x34,
    0x46, 0x38, 0x43, 0x34, 0x3a, 0x42, 0x43, 0x42, 0x40, 0x41, 0x49, 0x34,
    0x35, 0x40, 0x47, 0x3d, 0x3d, 0x3e, 0x4c, 0x33, 0x3c, 0x3b, 0x39, 0x43,
    0x3a, 0x3e, 0x3b, 0x37, 0x3f, 0x42, 0x31, 0x3d, 0x41, 0x3e, 0x32, 0x47,
    0x34, 0x41, 0x3d, 0x35, 0x39, 0x40, 0x38, 0x69, 0x4f, 0x4a, 0x49, 0x37,
    0x37, 0x44, 0x43, 0x46, 0x40, 0x58, 0x43, 0x48, 0x54, 0x46, 0x6c, 0x50,
    0x3a, 0x50, 0x50, 0x57, 0x47, 0x46, 0x5c, 0x40, 0x40, 0x39, 0x3e, 0x46,
    0x53, 0x46, 0x5c, 0x36, 0x4f, 0x32, 0x30, 0x2d, 0x4a, 0x48, 0x41, 0x45,
    0x47, 0x2f, 0x32, 0x2b, 0x43, 0x40, 0x43, 0x3c, 0x40, 0x44, 0x3e, 0x37,
    0x39, 0x3e, 0x48, 0x42, 0x45, 0x36, 0x47, 0x3f, 0x3b, 0x41, 0x35, 0x35,
    0x3b, 0x3e, 0x35, 0x43, 0x3e, 0x41, 0x3d, 0x36, 0x41, 0x3c, 0x40, 0x44,
    0x3d, 0x40, 0x35, 0x32, 0x48, 0x3e, 0x39, 0x42, 0x44, 0x3d, 0x39, 0x3b,
    0x3b, 0x45, 0x40, 0x4a, 0x3f, 0x41, 0x43, 0x39, 0x42, 0x44, 0x4c, 0x3c,
    0x3f, 0x3e, 0x3f, 0x43, 0x40, 0x42, 0x4c, 0x3b, 0x3e, 0x3d, 0x49, 0x42,
    0x40, 0x44, 0x40, 0x34, 0x36, 0x40, 0x45, 0x39, 0x42, 0x40, 0x3e, 0x44,
    0x45, 0x37, 0x3c, 0x38, 0x3e, 0x49, 0x3e, 0x3c, 0x41, 0x3d, 0x42, 0x32,
    0x40, 0x45, 0x3e, 0x36, 0x44, 0x3a, 0x4e, 0x38, 0x43, 0x38, 0x40, 0x38,
    0x49, 0x42, 0x40, 0x3d, 0x42, 0x48, 0x48, 0x3d, 0x41, 0x3a, 0x3f, 0x41,
    0x38, 0x3c, 0x44, 0x39, 0x3a, 0x32, 0x3a, 0x3e, 0x3d, 0x3b, 0x39, 0x38,
    0x3a, 0x43, 0x3a, 0x6b, 0x45, 0x50, 0x47, 0x33, 0x38, 0x48, 0x4d, 0x4f,
    0x39, 0x4b, 0x46, 0x4a, 0x4f, 0x42, 0x6f, 0x4b, 0x40, 0x55, 0x54, 0x50,
    0x42, 0x47, 0x5e, 0x46, 0x40, 0x34, 0x40, 0x47, 0x52, 0x46, 0x55, 0x3b,
    0x4f, 0x2b, 0x35, 0x33, 0x4c, 0x44, 0x44, 0x48, 0x47, 0x37, 0x35, 0x27,
    0x4a, 0x3b, 0x41, 0x40, 0x40, 0x3e, 0x36, 0x39, 0x3e, 0x3c, 0x45, 0x3f,
    0x4d, 0x41, 0x3d, 0x48, 0x47, 0x46, 0x33, 0x3d, 0x3d, 0x3e, 0x34, 0x3f,
    0x3e, 0x3a, 0x41, 0x35, 0x3b, 0x3e, 0x42, 0x3c, 0x42, 0x42, 0x40, 0x31,
    0x37, 0x40, 0x36, 0x42, 0x48, 0x39, 0x3d, 0x3c, 0x3a, 0x43, 0x39, 0x3d,
    0x47, 0x49, 0x43, 0x3d, 0x45, 0x39, 0x44, 0x37, 0x3e, 0x4d, 0x3d, 0x40,
    0x3d, 0x4c, 0x4d, 0x44, 0x3c, 0x3d, 0x46, 0x41, 0x41, 0x42, 0x40, 0x40,
    0x41, 0x3a, 0x3c, 0x3b, 0x3c, 0x44, 0x40, 0x34, 0x44, 0x38, 0x3b, 0x33,
    0x45, 0x45, 0x44, 0x3f, 0x3e, 0x3a, 0x3b, 0x3b, 0x43, 0x39, 0x3a, 0x45,
    0x3b, 0x3a, 0x4b, 0x39, 0x3d, 0x38, 0x41, 0x39, 0x42, 0x45, 0x43, 0x40,
    0x3e, 0x35, 0x44, 0x3f, 0x45, 0x41, 0x40, 0x3e, 0x43, 0x42, 0x37, 0x3a,
    0x38, 0x35, 0x3a, 0x48, 0x3e, 0x3b, 0x40, 0x38, 0x3c, 0x3c, 0x3b, 0x6a,
    0x48, 0x4d, 0x4d, 0x34, 0x38, 0x40, 0x4a, 0x45, 0x3c, 0x4f, 0x41, 0x4b,
    0x58, 0x46, 0x71, 0x49, 0x3d, 0x53, 0x44, 0x52, 0x42, 0x3e, 0x57, 0x4c,
    0x4c, 0x38, 0x40, 0x3b, 0x5c, 0x4c, 0x52, 0x3e, 0x4c, 0x2d, 0x32, 0x37,
    0x49, 0x3f, 0x41, 0x47, 0x4a, 0x3b, 0x2f, 0x26, 0x45, 0x40, 0x47, 0x42,
    0x3d, 0x39, 0x2d, 0x2c, 0x3f, 0x45, 0x46, 0x44, 0x48, 0x43, 0x42, 0x48,
    0x40, 0x41, 0x3b, 0x3b, 0x41, 0x3b, 0x39, 0x40, 0x3b, 0x47, 0x3f, 0x38,
    0x3f, 0x49, 0x3b, 0x35, 0x40, 0x45, 0x38, 0x35, 0x36, 0x34, 0x3e, 0x3d,
    0x46, 0x3e, 0x33, 0x38, 0x43, 0x48, 0x3f, 0x45, 0x31, 0x44, 0x38, 0x35,
    0x3c, 0x41, 0x4b, 0x44, 0x3d, 0x43, 0x38, 0x48, 0x3c, 0x39, 0x4a, 0x42,
    0x3d, 0x43, 0x3f, 0x49, 0x3e, 0x47, 0x49, 0x41, 0x3b, 0x3c, 0x47, 0x3a,
    0x3d, 0x40, 0x4a, 0x38, 0x3d, 0x3b, 0x47, 0x3a, 0x36, 0x47, 0x42, 0x46,
    0x3c, 0x3d, 0x45, 0x3b, 0x48, 0x3f, 0x38, 0x36, 0x39, 0x46, 0x43, 0x3a,
    0x41, 0x3d, 0x39, 0x39, 0x46, 0x37, 0x3f, 0x3f, 0x3a, 0x46, 0x3f, 0x39,
    0x49, 0x44, 0x42, 0x3a, 0x3a, 0x43, 0x3e, 0x42, 0x3d, 0x3d, 0x43, 0x40,
    0x43, 0x3c, 0x3f, 0x43, 0x40, 0x42, 0x3b, 0x57, 0x4a, 0x4f, 0x4a, 0x2d,
    0x3b, 0x48, 0x45, 0x42, 0x34, 0x4c, 0x3e, 0x4f, 0x4d, 0x40, 0x6c, 0x4b,
    0x3b, 0x4d, 0x4c, 0x57, 0x49, 0x3d, 0x5d, 0x44, 0x43, 0x29, 0x42, 0x3f,
    0x5b, 0x47, 0x4f, 0x3e, 0x54, 0x2e, 0x34, 0x34, 0x4b, 0x47, 0x46, 0x46,
    0x4b, 0x34, 0x36, 0x28, 0x3e, 0x3f, 0x42, 0x40, 0x3b, 0x38, 0x39, 0x42,
    0x49, 0x3d, 0x49, 0x47, 0x47, 0x3b, 0x43, 0x34, 0x39, 0x36, 0x42, 0x3d,
    0x37, 0x40, 0x37, 0x38, 0x46, 0x42, 0x49, 0x37, 0x44, 0x3f, 0x38, 0x3e,
    0x36, 0x32, 0x33, 0x38, 0x40, 0x46, 0x42, 0x34, 0x41, 0x42, 0x3e, 0x38,
    0x44, 0x3e, 0x3f, 0x43, 0x3f, 0x43, 0x35, 0x3f, 0x4d, 0x3b, 0x43, 0x39,
    0x40, 0x47, 0x3f, 0x4a, 0x3a, 0x3f, 0x45, 0x45, 0x48, 0x42, 0x3b, 0x47,
    0x42, 0x4b, 0x47, 0x3e, 0x3c, 0x42, 0x46, 0x39, 0x41, 0x3f, 0x48, 0x33,
    0x45, 0x34, 0x3d, 0x30, 0x40, 0x4c, 0x40, 0x40, 0x39, 0x37, 0x40, 0x33,
    0x49, 0x42, 0x45, 0x38, 0x3c, 0x43, 0x45, 0x35, 0x37, 0x33, 0x34, 0x3b,
    0x3b, 0x38, 0x39, 0x41, 0x42, 0x40, 0x3e, 0x3e, 0x41, 0x33, 0x3a, 0x36,
    0x40, 0x3a, 0x3c, 0x45, 0x43, 0x3c, 0x40, 0x41, 0x49, 0x47, 0x35, 0x34,
    0x3a, 0x3d, 0x3a, 0x68, 0x4f, 0x48, 0x43, 0x36, 0x37, 0x3e, 0x45, 0x49,
    0x3a, 0x4d, 0x41, 0x3d, 0x46, 0x45, 0x65, 0x46, 0x38, 0x4d, 0x4a, 0x53,
    0x43, 0x41, 0x5d, 0x47, 0x41, 0x34, 0x39, 0x43, 0x4e, 0x48, 0x50, 0x38,
    0x53, 0x32, 0x30, 0x2e, 0x49, 0x4c, 0x4d, 0x3f, 0x46, 0x38, 0x34, 0x2b,
    0x44, 0x44, 0x41, 0x41, 0x36, 0x40, 0x3f, 0x32, 0x46, 0x38, 0x50, 0x45,
    0x3f, 0x3d, 0x3b, 0x36, 0x3b, 0x43, 0x3a, 0x34, 0x36, 0x3f, 0x39, 0x35,
    0x3c, 0x40, 0x40, 0x37, 0x3c, 0x39, 0x3d, 0x36, 0x48, 0x3d, 0x43, 0x34,
    0x3b, 0x46, 0x43, 0x41, 0x33, 0x3e, 0x44, 0x3d, 0x44, 0x44, 0x4c, 0x3c,
    0x37, 0x49, 0x42, 0x35, 0x45, 0x3a, 0x3c, 0x41, 0x3a, 0x45, 0x46, 0x41,
    0x3c, 0x48, 0x46, 0x36, 0x36, 0x42, 0x3b, 0x46, 0x42, 0x45, 0x44, 0x47,
    0x3f, 0x44, 0x3a, 0x35, 0x37, 0x46, 0x40, 0x38, 0x40, 0x3d, 0x36, 0x2c,
    0x34, 0x47, 0x40, 0x38, 0x3f, 0x3f, 0x44, 0x2d, 0x3b, 0x3d, 0x3e, 0x44,
    0x3c, 0x40, 0x3e, 0x33, 0x3c, 0x3a, 0x49, 0x40, 0x42, 0x42, 0x3a, 0x3b,
    0x33, 0x3d, 0x3c, 0x43, 0x3e, 0x3d, 0x3a, 0x3a, 0x48, 0x3e, 0x3c, 0x39,
    0x3f, 0x44, 0x37, 0x40, 0x3f, 0x3c, 0x3e, 0x3d, 0x38, 0x42, 0x34, 0x62,
    0x51, 0x47, 0x44, 0x3f, 0x32, 0x3c, 0x3f, 0x46, 0x3d, 0x46, 0x3e, 0x45,
    0x4a, 0x3e, 0x5d, 0x43, 0x45, 0x49, 0x4a, 0x55, 0x41, 0x3c, 0x5a, 0x44,
    0x43, 0x3b, 0x3c, 0x3a, 0x4b, 0x4e, 0x4d, 0x42, 0x49, 0x30, 0x3b, 0x38,
    0x42, 0x44, 0x51, 0x40, 0x48, 0x33, 0x3f, 0x2b, 0x3c, 0x41, 0x3c, 0x45,
    0x35, 0x39, 0x42, 0x37, 0x40, 0x46, 0x46, 0x3f, 0x41, 0x45, 0x42, 0x3d,
    0x43, 0x38, 0x3e, 0x38, 0x3c, 0x39, 0x40, 0x38, 0x37, 0x36, 0x3d, 0x3d,
    0x38, 0x47, 0x45, 0x3b, 0x45, 0x44, 0x42, 0x2e, 0x37, 0x40, 0x42, 0x42,
    0x3c, 0x36, 0x3b, 0x39, 0x44, 0x4d, 0x42, 0x3f, 0x3a, 0x3e, 0x45, 0x34,
    0x3c, 0x43, 0x47, 0x43, 0x3f, 0x48, 0x3b, 0x44, 0x3d, 0x44, 0x43, 0x3e,
    0x40, 0x4a, 0x31, 0x42, 0x42, 0x43, 0x48, 0x45, 0x3a, 0x42, 0x36, 0x2f,
    0x3c, 0x3e, 0x3b, 0x3b, 0x44, 0x3f, 0x3a, 0x2c, 0x47, 0x3f, 0x4a, 0x40,
    0x40, 0x40, 0x3c, 0x2a, 0x3e, 0x44, 0x40, 0x43, 0x3a, 0x42, 0x39, 0x34,
    0x49, 0x3e, 0x36, 0x42, 0x3f, 0x42, 0x33, 0x3b, 0x3c, 0x45, 0x39, 0x3f,
    0x3e, 0x3f, 0x41, 0x3d, 0x32, 0x3b, 0x31, 0x40, 0x3f, 0x44, 0x3c, 0x3f,
    0x40, 0x46, 0x45, 0x36, 0x36, 0x42, 0x30, 0x57, 0x47, 0x44, 0x48, 0x3f,
    0x35, 0x37, 0x3f, 0x3f, 0x38, 0x4a, 0x41, 0x46, 0x50, 0x3d, 0x5b, 0x41,
    0x3e, 0x3c, 0x4a, 0x54, 0x45, 0x41, 0x5b, 0x46, 0x3d, 0x3b, 0x43, 0x33,
    0x45, 0x4e, 0x43, 0x3b, 0x44, 0x37, 0x37, 0x32, 0x4c, 0x3d, 0x4c, 0x3f,
    0x49, 0x3b, 0x37, 0x3a, 0x33, 0x43, 0x3f, 0x40, 0x44, 0x36, 0x3b, 0x44,
    0x45, 0x40, 0x3c, 0x3c, 0x41, 0x44, 0x3b, 0x3d, 0x33, 0x37, 0x3c, 0x35,
    0x3d, 0x3f, 0x39, 0x38, 0x33, 0x43, 0x3e, 0x39, 0x3b, 0x3e, 0x41, 0x35,
    0x40, 0x46, 0x43, 0x35, 0x41, 0x3d, 0x32, 0x39, 0x3c, 0x40, 0x3e, 0x3f,
    0x42, 0x38, 0x3b, 0x45, 0x3a, 0x3d, 0x40, 0x36, 0x3a, 0x40, 0x46, 0x44,
    0x48, 0x45, 0x3f, 0x3a, 0x45, 0x45, 0x3c, 0x3b, 0x40, 0x4c, 0x39, 0x3a,
    0x38, 0x39, 0x46, 0x3a, 0x3e, 0x4b, 0x34, 0x39, 0x3d, 0x3f, 0x40, 0x39,
    0x45, 0x31, 0x45, 0x29, 0x3f, 0x38, 0x3a, 0x3f, 0x38, 0x3b, 0x36, 0x2d,
    0x43, 0x3d, 0x45, 0x3c, 0x46, 0x3f, 0x40, 0x3c, 0x3a, 0x3e, 0x3d, 0x38,
    0x3f, 0x3c, 0x3f, 0x42, 0x35, 0x3f, 0x3a, 0x43, 0x3d, 0x43, 0x3d, 0x33,
    0x3d, 0x48, 0x42, 0x3d, 0x45, 0x46, 0x3d, 0x35, 0x32, 0x44, 0x42, 0x37,
    0x3d, 0x40, 0x3c, 0x47, 0x4a, 0x45, 0x47, 0x2f, 0x33, 0x36, 0x3f, 0x42,
    0x38, 0x43, 0x3e, 0x3a, 0x41, 0x3f, 0x5f, 0x3f, 0x48, 0x3a, 0x44, 0x47,
    0x41, 0x3e, 0x57, 0x42, 0x41, 0x33, 0x34, 0x39, 0x42, 0x44, 0x42, 0x3c,
    0x49, 0x34, 0x37, 0x33, 0x47, 0x38, 0x43, 0x3d, 0x43, 0x3e, 0x3e, 0x36,
    0x41, 0x41, 0x37, 0x40, 0x39, 0x3e, 0x3b, 0x3b, 0x3e, 0x41, 0x3d, 0x3b,
    0x43, 0x3e, 0x39, 0x43, 0x2f, 0x3e, 0x33, 0x40, 0x45, 0x47, 0x30, 0x46,
    0x3f, 0x3f, 0x37, 0x42, 0x3d, 0x42, 0x43, 0x37, 0x38, 0x3c, 0x35, 0x34,
    0x41, 0x43, 0x3e, 0x3e, 0x3f, 0x49, 0x35, 0x35, 0x38, 0x36, 0x3a, 0x43,
    0x38, 0x46, 0x48, 0x36, 0x3f, 0x39, 0x3b, 0x3e, 0x48, 0x47, 0x41, 0x34,
    0x3b, 0x3c, 0x37, 0x3e, 0x40, 0x41, 0x3b, 0x3d, 0x43, 0x42, 0x3a, 0x39,
    0x3b, 0x43, 0x38, 0x2b, 0x43, 0x41, 0x48, 0x35, 0x44, 0x44, 0x3e, 0x2c,
    0x46, 0x40, 0x3e, 0x41, 0x38, 0x34, 0x35, 0x37, 0x34, 0x3f, 0x3d, 0x46,
    0x33, 0x3c, 0x3c, 0x2e, 0x3b, 0x45, 0x3d, 0x3e, 0x3a, 0x42, 0x3c, 0x36,
    0x3a, 0x42, 0x39, 0x43, 0x35, 0x39, 0x40, 0x44, 0x47, 0x41, 0x44, 0x3d,
    0x41, 0x3e, 0x38, 0x39, 0x45, 0x3a, 0x35, 0x43, 0x3f, 0x44, 0x41, 0x49,
    0x47, 0x3f, 0x44, 0x40, 0x38, 0x43, 0x40, 0x3e, 0x39, 0x42, 0x32, 0x3b,
    0x42, 0x47, 0x57, 0x37, 0x36, 0x38, 0x43, 0x49, 0x3b, 0x34, 0x54, 0x42,
    0x3d, 0x3f, 0x3e, 0x3b, 0x38, 0x41, 0x43, 0x3a, 0x44, 0x39, 0x34, 0x2c,
    0x38, 0x43, 0x4b, 0x3f, 0x40, 0x3e, 0x32, 0x33, 0x3d, 0x44, 0x45, 0x44,
    0x3e, 0x35, 0x37, 0x39, 0x40, 0x3e, 0x40, 0x3c, 0x34, 0x43, 0x37, 0x40,
    0x39, 0x3e, 0x3d, 0x43, 0x3a, 0x44, 0x43, 0x44, 0x3d, 0x3b, 0x45, 0x3b,
    0x3a, 0x3a, 0x3f, 0x37, 0x43, 0x3b, 0x33, 0x35, 0x40, 0x47, 0x3e, 0x3c,
    0x39, 0x3c, 0x34, 0x29, 0x3c, 0x3e, 0x46, 0x3e, 0x3c, 0x38, 0x3f, 0x2d,
    0x3d, 0x3d, 0x3f, 0x3f, 0x3d, 0x45, 0x3b, 0x32, 0x39, 0x3f, 0x41, 0x38,
    0x36, 0x3e, 0x3a, 0x35, 0x40, 0x3f, 0x3b, 0x32, 0x3c, 0x39, 0x3e, 0x35,
    0x3e, 0x45, 0x34, 0x38, 0x44, 0x39, 0x3f, 0x31, 0x34, 0x39, 0x3f, 0x38,
    0x44, 0x42, 0x3f, 0x3b, 0x39, 0x3d, 0x39, 0x3b, 0x44, 0x46, 0x38, 0x3d,
    0x45, 0x37, 0x40, 0x3a, 0x3a, 0x39, 0x35, 0x3c, 0x39, 0x40, 0x47, 0x3e,
    0x38, 0x42, 0x41, 0x3b, 0x48, 0x3f, 0x3a, 0x3e, 0x3d, 0x3f, 0x32, 0x3b,
    0x3f, 0x3d, 0x3e, 0x44, 0x43, 0x41, 0x44, 0x47, 0x48, 0x41, 0x41, 0x36,
    0x3a, 0x33, 0x3c, 0x3c, 0x37, 0x3e, 0x40, 0x34, 0x3f, 0x42, 0x53, 0x40,
    0x3f, 0x35, 0x3e, 0x46, 0x3a, 0x3e, 0x4b, 0x41, 0x46, 0x32, 0x39, 0x36,
    0x3b, 0x4f, 0x36, 0x3c, 0x40, 0x3a, 0x40, 0x40, 0x47, 0x3e, 0x49, 0x37,
    0x3f, 0x31, 0x3e, 0x40, 0x3b, 0x3f, 0x43, 0x44, 0x3a, 0x3d, 0x31, 0x41,
    0x41, 0x33, 0x43, 0x40, 0x3c, 0x3a, 0x41, 0x40, 0x37, 0x3f, 0x34, 0x3e,
    0x44, 0x42, 0x3d, 0x3f, 0x3f, 0x34, 0x36, 0x34, 0x31, 0x41, 0x32, 0x39,
    0x3e, 0x3d, 0x42, 0x35, 0x3e, 0x3a, 0x41, 0x47, 0x3d, 0x42, 0x33, 0x32,
    0x43, 0x42, 0x36, 0x41, 0x3e, 0x39, 0x46, 0x39, 0x35, 0x3d, 0x3d, 0x40,
    0x38, 0x44, 0x3d, 0x31, 0x44, 0x39, 0x3a, 0x45, 0x42, 0x41, 0x3d, 0x36,
    0x3f, 0x3c, 0x39, 0x3d, 0x32, 0x39, 0x42, 0x34, 0x3f, 0x38, 0x44, 0x3c,
    0x43, 0x45, 0x41, 0x2d, 0x44, 0x42, 0x3d, 0x3f, 0x44, 0x38, 0x3d, 0x35,
    0x3a, 0x48, 0x40, 0x3b, 0x3d, 0x36, 0x3b, 0x40, 0x3f, 0x3a, 0x3a, 0x3f,
    0x3c, 0x33, 0x39, 0x3c, 0x3c, 0x38, 0x47, 0x36, 0x3d, 0x41, 0x46, 0x41,
    0x34, 0x46, 0x48, 0x46, 0x3d, 0x3c, 0x40, 0x43, 0x3d, 0x41, 0x37, 0x3e,
    0x39, 0x47, 0x3f, 0x39, 0x46, 0x43, 0x3f, 0x41, 0x45, 0x37, 0x40, 0x3a,
    0x3d, 0x44, 0x3f, 0x3b, 0x3b, 0x40, 0x4f, 0x3d, 0x3d, 0x41, 0x3c, 0x43,
    0x3e, 0x46, 0x4e, 0x40, 0x3f, 0x34, 0x48, 0x29, 0x45, 0x44, 0x46, 0x41,
    0x45, 0x32, 0x3e, 0x38, 0x39, 0x3a, 0x3e, 0x3e, 0x4c, 0x34, 0x3c, 0x40,
    0x4a, 0x44, 0x3d, 0x46, 0x3b, 0x3e, 0x42, 0x42, 0x3a, 0x41, 0x43, 0x41,
    0x39, 0x3f, 0x3e, 0x3c, 0x36, 0x48, 0x3f, 0x3e, 0x3e, 0x37, 0x3f, 0x3f,
    0x3b, 0x40, 0x3e, 0x35, 0x32, 0x35, 0x3f, 0x33, 0x3f, 0x38, 0x43, 0x37,
    0x49, 0x38, 0x37, 0x3c, 0x3c, 0x40, 0x40, 0x3a, 0x3a, 0x46, 0x37, 0x34,
    0x34, 0x3b, 0x3d, 0x2f, 0x3a, 0x38, 0x3d, 0x46, 0x3d, 0x3b, 0x3d, 0x38,
    0x35, 0x37, 0x44, 0x3c, 0x3d, 0x3e, 0x40, 0x3a, 0x40, 0x33, 0x3e, 0x38,
    0x40, 0x3e, 0x45, 0x37, 0x3f, 0x3b, 0x3c, 0x40, 0x3b, 0x3c, 0x3b, 0x33,
    0x41, 0x3f, 0x3b, 0x42, 0x31, 0x3b, 0x3a, 0x39, 0x3d, 0x41, 0x39, 0x40,
    0x43, 0x45, 0x39, 0x3b, 0x3a, 0x42, 0x43, 0x3d, 0x3f, 0x40, 0x47, 0x39,
    0x37, 0x3f, 0x47, 0x3f, 0x45, 0x41, 0x39, 0x3a, 0x41, 0x38, 0x3c, 0x3c,
    0x39, 0x40, 0x39, 0x3b, 0x3b, 0x3e, 0x38, 0x3b, 0x37, 0x48, 0x41, 0x3f,
    0x3e, 0x37, 0x3d, 0x44, 0x3c, 0x3e, 0x40, 0x39, 0x41, 0x42, 0x3d, 0x45,
    0x3b, 0x3e, 0x4c, 0x3b, 0x3a, 0x3a, 0x3e, 0x47, 0x3c, 0x3f, 0x48, 0x3f,
    0x46, 0x3f, 0x39, 0x25, 0x44, 0x3a, 0x3b, 0x40, 0x41, 0x39, 0x39, 0x47,
    0x3b, 0x32, 0x49, 0x42, 0x41, 0x3a, 0x43, 0x41, 0x3e, 0x35, 0x37, 0x3d,
    0x49, 0x40, 0x45, 0x3b, 0x3c, 0x38, 0x48, 0x3c, 0x3c, 0x35, 0x3f, 0x41,
    0x41, 0x4c, 0x36, 0x39, 0x37, 0x3d, 0x3b, 0x3e, 0x44, 0x32, 0x3d, 0x3f,
    0x3a, 0x3b, 0x3a, 0x47, 0x38, 0x42, 0x36, 0x34, 0x43, 0x3f, 0x3e, 0x40,
    0x34, 0x31, 0x36, 0x33, 0x42, 0x37, 0x41, 0x41, 0x40, 0x3d, 0x3d, 0x37,
    0x43, 0x3a, 0x3e, 0x44, 0x43, 0x3c, 0x35, 0x38, 0x38, 0x3c, 0x43, 0x36,
    0x3a, 0x38, 0x40, 0x3f, 0x3d, 0x3e, 0x37, 0x3b, 0x41, 0x3a, 0x3b, 0x3d,
    0x3c, 0x41, 0x3c, 0x41, 0x47, 0x3f, 0x3f, 0x3b, 0x3d, 0x3f, 0x3b, 0x45,
    0x38, 0x38, 0x40, 0x38, 0x46, 0x42, 0x39, 0x3d, 0x3d, 0x3b, 0x42, 0x36,
    0x42, 0x41, 0x3e, 0x3e, 0x36, 0x3f, 0x37, 0x3f, 0x36, 0x48, 0x3b, 0x39,
    0x3d, 0x3f, 0x43, 0x3e, 0x3c, 0x40, 0x48, 0x46, 0x43, 0x36, 0x42, 0x39,
    0x46, 0x3c, 0x37, 0x38, 0x49, 0x37, 0x36, 0x39, 0x3e, 0x42, 0x48, 0x3a,
    0x3c, 0x3e, 0x42, 0x30, 0x3e, 0x34, 0x39, 0x3b, 0x46, 0x61, 0x46, 0x1e,
    0x4c, 0x3b, 0x40, 0x2d, 0x3c, 0x42, 0x32, 0x30, 0x49, 0x3e, 0x39, 0x34,
    0x30, 0x40, 0x31, 0x38, 0x40, 0x3d, 0x3c, 0x35, 0x3a, 0x36, 0x40, 0x3b,
    0x41, 0x40, 0x3b, 0x39, 0x37, 0x37, 0x3f, 0x3b, 0x3c, 0x3a, 0x40, 0x3a,
    0x36, 0x3c, 0x42, 0x39, 0x3e, 0x36, 0x40, 0x42, 0x39, 0x40, 0x3b, 0x34,
    0x37, 0x33, 0x36, 0x3f, 0x43, 0x33, 0x33, 0x27, 0x3d, 0x46, 0x40, 0x31,
    0x38, 0x3e, 0x41, 0x20, 0x3f, 0x39, 0x42, 0x35, 0x35, 0x45, 0x40, 0x1e,
    0x32, 0x35, 0x32, 0x3c, 0x35, 0x44, 0x46, 0x29, 0x3a, 0x3d, 0x37, 0x42,
    0x3b, 0x45, 0x3a, 0x26, 0x38, 0x40, 0x30, 0x37, 0x41, 0x40, 0x39, 0x2b,
    0x49, 0x3f, 0x43, 0x43, 0x40, 0x3a, 0x38, 0x29, 0x43, 0x3a, 0x37, 0x40,
    0x3f, 0x35, 0x3a, 0x28, 0x36, 0x3e, 0x3f, 0x43, 0x3c, 0x39, 0x42, 0x2c,
    0x38, 0x42, 0x38, 0x3d, 0x42, 0x38, 0x35, 0x2d, 0x34, 0x38, 0x3d, 0x43,
    0x46, 0x3e, 0x3c, 0x27, 0x3e, 0x40, 0x46, 0x39, 0x35, 0x3d, 0x42, 0x35,
    0x42, 0x36, 0x40, 0x3e, 0x3a, 0x3e, 0x3c, 0x37, 0x3a, 0x3c, 0x48, 0x48,
    0x48, 0x37, 0x3d, 0x38, 0x4b, 0x40, 0x43, 0x3b, 0x41, 0x46, 0x3c, 0x34,
    0x46, 0x3c, 0x3c, 0x3c, 0x4b, 0x64, 0x4a, 0x22, 0x52, 0x41, 0x42, 0x3b,
    0x42, 0x4a, 0x34, 0x37, 0x4b, 0x44, 0x3b, 0x4a, 0x38, 0x3f, 0x38, 0x3a,
    0x40, 0x41, 0x42, 0x3c, 0x33, 0x3e, 0x3c, 0x42, 0x2c, 0x4e, 0x47, 0x3f,
    0x38, 0x33, 0x39, 0x3f, 0x3b, 0x45, 0x37, 0x3a, 0x42, 0x42, 0x44, 0x3f,
    0x3c, 0x3c, 0x3e, 0x3d, 0x3c, 0x3c, 0x40, 0x2c, 0x3c, 0x3d, 0x42, 0x39,
    0x3a, 0x37, 0x43, 0x2a, 0x3d, 0x40, 0x41, 0x41, 0x46, 0x46, 0x42, 0x28,
    0x39, 0x3c, 0x37, 0x44, 0x46, 0x41, 0x47, 0x2b, 0x44, 0x33, 0x39, 0x3f,
    0x3f, 0x43, 0x3d, 0x23, 0x3a, 0x43, 0x41, 0x3b, 0x41, 0x42, 0x33, 0x1f,
    0x43, 0x3e, 0x3d, 0x40, 0x37, 0x33, 0x42, 0x28, 0x3b, 0x38, 0x37, 0x3c,
    0x34, 0x40, 0x44, 0x2a, 0x3c, 0x3a, 0x41, 0x37, 0x45, 0x3f, 0x3e, 0x26,
    0x41, 0x40, 0x35, 0x3d, 0x45, 0x3e, 0x3d, 0x29, 0x3c, 0x39, 0x3f, 0x3c,
    0x3d, 0x39, 0x38, 0x2d, 0x39, 0x38, 0x38, 0x44, 0x3c, 0x3e, 0x38, 0x26,
    0x40, 0x36, 0x39, 0x38, 0x3f, 0x32, 0x39, 0x35, 0x3d, 0x3e, 0x35, 0x3a,
    0x3f, 0x3f, 0x31, 0x35, 0x34, 0x45, 0x3e, 0x43, 0x48, 0x3b, 0x37, 0x39,
    0x4d, 0x46, 0x54, 0x40, 0x41, 0x4e, 0x3d, 0x38, 0x4d, 0x38, 0x3a, 0x3b,
    0x49, 0x5a, 0x4a, 0x1e, 0x5e, 0x39, 0x38, 0x37, 0x3a, 0x51, 0x3a, 0x3c,
    0x50, 0x3f, 0x40, 0x42, 0x33, 0x3b, 0x2e, 0x4a, 0x3f, 0x4a, 0x3b, 0x43,
    0x36, 0x3e, 0x3d, 0x42, 0x39, 0x46, 0x4b, 0x3c, 0x3b, 0x3b, 0x35, 0x3e,
    0x3d, 0x4b, 0x3f, 0x41, 0x3f, 0x3b, 0x42, 0x42, 0x38, 0x3a, 0x41, 0x3d,
    0x36, 0x41, 0x37, 0x2f, 0x38, 0x37, 0x3f, 0x34, 0x35, 0x35, 0x45, 0x30,
    0x31, 0x42, 0x31, 0x3a, 0x3a, 0x3e, 0x3d, 0x23, 0x3f, 0x43, 0x3b, 0x41,
    0x35, 0x3b, 0x40, 0x25, 0x45, 0x3e, 0x42, 0x3b, 0x31, 0x40, 0x36, 0x28,
    0x43, 0x42, 0x30, 0x42, 0x32, 0x32, 0x36, 0x2c, 0x35, 0x3a, 0x3d, 0x3a,
    0x3c, 0x36, 0x3e, 0x30, 0x41, 0x42, 0x38, 0x41, 0x41, 0x3e, 0x3c, 0x23,
    0x37, 0x40, 0x3c, 0x3e, 0x3e, 0x3a, 0x37, 0x2b, 0x36, 0x40, 0x41, 0x42,
    0x3e, 0x38, 0x44, 0x22, 0x46, 0x38, 0x33, 0x3b, 0x3a, 0x3a, 0x3a, 0x24,
    0x36, 0x3b, 0x38, 0x44, 0x34, 0x38, 0x40, 0x28, 0x38, 0x3d, 0x36, 0x44,
    0x31, 0x3e, 0x37, 0x37, 0x36, 0x3f, 0x47, 0x38, 0x3b, 0x3e, 0x2c, 0x4c,
    0x36, 0x3c, 0x3b, 0x41, 0x4c, 0x3d, 0x3d, 0x40, 0x49, 0x44, 0x52, 0x3f,
    0x3b, 0x4d, 0x3c, 0x3a, 0x4f, 0x3b, 0x36, 0x3b, 0x4a, 0x5f, 0x4e, 0x1f,
    0x57, 0x3c, 0x3d, 0x3d, 0x46, 0x59, 0x42, 0x45, 0x52, 0x3d, 0x3a, 0x41,
    0x31, 0x39, 0x39, 0x4f, 0x43, 0x4e, 0x3e, 0x37, 0x3a, 0x37, 0x33, 0x47,
    0x32, 0x45, 0x47, 0x43, 0x31, 0x33, 0x38, 0x43, 0x3e, 0x47, 0x3d, 0x32,
    0x3b, 0x39, 0x3c, 0x42, 0x3d, 0x47, 0x42, 0x40, 0x3d, 0x3f, 0x3c, 0x34,
    0x3b, 0x3e, 0x42, 0x3d, 0x43, 0x35, 0x42, 0x2c, 0x35, 0x3d, 0x3c, 0x3d,
    0x3a, 0x3c, 0x46, 0x25, 0x43, 0x35, 0x3d, 0x39, 0x3a, 0x3c, 0x40, 0x2b,
    0x33, 0x40, 0x3d, 0x46, 0x45, 0x37, 0x3c, 0x36, 0x43, 0x37, 0x3e, 0x3a,
    0x3c, 0x47, 0x3f, 0x38, 0x36, 0x3e, 0x3a, 0x42, 0x3c, 0x42, 0x33, 0x39,
    0x3c, 0x3a, 0x3c, 0x40, 0x48, 0x3b, 0x40, 0x32, 0x37, 0x47, 0x34, 0x38,
    0x33, 0x3d, 0x49, 0x2d, 0x36, 0x42, 0x3d, 0x3e, 0x47, 0x3c, 0x42, 0x2c,
    0x3b, 0x31, 0x3f, 0x3c, 0x3d, 0x3c, 0x3f, 0x2b, 0x41, 0x35, 0x33, 0x43,
    0x47, 0x39, 0x34, 0x2a, 0x3a, 0x3a, 0x40, 0x3d, 0x44, 0x3c, 0x39, 0x34,
    0x43, 0x40, 0x33, 0x3a, 0x3b, 0x42, 0x38, 0x3b, 0x34, 0x35, 0x40, 0x43,
    0x4b, 0x41, 0x3d, 0x38, 0x49, 0x44, 0x4d, 0x37, 0x3a, 0x4b, 0x40, 0x39,
    0x4e, 0x3b, 0x30, 0x38, 0x47, 0x5d, 0x50, 0x1f, 0x54, 0x35, 0x3a, 0x39,
    0x40, 0x4c, 0x46, 0x42, 0x52, 0x39, 0x39, 0x45, 0x41, 0x3c, 0x30, 0x5b,
    0x43, 0x4d, 0x4a, 0x3e, 0x31, 0x39, 0x41, 0x4c, 0x36, 0x44, 0x4c, 0x39,
    0x32, 0x41, 0x47, 0x3e, 0x34, 0x49, 0x45, 0x3b, 0x34, 0x3a, 0x3b, 0x47,
    0x43, 0x3e, 0x43, 0x32, 0x40, 0x3e, 0x3e, 0x38, 0x37, 0x3e, 0x37, 0x3a,
    0x3a, 0x40, 0x48, 0x2f, 0x3e, 0x3e, 0x46, 0x3a, 0x3e, 0x35, 0x49, 0x30,
    0x3a, 0x41, 0x3e, 0x39, 0x34, 0x45, 0x3d, 0x34, 0x48, 0x43, 0x43, 0x42,
    0x33, 0x39, 0x3b, 0x3f, 0x30, 0x46, 0x41, 0x39, 0x48, 0x3a, 0x3c, 0x3e,
    0x3f, 0x36, 0x40, 0x3d, 0x43, 0x40, 0x3e, 0x39, 0x44, 0x40, 0x44, 0x3b,
    0x43, 0x42, 0x39, 0x38, 0x3a, 0x3f, 0x3b, 0x3f, 0x38, 0x3d, 0x34, 0x30,
    0x34, 0x3d, 0x3f, 0x42, 0x44, 0x3e, 0x34, 0x32, 0x37, 0x46, 0x44, 0x38,
    0x3c, 0x45, 0x39, 0x2b, 0x41, 0x3c, 0x40, 0x40, 0x3a, 0x3a, 0x3c, 0x32,
    0x45, 0x42, 0x3d, 0x46, 0x38, 0x3b, 0x34, 0x35, 0x38, 0x43, 0x3d, 0x34,
    0x42, 0x3b, 0x38, 0x3d, 0x37, 0x43, 0x3f, 0x39, 0x4e, 0x39, 0x40, 0x3f,
    0x4d, 0x43, 0x49, 0x3f, 0x36, 0x41, 0x44, 0x39, 0x48, 0x3a, 0x35, 0x39,
    0x48, 0x59, 0x4e, 0x25, 0x58, 0x39, 0x42, 0x35, 0x43, 0x4e, 0x42, 0x3f,
    0x4a, 0x43, 0x3b, 0x3f, 0x3b, 0x37, 0x2b, 0x5a, 0x3d, 0x44, 0x3b, 0x40,
    0x31, 0x38, 0x37, 0x44, 0x32, 0x3e, 0x41, 0x3d, 0x2c, 0x42, 0x42, 0x3c,
    0x37, 0x45, 0x41, 0x41, 0x3d, 0x39, 0x41, 0x40, 0x3a, 0x46, 0x41, 0x40,
    0x40, 0x3d, 0x38, 0x31, 0x37, 0x3f, 0x42, 0x38, 0x3f, 0x3c, 0x48, 0x30,
    0x3e, 0x39, 0x3f, 0x3d, 0x3d, 0x44, 0x52, 0x35, 0x3b, 0x32, 0x42, 0x32,
    0x3a, 0x43, 0x39, 0x3b, 0x31, 0x43, 0x36, 0x3c, 0x3c, 0x3c, 0x41, 0x45,
    0x42, 0x49, 0x41, 0x3b, 0x42, 0x3e, 0x41, 0x44, 0x36, 0x41, 0x3f, 0x3c,
    0x3e, 0x47, 0x45, 0x41, 0x38, 0x41, 0x3f, 0x43, 0x35, 0x32, 0x41, 0x39,
    0x36, 0x47, 0x35, 0x42, 0x44, 0x3b, 0x3f, 0x34, 0x48, 0x41, 0x43, 0x42,
    0x36, 0x3e, 0x3c, 0x3d, 0x3d, 0x3b, 0x42, 0x44, 0x3a, 0x44, 0x36, 0x2a,
    0x41, 0x39, 0x3a, 0x41, 0x46, 0x3c, 0x44, 0x2f, 0x36, 0x39, 0x3b, 0x3f,
    0x38, 0x45, 0x3c, 0x3c, 0x3e, 0x41, 0x3c, 0x39, 0x3e, 0x40, 0x2f, 0x45,
    0x3b, 0x41, 0x40, 0x3c, 0x4e, 0x38, 0x3e, 0x48, 0x46, 0x40, 0x48, 0x44,
    0x40, 0x4a, 0x45, 0x3c, 0x4f, 0x39, 0x37, 0x3a, 0x4e, 0x59, 0x5c, 0x22,
    0x58, 0x32, 0x38, 0x34, 0x40, 0x4b, 0x43, 0x43, 0x4f, 0x3e, 0x39, 0x40,
    0x37, 0x3e, 0x2f, 0x55, 0x3f, 0x40, 0x38, 0x3f, 0x3a, 0x33, 0x37, 0x3d,
    0x34, 0x4c, 0x37, 0x3f, 0x32, 0x39, 0x45, 0x34, 0x44, 0x4c, 0x3f, 0x3b,
    0x3c, 0x36, 0x36, 0x43, 0x36, 0x47, 0x41, 0x46, 0x41, 0x3e, 0x41, 0x3a,
    0x43, 0x3a, 0x48, 0x42, 0x42, 0x3e, 0x4c, 0x36, 0x3d, 0x39, 0x43, 0x46,
    0x3d, 0x42, 0x42, 0x3b, 0x45, 0x43, 0x3c, 0x40, 0x39, 0x37, 0x34, 0x45,
    0x3f, 0x40, 0x34, 0x38, 0x43, 0x3f, 0x36, 0x47, 0x3f, 0x3b, 0x49, 0x3c,
    0x3a, 0x3a, 0x42, 0x4c, 0x37, 0x3e, 0x3b, 0x32, 0x47, 0x40, 0x45, 0x4d,
    0x39, 0x3b, 0x39, 0x40, 0x3e, 0x3c, 0x3d, 0x3a, 0x3d, 0x3b, 0x3e, 0x43,
    0x3e, 0x3f, 0x3a, 0x3c, 0x41, 0x40, 0x39, 0x3c, 0x3a, 0x38, 0x39, 0x37,
    0x36, 0x33, 0x43, 0x45, 0x3f, 0x45, 0x41, 0x30, 0x3b, 0x34, 0x3c, 0x39,
    0x3b, 0x45, 0x37, 0x2e, 0x36, 0x34, 0x36, 0x44, 0x3d, 0x40, 0x3a, 0x3c,
    0x3d, 0x3b, 0x38, 0x41, 0x42, 0x3a, 0x32, 0x4b, 0x38, 0x3e, 0x41, 0x46,
    0x57, 0x3a, 0x44, 0x48, 0x47, 0x45, 0x47, 0x3e, 0x43, 0x42, 0x45, 0x3b,
    0x50, 0x39, 0x37, 0x3f, 0x47, 0x51, 0x5e, 0x22, 0x59, 0x33, 0x3c, 0x37,
    0x43, 0x50, 0x49, 0x47, 0x46, 0x42, 0x39, 0x44, 0x44, 0x3d, 0x2f, 0x53,
    0x35, 0x41, 0x40, 0x3d, 0x2d, 0x35, 0x2f, 0x3e, 0x3f, 0x37, 0x38, 0x3e,
    0x30, 0x45, 0x46, 0x38, 0x33, 0x3c, 0x3e, 0x3b, 0x44, 0x42, 0x47, 0x49,
    0x43, 0x40, 0x3d, 0x3c, 0x38, 0x43, 0x3e, 0x38, 0x3d, 0x40, 0x36, 0x43,
    0x43, 0x3e, 0x40, 0x3c, 0x44, 0x47, 0x43, 0x3d, 0x41, 0x39, 0x3e, 0x45,
    0x39, 0x3d, 0x39, 0x40, 0x42, 0x40, 0x3b, 0x4a, 0x40, 0x41, 0x3f, 0x37,
    0x43, 0x41, 0x37, 0x4c, 0x3f, 0x3d, 0x38, 0x3a, 0x42, 0x46, 0x43, 0x4d,
    0x3c, 0x3a, 0x43, 0x3e, 0x3b, 0x3d, 0x46, 0x4a, 0x38, 0x3d, 0x3d, 0x39,
    0x3e, 0x3c, 0x3b, 0x3e, 0x3a, 0x40, 0x40, 0x34, 0x41, 0x3f, 0x3e, 0x3f,
    0x47, 0x3c, 0x32, 0x3a, 0x3c, 0x44, 0x3f, 0x42, 0x41, 0x43, 0x3e, 0x3a,
    0x3b, 0x42, 0x41, 0x39, 0x39, 0x37, 0x39, 0x3e, 0x3d, 0x33, 0x3e, 0x35,
    0x44, 0x37, 0x40, 0x35, 0x3f, 0x47, 0x37, 0x41, 0x35, 0x38, 0x47, 0x40,
    0x43, 0x44, 0x2e, 0x48, 0x35, 0x44, 0x41, 0x3c, 0x47, 0x3d, 0x3d, 0x52,
    0x48, 0x41, 0x44, 0x41, 0x42, 0x4b, 0x3e, 0x3d, 0x4e, 0x32, 0x34, 0x47,
    0x55, 0x57, 0x5f, 0x22, 0x57, 0x33, 0x40, 0x37, 0x40, 0x4a, 0x4d, 0x47,
    0x48, 0x38, 0x3e, 0x46, 0x37, 0x42, 0x28, 0x57, 0x38, 0x42, 0x36, 0x43,
    0x35, 0x37, 0x39, 0x39, 0x42, 0x39, 0x38, 0x3c, 0x35, 0x3c, 0x3c, 0x3a,
    0x3c, 0x4c, 0x45, 0x3f, 0x43, 0x3d, 0x45, 0x45, 0x40, 0x47, 0x3e, 0x3e,
    0x3d, 0x4b, 0x49, 0x35, 0x43, 0x3c, 0x36, 0x46, 0x3c, 0x46, 0x42, 0x44,
    0x3c, 0x42, 0x3d, 0x42, 0x44, 0x3c, 0x4a, 0x40, 0x40, 0x3c, 0x3b, 0x3c,
    0x35, 0x34, 0x2e, 0x46, 0x38, 0x3d, 0x38, 0x44, 0x41, 0x40, 0x3c, 0x52,
    0x3b, 0x3d, 0x3b, 0x3f, 0x42, 0x47, 0x44, 0x52, 0x44, 0x44, 0x39, 0x3f,
    0x43, 0x35, 0x3c, 0x4d, 0x39, 0x3d, 0x3b, 0x37, 0x3e, 0x38, 0x3e, 0x49,
    0x3a, 0x37, 0x3c, 0x49, 0x40, 0x41, 0x3c, 0x40, 0x3d, 0x38, 0x39, 0x3f,
    0x44, 0x3e, 0x42, 0x3e, 0x47, 0x40, 0x34, 0x46, 0x48, 0x37, 0x45, 0x3e,
    0x46, 0x3f, 0x35, 0x39, 0x38, 0x3f, 0x36, 0x2c, 0x40, 0x38, 0x3e, 0x3c,
    0x32, 0x3c, 0x46, 0x3a, 0x3f, 0x41, 0x36, 0x49, 0x42, 0x38, 0x36, 0x43,
    0x3d, 0x41, 0x46, 0x35, 0x4f, 0x3a, 0x41, 0x5c, 0x4a, 0x42, 0x4e, 0x42,
    0x46, 0x54, 0x3f, 0x45, 0x4c, 0x30, 0x33, 0x44, 0x56, 0x5d, 0x68, 0x26,
    0x60, 0x33, 0x3e, 0x3a, 0x42, 0x49, 0x52, 0x47, 0x51, 0x46, 0x40, 0x47,
    0x41, 0x3b, 0x1b, 0x4f, 0x3c, 0x45, 0x3d, 0x3d, 0x32, 0x2f, 0x3e, 0x3c,
    0x3c, 0x3f, 0x3b, 0x3c, 0x2c, 0x3a, 0x41, 0x3c, 0x35, 0x3e, 0x3e, 0x3c,
    0x3d, 0x3f, 0x3e, 0x40, 0x40, 0x44, 0x42, 0x3c, 0x3c, 0x3c, 0x41, 0x3c,
    0x3c, 0x3d, 0x3e, 0x3d, 0x3c, 0x3d, 0x4a, 0x46, 0x3f, 0x35, 0x33, 0x43,
    0x42, 0x41, 0x4d, 0x48, 0x48, 0x44, 0x3e, 0x41, 0x41, 0x36, 0x3c, 0x4c,
    0x34, 0x47, 0x42, 0x39, 0x3e, 0x43, 0x3a, 0x53, 0x3b, 0x3b, 0x42, 0x3d,
    0x41, 0x3c, 0x3e, 0x52, 0x3a, 0x44, 0x34, 0x43, 0x3d, 0x3d, 0x3a, 0x50,
    0x3e, 0x33, 0x41, 0x40, 0x3f, 0x38, 0x43, 0x42, 0x3b, 0x37, 0x3e, 0x43,
    0x3f, 0x3c, 0x41, 0x49, 0x40, 0x32, 0x40, 0x3e, 0x3b, 0x3e, 0x44, 0x3c,
    0x35, 0x37, 0x3d, 0x41, 0x34, 0x3f, 0x3a, 0x3c, 0x47, 0x32, 0x41, 0x3d,
    0x3c, 0x3a, 0x4a, 0x31, 0x43, 0x38, 0x45, 0x37, 0x49, 0x3c, 0x34, 0x3f,
    0x3d, 0x3d, 0x3d, 0x45, 0x47, 0x3e, 0x37, 0x48, 0x40, 0x3b, 0x45, 0x3d,
    0x4e, 0x42, 0x3f, 0x57, 0x4b, 0x43, 0x4b, 0x3d, 0x3f, 0x47, 0x4a, 0x43,
    0x4e, 0x30, 0x38, 0x45, 0x59, 0x60, 0x64, 0x2d, 0x5a, 0x2d, 0x34, 0x35,
    0x47, 0x54, 0x4e, 0x3f, 0x44, 0x45, 0x3c, 0x43, 0x3d, 0x40, 0x1c, 0x5a,
    0x36, 0x3f, 0x3a, 0x39, 0x37, 0x3c, 0x32, 0x3b, 0x2d, 0x4a, 0x42, 0x35,
    0x30, 0x41, 0x43, 0x3d, 0x3d, 0x45, 0x38, 0x36, 0x3e, 0x40, 0x3a, 0x4a,
    0x34, 0x3d, 0x44, 0x3c, 0x39, 0x3b, 0x52, 0x38, 0x40, 0x3b, 0x3f, 0x3f,
    0x35, 0x37, 0x46, 0x48, 0x38, 0x3b, 0x40, 0x36, 0x3d, 0x3a, 0x4f, 0x45,
    0x35, 0x3a, 0x35, 0x33, 0x37, 0x43, 0x42, 0x52, 0x37, 0x3b, 0x3d, 0x42,
    0x44, 0x3d, 0x48, 0x58, 0x33, 0x3f, 0x41, 0x44, 0x44, 0x3f, 0x3b, 0x52,
    0x47, 0x39, 0x32, 0x3b, 0x38, 0x35, 0x48, 0x50, 0x34, 0x30, 0x39, 0x43,
    0x42, 0x40, 0x3b, 0x4b, 0x43, 0x3d, 0x34, 0x44, 0x33, 0x39, 0x44, 0x4b,
    0x45, 0x3e, 0x3c, 0x3f, 0x3a, 0x3e, 0x3c, 0x45, 0x36, 0x3e, 0x3d, 0x40,
    0x43, 0x46, 0x37, 0x3d, 0x3b, 0x42, 0x43, 0x3f, 0x3a, 0x41, 0x48, 0x2f,
    0x3e, 0x39, 0x3a, 0x39, 0x3f, 0x3a, 0x41, 0x40, 0x40, 0x3c, 0x3b, 0x3b,
    0x3f, 0x40, 0x3e, 0x42, 0x38, 0x3f, 0x38, 0x3c, 0x49, 0x45, 0x3f, 0x62,
    0x55, 0x47, 0x4c, 0x3c, 0x3c, 0x4a, 0x4c, 0x46, 0x4f, 0x39, 0x3a, 0x3b,
    0x5e, 0x58, 0x6f, 0x2b, 0x5a, 0x2f, 0x3a, 0x35, 0x4b, 0x47, 0x4a, 0x46,
    0x45, 0x3e, 0x38, 0x4f, 0x3b, 0x3d, 0x21, 0x4b, 0x3d, 0x40, 0x37, 0x40,
    0x2d, 0x2c, 0x43, 0x3f, 0x2b, 0x3e, 0x3d, 0x39, 0x2f, 0x39, 0x44, 0x3c,
    0x39, 0x39, 0x43, 0x3b, 0x3d, 0x3b, 0x44, 0x39, 0x42, 0x42, 0x3e, 0x40,
    0x3b, 0x42, 0x53, 0x40, 0x32, 0x3d, 0x35, 0x3f, 0x3d, 0x45, 0x48, 0x46,
    0x3d, 0x43, 0x3c, 0x36, 0x35, 0x39, 0x3d, 0x4a, 0x39, 0x39, 0x3e, 0x41,
    0x38, 0x36, 0x3b, 0x53, 0x3c, 0x36, 0x32, 0x3b, 0x43, 0x3d, 0x42, 0x57,
    0x35, 0x2f, 0x38, 0x40, 0x2f, 0x3d, 0x3c, 0x4c, 0x40, 0x2f, 0x3a, 0x36,
    0x39, 0x3c, 0x3a, 0x51, 0x3d, 0x37, 0x39, 0x3c, 0x42, 0x40, 0x43, 0x52,
    0x3e, 0x42, 0x3e, 0x45, 0x36, 0x34, 0x42, 0x4b, 0x3a, 0x38, 0x37, 0x3f,
    0x36, 0x41, 0x3a, 0x45, 0x3e, 0x38, 0x35, 0x41, 0x35, 0x34, 0x37, 0x3c,
    0x3f, 0x31, 0x3c, 0x35, 0x33, 0x43, 0x36, 0x28, 0x44, 0x42, 0x3e, 0x42,
    0x3a, 0x41, 0x43, 0x35, 0x3d, 0x3f, 0x40, 0x3e, 0x3d, 0x33, 0x31, 0x41,
    0x3d, 0x40, 0x3b, 0x40, 0x51, 0x40, 0x3f, 0xfb, 0x51, 0x49, 0x4c, 0x3d,
    0x44, 0x4e, 0x47, 0x42, 0x50, 0x39, 0x39, 0x40, 0x59, 0x5d, 0x70, 0x2c,
    0x59, 0x39, 0x38, 0x2f, 0x46, 0x50, 0x51, 0x47, 0x4c, 0x3c, 0x39, 0x48,
    0x44, 0x3a, 0x1a, 0x51, 0x35, 0x3e, 0x34, 0x3a, 0x3d, 0x2b, 0x41, 0x39,
    0x37, 0x4d, 0x3e, 0x43, 0x38, 0x3b, 0x3a, 0x35, 0x36, 0x3a, 0x43, 0x39,
    0x39, 0x3a, 0x46, 0x3b, 0x39, 0x3c, 0x46, 0x36, 0x3e, 0x3d, 0x4b, 0x3d,
    0x3b, 0x46, 0x3a, 0x41, 0x31, 0x3c, 0x44, 0x4a, 0x37, 0x42, 0x39, 0x43,
    0x43, 0x3e, 0x40, 0x47, 0x3c, 0x3e, 0x3b, 0x43, 0x34, 0x3a, 0x43, 0x53,
    0x3f, 0x37, 0x39, 0x37, 0x3e, 0x3b, 0x46, 0x59, 0x37, 0x37, 0x33, 0x3d,
    0x38, 0x42, 0x36, 0x58, 0x2e, 0x32, 0x2b, 0x45, 0x32, 0x33, 0x36, 0x50,
    0x41, 0x3f, 0x37, 0x3d, 0x3f, 0x3d, 0x46, 0x49, 0x41, 0x38, 0x33, 0x3d,
    0x33, 0x32, 0x3a, 0x49, 0x41, 0x41, 0x3d, 0x33, 0x3b, 0x3b, 0x3a, 0x46,
    0x34, 0x44, 0x3f, 0x3b, 0x2f, 0x3f, 0x32, 0x3c, 0x3f, 0x43, 0x3e, 0x45,
    0x3a, 0x3c, 0x43, 0x26, 0x46, 0x37, 0x38, 0x3e, 0x36, 0x31, 0x3e, 0x34,
    0x39, 0x3a, 0x38, 0x42, 0x38, 0x3e, 0x32, 0x42, 0x37, 0x37, 0x3c, 0x3a,
    0x48, 0x44, 0x3a, 0x68, 0x56, 0x46, 0x4d, 0x47, 0x40, 0x4e, 0x42, 0x46,
    0x51, 0x40, 0x38, 0x43, 0x58, 0x5d, 0x6a, 0x31, 0x57, 0x32, 0x3c, 0x36,
    0x49, 0x56, 0x52, 0x48, 0x4b, 0x41, 0x2f, 0x4d, 0x31, 0x43, 0x1b, 0x4c,
    0x30, 0x44, 0x33, 0x36, 0x2c, 0x3d, 0x45, 0x3a, 0x35, 0x46, 0x3d, 0x39,
    0x2e, 0x38, 0x3f, 0x37, 0x41, 0x44, 0x46, 0x31, 0x33, 0x46, 0x37, 0x37,
    0x3f, 0x41, 0x45, 0x30, 0x46, 0x3b, 0x50, 0x3b, 0x40, 0x39, 0x42, 0x43,
    0x35, 0x37, 0x40, 0x44, 0x3b, 0x41, 0x3d, 0x37, 0x3a, 0x41, 0x3d, 0x46,
    0x36, 0x41, 0x38, 0x41, 0x38, 0x3d, 0x45, 0x58, 0x3d, 0x3a, 0x3d, 0x44,
    0x45, 0x38, 0x48, 0x5c, 0x3d, 0x39, 0x43, 0x45, 0x41, 0x3e, 0x4a, 0x56,
    0x40, 0x33, 0x30, 0x31, 0x42, 0x39, 0x38, 0x56, 0x30, 0x3a, 0x35, 0x3e,
    0x3f, 0x38, 0x36, 0x47, 0x3c, 0x3a, 0x3d, 0x3f, 0x37, 0x35, 0x3b, 0x4d,
    0x43, 0x36, 0x39, 0x37, 0x3e, 0x42, 0x3d, 0x3f, 0x40, 0x3f, 0x34, 0x3b,
    0x3f, 0x3e, 0x3b, 0x39, 0x3b, 0x3a, 0x3a, 0x3c, 0x34, 0x3f, 0x3c, 0x2a,
    0x49, 0x3b, 0x36, 0x3c, 0x35, 0x46, 0x38, 0x3b, 0x3c, 0x39, 0x38, 0x42,
    0x39, 0x36, 0x2e, 0x4a, 0x3d, 0x39, 0x3f, 0x3f, 0x4b, 0x45, 0x3e, 0x67,
    0x4b, 0x4b, 0x49, 0x3e, 0x3f, 0x53, 0x4c, 0x55, 0x47, 0x32, 0x3b, 0x39,
    0x54, 0x5b, 0x6f, 0x29, 0x5a, 0x34, 0x3e, 0x26, 0x45, 0x52, 0x59, 0x44,
    0x59, 0x39, 0x3c, 0x47, 0x36, 0x46, 0x16, 0x50, 0x32, 0x46, 0x34, 0x35,
    0x35, 0x2d, 0x39, 0x38, 0x2c, 0x42, 0x43, 0x3b, 0x32, 0x3f, 0x37, 0x2f,
    0x34, 0x43, 0x46, 0x3b, 0x3b, 0x41, 0x3c, 0x37, 0x3e, 0x43, 0x4b, 0x36,
    0x3e, 0x3c, 0x4c, 0x42, 0x40, 0x3f, 0x49, 0x40, 0x3c, 0x40, 0x3c, 0x48,
    0x35, 0x42, 0x3f, 0x42, 0x44, 0x40, 0x45, 0x4f, 0x3f, 0x3f, 0x40, 0x42,
    0x3b, 0x3d, 0x49, 0x55, 0x42, 0x39, 0x41, 0x3b, 0x3f, 0x38, 0x44, 0x60,
    0x34, 0x40, 0x3b, 0x3b, 0x35, 0x3d, 0x41, 0x4e, 0x35, 0x33, 0x30, 0x3a,
    0x3a, 0x32, 0x42, 0x4f, 0x33, 0x34, 0x2f, 0x38, 0x49, 0x38, 0x40, 0x4c,
    0x35, 0x38, 0x3e, 0x46, 0x3f, 0x3a, 0x3a, 0x45, 0x3b, 0x34, 0x2e, 0x39,
    0x32, 0x3e, 0x40, 0x48, 0x35, 0x44, 0x3a, 0x34, 0x3f, 0x35, 0x3b, 0x32,
    0x40, 0x43, 0x3e, 0x38, 0x3b, 0x43, 0x3c, 0x2b, 0x46, 0x43, 0x40, 0x32,
    0x42, 0x3b, 0x49, 0x2e, 0x3b, 0x3a, 0x3e, 0x41, 0x3c, 0x3f, 0x31, 0x3b,
    0x41, 0x33, 0x41, 0x3c, 0x4d, 0x40, 0x38, 0x68, 0x4c, 0x4c, 0x4e, 0x3f,
    0x3f, 0x54, 0x4a, 0x3d, 0x4c, 0x33, 0x3b, 0x3a, 0x5d, 0x60, 0x71, 0x2b,
    0x59, 0x33, 0x3c, 0x2c, 0x47, 0x52, 0x4f, 0x51, 0x56, 0x3d, 0x39, 0x44,
    0x35, 0x41, 0x1b, 0x4a, 0x35, 0x41, 0x37, 0x35, 0x2c, 0x35, 0x37, 0x35,
    0x38, 0x41, 0x38, 0x3e, 0x3c, 0x40, 0x3c, 0x2f, 0x38, 0x3e, 0x3f, 0x45,
    0x40, 0x3d, 0x3c, 0x35, 0x3c, 0x46, 0x43, 0x39, 0x37, 0x42, 0x4e, 0x3c,
    0x42, 0x46, 0x37, 0x33, 0x43, 0x3f, 0x47, 0x4a, 0x3d, 0x3e, 0x40, 0x40,
    0x40, 0x3f, 0x4b, 0x54, 0x36, 0x3f, 0x37, 0x40, 0x39, 0x39, 0x47, 0x51,
    0x3d, 0x39, 0x36, 0x36, 0x40, 0x40, 0x41, 0x5a, 0x38, 0x39, 0x42, 0x38,
    0x40, 0x39, 0x43, 0x50, 0x3a, 0x3a, 0x32, 0x3c, 0x3c, 0x35, 0x44, 0x4a,
    0x37, 0x35, 0x36, 0x3c, 0x35, 0x30, 0x48, 0x4b, 0x3c, 0x33, 0x37, 0x3e,
    0x42, 0x3c, 0x42, 0x4e, 0x41, 0x32, 0x3e, 0x33, 0x49, 0x39, 0x3e, 0x42,
    0x3d, 0x39, 0x37, 0x36, 0x35, 0x41, 0x3e, 0x37, 0x37, 0x3e, 0x3d, 0x38,
    0x3a, 0x3c, 0x41, 0x29, 0x3c, 0x3b, 0x39, 0x40, 0x43, 0x3d, 0x3e, 0x33,
    0x3f, 0x3f, 0x3e, 0x43, 0x43, 0x38, 0x38, 0x41, 0x3b, 0x38, 0x35, 0x3a,
    0x4b, 0x44, 0x44, 0x55, 0x4e, 0x44, 0x4d, 0x49, 0x3e, 0x53, 0x45, 0x3f,
    0x45, 0x3d, 0x36, 0x36, 0x4f, 0x5b, 0x6b, 0x28, 0x59, 0x34, 0x39, 0x34,
    0x4f, 0x4d, 0x52, 0x3e, 0x51, 0x34, 0x35, 0x4a, 0x3b, 0x3f, 0x21, 0x45,
    0x36, 0x3f, 0x38, 0x33, 0x2c, 0x37, 0x32, 0x2f, 0x2b, 0x44, 0x47, 0x3f,
    0x38, 0x3a, 0x3f, 0x2e, 0x41, 0x3f, 0x3d, 0x41, 0x35, 0x48, 0x43, 0x40,
    0x33, 0x44, 0x40, 0x38, 0x47, 0x44, 0x4c, 0x3d, 0x41, 0x3b, 0x39, 0x36,
    0x3e, 0x44, 0x49, 0x48, 0x3c, 0x3b, 0x34, 0x34, 0x3f, 0x3c, 0x42, 0x52,
    0x43, 0x41, 0x3c, 0x3c, 0x3d, 0x43, 0x48, 0x54, 0x39, 0x35, 0x39, 0x3c,
    0x43, 0x3c, 0x44, 0x5f, 0x39, 0x3d, 0x38, 0x3f, 0x36, 0x3d, 0x43, 0x58,
    0x33, 0x3d, 0x43, 0x33, 0x3f, 0x36, 0x39, 0x54, 0x3a, 0x37, 0x2d, 0x46,
    0x43, 0x41, 0x47, 0x46, 0x3e, 0x42, 0x34, 0x49, 0x3a, 0x3f, 0x38, 0x50,
    0x3a, 0x3b, 0x42, 0x3a, 0x3e, 0x3c, 0x3b, 0x40, 0x42, 0x45, 0x37, 0x3b,
    0x2f, 0x3b, 0x46, 0x30, 0x42, 0x3b, 0x3b, 0x44, 0x3b, 0x3e, 0x40, 0x1e,
    0x33, 0x40, 0x40, 0x3d, 0x39, 0x3a, 0x41, 0x33, 0x45, 0x3e, 0x3c, 0x3f,
    0x3f, 0x38, 0x31, 0x46, 0x3b, 0x35, 0x42, 0x39, 0x49, 0x3e, 0x3d, 0x66,
    0x53, 0x3f, 0x44, 0x40, 0x43, 0x45, 0x48, 0x45, 0x49, 0x2d, 0x3e, 0x3a,
    0x4f, 0x5a, 0x62, 0x27, 0x54, 0x37, 0x35, 0x34, 0x42, 0x50, 0x54, 0x43,
    0x4d, 0x38, 0x39, 0x48, 0x38, 0x4c, 0x21, 0x3f, 0x40, 0x3a, 0x3a, 0x2f,
    0x37, 0x2f, 0x29, 0x2c, 0x36, 0x47, 0x3f, 0x41, 0x31, 0x33, 0x3e, 0x32,
    0x3e, 0x40, 0x42, 0x40, 0x42, 0x3a, 0x46, 0x33, 0x44, 0x40, 0x3c, 0x43,
    0x3d, 0x41, 0x4d, 0x3d, 0x3c, 0x47, 0x46, 0x43, 0x42, 0x3e, 0x44, 0x4e,
    0x41, 0x3a, 0x44, 0x38, 0x45, 0x3b, 0x49, 0x4c, 0x40, 0x3f, 0x37, 0x3e,
    0x3e, 0x46, 0x41, 0x51, 0x3f, 0x39, 0x30, 0x40, 0x3e, 0x38, 0x43, 0x5b,
    0x33, 0x3e, 0x31, 0x42, 0x3d, 0x2f, 0x49, 0x57, 0x37, 0x31, 0x46, 0x44,
    0x3e, 0x35, 0x40, 0x55, 0x36, 0x35, 0x3d, 0x3c, 0x38, 0x33, 0x42, 0x52,
    0x3b, 0x39, 0x34, 0x31, 0x45, 0x34, 0x3c, 0x51, 0x33, 0x39, 0x3c, 0x40,
    0x36, 0x36, 0x42, 0x3e, 0x37, 0x3e, 0x3b, 0x40, 0x3d, 0x36, 0x41, 0x30,
    0x42, 0x45, 0x40, 0x49, 0x3d, 0x32, 0x46, 0x26, 0x40, 0x44, 0x3a, 0x3f,
    0x3d, 0x46, 0x45, 0x31, 0x33, 0x34, 0x3e, 0x37, 0x46, 0x3b, 0x32, 0x3a,
    0x3d, 0x31, 0x3c, 0x36, 0x50, 0x41, 0x3b, 0x5d, 0x53, 0x42, 0x44, 0x37,
    0x3e, 0x4d, 0x41, 0x4b, 0x49, 0x2f, 0x35, 0x3a, 0x4e, 0x59, 0x5d, 0x27,
    0x5c, 0x30, 0x3d, 0x3a, 0x46, 0x50, 0x57, 0x4a, 0x4c, 0x36, 0x37, 0x46,
    0x48, 0x41, 0x24, 0x49, 0x36, 0x3e, 0x41, 0x45, 0x37, 0x38, 0x2e, 0x2e,
    0x34, 0x3c, 0x38, 0x41, 0x36, 0x3d, 0x43, 0x36, 0x3e, 0x3e, 0x41, 0x3b,
    0x42, 0x3c, 0x43, 0x38, 0x3e, 0x3d, 0x41, 0x48, 0x47, 0x4c, 0x45, 0x3b,
    0x37, 0x41, 0x38, 0x41, 0x3d, 0x41, 0x46, 0x4e, 0x36, 0x45, 0x38, 0x39,
    0x42, 0x42, 0x37, 0x4c, 0x34, 0x46, 0x3c, 0x44, 0x4a, 0x39, 0x45, 0x53,
    0x3c, 0x3f, 0x41, 0x35, 0x3c, 0x45, 0x4c, 0x5a, 0x44, 0x41, 0x30, 0x35,
    0x40, 0x39, 0x42, 0x5a, 0x36, 0x36, 0x3a, 0x3b, 0x43, 0x35, 0x3c, 0x56,
    0x35, 0x38, 0x2b, 0x4a, 0x3c, 0x40, 0x45, 0x54, 0x37, 0x37, 0x3a, 0x44,
    0x42, 0x3b, 0x3d, 0x4a, 0x3f, 0x37, 0x3b, 0x35, 0x34, 0x3f, 0x40, 0x48,
    0x45, 0x3e, 0x37, 0x38, 0x41, 0x41, 0x3d, 0x37, 0x43, 0x3d, 0x3d, 0x45,
    0x3a, 0x38, 0x3f, 0x23, 0x4a, 0x37, 0x42, 0x3c, 0x3f, 0x43, 0x42, 0x33,
    0x37, 0x39, 0x35, 0x3b, 0x41, 0x36, 0x2f, 0x3b, 0x41, 0x3a, 0x44, 0x3d,
    0x3e, 0x45, 0x44, 0x50, 0x47, 0x47, 0x48, 0x3c, 0x3f, 0x45, 0x43, 0x3f,
    0x4a, 0x33, 0x3c, 0x3a, 0x52, 0x52, 0x5a, 0x23, 0x58, 0x31, 0x3b, 0x3b,
    0x47, 0x44, 0x54, 0x45, 0x42, 0x38, 0x38, 0x40, 0x43, 0x3f, 0x2a, 0x46,
    0x3b, 0x46, 0x3b, 0x46, 0x35, 0x37, 0x29, 0x35, 0x38, 0x41, 0x3a, 0x31,
    0x44, 0x41, 0x39, 0x36, 0x45, 0x41, 0x40, 0x3e, 0x40, 0x44, 0x47, 0x37,
    0x3f, 0x42, 0x49, 0x34, 0x46, 0x3d, 0x4b, 0x3d, 0x42, 0x3b, 0x42, 0x3e,
    0x41, 0x3b, 0x3f, 0x43, 0x47, 0x45, 0x47, 0x41, 0x40, 0x3a, 0x3d, 0x45,
    0x40, 0x36, 0x3b, 0x3b, 0x44, 0x37, 0x46, 0x55, 0x35, 0x42, 0x3f, 0x3a,
    0x41, 0x41, 0x44, 0x5c, 0x31, 0x44, 0x3d, 0x46, 0x39, 0x38, 0x46, 0x59,
    0x41, 0x3b, 0x3d, 0x39, 0x33, 0x3e, 0x41, 0x58, 0x33, 0x44, 0x34, 0x31,
    0x48, 0x3e, 0x4d, 0x56, 0x36, 0x3c, 0x37, 0x46, 0x46, 0x38, 0x45, 0x53,
    0x35, 0x3d, 0x3a, 0x31, 0x42, 0x48, 0x45, 0x44, 0x3b, 0x3b, 0x3c, 0x41,
    0x3d, 0x42, 0x3f, 0x2f, 0x38, 0x3c, 0x3e, 0x41, 0x44, 0x3a, 0x4a, 0x24,
    0x37, 0x3e, 0x37, 0x48, 0x40, 0x3f, 0x46, 0x3c, 0x47, 0x4a, 0x38, 0x47,
    0x34, 0x45, 0x31, 0x42, 0x43, 0x44, 0x3f, 0x3f, 0x49, 0x40, 0x3c, 0x41,
    0x4d, 0x43, 0x42, 0x39, 0x39, 0x48, 0x41, 0x38, 0x47, 0x3c, 0x3c, 0x42,
    0x44, 0x55, 0x62, 0x2a, 0x5c, 0x32, 0x3a, 0x37, 0x4c, 0x44, 0x4f, 0x3e,
    0x4e, 0x42, 0x3a, 0x42, 0x41, 0x4a, 0x35, 0x44, 0x45, 0x3b, 0x43, 0x41,
    0x33, 0x38, 0x28, 0x36, 0x40, 0x47, 0x3e, 0x3e, 0x3e, 0x39, 0x3a, 0x37,
    0x44, 0x44, 0x3f, 0x3b, 0x41, 0x3c, 0x45, 0x36, 0x38, 0x3a, 0x3c, 0x42,
    0x42, 0x3f, 0x59, 0x3c, 0x47, 0x3d, 0x38, 0x3a, 0x42, 0x44, 0x41, 0x46,
    0x3f, 0x43, 0x48, 0x42, 0x44, 0x35, 0x3f, 0x45, 0x36, 0x3f, 0x38, 0x3a,
    0x44, 0x3d, 0x3d, 0x4e, 0x3e, 0x45, 0x40, 0x42, 0x3c, 0x33, 0x43, 0x5a,
    0x38, 0x3e, 0x45, 0x3a, 0x3e, 0x42, 0x45, 0x52, 0x3c, 0x42, 0x3a, 0x38,
    0x3d, 0x3b, 0x4a, 0x57, 0x38, 0x37, 0x47, 0x44, 0x3e, 0x3c, 0x38, 0x48,
    0x36, 0x41, 0x3f, 0x41, 0x3a, 0x3a, 0x46, 0x47, 0x42, 0x40, 0x32, 0x33,
    0x43, 0x37, 0x41, 0x43, 0x3e, 0x40, 0x3d, 0x3a, 0x3e, 0x38, 0x42, 0x30,
    0x3e, 0x40, 0x46, 0x42, 0x40, 0x44, 0x42, 0x23, 0x31, 0x40, 0x3f, 0x3d,
    0x3b, 0x33, 0x40, 0x33, 0x41, 0x33, 0x43, 0x41, 0x3a, 0x3e, 0x36, 0x40,
    0x40, 0x45, 0x37, 0x42, 0x46, 0x42, 0x39, 0x48, 0x44, 0x40, 0x40, 0x45,
    0x3c, 0x49, 0x41, 0x3f, 0x4c, 0x3d, 0x2f, 0x3f, 0x47, 0x52, 0x54, 0x2c,
    0x55, 0x42, 0x44, 0x3b, 0x46, 0x4f, 0x48, 0x3c, 0x45, 0x39, 0x3f, 0x4b,
    0x3f, 0x3f, 0x36, 0x42, 0x41, 0x48, 0x44, 0x44, 0x36, 0x3b, 0x37, 0x40,
    0x39, 0x49, 0x3a, 0x35, 0x3e, 0x48, 0x31, 0x30, 0x44, 0x38, 0x4c, 0x3c,
    0x41, 0x3e, 0x46, 0x32, 0x44, 0x3b, 0x42, 0x3c, 0x38, 0x3a, 0x47, 0x3f,
    0x3a, 0x42, 0x3a, 0x43, 0x40, 0x4b, 0x47, 0x3c, 0x42, 0x46, 0x45, 0x42,
    0x3c, 0x46, 0x3d, 0x3f, 0x3e, 0x36, 0x38, 0x3e, 0x46, 0x3c, 0x4d, 0x43,
    0x49, 0x41, 0x48, 0x3c, 0x3d, 0x39, 0x43, 0x58, 0x3a, 0x41, 0x3f, 0x38,
    0x37, 0x3f, 0x46, 0x5d, 0x3c, 0x3c, 0x39, 0x36, 0x3d, 0x46, 0x43, 0x50,
    0x3a, 0x47, 0x39, 0x36, 0x41, 0x3f, 0x3e, 0x51, 0x31, 0x36, 0x3e, 0x3c,
    0x3c, 0x3a, 0x48, 0x41, 0x3a, 0x43, 0x49, 0x3e, 0x42, 0x46, 0x3f, 0x41,
    0x49, 0x33, 0x42, 0x41, 0x45, 0x40, 0x3d, 0x2b, 0x3d, 0x38, 0x40, 0x37,
    0x3a, 0x31, 0x45, 0x26, 0x33, 0x3d, 0x3f, 0x39, 0x36, 0x3c, 0x38, 0x33,
    0x34, 0x3f, 0x35, 0x44, 0x3a, 0x39, 0x32, 0x41, 0x35, 0x40, 0x3c, 0x3b,
    0x4a, 0x3f, 0x3e, 0x3e, 0x4a, 0x3e, 0x42, 0x35, 0x38, 0x43, 0x3c, 0x37,
    0x3d, 0x3c, 0x39, 0x43, 0x3f, 0x4e, 0x54, 0x33, 0x4b, 0x37, 0x43, 0x3b,
    0x43, 0x48, 0x43, 0x42, 0x3d, 0x46, 0x45, 0x49, 0x3a, 0x39, 0x36, 0x4a,
    0x48, 0x48, 0x37, 0x4b, 0x42, 0x47, 0x34, 0x34, 0x43, 0x42, 0x3a, 0x3d,
    0x3c, 0x46, 0x34, 0x39, 0x40, 0x3b, 0x3e, 0x3e, 0x37, 0x3d, 0x53, 0x3b,
    0x48, 0x3c, 0x43, 0x44, 0x3b, 0x3f, 0x57, 0x3d, 0x39, 0x3c, 0x39, 0x3a,
    0x3e, 0x3f, 0x43, 0x3e, 0x41, 0x47, 0x3c, 0x41, 0x40, 0x41, 0x37, 0x3f,
    0x3b, 0x43, 0x35, 0x3e, 0x45, 0x40, 0x47, 0x59, 0x41, 0x49, 0x3b, 0x3f,
    0x47, 0x49, 0x4b, 0x61, 0x39, 0x48, 0x39, 0x3e, 0x44, 0x34, 0x3b, 0x59,
    0x3c, 0x42, 0x45, 0x35, 0x42, 0x41, 0x39, 0x52, 0x42, 0x3c, 0x3d, 0x3e,
    0x3d, 0x4a, 0x4a, 0x4d, 0x3c, 0x34, 0x44, 0x3c, 0x41, 0x34, 0x38, 0x46,
    0x38, 0x45, 0x40, 0x45, 0x40, 0x3a, 0x3d, 0x44, 0x3a, 0x37, 0x3a, 0x3a,
    0x3b, 0x42, 0x40, 0x34, 0x3b, 0x3c, 0x42, 0x40, 0x3d, 0x32, 0x40, 0x27,
    0x37, 0x39, 0x37, 0x46, 0x48, 0x31, 0x40, 0x30, 0x42, 0x42, 0x3a, 0x40,
    0x3d, 0x37, 0x2a, 0x40, 0x41, 0x37, 0x3c, 0x4a, 0x46, 0x45, 0x3d, 0x34,
    0x48, 0x41, 0x42, 0x3e, 0x3f, 0x39, 0x3c, 0x3a, 0x4f, 0x3b, 0x32, 0x3e,
    0x43, 0x51, 0x4f, 0x2a, 0x46, 0x3a, 0x3d, 0x3b, 0x40, 0x3d, 0x4c, 0x3c,
    0x48, 0x40, 0x36, 0x4a, 0x3a, 0x38, 0x42, 0x43, 0x4c, 0x3d, 0x47, 0x47,
    0x33, 0x3f, 0x2d, 0x37, 0x4a, 0x43, 0x38, 0x3e, 0x49, 0x42, 0x42, 0x3d,
    0x43, 0x47, 0x41, 0x38, 0x46, 0x37, 0x46, 0x38, 0x47, 0x42, 0x49, 0x3d,
    0x3b, 0x37, 0x4c, 0x3c, 0x3a, 0x45, 0x3f, 0x37, 0x36, 0x3d, 0x3c, 0x40,
    0x3e, 0x45, 0x46, 0x41, 0x41, 0x40, 0x3c, 0x44, 0x47, 0x43, 0x37, 0x3f,
    0x3e, 0x3a, 0x3a, 0x4b, 0x3a, 0x36, 0x3d, 0x3f, 0x38, 0x3f, 0x3c, 0x58,
    0x40, 0x49, 0x3d, 0x42, 0x38, 0x3a, 0x47, 0x50, 0x3b, 0x49, 0x40, 0x44,
    0x3e, 0x3c, 0x38, 0x52, 0x3a, 0x3e, 0x44, 0x3c, 0x35, 0x44, 0x3a, 0x47,
    0x3e, 0x49, 0x3f, 0x47, 0x45, 0x39, 0x3b, 0x46, 0x44, 0x3e, 0x41, 0x46,
    0x40, 0x41, 0x40, 0x40, 0x3a, 0x35, 0x3e, 0x36, 0x3e, 0x3e, 0x3d, 0x35,
    0x3b, 0x3c, 0x38, 0x46, 0x3b, 0x3c, 0x41, 0x2c, 0x3f, 0x42, 0x38, 0x3b,
    0x36, 0x3b, 0x39, 0x40, 0x40, 0x38, 0x36, 0x33, 0x34, 0x42, 0x2f, 0x44,
    0x41, 0x40, 0x39, 0x35, 0x3b, 0x44, 0x42, 0x2c, 0x41, 0x3b, 0x44, 0x41,
    0x35, 0x44, 0x3b, 0x34, 0x44, 0x49, 0x36, 0x39, 0x3a, 0x52, 0x4d, 0x2b,
    0x40, 0x40, 0x3e, 0x39, 0x48, 0x42, 0x3c, 0x44, 0x46, 0x49, 0x3f, 0x54,
    0x43, 0x40, 0x2e, 0x40, 0x4f, 0x36, 0x3e, 0x3f, 0x38, 0x48, 0x44, 0x3c,
    0x44, 0x43, 0x41, 0x47, 0x40, 0x46, 0x40, 0x37, 0x41, 0x34, 0x3a, 0x41,
    0x41, 0x3b, 0x49, 0x39, 0x42, 0x38, 0x3d, 0x39, 0x34, 0x35, 0x43, 0x36,
    0x3e, 0x44, 0x3f, 0x40, 0x43, 0x40, 0x40, 0x3a, 0x47, 0x42, 0x3e, 0x42,
    0x46, 0x35, 0x3a, 0x46, 0x3c, 0x3c, 0x3c, 0x3d, 0x3f, 0x40, 0x43, 0x4c,
    0x3a, 0x37, 0x3f, 0x43, 0x47, 0x38, 0x42, 0x58, 0x42, 0x3b, 0x34, 0x37,
    0x3e, 0x48, 0x3c, 0x57, 0x44, 0x3c, 0x3d, 0x3a, 0x36, 0x48, 0x3c, 0x51,
    0x3d, 0x48, 0x45, 0x45, 0x38, 0x45, 0x40, 0x3f, 0x3b, 0x35, 0x3d, 0x3f,
    0x38, 0x47, 0x39, 0x3b, 0x36, 0x49, 0x43, 0x40, 0x3f, 0x46, 0x38, 0x40,
    0x3f, 0x3e, 0x39, 0x32, 0x47, 0x42, 0x35, 0x33, 0x39, 0x47, 0x3c, 0x36,
    0x3b, 0x37, 0x43, 0x35, 0x3b, 0x3b, 0x34, 0x3b, 0x38, 0x3d, 0x3e, 0x3a,
    0x35, 0x49, 0x38, 0x40, 0x3f, 0x3f, 0x3e, 0x37, 0x43, 0x3b, 0x3e, 0x3e,
    0x3b, 0x40, 0x44, 0x39, 0x3d, 0x3f, 0x31, 0x42, 0x42, 0x3b, 0x41, 0x3d,
    0x3e, 0x3c, 0x37, 0x34, 0x48, 0x3d, 0x49, 0x4a, 0x47, 0x36, 0x3a, 0x34,
    0x37, 0x36, 0x3e, 0x38, 0x33, 0x45, 0x39, 0x44, 0x34, 0x49, 0x3a, 0x3d,
    0x34, 0x31, 0x31, 0x3d, 0x34, 0x3d, 0x41, 0x3e, 0x49, 0x41, 0x34, 0x3f,
    0x3a, 0x42, 0x3e, 0x40, 0x3f, 0x33, 0x46, 0x3f, 0x34, 0x39, 0x37, 0x46,
    0x3e, 0x32, 0x3f, 0x45, 0x45, 0x41, 0x3b, 0x4b, 0x35, 0x35, 0x3b, 0x4a,
    0x3d, 0x43, 0x3b, 0x44, 0x3c, 0x38, 0x31, 0x43, 0x39, 0x35, 0x41, 0x45,
    0x37, 0x3e, 0x43, 0x47, 0x39, 0x40, 0x41, 0x41, 0x40, 0x32, 0x37, 0x3e,
    0x3d, 0x39, 0x3b, 0x49, 0x33, 0x35, 0x38, 0x41, 0x45, 0x37, 0x3c, 0x49,
    0x3b, 0x34, 0x34, 0x41, 0x3a, 0x3f, 0x3e, 0x47, 0x39, 0x3c, 0x34, 0x3a,
    0x38, 0x44, 0x40, 0x51, 0x3a, 0x37, 0x3b, 0x3f, 0x3d, 0x3a, 0x45, 0x48,
    0x3f, 0x46, 0x35, 0x43, 0x38, 0x43, 0x35, 0x4c, 0x42, 0x47, 0x44, 0x3d,
    0x40, 0x3a, 0x39, 0x4e, 0x3d, 0x37, 0x3c, 0x42, 0x40, 0x48, 0x44, 0x4c,
    0x31, 0x40, 0x42, 0x3b, 0x45, 0x45, 0x3f, 0x3e, 0x3d, 0x44, 0x3f, 0x31,
    0x3f, 0x44, 0x45, 0x37, 0x3e, 0x3d, 0x35, 0x3b, 0x2d, 0x44, 0x4a, 0x3a,
    0x2b, 0x37, 0x38, 0x46, 0x41, 0x39, 0x3c, 0x3c, 0x46, 0x33, 0x36, 0x3c,
    0x4b, 0x34, 0x49, 0x50, 0x30, 0x3c, 0x33, 0x41, 0x44, 0x33, 0x43, 0x39,
    0x36, 0x45, 0x33, 0x3b, 0x3d, 0x36, 0x47, 0x30, 0x42, 0x37, 0x49, 0x3e,
    0x3b, 0x49, 0x3d, 0x3b, 0x3a, 0x41, 0x38, 0x44, 0x42, 0x3b, 0x3f, 0x40,
    0x46, 0x35, 0x38, 0x3c, 0x48, 0x3a, 0x46, 0x41, 0x36, 0x36, 0x41, 0x3e,
    0x43, 0x3e, 0x32, 0x39, 0x3a, 0x41, 0x30, 0x3e, 0x40, 0x3e, 0x36, 0x3a,
    0x45, 0x45, 0x3a, 0x3c, 0x31, 0x3b, 0x47, 0x3f, 0x36, 0x3a, 0x3c, 0x41,
    0x3b, 0x41, 0x39, 0x46, 0x3f, 0x3c, 0x34, 0x3e, 0x41, 0x45, 0x41, 0x42,
    0x39, 0x40, 0x40, 0x44, 0x45, 0x42, 0x34, 0x3f, 0x3e, 0x31, 0x3b, 0x41,
    0x33, 0x43, 0x37, 0x44, 0x44, 0x3a, 0x36, 0x36, 0x48, 0x3c, 0x37, 0x47,
    0x39, 0x3e, 0x3e, 0x3c, 0x3c, 0x41, 0x3c, 0x44, 0x3b, 0x42, 0x3f, 0x3a,
    0x43, 0x3b, 0x3e, 0x48, 0x36, 0x3f, 0x3d, 0x34, 0x40, 0x43, 0x35, 0x4f,
    0x34, 0x39, 0x3b, 0x41, 0x40, 0x39, 0x37, 0x4c, 0x39, 0x36, 0x39, 0x39,
    0x47, 0x41, 0x43, 0x3f, 0x3f, 0x33, 0x42, 0x3f, 0x42, 0x40, 0x37, 0x40,
    0x3f, 0x34, 0x45, 0x3d, 0x2d, 0x3c, 0x44, 0x3b, 0x43, 0x37, 0x26, 0x50,
    0x43, 0x44, 0x3d, 0x43, 0x42, 0x2d, 0x3c, 0x33, 0x4a, 0x32, 0x4a, 0x53,
    0x33, 0x38, 0x27, 0x36, 0x42, 0x30, 0x47, 0x3d, 0x36, 0x45, 0x46, 0x36,
    0x3b, 0x3b, 0x40, 0x33, 0x37, 0x36, 0x44, 0x46, 0x3d, 0x35, 0x40, 0x38,
    0x3b, 0x40, 0x36, 0x3c, 0x3d, 0x37, 0x31, 0x41, 0x33, 0x3c, 0x38, 0x3f,
    0x43, 0x3a, 0x40, 0x49, 0x38, 0x39, 0x38, 0x3d, 0x43, 0x3d, 0x39, 0x3b,
    0x3d, 0x3f, 0x38, 0x42, 0x34, 0x43, 0x33, 0x3e, 0x43, 0x3e, 0x40, 0x42,
    0x3b, 0x45, 0x37, 0x44, 0x43, 0x39, 0x3c, 0x3d, 0x37, 0x44, 0x3a, 0x3b,
    0x47, 0x3f, 0x3a, 0x3c, 0x3a, 0x3b, 0x3f, 0x43, 0x3e, 0x3d, 0x46, 0x3e,
    0x37, 0x36, 0x3f, 0x40, 0x42, 0x42, 0x37, 0x36, 0x48, 0x35, 0x44, 0x44,
    0x39, 0x3c, 0x3b, 0x41, 0x44, 0x49, 0x3a, 0x40, 0x41, 0x36, 0x33, 0x3a,
    0x3c, 0x3d, 0x40, 0x3f, 0x43, 0x36, 0x3c, 0x3a, 0x3f, 0x4b, 0x32, 0x49,
    0x49, 0x3e, 0x3a, 0x3e, 0x3f, 0x41, 0x3c, 0x47, 0x40, 0x41, 0x45, 0x3e,
    0x47, 0x47, 0x3f, 0x47, 0x45, 0x3e, 0x31, 0x43, 0x4a, 0x44, 0x36, 0x40,
    0x41, 0x47, 0x3e, 0x42, 0x37, 0x40, 0x3b, 0x46, 0x37, 0x41, 0x3e, 0x3c,
    0x27, 0x40, 0x49, 0x42, 0x42, 0x39, 0x30, 0x49, 0x43, 0x38, 0x3d, 0x42,
    0x43, 0x2f, 0x3b, 0x37, 0x4b, 0x2d, 0x4f, 0x52, 0x30, 0x31, 0x2f, 0x3a,
    0x49, 0x38, 0x4f, 0x45, 0x2e, 0x47, 0x3a, 0x32, 0x33, 0x3f, 0x4a, 0x2e,
    0x33, 0x3b, 0x3e, 0x3e, 0x49, 0x45, 0x44, 0x38, 0x3c, 0x35, 0x45, 0x47,
    0x41, 0x3b, 0x3c, 0x48, 0x46, 0x39, 0x39, 0x3b, 0x3f, 0x41, 0x38, 0x42,
    0x3d, 0x46, 0x33, 0x41, 0x36, 0x3f, 0x3f, 0x3c, 0x33, 0x3e, 0x3e, 0x40,
    0x44, 0x40, 0x3c, 0x38, 0x46, 0x3a, 0x40, 0x36, 0x42, 0x35, 0x3f, 0x3b,
    0x3b, 0x43, 0x3c, 0x40, 0x40, 0x49, 0x2e, 0x39, 0x40, 0x3f, 0x45, 0x41,
    0x3f, 0x30, 0x42, 0x3d, 0x40, 0x3c, 0x3a, 0x3b, 0x3b, 0x40, 0x39, 0x42,
    0x3a, 0x3f, 0x3f, 0x3e, 0x35, 0x3b, 0x38, 0x45, 0x47, 0x35, 0x44, 0x3e,
    0x3b, 0x3f, 0x3f, 0x40, 0x3a, 0x35, 0x30, 0x49, 0x45, 0x35, 0x3b, 0x39,
    0x3b, 0x48, 0x3f, 0x37, 0x39, 0x40, 0x43, 0x45, 0x3d, 0x40, 0x41, 0x3a,
    0x33, 0x3d, 0x3a, 0x4b, 0x40, 0x42, 0x40, 0x42, 0x43, 0x39, 0x3c, 0x49,
    0x3e, 0x47, 0x3e, 0x44, 0x3f, 0x3a, 0x40, 0x41, 0x3f, 0x42, 0x42, 0x37,
    0x3e, 0x3b, 0x36, 0x3e, 0x3b, 0x3c, 0x48, 0x43, 0x2d, 0x46, 0x4a, 0x38,
    0x45, 0x3a, 0x29, 0x46, 0x40, 0x3c, 0x40, 0x44, 0x40, 0x33, 0x2f, 0x33,
    0x48, 0x2e, 0x51, 0x4f, 0x2b, 0x32, 0x2e, 0x2d, 0x45, 0x33, 0x4d, 0x41,
    0x29, 0x4b, 0x41, 0x39, 0x2f, 0x3a, 0x49, 0x31, 0x37, 0x40, 0x47, 0x4c,
    0x3e, 0x31, 0x41, 0x3f, 0x43, 0x37, 0x45, 0x4f, 0x41, 0x3c, 0x30, 0x4a,
    0x37, 0x37, 0x36, 0x39, 0x31, 0x3d, 0x36, 0x4b, 0x37, 0x44, 0x3c, 0x43,
    0x44, 0x36, 0x3f, 0x3b, 0x34, 0x3e, 0x3a, 0x35, 0x38, 0x3f, 0x33, 0x37,
    0x3b, 0x3d, 0x46, 0x38, 0x3b, 0x37, 0x38, 0x3b, 0x31, 0x3e, 0x3d, 0x3b,
    0x3d, 0x39, 0x35, 0x33, 0x33, 0x3c, 0x39, 0x39, 0x48, 0x39, 0x39, 0x3f,
    0x3e, 0x36, 0x47, 0x3a, 0x44, 0x40, 0x32, 0x3c, 0x37, 0x35, 0x40, 0x3f,
    0x3a, 0x38, 0x3b, 0x3d, 0x46, 0x45, 0x36, 0x43, 0x40, 0x3d, 0x41, 0x41,
    0x47, 0x3a, 0x3d, 0x3e, 0x43, 0x42, 0x32, 0x36, 0x41, 0x37, 0x3b, 0x35,
    0x36, 0x44, 0x36, 0x3c, 0x43, 0x32, 0x3e, 0x3e, 0x42, 0x45, 0x32, 0x3c,
    0x3a, 0x3b, 0x35, 0x43, 0x41, 0x3d, 0x44, 0x50, 0x43, 0x31, 0x3e, 0x44,
    0x44, 0x41, 0x3a, 0x44, 0x36, 0x39, 0x3b, 0x3c, 0x32, 0x38, 0x3b, 0x45,
    0x38, 0x43, 0x40, 0x42, 0x33, 0x3e, 0x4a, 0x42, 0x45, 0x39, 0x2f, 0x42,
    0x39, 0x35, 0x44, 0x3e, 0x39, 0x2f, 0x34, 0x33, 0x49, 0x29, 0x50, 0x4f,
    0x2b, 0x36, 0x34, 0x2d, 0x47, 0x33, 0x49, 0x3c, 0x33, 0x51, 0x49, 0x3f,
    0x34, 0x39, 0x4a, 0x2c, 0x34, 0x45, 0x4f, 0x47, 0x34, 0x42, 0x3a, 0x3d,
    0x36, 0x4a, 0x3b, 0x43, 0x36, 0x3f, 0x39, 0x4b, 0x38, 0x3a, 0x31, 0x3d,
    0x32, 0x42, 0x3a, 0x47, 0x48, 0x3e, 0x44, 0x3f, 0x39, 0x3e, 0x44, 0x35,
    0x41, 0x3c, 0x45, 0x3a, 0x3e, 0x3b, 0x3d, 0x2f, 0x37, 0x40, 0x3e, 0x43,
    0x39, 0x39, 0x33, 0x3b, 0x37, 0x3b, 0x37, 0x37, 0x37, 0x39, 0x36, 0x31,
    0x39, 0x3b, 0x41, 0x39, 0x3b, 0x40, 0x36, 0x37, 0x42, 0x39, 0x3a, 0x46,
    0x3f, 0x30, 0x38, 0x39, 0x35, 0x32, 0x3e, 0x3a, 0x43, 0x43, 0x3e, 0x33,
    0x42, 0x3f, 0x41, 0x3c, 0x46, 0x34, 0x34, 0x40, 0x43, 0x37, 0x32, 0x43,
    0x3c, 0x37, 0x36, 0x33, 0x3d, 0x36, 0x3a, 0x40, 0x39, 0x38, 0x32, 0x3e,
    0x32, 0x3d, 0x37, 0x49, 0x42, 0x47, 0x41, 0x3b, 0x3d, 0x3c, 0x3a, 0x37,
    0x3c, 0x45, 0x3a, 0x45, 0x36, 0x44, 0x3a, 0x3a, 0x3a, 0x3c, 0x43, 0x3b,
    0x3b, 0x35, 0x38, 0x47, 0x36, 0x40, 0x32, 0x43, 0x3e, 0x39, 0x42, 0x40,
    0x2c, 0x3c, 0x4c, 0x4c, 0x43, 0x3b, 0x37, 0x4a, 0x3f, 0x3c, 0x45, 0x44,
    0x3f, 0x30, 0x36, 0x31, 0x4f, 0x2f, 0x5d, 0x4b, 0x34, 0x34, 0x2d, 0x2b,
    0x44, 0x31, 0x4e, 0x40, 0x2e, 0x4d, 0x48, 0x3e, 0x37, 0x2b, 0x49, 0x25,
    0x31, 0x49, 0x44, 0x49, 0x39, 0x39, 0x4b, 0x3a, 0x3a, 0x41, 0x3e, 0x42,
    0x3c, 0x36, 0x36, 0x4a, 0x32, 0x44, 0x3e, 0x48, 0x3e, 0x3c, 0x37, 0x49,
    0x3d, 0x34, 0x3f, 0x37, 0x33, 0x36, 0x46, 0x3a, 0x3a, 0x31, 0x45, 0x3f,
    0x3a, 0x31, 0x3b, 0x33, 0x41, 0x42, 0x35, 0x39, 0x38, 0x44, 0x36, 0x3a,
    0x3f, 0x3b, 0x37, 0x3e, 0x3b, 0x38, 0x2f, 0x32, 0x44, 0x3d, 0x44, 0x41,
    0x39, 0x36, 0x3a, 0x34, 0x39, 0x38, 0x34, 0x3f, 0x3b, 0x37, 0x34, 0x34,
    0x40, 0x3d, 0x34, 0x3a, 0x46, 0x42, 0x3f, 0x34, 0x38, 0x33, 0x39, 0x44,
    0x3f, 0x41, 0x3c, 0x31, 0x40, 0x32, 0x3f, 0x37, 0x37, 0x41, 0x3e, 0x35,
    0x37, 0x48, 0x3b, 0x41, 0x3d, 0x3a, 0x3f, 0x35, 0x33, 0x3c, 0x36, 0x3b,
    0x3a, 0x48, 0x33, 0x42, 0x37, 0x33, 0x39, 0x41, 0x3c, 0x3d, 0x3b, 0x4d,
    0x39, 0x3a, 0x3e, 0x44, 0x3d, 0x41, 0x3b, 0x38, 0x49, 0x41, 0x3a, 0x38,
    0x34, 0x38, 0x38, 0x3c, 0x45, 0x3c, 0x37, 0x3b, 0x36, 0x3e, 0x4a, 0x4b,
    0x42, 0x3f, 0x32, 0x45, 0x46, 0x35, 0x46, 0x41, 0x38, 0x33, 0x39, 0x37,
    0x44, 0x2b, 0x60, 0x4a, 0x2a, 0x2e, 0x35, 0x2d, 0x43, 0x37, 0x51, 0x47,
    0x2f, 0x4d, 0x50, 0x3e, 0x3a, 0x33, 0x4f, 0x2a, 0x35, 0x45, 0x4a, 0x4c,
    0x3b, 0x3d, 0x43, 0x44, 0x3d, 0x3f, 0x4a, 0x3e, 0x49, 0x37, 0x2e, 0x4f,
    0x39, 0x3f, 0x32, 0x3c, 0x37, 0x3b, 0x39, 0x4d, 0x34, 0x3f, 0x46, 0x44,
    0x3d, 0x40, 0x3f, 0x40, 0x39, 0x33, 0x39, 0x3e, 0x3d, 0x40, 0x31, 0x30,
    0x35, 0x3d, 0x3e, 0x3a, 0x3e, 0x32, 0x31, 0x3e, 0x48, 0x3c, 0x40, 0x43,
    0x3f, 0x3f, 0x34, 0x2e, 0x3a, 0x3e, 0x3b, 0x43, 0x45, 0x32, 0x3a, 0x31,
    0x37, 0x38, 0x31, 0x35, 0x34, 0x3d, 0x42, 0x36, 0x46, 0x37, 0x32, 0x47,
    0x41, 0x3c, 0x35, 0x35, 0x36, 0x41, 0x3a, 0x3b, 0x42, 0x44, 0x36, 0x31,
    0x3c, 0x3d, 0x34, 0x34, 0x3b, 0x40, 0x40, 0x2e, 0x40, 0x46, 0x3b, 0x43,
    0x3f, 0x40, 0x3b, 0x3a, 0x32, 0x40, 0x46, 0x39, 0x3c, 0x49, 0x2f, 0x3d,
    0x49, 0x3e, 0x44, 0x3c, 0x3e, 0x35, 0x3f, 0x44, 0x41, 0x40, 0x3e, 0x47,
    0x3d, 0x40, 0x3f, 0x41, 0x3b, 0x41, 0x41, 0x3f, 0x40, 0x3f, 0x3e, 0x3e,
    0x3f, 0x43, 0x35, 0x40, 0x2b, 0x42, 0x45, 0x56, 0x40, 0x3c, 0x2f, 0x44,
    0x44, 0x3d, 0x3e, 0x3d, 0x40, 0x2d, 0x39, 0x31, 0x54, 0x2f, 0x61, 0x48,
    0x2e, 0x37, 0x37, 0x32, 0x3e, 0x2d, 0x52, 0x4d, 0x2d, 0x4d, 0x4c, 0x3a,
    0x3a, 0x31, 0x4e, 0x2d, 0x31, 0x48, 0x47, 0x54, 0x45, 0x38, 0x3b, 0x3d,
    0x42, 0x41, 0x44, 0x4a, 0x48, 0x42, 0x2f, 0x4d, 0x31, 0x34, 0x3a, 0x46,
    0x37, 0x44, 0x2c, 0x45, 0x46, 0x43, 0x40, 0x3f, 0x34, 0x33, 0x40, 0x39,
    0x32, 0x35, 0x3a, 0x40, 0x3f, 0x3f, 0x36, 0x32, 0x3f, 0x3d, 0x35, 0x48,
    0x3c, 0x48, 0x37, 0x39, 0x35, 0x3f, 0x37, 0x3d, 0x44, 0x46, 0x2d, 0x2a,
    0x47, 0x38, 0x3a, 0x39, 0x45, 0x3b, 0x40, 0x2d, 0x37, 0x33, 0x41, 0x3c,
    0x40, 0x35, 0x3f, 0x32, 0x3a, 0x36, 0x40, 0x41, 0x3a, 0x3c, 0x33, 0x31,
    0x42, 0x3f, 0x41, 0x3a, 0x41, 0x46, 0x38, 0x2f, 0x3c, 0x3d, 0x3d, 0x39,
    0x3b, 0x46, 0x41, 0x31, 0x46, 0x36, 0x40, 0x48, 0x3c, 0x33, 0x42, 0x32,
    0x3b, 0x40, 0x3f, 0x36, 0x37, 0x44, 0x34, 0x35, 0x32, 0x32, 0x37, 0x38,
    0x33, 0x3b, 0x37, 0x4a, 0x3f, 0x46, 0x3a, 0x41, 0x32, 0x37, 0x30, 0x3e,
    0x40, 0x35, 0x41, 0x40, 0x37, 0x41, 0x2b, 0x40, 0x3d, 0x3d, 0x32, 0x38,
