node {
  name: "Const_0"
  op: "Const"
  attr {
    key: "value"
    value {
      tensor {
        dtype: DT_FLOAT
        tensor_shape {
          dim {
            size: 3
          }
        }
        tensor_content: "/O5?\342\020\271>\215\326{?"
      }
    }
  }
}
node {
  name: "Const_1"
  op: "Const"
  attr {
    key: "value"
    value {
      tensor {
        dtype: DT_FLOAT
        tensor_shape {
          dim {
            size: 3
          }
        }
        tensor_content: "\327\2177>\024)G?\007\027\224>"
      }
    }
  }
}
node {
  name: "Const_2"
  op: "Const"
  attr {
    key: "value"
    value {
      tensor {
        dtype: DT_FLOAT
        tensor_shape {
          dim {
            size: 241
          }
        }
        tensor_content: ">!\343>R\362[?\025a\003>u\224\007>9\237\n>R\264b?\330\310k?c\350\315=^\335Q?\332\254s?\"$a>\366\'M?4Yz>\363\036\017>\270\363U?\260\300\351>\350z+?\270\3270?\213\3651?>\024O?\247:K?W\"\211>\021\001P?v\346\262>=\244\307>*\t^?\336=O=\2265\206>\241\322\023?\'\3658?\256p\014?\344\253V?N\247o?j\013\311>\r\267??t\365*>\245\030\007=\334\300]?\005\221\'?\032W\266>Q\033\005?\375p\341>\324B=?\360 C?\375\317T?\016\001\265>\007\347\357>\325k\235=\004]}?\266\212\253>f\266C?\326\032\"?|\032\371>\311\016\252=\240\355d?\340D~?\310\343\'>\237\305\023>P\035;?\327\003\223>\246\202w?\320\026\'?y\351)>\335J\300>\221\362l?\r>\032?\3556\234<\231\017\253>\274\326~?\316{Y>N/\304>2\274l?\272\332\255>\254\373\032?)\334!?#jX?\360\336&?N\263\010?T\251\037?\240\014\344=\371\\\371>\261X\270>M\257\026?\0278\365>]\200\220>\377\200\200>[\267t?\220\353\013>8>~?\276\035\020?\033\217E?\004\200}?\223\373>?n\320\244>\274T\010?\347\363\260>\000|\010=u[\264>\355AS?\216gV?\231\341r?\002\360\033?g\204\027?E\354??\025\246t>`\025\000?\312\035\206>\335}x?\305\206\253>\275\356f?\306\251S?i&\206>:U\313>\313\354^>\231\353\t>\035S4?m\376\323>\277\337\372>EXx?1\216\265>\310\220\003?\272\021\037?\010g\305>\304\270U>\270._>F\333D?\343\357\005>\250\030\310>\2521\"?#6~?\305\002\210>)\3320:f\025\t?V\022v>\321~\214>.v\017?\204p1?\363\240\216>\357\225\221>\n\332\234=\025\0033:\272F\264>!Mn>\335f\350>\243\334/?\023\236y>Q\220\"?\316st?I\023\355>\0002\331=\377H]?\364\010d?}\326(?\301\251)?|\354\016?K\212B?\002\237t?\200\"M=\250\016&>|\243\360>\372p\177?\031xC>\323\177\310>\323\215\226>\230k|?~\227\n;\344E\004?\252\357)>\257\353*?\\\325\'>\255\365\214=\022Q(>G}[?f@\177?y\310\032?\010o\267=%\362\326>4\361\341>\026n\020>\375RV?^\203\023?\222\336x>I\276P?\020\212\304>\342;\350>b\037\330>s\236\027?\306\346\336>\322z\030?m\247d?\320zB>c\351N?\001\365\r?\336g\027?\253\031\037?\333\235\\?\000\314E?Q\302y?\206K\243=r^\'?\201\236\243>@Kj?:\001\326>\330L\266>\322Yj?9D\261=\357\216w?c\276C?\201\204\326=\235-E>\325Z\254>76_>S\304m?\346*\250>\241\017D?a\301\014>\332\316\372>\230\007?=\241\'b?.\357s?N\350\022<\032p+?\345\256d?\023\231\023>I\257\017?\\~V>\'\327]>\377A\'?GGL?\371\372f?\323\341H?pB\207>\344\322\214>r\271(?\363R\265>%Rb?G\1770?X\351C?\313\223\261>i\255\204>\255\n\013?"
      }
    }
  }
}
node {
  name: "Const_3"
  op: "Const"
  attr {
    key: "value"
    value {
      tensor {
        dtype: DT_FLOAT
        tensor_shape {
          dim {
            size: 3
          }
        }
        tensor_content: ":\267\364>0\310\222>\260\224`?"
      }
    }
  }
}
node {
  name: "Const_4"
  op: "Const"
  attr {
    key: "value"
    value {
      tensor {
        dtype: DT_FLOAT
        tensor_shape {
          dim {
            size: 241
          }
        }
        tensor_content: "-\020\353>\212!k?.\264\007=r\342\323>=\023P?#\356\025>o\310q?\352\237x>\003\264p>\201\212\004?\262#J>\222\005\"=\304\272%?\021\\\362>\205\256z?d\3042?\"~\263>\300\303\342=\332\003*?\356\301O?\303\316l?\0073\336>\334\033\213>\013\371\033?\275\033\311>+\204P?\221\000\022?5.t:id\005?B\265\245>k\'\202>\203h\304>9\236\234>.\202@?-\303U?\215\0326?\270\346\005=ro\205>\242zu?\253m\342>_\234_=A\237\303<\3610H?\211\272\010?\235\307\216>\"?g?*\005\377=F\231\330>\2325\001?\221\006_=\025\2762?\206wZ?\211\265\342>\242C\007?\237T^>\306\211.>\2010\265=\370yf?hw\347<\357-)?8+b?\253\246\325>2d\222>\242\246\004?\031\022\260:z\030\365=K.\266>\302\224G?\311\330*?\325\301\307>\257\201\271>\242\216\355>D7\024?L\275S?\254\224\250=\014i\250>p)=?\264i\346>dGS?@\\v?\214J\310>\256\2523?\226\245\005?\357)R?(:d?T\265\232>/ZV?\214a4?\327\242V= \376K?bp\376>v\236%?\242\206??\"\276\257>\271\014+?\0224\002>\365\010\313>\214k\000?\236\265\023?\037UG?\237\274B?B`\372>\371u\033?\247x\324>\266\346\321=N\024f?\254\205\310>\203n\030>:\312h?\315\355\212>\266\244\026?\253r\375>[.\242=B\225\277<\314\202b>wN\374<\032\020\014?\300i\351>\245\372\275>O\242O=5fE>\t\333\316>\021^\020?e\270\305<\255\277k?\204Z\227;$2\337>@V\004?\371\375\\?\007\323\004>@\206\177?\205\203\346>l\036\025?\332\264\207>4#\307>[\3119?\344\342\024?C\177(?\305Sk?\377wl?\347\351P?\004\t\354>I\214\264=`\227\366=H=\031?c\251P?Q\305\030<\336\036\006>\326\214\311>{k\024>\032\333\263>\023\305\350=~$\314>\237\225\005?+vi?\027\267\314>\014\223P?l\315\375>\265OZ?\257\036\310>\014P1?\250\001\037>;\366\030?\005~M?mH<?\325\257\327>\352\244k>\311\217(?\243\305\367>$(>?`\234\235>\322[\n?\227\237h?\350Vd?E?\222>\244\377\226=\362\205\235=-\342W?\211u\001?\276V1?_\370\365>\361M\250>\004\335M?2Y2?\202\273.?#X\256>\245\344!?H\2061?\027\340\372>\325\311|?x\n\353>\217\307\310=\242\325E?B(\216=x\223;?D/\241>b\2407?i\024y>\311{`=\2037\354=k\342\220>\214\340H?\001\233\263> \021-?\345x$?m\242\211>\345i+?\305\276)>\224\266`=\377.3>\213\251m?\330\031\337>JTv?\343\264\361>\340\332J?{\265\245>\357v\334>-\327u?\225\013h?\316\224Y=\274`l?\244>\034?\264A\022?\263\203\257>\016hV=\020]\022?\302P\363>\"*\324>M\343m?^\016x?\204\362\331>\273\354:?\271\320.?\231\2100>*\272\003>\024i[?\262\347\364>Hq2?\024\247\306=\234\027\372>\321\3358?"
      }
    }
  }
}
