node {
  name: "Const_0"
  op: "Const"
  attr {
    key: "value"
    value {
      tensor {
        dtype: DT_FLOAT
        tensor_shape {
          dim {
            size: 14
          }
        }
        tensor_content: "\016\300\252>\\\025$?\205M\365>~>\036?X\237\016=\232=]?Y\002*? \263\216>V\002x=\372C\355=\243\356\376>\213M\023;_fv?\'I~>"
      }
    }
  }
}
node {
  name: "Const_1"
  op: "Const"
  attr {
    key: "value"
    value {
      tensor {
        dtype: DT_FLOAT
        tensor_shape {
          dim {
            size: 14
          }
        }
        tensor_content: "\235\325\005?OO\374>m\206\004?0\244\320<\201\036\317>\304\264X?\320Yb?\350\313\013?\202\241\352=d\215*?\306\336^?\3438y?W\037~?K\214h?"
      }
    }
  }
}
node {
  name: "Const_2"
  op: "Const"
  attr {
    key: "value"
    value {
      tensor {
        dtype: DT_FLOAT
        tensor_shape {
          dim {
            size: 14
          }
        }
        tensor_content: "\342&\035?\246\343\250>\324k\236>E\243Q?\253/\026?+!e?Q\353\302>\203mc?^7\311> \213[?\222\004??H4\277=\3065t?\374\346N>"
      }
    }
  }
}
node {
  name: "Const_3"
  op: "Const"
  attr {
    key: "value"
    value {
      tensor {
        dtype: DT_FLOAT
        tensor_shape {
          dim {
            size: 14
          }
        }
        tensor_content: "\270\255M?\033\203\312>\225\263`?%\'\350>\177P+?\2633\030? \2630?\262\243(>>\221\373>\203\203|>\314\302\301=\026!\227=\2329 ?\t\255\326="
      }
    }
  }
}
node {
  name: "Const_4"
  op: "Const"
  attr {
    key: "value"
    value {
      tensor {
        dtype: DT_FLOAT
        tensor_shape {
          dim {
            size: 14
          }
        }
        tensor_content: "\320\333\265;\276r.?P\271\340=\302?\035?\314\2163?j\n{?#\216\255>\256\r\374>7\266\337>\024+4>yH\315=\244vW?\354\007\262<p%=?"
      }
    }
  }
}
node {
  name: "Const_5"
  op: "Const"
  attr {
    key: "value"
    value {
      tensor {
        dtype: DT_FLOAT
        tensor_shape {
          dim {
            size: 14
          }
        }
        tensor_content: "\375\233\202=\2257\254>8\337\004=\234\227h>I\327j?\177S$?L\375\005?G\306s?z\2479>\257\330,>~,\037?m\313R>}\210\r>\330\224w?"
      }
    }
  }
}
node {
  name: "Const_6"
  op: "Const"
  attr {
    key: "value"
    value {
      tensor {
        dtype: DT_FLOAT
        tensor_shape {
          dim {
            size: 14
          }
        }
        tensor_content: "\360\020\353>\351\206(?\360f\244>\033\257\034?\377\321>?J[\335>\363\372\036?1\336e>\263\207\232> [\010?\312d\274>\351\317v>\031\320\320>\377}\017?"
      }
    }
  }
}
node {
  name: "Const_7"
  op: "Const"
  attr {
    key: "value"
    value {
      tensor {
        dtype: DT_FLOAT
        tensor_shape {
          dim {
            size: 14
          }
        }
        tensor_content: ">\242\232=4/\036?\250\203\344>\010-0?\346\022\212>\211\022(?w{\025>:\025c?\035\374\246>\374\255[?\035_\246>fj^>\346\010\225>\230\3539="
      }
    }
  }
}
node {
  name: "Const_8"
  op: "Const"
  attr {
    key: "value"
    value {
      tensor {
        dtype: DT_FLOAT
        tensor_shape {
          dim {
            size: 14
          }
        }
        tensor_content: ">\211n?pZ\001?*\3054>\276\347W?\346\374\251=\251\257\350=\003\245\362>\nvs>\360\251g?\2039(?\235\202\370>L\301>?\373J\034?\026\225\225>"
      }
    }
  }
}
node {
  name: "Const_9"
  op: "Const"
  attr {
    key: "value"
    value {
      tensor {
        dtype: DT_FLOAT
        tensor_shape {
          dim {
            size: 14
          }
        }
        tensor_content: "\222\342\226>pN\212>\256c7?NS\263>\001\312\225>y0`?w/\301>3\3369>\312,\243=\353\036\030?\267\022\351>\314\246l?\004O\245>\303\035\322>"
      }
    }
  }
}
node {
  name: "Const_10"
  op: "Const"
  attr {
    key: "value"
    value {
      tensor {
        dtype: DT_FLOAT
        tensor_shape {
          dim {
            size: 14
          }
        }
        tensor_content: "\363\030R?\215\367j>I\364\301>8\331\022?0e\321>\007\2240?z\275|?\327u\250>z\225U?t\301{?\223$\010>0\006\025?\267\033\n>\336e\351="
      }
    }
  }
}
node {
  name: "Const_11"
  op: "Const"
  attr {
    key: "value"
    value {
      tensor {
        dtype: DT_FLOAT
        tensor_shape {
          dim {
            size: 14
          }
        }
        tensor_content: "\213\336\315>d\t5?\364\331\010?\267G\205<\277\002\204=\036\343j>\017\267\274>I\275F>\005\027\222>\\\226 =\254\267m>\245\373!>=\\\014?\307\314\240<"
      }
    }
  }
}
node {
  name: "Const_12"
  op: "Const"
  attr {
    key: "value"
    value {
      tensor {
        dtype: DT_FLOAT
        tensor_shape {
          dim {
            size: 14
          }
        }
        tensor_content: "\226rG?\232\247Y>A\027n?.\321H?B\3638?B\244*?\340\\\030?\227[7?\036\375\032>\nv$?)\313\227>\\\255l?\033G:?,\r<>"
      }
    }
  }
}
node {
  name: "Const_13"
  op: "Const"
  attr {
    key: "value"
    value {
      tensor {
        dtype: DT_FLOAT
        tensor_shape {
          dim {
            size: 14
          }
        }
        tensor_content: "a\332\223=\006z\'?\n\225\021=\263&\013?\355\222\267>\0307\026?\356\200\270=\227\361e?1(g?\237\032\272;\2447\252>\213a8?)\276\"?]!\021?"
      }
    }
  }
}
node {
  name: "Const_14"
  op: "Const"
  attr {
    key: "value"
    value {
      tensor {
        dtype: DT_FLOAT
        tensor_shape {
          dim {
            size: 14
          }
        }
        tensor_content: "v\261k=\213S\216>\346\257f?!\247r?X\330\314>\356\001~>\005\177`<\316C\">\357\250\032?\020h\027=\260\002\007?\261\2609?Q+\216<\323+\t>"
      }
    }
  }
}
