meta_graphs {
  graph_def {
    node {
      name: "Const_0"
      op: "Const"
      attr {
        key: "value"
        value {
          tensor {
            dtype: DT_FLOAT
            tensor_shape {
              dim {
                size: 16
              }
            }
            tensor_content: "\235d\331>N\217`?M!\241>\023\'|?P\006$?\017\225*?\332\016\265>\311\221\233=2\205\370>\303\216i?Y\321\271>\221\032\233>\343\335&?;\031\305>&=\317>\360\220T?"
          }
        }
      }
    }
    node {
      name: "Const_1"
      op: "Const"
      attr {
        key: "value"
        value {
          tensor {
            dtype: DT_FLOAT
            tensor_shape {
              dim {
                size: 16
              }
            }
            tensor_content: "{\260\007>%\n1?\200\205\273> \306N?\337\201\363>B\2348?C\366\306>A{e?g2}?\225_I?\356@!?^G\265<&\013\260>Ca\021?\300\355k>\363y\361>"
          }
        }
      }
    }
    node {
      name: "Const_2"
      op: "Const"
      attr {
        key: "value"
        value {
          tensor {
            dtype: DT_FLOAT
            tensor_shape {
              dim {
                size: 241
              }
            }
            tensor_content: "*\272+>\203#i>6r[?\254\206/>l\002S?\242\213K?K\214\205>\023\275\312>\256EM=y\321\n?\014\274^>\370\037{?\367\016t?\274\327\241>[\376\277>\225\036}?x:]?\272tO?\272\364\032?9,;?`I(?\377t\222=~;\355>o:\356>\225<\022?t\350\266>\000:O?&>\201>n\230\273>n\266\307>\370\034\260>\301\375n?\230\357\013?\346\312\021?\274D\264>\357\016\237>m\337\013>\373\3025=\246\262\317>\315\351z?\001\376#?\001\370\374>\305\277^?\031\231\342>\307\266\r?\364\236\032?\000\r\211>\223\210v?bq\307>\334\341\264=\006\274\265>\310\232\017?\013D\372>[\004\014>\032!^?R\212\301>\227\"\324>\024\311.?(\371\375>\207\007#?\031#k=BR=?\030Bj?\001\215)=e\351K?s\376\350>\330)\247;\337\030]?|d\275>\276\307\273=?\372r?u\262\335>\353\205z?\322\362\305>\313y*?r\316\270>Zf\325>\377\341\023?}+\234>\023\265\000?8>A=-\302\n?\323s\352=\331\371\215>G\000\247>`\001L>_\004F?\322\317-?\003dQ?h\007\005?o@S=\025\221c?U\203\245;\270\223d?\331\364\001?\3248V?\207\334H>\r\245\342>\346\331\311>\244\024\274=\300\023m>D++?\346\237M?w\020\304>\355$}?<A\032>\371h\333>\344\274|?\233\247M>\277\377\217=\221\031\275>V\214\234>\222\347:?\203\001\007?\312\241\025>\274\273(?\342\344\035?\311.\177?\346\246\312>\267\205\304>\370/H>k\213`?\0041\313>\234\333\264>^\257\032>\023<\022>[\323\026?\230\254S>\233\360B<p\321\002?b\346\341>9\244P>\313\351\226>\217\365\020?E(`>\254%A?\320q@?M_<?\363\037\010<\200\203d?\036h\212>\306\264\036?g\206\241=\327\341\036=P\033\366>\266\032\266>\254\224X?\361:a?#\017T?\017\220\016?\r\252\261=.\366\245>*r\303>\031\370\222>@T<?\027\235\021?\0214T?8-.?`~4?\375;j?u?\266>\267\215\207=\031\323{?\377y\'>\001\240f?Iv\276>s\214u>\356\354K>\315\256z?\210+\361=\250\372\254>\346\246\253>\223R\016?\201bR?t\227\215=\335j}?V\365\211>I\"]?~\325\354>\213\275*?:\3371?\263\267:?8\033\321>\352C\013> 7\023?\255\214\336>\362\244\243=\360.\355=1Z6?\201\177L?\332\277<>\273\264\010=\036A\226>\277O\254>\307\024G?\347\030,?\355b\327=\257SV?\037\336\017?\262\232\001?\034<k?\'\266\006?\252Wv?\013`\027?B\n/>\210\237\";|(\021>\022\023\336>\362\205?>M\220m>m\304\364=z\030\220>|\375g?\335\013h?\"\321\215>s-x?\342\334\036?\244\037\367>\334\245L?,\317d?\301\317r?\335\371\265=v\331\025?\035qT?a\253\004>6&w>\3238q?J\252\321>h2O?\316ra?\"G\206>\013\275\003?u\364\n?9:J?\t\305K?3\023\365>\241-\037?\225\354~>>\264\020?C\2066?\333\3446?"
          }
        }
      }
    }
    node {
      name: "Const_3"
      op: "Const"
      attr {
        key: "value"
        value {
          tensor {
            dtype: DT_FLOAT
            tensor_shape {
              dim {
                size: 16
              }
            }
            tensor_content: "#\375.>\021\223\021?\313\367K?\327.\033?w\206m?\273q\027?\250\213I?\201mV>\266\377b>\246\212\003?h\004]?\214H\010>\020\274\001>\033\035\010>\234\373x>r\312i?"
          }
        }
      }
    }
    node {
      name: "Const_4"
      op: "Const"
      attr {
        key: "value"
        value {
          tensor {
            dtype: DT_FLOAT
            tensor_shape {
              dim {
                size: 241
              }
            }
            tensor_content: "c\203;?\335\037C>\007\316E>\245\010\332=k\344\306>\201r\025>\330\274\020?h\272t?n\001\\?\264\226\314>\014z\014?\233\014J?KAU?\327\225V?[\007\240>\005\277\253>\341\250 ?5\362^?\355\366\246>\324&h?)\211\005?\343\371\347>\347sb?\234\236\325>E\004\037?\rkz=S<_>+\350\277=$\212M?\211S{?\222q1?q\352\233=By\245>\"r\354=\214\345\236>\177}\037?y\024\306>Ki\037>\021\216\007>\227\204\026?\326\371\022?\352\364~>\221\215\272=\026\372x?\031%c?/\336D>\277\363*>mH\r=G\222\014?4P&?\250AR<\"\307g?^\303{?\312\350\340>\270\234\264=\323\000\354>\0050+>\244\206(?\341\000^=\270\320\226>z\365\221>\014\007\347>\277^\030>w\035\340>G=*?\310c\236>2\037%=\361Qq?\215\261j?\033\204\345={T\217>\253N\333=\211]\004:\t\301\221>\357\031\016>eG\272>\"\370L?&\004j?\230\275\275<\300=5?\366\036a>\'\254X>\272zV?fY\220=\231\025w?\322\037&>m\220\335>\177\300\372=\210B\010>\326\313p?\305\340\325=\362\343k?\227\252`?\372Z\326>P9Q?\004\317X?\363l\013=\233p\177?\342T\021?f\224\365>\370\270A?\366\327\220=\343[\016?!\2033?\205\344\320=\336\0007?\360\n\t?\2012\000?\327(B>\007\252Z?\253\202\367>\225\356`>Z\2026?|J/?\311>:>r\023\006>\350qf?\265\317@?\243\017p?\016)T=\324\374\010=g\341J>)\243y>\257\004\252=\223\277|?1\237u? <%?\313|\\>\2164\216=\206\0222?XY,?\336b$?@\033G?\313\206\255>\315\372(>B\345e?\227\3123?\310\231\251=\1772\036?l%|?\312\032\334<\253Z\221>\357\020<?\256\201-?\220\342(?\035\r\324=\025a\326>\270\2779?C1S?\\\007\003>\374E\363>\222\223<?P\334\"?\204\177%?\350\207\371>)\356E=\37321>\240\220}>\356\000A?}\366*>\264Of?\030lm?\372\224\r?\351\211\252>L\031|?\215\237d?\337yb>\25277?mn??S\267\231>:\317]?\364\350\334>\324\247\007?\232] ?\n\026\311>\323\024E?r\372%?\017\362E>\250\214\317>\353l->\337IT?_\210o?o\037\361>$ \032?zxV>\212\327\037?W\317\177?o\031\006?\331\261\036?V\254y>\333\300P?\315\302\000?6\312\235>\034\373\304>\2003 =\344Oo?\210\030 >\265\\\353<P\350r?g\336\336<\342f\325>\253!\207>py\023?u\014\036?o\017<?\271\267T?\217\234\314>\243@\323>\241=\373>\212)\225=\255\234,?o\354\213=\204\235S?Y5c?>\310\005?\014*\024?\304\331;?\002|\226>\231\214\376>\341S\214=g4N?)\272\303>\225\036P>\213\324\\?\353i\341>\241\230j?\302\367m=\256\215R?\360\231\226>\2042\321>\025{\311>\332@\265>$E\017?\216\323j?\260\365\263=\276\353\276>\207\272r?g\315\212=\303\302\335>\347\026\376=\254@;?"
          }
        }
      }
    }
    node {
      name: "Const_5"
      op: "Const"
      attr {
        key: "value"
        value {
          tensor {
            dtype: DT_FLOAT
            tensor_shape {
              dim {
                size: 116
              }
            }
            tensor_content: "\036\014n?H/\027>\375be?\247\2065?v\303\366>\266\357\025?\266G#?\364c\304>\245j\035>{\273 ?\312\030~?\017o\031?/\345L>\272\254^>QQ\005??\366\201>\217N.?\274\013j?\0300{=\243\'0?\343=\325>\237v\010>;UQ?\322E\002?G^<?\tg4=\271\345^?y,\363>\204\206\251>\036+!=\275/S?\005\002\260=\203\3374>\\\300G?y\204\177?\257\254\007?\235\230+>\264\365\003?\014\261\261>\025\322\026?\2375\225>\031\263T?\313N\033>\237\325\016?ZtH=\204\331>?\215\343\010?\253\354L>\360\325>?5\224;?\232D\256;?\031B?\337kR?\3677s?`0\367>\332@\n?\024\245a?\352g\373=\303l7?\224\001\313>n\364\025?\006c^?#N\022<zs7?fD\007?$\021W?\"\027!>\233]\207>\315\356v?)\2075>\217}L?\345H\364>\333\033\374;p\271\034?\027Ke>@l\n?=\235\225>\t\264L?\256\343b>u\203\325>\234}\273=\340\\\333>\370k\245>\0021\n?\332\027\330>X\336S=7N\"<\227\335O>\375\025\037?\213Ee?\244\262\036?\210r*?\343zU?\022\347\025?\021rf?f\037a?\354\240\353=\216z#?Vr\256>\016\033&>\301\252\307>C\271\311>`\320\253>\307p\235>K\302f>\362s\272>\376~\377>\204Ct>\203\t\036?VjO>\023{&?Gf\036?j\017*?6pw>\244\272r?\032\"\021?"
          }
        }
      }
    }
    node {
      name: "Const_6"
      op: "Const"
      attr {
        key: "value"
        value {
          tensor {
            dtype: DT_FLOAT
            tensor_shape {
              dim {
                size: 16
              }
            }
            tensor_content: "\212\220q>\213\277y>4?\006<1\226\177>o}\271>b\374\016?\237\366,?\357h->P\312\230>\010\033_?\232\240\013?\004j\206>\023\021\007?%\024Q?\277\3634?\004\317*?"
          }
        }
      }
    }
    node {
      name: "Const_7"
      op: "Const"
      attr {
        key: "value"
        value {
          tensor {
            dtype: DT_FLOAT
            tensor_shape {
              dim {
                size: 16
              }
            }
            tensor_content: "\206\226v?4\211F?c\250\353>\'G\t?:\241%?\272y|=\020o\n>NN\265>9\3301>\313\377\325>&\302\013>3\035%?x\217\017?\037\255\345>P(\334>g\263<?"
          }
        }
      }
    }
    node {
      name: "Const_8"
      op: "Const"
      attr {
        key: "value"
        value {
          tensor {
            dtype: DT_FLOAT
            tensor_shape {
              dim {
                size: 16
              }
            }
            tensor_content: ".\356\201>\t\246\371>\234\014p?D\3626?j;\013=V\232h>\032\327w>I\000B?\320\336Z?(\364\234>\020$\223=~q\211>v\345&?a\257\000?\030\221\360>\350pX?"
          }
        }
      }
    }
    library {
      function {
        signature {
          name: "fn1"
        }
        node_def {
          name: "Const_9"
          op: "Const"
          attr {
            key: "value"
            value {
              tensor {
                dtype: DT_FLOAT
                tensor_shape {
                  dim {
                    size: 16
                  }
                }
                tensor_content: "\021\"/?\032\335\354;\210\352Q>!\344\341>\243[\204>\245\227h>\020\177\006?^\357\203;\273\305T?\257\213\370=p\352\230>\261\n\220>\256\375m=KO\267>\\|w>\241\324q?"
              }
            }
          }
        }
        node_def {
          name: "Const_10"
          op: "Const"
          attr {
            key: "value"
            value {
              tensor {
                dtype: DT_FLOAT
                tensor_shape {
                  dim {
                    size: 15
                  }
                }
                tensor_content: "CT8?\254\211Q?HHd?\240\210\351>\352BJ?\013\253\265=\0305\357=&\225\016>\362\267\211>?G\332>*\3031?\356\315\255;Z\344$?\023$X=\344\272\271>"
              }
            }
          }
        }
        node_def {
          name: "Const_11"
          op: "Const"
          attr {
            key: "value"
            value {
              tensor {
                dtype: DT_FLOAT
                tensor_shape {
                  dim {
                    size: 15
                  }
                }
                tensor_content: "\317\350l?A\030\357=b\313\246>\304@*>]~\205=t6\010>\251]\000>\205ms=\236\252\006>/\343\236;T\226\364=/b\273=v|E?\374\375\014?\303\317\027?"
              }
            }
          }
        }
      }
      function {
        signature {
          name: "fn2"
        }
        node_def {
          name: "Const_12"
          op: "Const"
          attr {
            key: "value"
            value {
              tensor {
                dtype: DT_FLOAT
                tensor_shape {
                  dim {
                    size: 15
                  }
                }
                tensor_content: "\205\324l?\274|H?)\235!?\242[??\3551\307>\355\2040?%\310\342>\034\025E?\302j\'?\237Q\350>*\r^=a\317;?p\271=?\272MA?\267&\346>"
              }
            }
          }
        }
        node_def {
          name: "Const_13"
          op: "Const"
          attr {
            key: "value"
            value {
              tensor {
                dtype: DT_FLOAT
                tensor_shape {
                  dim {
                    size: 115
                  }
                }
                tensor_content: "N\265\276>.X\304>\352%k?\225!\245>\305\304\235>\346\211{?\3272*?R\321f?\320\300i?Iy@>\271x\203>\002\322\274=ioI?\t\225\372>\362Bp?\2031W<\022\337\002>E3\361>\366\214\274<\2274\036?\337\220\371>,B\336>*\361C?\250[\263>\236\t\020?\346Y\261>\336\232U>v=\325>f\277f<\207C2?h#=?_\215h?\314\211\215>\032rn?\214CH>\'\232\342=\204\376r=\374\237\'?x\310\265>\005\223\315>\260\270\016?\2179\255>\370\t\025>\224RE?ay9?\004\372=?\237\024G?!\034\351=\0231e?M\327\234>`\357f?\375\355t?\365\274\177?n\220E?sN\267>\253tQ?\303\277K?h\351\272>\031\277w?\007\341.>\240\024S=\217\177y?\271z\010?\323\231\356>\306k\034?\031@\264>\024\371\031>\036\211\035>W\276K?\001\272K>\223\'v?\213\212\376>\372F$?6\276R?\257vb?V\341\202>\004\023\032?=P\371>W\010F?\007\222\376>]\232\321>\231\252\370>\'7.>,\233k?`_\376>I\337d?\363\220b?hS]?\203\377u?\177Y\007?\023\177\306=\234\2534?\322\257\262>\225R\010<\371 m>4\334P?\337\241\345>E\001\271>\352\226O?*|@?\203\352a??#\010?\277\243\005?]\324\361>3\007;?\"\3753>\3427\000?ZW\022>\0037G?\350\220\273>XZ\277<q\252m?\342\315\311>xJd?\n\343\035?"
              }
            }
          }
        }
      }
      function {
        signature {
          name: "fn3"
        }
        node_def {
          name: "Const_14"
          op: "Const"
          attr {
            key: "value"
            value {
              tensor {
                dtype: DT_FLOAT
                tensor_shape {
                  dim {
                    size: 15
                  }
                }
                tensor_content: "\367\356)?\020y\310=o\2048?\243 >?\312\203T?a\273W>n\212m?\232C6?\370\331/?/\374\253>\372R ?\257|\017?\230\256X=\204\330\"?\0007\366>"
              }
            }
          }
        }
      }
      function {
        signature {
          name: "fn4"
        }
        node_def {
          name: "Const_15"
          op: "Const"
          attr {
            key: "value"
            value {
              tensor {
                dtype: DT_FLOAT
                tensor_shape {
                  dim {
                    size: 15
                  }
                }
                tensor_content: "&\036\000?\271\260b?\375\307h?\277u\371=Vl[?rP\321>:\306\010?\274\001\002?\267\\k?\374e\006?\347\355;>RlC?\017\370\330>\362\002\276=\336p\357>"
              }
            }
          }
        }
        node_def {
          name: "Const_16"
          op: "Const"
          attr {
            key: "value"
            value {
              tensor {
                dtype: DT_FLOAT
                tensor_shape {
                  dim {
                    size: 15
                  }
                }
                tensor_content: "J\241F>\232\"i>H(z?b\227\274>t\331\233>\224\361O>&\210\210>au\316>\231\210V?\224\241j>\377P&>T>\303=C\371 ?O\232;>\216\016|>"
              }
            }
          }
        }
      }
    }
  }
}
