/* Copyright 2020 The TensorFlow Authors. All Rights Reserved.

Licensed under the Apache License, Version 2.0 (the "License");
you may not use this file except in compliance with the License.
You may obtain a copy of the License at

    http://www.apache.org/licenses/LICENSE-2.0

Unless required by applicable law or agreed to in writing, software
distributed under the License is distributed on an "AS IS" BASIS,
WITHOUT WARRANTIES OR CONDITIONS OF ANY KIND, either express or implied.
See the License for the specific language governing permissions and
limitations under the License.
==============================================================================*/

#include "tensorflow/lite/micro/testing/test_conv_model.h"

extern const unsigned char kTestConvModelData[] = {
    0x24, 0x00, 0x00, 0x00, 0x54, 0x46, 0x4c, 0x33, 0x00, 0x00, 0x00, 0x00,
    0x00, 0x00, 0x00, 0x00, 0x00, 0x00, 0x12, 0x00, 0x1c, 0x00, 0x04, 0x00,
    0x08, 0x00, 0x0c, 0x00, 0x10, 0x00, 0x14, 0x00, 0x00, 0x00, 0x18, 0x00,
    0x12, 0x00, 0x00, 0x00, 0x03, 0x00, 0x00, 0x00, 0xb4, 0x52, 0x00, 0x00,
    0x3c, 0x42, 0x00, 0x00, 0x24, 0x42, 0x00, 0x00, 0x3c, 0x00, 0x00, 0x00,
    0x04, 0x00, 0x00, 0x00, 0x01, 0x00, 0x00, 0x00, 0x0c, 0x00, 0x00, 0x00,
    0x08, 0x00, 0x0c, 0x00, 0x04, 0x00, 0x08, 0x00, 0x08, 0x00, 0x00, 0x00,
    0x08, 0x00, 0x00, 0x00, 0x0e, 0x00, 0x00, 0x00, 0x13, 0x00, 0x00, 0x00,
    0x6d, 0x69, 0x6e, 0x5f, 0x72, 0x75, 0x6e, 0x74, 0x69, 0x6d, 0x65, 0x5f,
    0x76, 0x65, 0x72, 0x73, 0x69, 0x6f, 0x6e, 0x00, 0x0f, 0x00, 0x00, 0x00,
    0xd4, 0x41, 0x00, 0x00, 0xc0, 0x41, 0x00, 0x00, 0x64, 0x41, 0x00, 0x00,
    0xc0, 0x40, 0x00, 0x00, 0x7c, 0x40, 0x00, 0x00, 0x58, 0x40, 0x00, 0x00,
    0x44, 0x13, 0x00, 0x00, 0xa0, 0x12, 0x00, 0x00, 0x8c, 0x00, 0x00, 0x00,
    0x80, 0x00, 0x00, 0x00, 0x6c, 0x00, 0x00, 0x00, 0x58, 0x00, 0x00, 0x00,
    0x44, 0x00, 0x00, 0x00, 0x30, 0x00, 0x00, 0x00, 0x04, 0x00, 0x00, 0x00,
    0xd6, 0xbe, 0xff, 0xff, 0x04, 0x00, 0x00, 0x00, 0x10, 0x00, 0x00, 0x00,
    0x31, 0x2e, 0x35, 0x2e, 0x30, 0x00, 0x00, 0x00, 0x00, 0x00, 0x00, 0x00,
    0x00, 0x00, 0x00, 0x00, 0x00, 0x00, 0x00, 0x00, 0x00, 0x00, 0x00, 0x00,
    0x00, 0x00, 0x00, 0x00, 0x94, 0xb2, 0xff, 0xff, 0x00, 0x00, 0x00, 0x00,
    0x00, 0x00, 0x00, 0x00, 0x00, 0x00, 0x00, 0x00, 0xa4, 0xb2, 0xff, 0xff,
    0x00, 0x00, 0x00, 0x00, 0x00, 0x00, 0x00, 0x00, 0x00, 0x00, 0x00, 0x00,
    0xb4, 0xb2, 0xff, 0xff, 0x00, 0x00, 0x00, 0x00, 0x00, 0x00, 0x00, 0x00,
    0x00, 0x00, 0x00, 0x00, 0xc4, 0xb2, 0xff, 0xff, 0x00, 0x00, 0x00, 0x00,
    0x00, 0x00, 0x00, 0x00, 0x00, 0x00, 0x00, 0x00, 0xd4, 0xb2, 0xff, 0xff,
    0x00, 0x00, 0x00, 0x00, 0x46, 0xbf, 0xff, 0xff, 0x04, 0x00, 0x00, 0x00,
    0x00, 0x12, 0x00, 0x00, 0x7d, 0x6a, 0x24, 0xa1, 0xf6, 0xca, 0x70, 0x2f,
    0x8e, 0xb1, 0xe8, 0x15, 0x42, 0x08, 0x32, 0xf6, 0xe9, 0xfb, 0xa0, 0xda,
    0xe4, 0xf1, 0x0a, 0x9d, 0x72, 0x66, 0x88, 0x37, 0xe9, 0x9e, 0x08, 0x54,
    0x61, 0x51, 0x40, 0x93, 0x4d, 0xcf, 0xe2, 0x08, 0x36, 0xad, 0xb1, 0x8e,
    0xfc, 0xe4, 0x02, 0xd1, 0x9a, 0x1e, 0x05, 0x67, 0xa3, 0x3b, 0xa6, 0xde,
    0x5d, 0x2a, 0xcc, 0x8c, 0x3c, 0x2e, 0xd2, 0x15, 0xc2, 0x60, 0xab, 0xea,
    0x73, 0xe4, 0x88, 0xc1, 0x66, 0x21, 0xb0, 0xe5, 0x5b, 0x55, 0xda, 0x69,
    0x2d, 0x0c, 0x66, 0x07, 0x74, 0x36, 0xcd, 0x79, 0x81, 0xf9, 0x5c, 0x2c,
    0xb5, 0x93, 0xab, 0x76, 0xa1, 0x1f, 0x20, 0x90, 0x89, 0xe1, 0x41, 0xc7,
    0x32, 0xc2, 0xa3, 0x03, 0x77, 0x86, 0x79, 0xf7, 0x89, 0xc1, 0xb1, 0x42,
    0x2a, 0x75, 0xc7, 0xc1, 0x2f, 0xbb, 0xf6, 0xe8, 0x23, 0x99, 0x9b, 0x74,
    0x9c, 0xe5, 0x91, 0x15, 0xc6, 0x08, 0x0e, 0xae, 0x7c, 0xd3, 0x27, 0x54,
    0xfb, 0xa7, 0x49, 0x65, 0x52, 0x2f, 0x63, 0x33, 0x8b, 0x5f, 0x67, 0x21,
    0x25, 0xe0, 0xcf, 0x95, 0x03, 0x05, 0x19, 0x0c, 0x3d, 0xfc, 0x95, 0x42,
    0xa9, 0x26, 0x27, 0x54, 0xa3, 0x71, 0xb4, 0x70, 0x7a, 0x40, 0x0d, 0xc1,
    0x72, 0x04, 0x81, 0x3b, 0xb9, 0xb7, 0xd2, 0xc1, 0x4e, 0xf8, 0xff, 0xca,
    0x66, 0xc1, 0xbe, 0xb9, 0x09, 0xbd, 0xb9, 0x2c, 0x5b, 0x97, 0xc3, 0xa8,
    0xf6, 0xc4, 0x23, 0x93, 0x2e, 0xf6, 0xce, 0x2e, 0xdb, 0xfb, 0x8f, 0xb0,
    0xc8, 0xba, 0xfa, 0x97, 0xfd, 0xc0, 0x0a, 0xc8, 0x2c, 0xf3, 0x4c, 0x4d,
    0x8b, 0x3b, 0x47, 0x11, 0xfb, 0xe8, 0x96, 0xe3, 0xcc, 0xef, 0xe4, 0xb5,
    0x07, 0xa1, 0xb7, 0xa9, 0xf7, 0x98, 0x71, 0x59, 0x9b, 0x5a, 0x7b, 0x88,
    0xe4, 0xcf, 0x9b, 0x55, 0x26, 0xce, 0x59, 0x73, 0x66, 0x17, 0x9c, 0x74,
    0x02, 0xfc, 0x24, 0x01, 0xde, 0x44, 0x98, 0xe3, 0x8b, 0x18, 0x02, 0x42,
    0xf5, 0x0f, 0xbc, 0xcb, 0xf7, 0x37, 0xb1, 0xd5, 0xb4, 0x7c, 0x0a, 0x6a,
    0x59, 0x59, 0xc9, 0x11, 0xd8, 0x0f, 0xf9, 0xab, 0x40, 0xdd, 0x14, 0xf9,
    0x30, 0xaa, 0xf1, 0x8c, 0x6d, 0xbc, 0x4c, 0x5b, 0x71, 0x95, 0xfd, 0x41,
    0x4c, 0xf3, 0xb4, 0x7f, 0x1c, 0xb6, 0x4b, 0x12, 0x3b, 0x6e, 0xc1, 0xce,
    0x6f, 0xf8, 0x57, 0xb7, 0x5e, 0x2a, 0x36, 0x32, 0x3d, 0x85, 0xc6, 0xbf,
    0xd7, 0xab, 0x95, 0x45, 0x62, 0xae, 0xb8, 0xa6, 0x03, 0xcc, 0x21, 0x25,
    0x18, 0x5a, 0xa8, 0x03, 0x27, 0x33, 0x47, 0xb1, 0x7e, 0x0e, 0xbd, 0xc3,
    0x24, 0x25, 0x78, 0x28, 0xa4, 0xe3, 0x5b, 0x08, 0xbf, 0x04, 0xa2, 0xae,
    0x90, 0x4c, 0x96, 0x78, 0xa8, 0xb1, 0xb8, 0x54, 0x89, 0x25, 0x2d, 0x35,
    0x93, 0x95, 0xa5, 0xd3, 0x1a, 0xe6, 0x00, 0x8b, 0xfe, 0x36, 0x0f, 0xd2,
    0x6e, 0xff, 0x86, 0x93, 0x48, 0xb8, 0x08, 0x39, 0x1f, 0x3a, 0x2d, 0xe7,
    0x47, 0x5e, 0x05, 0x66, 0x7a, 0xb8, 0xe4, 0xda, 0xbc, 0x5b, 0x57, 0xdf,
    0xd9, 0x0a, 0xb9, 0x48, 0x5d, 0x0c, 0x57, 0xed, 0x8d, 0xbb, 0x8d, 0x4b,
    0x0e, 0xb8, 0xea, 0x02, 0x06, 0x2f, 0xfd, 0x28, 0x0d, 0x0b, 0xf4, 0xf4,
    0x52, 0x81, 0x77, 0x15, 0x87, 0x53, 0x28, 0xef, 0xbe, 0xc6, 0x4c, 0x45,
    0x3e, 0x1a, 0x6e, 0xbd, 0x10, 0xd8, 0x9a, 0x72, 0x1f, 0x14, 0xe2, 0x37,
    0x08, 0xaf, 0xfa, 0xce, 0xd3, 0x84, 0x23, 0x43, 0x8c, 0x5c, 0xce, 0x1b,
    0xf7, 0xf3, 0xb0, 0x3b, 0xfd, 0x33, 0xf8, 0x09, 0xf1, 0x41, 0xa5, 0xa8,
    0x86, 0x8d, 0x56, 0xde, 0xf6, 0x68, 0xe3, 0x4c, 0x97, 0xa6, 0xc3, 0x66,
    0x9b, 0xa9, 0x8a, 0xbd, 0x59, 0x45, 0xfb, 0xdf, 0xa1, 0x42, 0x10, 0x1c,
    0x55, 0x22, 0x53, 0xe1, 0x32, 0x33, 0xf9, 0xfa, 0xc2, 0x70, 0x0f, 0x49,
    0x15, 0xa7, 0x21, 0xbc, 0x56, 0x35, 0x09, 0x06, 0xe6, 0x5e, 0xc4, 0xc1,
    0x64, 0x93, 0x59, 0x3b, 0x8e, 0xb7, 0x52, 0x6c, 0x4d, 0xa1, 0xb7, 0xee,
    0x14, 0xc2, 0x01, 0x25, 0xbb, 0x5e, 0xe0, 0xc6, 0xa4, 0x4f, 0xb5, 0x20,
    0x88, 0xe0, 0xd7, 0x5e, 0x26, 0x5b, 0x9f, 0xf7, 0xb5, 0x26, 0x5b, 0xfc,
    0xf3, 0x3e, 0xf3, 0x57, 0x6f, 0x9e, 0x9e, 0x51, 0x07, 0x6e, 0xc0, 0x53,
    0x17, 0x89, 0x79, 0xf0, 0x91, 0xb2, 0x54, 0x30, 0x1f, 0x97, 0x95, 0xfc,
    0x02, 0x2d, 0x0c, 0x06, 0xb0, 0x82, 0xad, 0x20, 0xc2, 0xdc, 0x78, 0xbc,
    0xbe, 0x5b, 0x88, 0xa0, 0xdd, 0x45, 0x49, 0x26, 0xec, 0xb4, 0xa5, 0x8b,
    0x7f, 0xdd, 0x40, 0xcf, 0x9e, 0xbe, 0x46, 0x4d, 0x36, 0xab, 0x0a, 0x34,
    0x1a, 0x2a, 0xd0, 0xd3, 0x83, 0x96, 0xff, 0x88, 0xa4, 0xd8, 0x48, 0x75,
    0x2f, 0xcb, 0x3c, 0xc3, 0xbb, 0xc7, 0x2f, 0xe9, 0xf9, 0xa3, 0xde, 0x9d,
    0xbb, 0x5e, 0x37, 0x29, 0xf6, 0x75, 0xcc, 0x85, 0xeb, 0xf9, 0x73, 0xf7,
    0xdc, 0x31, 0x8c, 0x56, 0x52, 0x4a, 0x44, 0xa4, 0x2a, 0x2a, 0x51, 0x49,
    0x77, 0x6d, 0x35, 0x0a, 0xf9, 0x44, 0xaa, 0x36, 0x05, 0xef, 0x1e, 0x6b,
    0xe5, 0x65, 0x6b, 0xaa, 0xc1, 0x41, 0x9c, 0x62, 0xd0, 0x70, 0x78, 0xff,
    0x88, 0xe8, 0x5f, 0x3c, 0x2e, 0x00, 0x6c, 0xe3, 0xdb, 0xc3, 0x54, 0x66,
    0xa9, 0xf4, 0xe2, 0x4c, 0x91, 0x11, 0xc8, 0x3c, 0x39, 0x9b, 0x31, 0x81,
    0xc7, 0x11, 0x22, 0x62, 0xb7, 0x26, 0xa0, 0x0c, 0x2e, 0x6c, 0xe7, 0x34,
    0x3b, 0x1f, 0x27, 0xb3, 0xe5, 0x4f, 0xc9, 0x71, 0xb2, 0x18, 0x99, 0x59,
    0x95, 0xc6, 0x35, 0x4c, 0x5d, 0xa3, 0x59, 0xd1, 0x8b, 0x71, 0xea, 0xe7,
    0x30, 0x3f, 0xe7, 0x8c, 0x1a, 0x59, 0xeb, 0xc5, 0x5d, 0xbd, 0xe6, 0x00,
    0x67, 0x02, 0xfb, 0xca, 0x8d, 0xdf, 0x71, 0xb6, 0xed, 0xc7, 0xd2, 0xf2,
    0x72, 0x1b, 0xd3, 0x63, 0x51, 0x1f, 0x04, 0xe9, 0xf9, 0xe2, 0x38, 0x13,
    0x48, 0x63, 0x19, 0x66, 0x2b, 0x48, 0xc8, 0x1b, 0x9d, 0x19, 0x5a, 0x57,
    0x44, 0x2d, 0x30, 0xb5, 0xce, 0x3b, 0xcc, 0xae, 0xc4, 0x5e, 0x4e, 0x96,
    0x62, 0x5c, 0x53, 0x1f, 0xbf, 0xbd, 0xc8, 0x9d, 0xcf, 0x81, 0xb3, 0x1e,
    0xb0, 0x22, 0xd5, 0xbe, 0x60, 0x65, 0xd9, 0xeb, 0x11, 0x74, 0x8c, 0x24,
    0x18, 0x67, 0x45, 0xd3, 0xf8, 0x3f, 0xc5, 0xdf, 0xac, 0x65, 0xd4, 0x0c,
    0x82, 0x63, 0xd6, 0x43, 0x94, 0xa0, 0x3b, 0xff, 0x03, 0x0f, 0xbb, 0xe4,
    0x4d, 0x3b, 0x41, 0x9f, 0xf4, 0x1a, 0xa9, 0xdb, 0x15, 0x5b, 0x9a, 0x92,
    0xcb, 0xd5, 0xb8, 0x33, 0x5e, 0xea, 0x28, 0x3d, 0x2d, 0x30, 0x20, 0xcd,
    0xb6, 0x23, 0x18, 0x0e, 0x10, 0x2a, 0xa9, 0xe1, 0xad, 0xbc, 0x96, 0xd1,
    0xf9, 0xf3, 0x95, 0x4f, 0x2a, 0x0b, 0x91, 0xff, 0xf0, 0x96, 0x14, 0x00,
    0xaa, 0xfb, 0x1a, 0x44, 0x21, 0x9b, 0xe8, 0x71, 0x31, 0x9e, 0xd6, 0x58,
    0x7f, 0x02, 0x36, 0x5e, 0x92, 0x8d, 0x93, 0x99, 0xac, 0xb6, 0x87, 0x39,
    0xda, 0x47, 0xef, 0x70, 0xd4, 0xf7, 0x8d, 0x2a, 0xbd, 0x08, 0x40, 0x4d,
    0xec, 0xeb, 0x4e, 0x1b, 0x85, 0x5d, 0x55, 0x64, 0x4c, 0xf3, 0x5e, 0x8f,
    0x68, 0x1e, 0x5e, 0x64, 0xc3, 0xb8, 0x92, 0x24, 0x41, 0x98, 0x78, 0x09,
    0x85, 0x87, 0x17, 0x2c, 0x88, 0x9e, 0x62, 0x86, 0x4f, 0x44, 0x71, 0x9c,
    0xa8, 0x73, 0xb3, 0x14, 0x1f, 0x3c, 0x96, 0x6b, 0xab, 0xad, 0x43, 0xdf,
    0x67, 0x34, 0x66, 0x30, 0x1d, 0x15, 0xd3, 0xe7, 0xd5, 0x8b, 0x00, 0xaa,
    0x11, 0x77, 0xea, 0x36, 0xc9, 0x49, 0x99, 0x93, 0x01, 0x6e, 0x00, 0x4a,
    0x93, 0x08, 0x2c, 0x44, 0x01, 0x91, 0xe0, 0x91, 0xdd, 0xab, 0x70, 0x4b,
    0xe7, 0xbf, 0x2d, 0x0f, 0xd4, 0x52, 0xa0, 0xf1, 0x5d, 0xa0, 0xcc, 0xb9,
    0x1b, 0xa2, 0x62, 0xeb, 0x23, 0x1e, 0x8e, 0xbb, 0x2b, 0xb6, 0xc5, 0x3a,
    0xdf, 0x32, 0x99, 0xde, 0x2e, 0x94, 0xcf, 0x98, 0x99, 0x34, 0x59, 0x60,
    0xcf, 0x57, 0xe0, 0xb0, 0xd9, 0x89, 0xaa, 0xc2, 0x4f, 0x1e, 0x38, 0x88,
    0xca, 0x32, 0x93, 0x9b, 0xa3, 0x2b, 0x17, 0x0b, 0x40, 0x5e, 0x69, 0xbd,
    0x14, 0x15, 0xca, 0x1a, 0x21, 0xdf, 0xa8, 0x4e, 0x14, 0x5e, 0x18, 0x40,
    0xe3, 0x4e, 0x04, 0x1f, 0xe5, 0x81, 0x53, 0x11, 0xae, 0x5e, 0x30, 0xe5,
    0xda, 0xd7, 0xf1, 0x3b, 0x72, 0x1b, 0xa5, 0xe3, 0x13, 0xad, 0x40, 0x54,
    0xae, 0xf0, 0xbc, 0x2b, 0xc1, 0x1a, 0x9c, 0xdd, 0xe1, 0xd0, 0x12, 0x10,
    0xfd, 0x59, 0xce, 0x36, 0x60, 0x86, 0xa0, 0xa7, 0xee, 0xe1, 0x02, 0xe6,
    0xf8, 0xf0, 0x5c, 0x4f, 0xa3, 0xa4, 0xe4, 0x09, 0xb9, 0xc3, 0x84, 0xe3,
    0x8d, 0x97, 0x21, 0x62, 0xf3, 0x11, 0x47, 0xb1, 0x4a, 0xce, 0x5b, 0x89,
    0xde, 0x86, 0xb5, 0x0e, 0xba, 0xbc, 0x8c, 0xcf, 0x54, 0x38, 0x3a, 0xc6,
    0xaf, 0x8c, 0x4d, 0x9d, 0xff, 0x58, 0x9b, 0xe8, 0x32, 0xb7, 0xa2, 0x29,
    0xad, 0x91, 0x3a, 0xa5, 0xc7, 0x54, 0xff, 0xd8, 0x47, 0x4f, 0x8f, 0x38,
    0x91, 0x12, 0x76, 0xa3, 0x2e, 0xf7, 0xdd, 0xba, 0xa7, 0xd4, 0x49, 0xe5,
    0xd1, 0x74, 0xe9, 0x2a, 0x29, 0xe4, 0x64, 0xb9, 0x58, 0x98, 0x0c, 0xe5,
    0x1f, 0xb2, 0x0e, 0x33, 0xea, 0xf8, 0x2e, 0xb1, 0x22, 0x46, 0xc2, 0x67,
    0x2d, 0xfe, 0x2e, 0xd3, 0xcf, 0xbc, 0x64, 0x7b, 0x75, 0x24, 0x53, 0x1c,
    0x42, 0x8c, 0x0b, 0x99, 0x9e, 0xa7, 0xa6, 0xb9, 0xfb, 0x5d, 0x86, 0x9f,
    0xe9, 0x04, 0x62, 0xb2, 0x42, 0x81, 0xa2, 0x0d, 0x60, 0x83, 0x40, 0xbb,
    0x21, 0x10, 0xdf, 0xaa, 0xe6, 0x6c, 0x72, 0xc5, 0xb1, 0xad, 0x9f, 0xd2,
    0x91, 0xf8, 0xb6, 0x56, 0xfb, 0x2e, 0xb3, 0xc4, 0x12, 0xd9, 0x86, 0x29,
    0x6c, 0x55, 0x88, 0x72, 0xba, 0xfb, 0x9b, 0xb9, 0x6f, 0x2d, 0x7d, 0x75,
    0xd0, 0x9d, 0xaf, 0x44, 0xb6, 0xbd, 0x7b, 0xec, 0x78, 0xf1, 0xbf, 0x66,
    0xe8, 0x79, 0x66, 0x16, 0x5e, 0xf9, 0x68, 0x89, 0x5b, 0xde, 0x8f, 0xf9,
    0xeb, 0x04, 0x0b, 0x6a, 0x71, 0xa1, 0x3b, 0x46, 0x03, 0xb4, 0x29, 0xa9,
    0x31, 0xf4, 0xc5, 0xd3, 0x43, 0x6d, 0x88, 0x43, 0xa8, 0xef, 0xb7, 0xd7,
    0x75, 0x6b, 0x83, 0x35, 0xb6, 0x2f, 0xe0, 0x5f, 0xf2, 0x14, 0xcd, 0xd0,
    0x06, 0xb3, 0x5e, 0x8b, 0xdb, 0x86, 0x11, 0x94, 0x2f, 0xfb, 0x92, 0x19,
    0x52, 0x7f, 0xcb, 0xe5, 0x22, 0x27, 0x5f, 0xe4, 0x68, 0xb2, 0xcb, 0xc7,
    0xb8, 0xec, 0xfd, 0x9e, 0x39, 0x9c, 0x5b, 0xe4, 0xae, 0xca, 0x83, 0x19,
    0xcf, 0xf0, 0x01, 0xe3, 0xfc, 0xb0, 0x28, 0xda, 0x79, 0x84, 0xfb, 0xfe,
    0xa5, 0xb6, 0xb3, 0xd2, 0x73, 0xd3, 0x11, 0xe5, 0xdf, 0x7a, 0xd7, 0x82,
    0x78, 0x25, 0x06, 0x5b, 0x0f, 0x89, 0x9d, 0x0b, 0x9b, 0xd1, 0x1b, 0xc5,
    0xb7, 0x67, 0xef, 0x7c, 0xa2, 0xa3, 0xca, 0x27, 0xd0, 0x59, 0xb9, 0x99,
    0x86, 0xa9, 0xf6, 0x9a, 0x28, 0xf0, 0xbb, 0x42, 0xd2, 0xa0, 0xa8, 0x01,
    0x29, 0xa1, 0x0c, 0x1b, 0x33, 0x1b, 0x9c, 0xcb, 0xe4, 0x6c, 0x61, 0x0a,
    0xc4, 0xd7, 0x6c, 0xec, 0x86, 0xb3, 0xd2, 0xaa, 0x8c, 0xab, 0x1a, 0xf4,
    0x03, 0x2e, 0x2b, 0x42, 0xbe, 0xc1, 0x31, 0x1d, 0x57, 0x47, 0xdc, 0x7b,
    0xb5, 0x8f, 0x8b, 0xdf, 0x06, 0xad, 0x3f, 0xf4, 0x4f, 0xb5, 0x52, 0x07,
    0x4e, 0x25, 0xb3, 0x73, 0x34, 0x92, 0x6a, 0x89, 0x93, 0x28, 0x8b, 0x96,
    0x9d, 0xdb, 0xb4, 0x77, 0x81, 0x76, 0x86, 0xd2, 0xa5, 0x94, 0x76, 0x35,
    0xc9, 0x66, 0x4e, 0xd8, 0xc5, 0xc3, 0xc9, 0x34, 0xaf, 0xad, 0x4a, 0x7c,
    0x92, 0x24, 0xb1, 0x7d, 0x7d, 0xac, 0xf6, 0xcb, 0x8f, 0x36, 0xc1, 0xb2,
    0x63, 0x78, 0x99, 0x33, 0x23, 0x68, 0x6e, 0x71, 0x6a, 0xcc, 0x05, 0xf9,
    0x41, 0x92, 0x30, 0xf0, 0xb1, 0xb4, 0xa6, 0x46, 0x86, 0x62, 0xd9, 0xd9,
    0x94, 0x8a, 0xb2, 0x9c, 0x68, 0xff, 0xf4, 0x3a, 0x2e, 0xaf, 0xee, 0xcf,
    0x04, 0x94, 0x53, 0x35, 0x25, 0xf9, 0xaa, 0x74, 0x93, 0xf3, 0x63, 0xc0,
    0xd2, 0x22, 0x30, 0x8c, 0xde, 0xa6, 0xb1, 0xb4, 0xa1, 0x56, 0x07, 0x06,
    0x71, 0xa2, 0x9e, 0x42, 0x31, 0xa3, 0x1e, 0xa6, 0x9a, 0xbc, 0x9f, 0x5b,
    0x12, 0x3c, 0xc2, 0x74, 0xf9, 0x61, 0x71, 0xef, 0x73, 0x86, 0xc2, 0x3b,
    0x25, 0x8a, 0x31, 0x72, 0x27, 0xac, 0xa4, 0x72, 0xf3, 0xbb, 0x78, 0x2c,
    0x94, 0xed, 0xa8, 0x3a, 0x42, 0x98, 0x34, 0xda, 0x3e, 0x60, 0x1c, 0x4a,
    0xec, 0x6b, 0x4e, 0x5f, 0x2a, 0x62, 0xb9, 0xad, 0xc9, 0xd9, 0x38, 0x90,
    0xa7, 0x3b, 0xd3, 0x1a, 0xbb, 0x81, 0x0d, 0x33, 0xd9, 0x16, 0x35, 0x8e,
    0xc3, 0x88, 0x36, 0xfa, 0x3e, 0xa8, 0x4f, 0x30, 0x9d, 0xf1, 0x08, 0xea,
    0x40, 0x1b, 0x87, 0x4d, 0x23, 0x8e, 0x8e, 0xb0, 0xe2, 0xf0, 0x27, 0xc1,
    0xdc, 0x0d, 0xe2, 0x8f, 0x93, 0xef, 0x8b, 0xd1, 0x19, 0xa5, 0xbe, 0xd7,
    0x5a, 0x8a, 0x38, 0x62, 0x43, 0xba, 0x74, 0xf8, 0xae, 0x11, 0x1f, 0x1d,
    0xa4, 0x6e, 0x70, 0x94, 0x91, 0x14, 0xf4, 0xff, 0xbe, 0x39, 0xb4, 0x33,
    0xc2, 0x87, 0x74, 0x1b, 0xfd, 0x9a, 0xa8, 0x64, 0x09, 0x4b, 0x7f, 0x95,
    0x0a, 0xcb, 0x6b, 0x15, 0x54, 0x1d, 0xc6, 0x03, 0x1d, 0x1b, 0x25, 0x56,
    0x15, 0xb5, 0xd7, 0xe5, 0xd6, 0xf3, 0x28, 0xa4, 0xde, 0x1b, 0x39, 0x0d,
    0x59, 0x26, 0x12, 0xe4, 0x32, 0xf2, 0x25, 0xeb, 0xc0, 0xdb, 0x58, 0xe5,
    0xce, 0x64, 0x6f, 0x70, 0x74, 0xc1, 0xc9, 0xbd, 0x75, 0xef, 0x16, 0x02,
    0xdf, 0x27, 0x09, 0xc8, 0xb8, 0x37, 0x8f, 0x44, 0x0d, 0x58, 0x48, 0xf5,
    0xc2, 0x53, 0x21, 0x28, 0x16, 0xa4, 0x56, 0x02, 0xdf, 0xa7, 0x97, 0xa4,
    0x5c, 0x48, 0x75, 0x51, 0x89, 0x0b, 0xa7, 0x4d, 0xd9, 0x9e, 0x04, 0x4e,
    0x5d, 0x6c, 0xe5, 0x1f, 0x68, 0x88, 0xcc, 0xb7, 0x9a, 0x20, 0x05, 0x83,
    0x82, 0x6c, 0xfd, 0xdb, 0x07, 0x6c, 0xec, 0x61, 0xaa, 0x36, 0x57, 0x68,
    0x01, 0xf2, 0x70, 0xfe, 0xe6, 0x4d, 0xe1, 0xa9, 0xb6, 0xb6, 0x52, 0xe6,
    0x20, 0x52, 0x0f, 0x27, 0x9a, 0x1c, 0x2d, 0x20, 0x9b, 0xd4, 0x07, 0xd3,
    0xf6, 0x85, 0x4b, 0xf2, 0x52, 0x4d, 0x4c, 0xd7, 0xf0, 0x32, 0x5d, 0x2e,
    0xef, 0xa2, 0xd0, 0xcd, 0x48, 0x89, 0xbc, 0x9f, 0xcb, 0x37, 0x02, 0x29,
    0xa5, 0xdb, 0xab, 0xfa, 0x1d, 0xf4, 0x53, 0x78, 0x30, 0xde, 0x2c, 0x5c,
    0x35, 0x7f, 0x3d, 0xe1, 0xe0, 0xce, 0xdb, 0x13, 0xca, 0x2a, 0xae, 0xdf,
    0x1c, 0xb1, 0xb6, 0xb9, 0x6a, 0x9f, 0x28, 0xb0, 0x54, 0x5a, 0x00, 0xdd,
    0x76, 0x14, 0xfb, 0x17, 0xc2, 0x2a, 0x45, 0xa2, 0x18, 0xbb, 0x8a, 0x3e,
    0xbe, 0x0e, 0xa5, 0x1b, 0x3c, 0x70, 0x56, 0x10, 0x98, 0xec, 0xc6, 0x3a,
    0x95, 0x2a, 0x96, 0x6a, 0x44, 0xef, 0xd9, 0x9c, 0x2a, 0x45, 0xb4, 0x15,
    0xf8, 0x2e, 0x03, 0x5d, 0x8c, 0x79, 0xfb, 0xb0, 0x53, 0x71, 0xcd, 0x0d,
    0xf4, 0xe2, 0xfc, 0x3b, 0x71, 0xee, 0x30, 0xf2, 0x29, 0xd3, 0xaa, 0x18,
    0x7a, 0x45, 0x1d, 0x99, 0x6d, 0x2f, 0x1f, 0x2d, 0x32, 0x23, 0x48, 0xc2,
    0x69, 0x33, 0x3d, 0x04, 0xa7, 0xa3, 0x96, 0xb5, 0x76, 0x5b, 0x4e, 0xb7,
    0x3c, 0x10, 0x58, 0x17, 0xf4, 0x5f, 0xec, 0x51, 0x6d, 0x5a, 0x3b, 0x7f,
    0x1e, 0x0e, 0xbb, 0xbf, 0x77, 0x43, 0xf7, 0xa4, 0x57, 0xc0, 0x33, 0xac,
    0xc1, 0xe3, 0x3e, 0x1f, 0x65, 0x3c, 0x62, 0x19, 0x46, 0x2d, 0x7b, 0x2d,
    0x07, 0x44, 0x48, 0xf4, 0x91, 0xdf, 0x59, 0x32, 0x10, 0xf7, 0x12, 0xe2,
    0xe5, 0x39, 0x70, 0x37, 0xa4, 0x79, 0x9a, 0x17, 0x19, 0xe8, 0x90, 0xe7,
    0x37, 0x0d, 0xb6, 0x6d, 0x58, 0xe6, 0x7e, 0x57, 0x76, 0x8a, 0xe8, 0xd0,
    0x76, 0x30, 0x25, 0xda, 0xb6, 0xdf, 0x59, 0x3c, 0x6c, 0x20, 0x65, 0x88,
    0xd2, 0x60, 0x5e, 0x39, 0xb6, 0x6b, 0xac, 0xa2, 0x25, 0xc6, 0xa7, 0xb1,
    0x2f, 0xbb, 0x1d, 0x23, 0xee, 0x02, 0x08, 0x1d, 0xd6, 0x6c, 0x0e, 0xbc,
    0xea, 0xd2, 0xc2, 0x70, 0x34, 0xe9, 0x96, 0xd3, 0xf3, 0xf4, 0x8e, 0x94,
    0x6f, 0x86, 0x76, 0xe7, 0x38, 0x08, 0x6f, 0x47, 0xf5, 0xcd, 0xab, 0xad,
    0x7a, 0x39, 0x10, 0x9a, 0xa8, 0x44, 0xba, 0x2d, 0x7f, 0x05, 0x1e, 0xb7,
    0x44, 0xd8, 0x10, 0x05, 0xd1, 0x8d, 0x98, 0x09, 0x14, 0xbb, 0x6b, 0x2b,
    0xf7, 0xeb, 0x9f, 0xa5, 0x65, 0x4b, 0x21, 0xff, 0xaf, 0xe8, 0x2e, 0x34,
    0x52, 0x38, 0xcf, 0xd5, 0x51, 0x29, 0x2c, 0x91, 0x43, 0x3a, 0x49, 0x42,
    0xdd, 0xfb, 0x0e, 0xd2, 0x77, 0x8f, 0x65, 0x93, 0x3e, 0x52, 0x22, 0x58,
    0xd6, 0xf9, 0xd9, 0x58, 0xd4, 0x06, 0xa9, 0x0c, 0x79, 0x9f, 0x1b, 0xa5,
    0x45, 0x61, 0xd8, 0x4e, 0xbf, 0x4b, 0x51, 0xe2, 0xfb, 0x6f, 0x58, 0xee,
    0xc5, 0xa5, 0x11, 0xbd, 0x99, 0x25, 0x14, 0xac, 0x94, 0x0e, 0xd1, 0xf7,
    0x54, 0xb6, 0x05, 0x8c, 0xc3, 0x57, 0xa5, 0x3c, 0x3c, 0xa6, 0x83, 0x47,
    0x38, 0xd1, 0x6a, 0xab, 0x12, 0xc0, 0xd3, 0x7f, 0x96, 0x55, 0xd7, 0xf4,
    0x3a, 0xd0, 0x08, 0x85, 0x5f, 0x3d, 0x65, 0x8e, 0xbb, 0xea, 0x34, 0xf3,
    0x53, 0x96, 0x71, 0x08, 0x9b, 0x50, 0xe9, 0x4b, 0xce, 0x8a, 0x2f, 0xef,
    0xe4, 0xb2, 0x72, 0x68, 0xcb, 0x88, 0xa8, 0xd9, 0xd9, 0xa2, 0xfc, 0x62,
    0xe8, 0x8b, 0x23, 0x2b, 0xbc, 0xf0, 0x9e, 0xb4, 0xd0, 0x40, 0x8b, 0x45,
    0xff, 0x6d, 0x37, 0x01, 0xa6, 0x4b, 0x62, 0xe0, 0x3b, 0x4e, 0x18, 0x67,
    0xb3, 0x97, 0x04, 0xa0, 0x2a, 0xf2, 0x11, 0x79, 0x38, 0xb4, 0xb2, 0xed,
    0x64, 0xc1, 0x1e, 0xfe, 0xc4, 0xf4, 0xe2, 0x4d, 0x94, 0xb4, 0x17, 0x52,
    0x1a, 0x63, 0xe6, 0x56, 0x8a, 0x41, 0x0a, 0x5b, 0xa2, 0x1c, 0x59, 0xef,
    0x17, 0x64, 0xf9, 0xf7, 0x2c, 0xa4, 0xfd, 0x66, 0xf7, 0xe3, 0xae, 0xa0,
    0x54, 0x36, 0x64, 0x26, 0x84, 0x51, 0x49, 0xd5, 0x3a, 0x5e, 0x2c, 0xc5,
    0xca, 0xde, 0x8e, 0xe7, 0x25, 0x59, 0xb3, 0x9a, 0xb2, 0xf0, 0xff, 0xf1,
    0x83, 0xe5, 0x70, 0xc3, 0xef, 0x63, 0x66, 0x31, 0x04, 0x4d, 0x42, 0xf1,
    0xd9, 0x4c, 0x5e, 0x29, 0x92, 0x37, 0x8d, 0xd1, 0x18, 0x2a, 0x9e, 0x3c,
    0xcc, 0x05, 0xb9, 0xc4, 0xb6, 0xe7, 0x2a, 0x09, 0x3a, 0x68, 0xb5, 0x61,
    0x60, 0x36, 0x11, 0x02, 0x92, 0xf8, 0xa0, 0x56, 0x9b, 0xe8, 0xfe, 0xac,
    0x87, 0xcc, 0xaf, 0xb9, 0x62, 0xa7, 0x1e, 0x99, 0xb8, 0x9f, 0x47, 0xf7,
    0xa5, 0x12, 0x47, 0x66, 0xeb, 0xd6, 0x3a, 0x6f, 0xb3, 0x26, 0x63, 0xe2,
    0xec, 0x0c, 0xba, 0x7d, 0xc2, 0x9b, 0xb2, 0x10, 0x62, 0x03, 0x3f, 0x20,
    0xed, 0x7a, 0xce, 0x47, 0xd0, 0x50, 0x5b, 0x5c, 0x66, 0xbf, 0x01, 0x09,
    0x84, 0x0b, 0x71, 0xa8, 0x1f, 0x8d, 0xe1, 0x05, 0x09, 0xb4, 0xd5, 0x34,
    0xf1, 0xba, 0x31, 0xc6, 0x76, 0x8e, 0x00, 0x96, 0x3d, 0x6b, 0xe4, 0x66,
    0x3a, 0x22, 0xcd, 0x7f, 0x9d, 0xf8, 0x64, 0xfc, 0x76, 0x42, 0x88, 0x0e,
    0x32, 0xa5, 0xd0, 0x69, 0x56, 0xe2, 0xa5, 0x6f, 0xbb, 0xfa, 0xd8, 0xde,
    0xb4, 0x23, 0xa9, 0xc7, 0x9a, 0xc1, 0x99, 0xa7, 0x7f, 0x79, 0x58, 0xe1,
    0xe7, 0xc5, 0x56, 0x36, 0xc0, 0xfb, 0x8d, 0x8f, 0xe4, 0x6c, 0x96, 0x89,
    0xcb, 0xb0, 0xb0, 0x6e, 0xee, 0x20, 0x46, 0xd3, 0x43, 0x83, 0xac, 0x39,
    0x7c, 0x25, 0xba, 0x69, 0x3a, 0x58, 0x8a, 0x48, 0x0a, 0xf7, 0xb7, 0xfc,
    0x58, 0x7b, 0x93, 0x8b, 0xcd, 0x81, 0x7e, 0x94, 0xe0, 0xdf, 0xb1, 0xca,
    0xf6, 0x60, 0x54, 0xa9, 0x6e, 0xc6, 0x7f, 0xac, 0xfb, 0x62, 0xfe, 0xd9,
    0xd5, 0xf4, 0x6c, 0x62, 0x65, 0xf6, 0x0b, 0x24, 0x49, 0x1d, 0x55, 0xd6,
    0x4c, 0x0b, 0x5a, 0xf1, 0x2e, 0x78, 0x7a, 0x4e, 0xc1, 0xd0, 0xdb, 0xfe,
    0xd2, 0x84, 0x60, 0x68, 0x51, 0x8e, 0x3f, 0xf1, 0xa8, 0x90, 0xbf, 0xda,
    0x86, 0xda, 0x41, 0xd8, 0x90, 0x7b, 0xc3, 0xc8, 0x9e, 0xa5, 0x77, 0x06,
    0x56, 0x02, 0x13, 0x59, 0xaa, 0x89, 0xf9, 0xd5, 0x3c, 0x1d, 0xe2, 0xa9,
    0xb1, 0xc8, 0x02, 0x5a, 0x1c, 0xae, 0x72, 0x66, 0xdf, 0xb4, 0x1a, 0xb7,
    0xd2, 0x4d, 0xda, 0x4f, 0xc9, 0xed, 0x88, 0x7d, 0x9b, 0xc4, 0x4a, 0x8c,
    0x5e, 0x77, 0xaf, 0xd6, 0xd3, 0xbb, 0x38, 0xd2, 0xfa, 0x85, 0xe4, 0xdd,
    0xe7, 0x6e, 0xcb, 0x0b, 0x34, 0x1e, 0xa8, 0xfd, 0xf4, 0xd2, 0xc3, 0xdd,
    0xe0, 0xa6, 0xb1, 0x78, 0x16, 0x85, 0x2b, 0x1b, 0x22, 0xa6, 0xd5, 0x93,
    0x4f, 0xa1, 0xd5, 0x10, 0x96, 0xab, 0x38, 0xa7, 0x3c, 0xf2, 0xbd, 0xd9,
    0x7c, 0x59, 0x71, 0x25, 0x6f, 0x7c, 0xce, 0x73, 0x8e, 0x4e, 0xfb, 0x5a,
    0x30, 0x24, 0x53, 0xc5, 0xa3, 0x20, 0x13, 0x03, 0xfc, 0x7a, 0xaf, 0x1f,
    0x71, 0x5d, 0x6b, 0xce, 0x2e, 0x92, 0x16, 0x4d, 0xab, 0x96, 0x10, 0xc0,
    0xf6, 0x3c, 0xfe, 0x51, 0x89, 0x4d, 0x39, 0x45, 0x2c, 0x92, 0x5a, 0x86,
    0x24, 0xce, 0xbc, 0x75, 0xc6, 0x7f, 0x0e, 0xc2, 0xd1, 0xe7, 0x6a, 0x75,
    0x30, 0x59, 0xfb, 0xbf, 0x6b, 0xcf, 0x60, 0x90, 0x07, 0x73, 0xb1, 0x47,
    0x6e, 0x5d, 0xcd, 0x44, 0xac, 0xee, 0x2a, 0xdb, 0x16, 0x5a, 0x1a, 0xaf,
    0xba, 0xf8, 0x64, 0xdd, 0xdd, 0xed, 0x46, 0x4b, 0x67, 0xf3, 0xf8, 0x2d,
    0x22, 0xe9, 0x25, 0x74, 0x4c, 0x70, 0xe0, 0x3d, 0xbc, 0x11, 0xd3, 0x56,
    0xec, 0x86, 0x39, 0x89, 0x4c, 0xf2, 0xbc, 0x39, 0xdc, 0xde, 0x5f, 0x3b,
    0x42, 0xcb, 0xf6, 0x0c, 0x49, 0x8c, 0x66, 0x76, 0x58, 0x28, 0xe8, 0x47,
    0x59, 0x40, 0x11, 0xef, 0xb5, 0x9d, 0x93, 0xe5, 0x39, 0x56, 0x62, 0x0d,
    0xd0, 0xdd, 0xbb, 0x51, 0xff, 0x87, 0xa3, 0xd1, 0x9e, 0x0e, 0x0c, 0xbd,
    0x8e, 0xfc, 0xa5, 0x44, 0xc7, 0x6d, 0x35, 0x1d, 0x69, 0x14, 0x5b, 0x0d,
    0x45, 0xff, 0x85, 0x2d, 0xd1, 0x14, 0xf4, 0x5e, 0x5b, 0x49, 0x85, 0xad,
    0x69, 0xf1, 0x34, 0x9e, 0x7a, 0xf3, 0xed, 0x2d, 0xf2, 0x5f, 0x70, 0x5a,
    0xc1, 0xca, 0x63, 0xb5, 0xec, 0x49, 0xfc, 0x88, 0xcb, 0x0f, 0x81, 0x1d,
    0xd4, 0x2f, 0x18, 0xf6, 0xfe, 0x71, 0x51, 0xe2, 0x25, 0x71, 0x48, 0xa4,
    0xb2, 0x9f, 0x4f, 0xc0, 0xa5, 0x24, 0x12, 0x5b, 0xf8, 0xf2, 0xcf, 0x6e,
    0x52, 0x52, 0x6a, 0xee, 0x7d, 0xa5, 0x9b, 0xdb, 0x9c, 0xc9, 0x35, 0x30,
    0x1a, 0xf0, 0x7d, 0xcc, 0x98, 0x73, 0x09, 0x16, 0x8c, 0x05, 0x8d, 0x70,
    0xa3, 0x15, 0xd6, 0x7a, 0xa0, 0x7c, 0xd5, 0xcc, 0xd3, 0x29, 0x32, 0x2e,
    0xa5, 0xde, 0xf6, 0xd3, 0xa4, 0x03, 0x59, 0x6c, 0x05, 0x2d, 0x0e, 0x8b,
    0xb7, 0x1f, 0xa0, 0x57, 0x5c, 0x76, 0xde, 0x81, 0xcb, 0x64, 0xb9, 0x73,
    0xc1, 0x3b, 0x26, 0xba, 0x16, 0xdb, 0xe6, 0x40, 0x23, 0xa4, 0xe9, 0x24,
    0x48, 0xb8, 0x73, 0x23, 0x67, 0xbf, 0x26, 0xca, 0x95, 0x4f, 0xa0, 0x60,
    0x95, 0xa2, 0x0f, 0x29, 0xed, 0x5d, 0x71, 0x66, 0x94, 0xa3, 0xd0, 0x2a,
    0x4e, 0x17, 0x32, 0x18, 0xe6, 0xd6, 0x75, 0x84, 0xa5, 0x2a, 0x72, 0x18,
    0x60, 0x85, 0xde, 0x66, 0x22, 0x52, 0xf6, 0x45, 0xd6, 0xf0, 0xed, 0x93,
    0x0f, 0x5a, 0xa9, 0x12, 0x2a, 0xc4, 0xa8, 0x3d, 0x97, 0xc9, 0xc7, 0x84,
    0x71, 0x14, 0xb3, 0x54, 0xb6, 0xf7, 0x92, 0x7a, 0xc0, 0x6e, 0x02, 0xf7,
    0x48, 0xdb, 0x7c, 0xc1, 0x45, 0x21, 0xdb, 0x1b, 0x51, 0xc3, 0xea, 0xc0,
    0x19, 0x31, 0xe4, 0x6c, 0x20, 0x5f, 0x08, 0xe7, 0x88, 0xf7, 0xc0, 0x6e,
    0xee, 0x5f, 0x20, 0x33, 0x68, 0xef, 0xc5, 0x33, 0x1b, 0x40, 0x66, 0xc5,
    0xa3, 0x68, 0xdb, 0xbc, 0x8a, 0xb7, 0x54, 0xdb, 0xc7, 0xc5, 0x2c, 0x42,
    0x65, 0x51, 0xab, 0x56, 0x94, 0x73, 0xec, 0xd9, 0x95, 0xfa, 0x6a, 0x56,
    0xef, 0x22, 0x95, 0xa4, 0x75, 0x46, 0xee, 0x60, 0x8b, 0x25, 0xa6, 0x92,
    0x0a, 0x8e, 0xc1, 0x39, 0x97, 0x69, 0xa9, 0x19, 0x97, 0xf1, 0x0f, 0x61,
    0xc2, 0x40, 0x7d, 0x62, 0xe9, 0x5e, 0x22, 0x1f, 0x27, 0xe5, 0xc7, 0xe7,
    0xa4, 0x35, 0x5d, 0x90, 0xc7, 0x38, 0x38, 0x2d, 0xb0, 0x1e, 0x29, 0x0f,
    0x4f, 0x08, 0x8b, 0xdd, 0x69, 0x3c, 0x5c, 0x03, 0xbe, 0x9a, 0x76, 0xba,
    0x91, 0xf5, 0x57, 0x07, 0x39, 0xfe, 0x09, 0xfc, 0x01, 0x7b, 0x37, 0xc4,
    0x73, 0x7f, 0x76, 0x50, 0x76, 0xae, 0x6e, 0x4b, 0x22, 0x2c, 0x3b, 0xe7,
    0x77, 0x19, 0x9a, 0x92, 0x26, 0xdf, 0xc4, 0xe6, 0xd8, 0x57, 0xc1, 0x7f,
    0x65, 0x0b, 0xfb, 0xfa, 0xdd, 0xd2, 0x8c, 0xc7, 0xb1, 0x72, 0x2a, 0xb2,
    0x5a, 0xfa, 0xb2, 0x84, 0xb1, 0xec, 0x79, 0x9e, 0xde, 0xd8, 0x2f, 0xdf,
    0x3b, 0x39, 0x0b, 0xac, 0xfa, 0xb8, 0x07, 0x38, 0xff, 0x2e, 0x22, 0x2b,
    0xc9, 0x31, 0x3b, 0x09, 0x05, 0xd2, 0x06, 0xc4, 0x2d, 0x22, 0x1c, 0x21,
    0x70, 0x03, 0x93, 0xd1, 0x3a, 0x8d, 0x94, 0x60, 0xfe, 0x99, 0x13, 0xc3,
    0x00, 0x03, 0x41, 0xfa, 0x50, 0x79, 0x31, 0xeb, 0xf0, 0xf4, 0x06, 0x7a,
    0x19, 0xe8, 0x90, 0xdf, 0x61, 0x4d, 0x5f, 0xe3, 0x99, 0x1b, 0xca, 0xbf,
    0xcf, 0xae, 0xca, 0xfa, 0x84, 0x63, 0x88, 0x56, 0x1d, 0x52, 0x5a, 0x21,
    0xf9, 0xcd, 0xa3, 0x30, 0x16, 0xb9, 0x0d, 0xe1, 0x87, 0x08, 0x78, 0xa2,
    0xdb, 0x7e, 0x16, 0x82, 0x48, 0x48, 0x17, 0x1a, 0xa8, 0x3f, 0xc7, 0x4d,
    0xfd, 0x99, 0x2b, 0x36, 0xbf, 0x08, 0xb9, 0xeb, 0xa6, 0xbf, 0xb6, 0xa0,
    0x9e, 0x26, 0x15, 0xac, 0xd2, 0x65, 0xc9, 0x36, 0x41, 0xe3, 0x59, 0x4e,
    0xdc, 0x7b, 0x58, 0x3b, 0x47, 0x0b, 0xc9, 0xf3, 0xb3, 0xf9, 0x81, 0x33,
    0x39, 0xca, 0xf8, 0x97, 0x2d, 0x9b, 0x24, 0x33, 0x69, 0xbe, 0x1b, 0x81,
    0x59, 0x59, 0x17, 0xed, 0x7d, 0x5b, 0xbe, 0xda, 0xeb, 0x4e, 0x5d, 0x5d,
    0x70, 0x13, 0x3c, 0x4b, 0x4a, 0xfc, 0xa4, 0xbe, 0xa0, 0x5d, 0xa2, 0xed,
    0xe8, 0x8d, 0xf8, 0xf2, 0xa5, 0xdd, 0xd4, 0x49, 0x45, 0x04, 0xef, 0x18,
    0x9f, 0xa1, 0xf7, 0xc4, 0x3b, 0xc2, 0x6b, 0xe0, 0x45, 0xa8, 0x76, 0x39,
    0x49, 0x32, 0xec, 0xc3, 0xcb, 0x45, 0x46, 0xd2, 0x4b, 0x3a, 0x55, 0xe5,
    0xce, 0x08, 0xc4, 0x84, 0xe5, 0xd9, 0xb3, 0xf3, 0xc4, 0xa8, 0xe9, 0x88,
    0x83, 0xd5, 0x56, 0xe1, 0xa6, 0xef, 0x41, 0x55, 0xb0, 0x3f, 0xa3, 0xc1,
    0xbe, 0x3b, 0x83, 0xd6, 0x92, 0x90, 0x38, 0xd3, 0xf3, 0x75, 0xf6, 0x49,
    0x95, 0xee, 0xa9, 0xed, 0xaa, 0xf8, 0xb9, 0x14, 0x0e, 0x6a, 0x48, 0x9d,
    0xc5, 0x48, 0x3b, 0x5e, 0x61, 0xd3, 0x8c, 0x4a, 0x10, 0x12, 0x7c, 0x0a,
    0xf7, 0xaf, 0x62, 0x2d, 0xd3, 0x89, 0x8d, 0x75, 0x19, 0x6b, 0x62, 0x4b,
    0x1a, 0x04, 0xc7, 0xd3, 0x32, 0x17, 0x2f, 0x5f, 0x29, 0xfa, 0xb1, 0x8d,
    0x78, 0xe7, 0x27, 0xf6, 0x67, 0x7e, 0x17, 0xa3, 0x18, 0xdc, 0x13, 0x08,
    0x1e, 0x4b, 0xc7, 0x8e, 0xf6, 0xba, 0x90, 0xb3, 0x32, 0x42, 0x37, 0x6b,
    0x60, 0xa9, 0x23, 0xb5, 0x89, 0x57, 0x7b, 0xdb, 0x98, 0x35, 0x1f, 0x95,
    0x86, 0xa5, 0x83, 0x36, 0xd1, 0x8c, 0x8e, 0xc0, 0x77, 0x5c, 0x40, 0x8e,
    0xec, 0xdf, 0x25, 0x69, 0x0a, 0x83, 0x8f, 0xdf, 0x91, 0x52, 0x31, 0xab,
    0xd5, 0x61, 0x37, 0xbd, 0x83, 0x1d, 0x4c, 0x8b, 0xa1, 0x4a, 0x81, 0x8b,
    0xa0, 0xf4, 0x41, 0xbd, 0x54, 0x36, 0x36, 0x56, 0x6d, 0x4c, 0xe7, 0xd9,
    0xc7, 0x09, 0xd9, 0x4b, 0xf0, 0x54, 0x45, 0x3c, 0x62, 0x47, 0x17, 0x54,
    0x1f, 0x55, 0x2f, 0x74, 0xdc, 0x11, 0xe9, 0xa3, 0xb5, 0x75, 0xe9, 0x10,
    0xde, 0x62, 0xa9, 0x24, 0x39, 0xd4, 0x17, 0xbb, 0x15, 0xe4, 0x48, 0x09,
    0x26, 0x6a, 0xbd, 0x3b, 0x10, 0xa1, 0x55, 0xe5, 0x99, 0x53, 0x1e, 0xd2,
    0xee, 0x7c, 0x54, 0xd8, 0x06, 0x8b, 0x1e, 0xe7, 0x3f, 0x08, 0x38, 0x9b,
    0x2e, 0x41, 0xdf, 0x0b, 0x7e, 0x83, 0x7f, 0x04, 0x38, 0xa5, 0x1f, 0x46,
    0x8b, 0x94, 0x28, 0x9f, 0xb8, 0x8c, 0x41, 0xfe, 0x96, 0xe2, 0x24, 0xd1,
    0x97, 0xa4, 0xcb, 0xba, 0xfa, 0x19, 0xc9, 0x57, 0x30, 0x0f, 0x88, 0x58,
    0xa9, 0x67, 0x31, 0x74, 0x51, 0x34, 0x03, 0xbc, 0xff, 0x3b, 0x12, 0x61,
    0x84, 0x63, 0x74, 0xec, 0x4d, 0xda, 0xa3, 0x56, 0xc3, 0xe5, 0x5e, 0x4a,
    0x03, 0x26, 0x88, 0x1a, 0x1d, 0x7f, 0xe8, 0x3f, 0x61, 0x78, 0xb6, 0xc5,
    0x66, 0xb7, 0xb4, 0xc1, 0xe7, 0x82, 0xc1, 0x44, 0xdf, 0xf9, 0x30, 0x30,
    0xe1, 0xd0, 0xf8, 0xf5, 0x40, 0x5a, 0x72, 0x29, 0xef, 0x30, 0xe1, 0x01,
    0xca, 0x1b, 0xb0, 0xa6, 0xa3, 0x17, 0x2b, 0x58, 0x03, 0xda, 0x25, 0x0f,
    0xdc, 0x49, 0x7c, 0xc5, 0x8f, 0x2d, 0x83, 0xca, 0x43, 0x08, 0xc0, 0x36,
    0x70, 0x1e, 0x42, 0xfd, 0xac, 0x4d, 0x31, 0xcf, 0x68, 0x4a, 0xda, 0xd8,
    0xcb, 0xee, 0xaa, 0xfc, 0xcf, 0xcc, 0xe6, 0xb2, 0x77, 0x8b, 0x83, 0x5b,
    0xd5, 0x3d, 0x55, 0xba, 0x03, 0x45, 0xce, 0x51, 0x78, 0x36, 0xcb, 0xcd,
    0x9a, 0x0f, 0x58, 0xbe, 0x15, 0x10, 0xdb, 0x3f, 0x1d, 0x28, 0x27, 0x11,
    0x69, 0xca, 0x95, 0x68, 0xa8, 0xc8, 0xff, 0x0c, 0x3f, 0xd5, 0x11, 0x91,
    0x35, 0x45, 0x35, 0x9d, 0x1c, 0x58, 0xa2, 0xe5, 0xab, 0x83, 0x95, 0x10,
    0x44, 0xd4, 0xc0, 0x27, 0xf4, 0xc2, 0x72, 0x0f, 0x1a, 0x3d, 0x1c, 0xf2,
    0x7f, 0xb9, 0x54, 0xf2, 0x41, 0x24, 0xa8, 0x67, 0x30, 0xa0, 0x57, 0x67,
    0x00, 0xa8, 0x06, 0x60, 0xc3, 0x74, 0x6d, 0x54, 0x90, 0x5e, 0xad, 0x71,
    0x41, 0x50, 0xab, 0x9d, 0xba, 0x34, 0x1a, 0xfd, 0x19, 0x21, 0x0e, 0x87,
    0xb7, 0x22, 0xe6, 0xca, 0xb9, 0x0d, 0x3c, 0x4f, 0xad, 0x16, 0xf1, 0xa5,
    0x6d, 0xba, 0x6d, 0x7b, 0xbe, 0x7b, 0xe3, 0x95, 0xec, 0x1b, 0x8b, 0x6e,
    0xb0, 0xdc, 0x5c, 0xfd, 0x31, 0x73, 0x85, 0x02, 0x63, 0xc6, 0xcc, 0x04,
    0x29, 0xa5, 0xf4, 0x1f, 0xcb, 0x90, 0xf7, 0x83, 0x0d, 0x36, 0xbf, 0x31,
    0xc0, 0xfc, 0x26, 0x15, 0x87, 0xc8, 0x15, 0x88, 0xc9, 0x79, 0x11, 0x67,
    0x23, 0x53, 0xca, 0x03, 0x7a, 0x02, 0xe5, 0xfc, 0xb3, 0x38, 0xf3, 0x5d,
    0xfc, 0x91, 0x6f, 0x59, 0x26, 0xae, 0xd8, 0x45, 0xfa, 0xc4, 0x5b, 0xa2,
    0xfb, 0x2c, 0xc5, 0x36, 0xc6, 0x0d, 0x7b, 0x4e, 0xd2, 0x7f, 0x61, 0xc5,
    0xcc, 0x74, 0xd3, 0x41, 0xd4, 0x8a, 0xaf, 0xcb, 0x32, 0x50, 0xca, 0xeb,
    0x59, 0x0a, 0x05, 0x25, 0xe0, 0x5f, 0x30, 0x2b, 0x5d, 0x9b, 0xf7, 0xe8,
    0x14, 0x14, 0xb5, 0xfe, 0xd5, 0x2f, 0x94, 0x84, 0x5b, 0xc7, 0x4f, 0x82,
    0x01, 0x50, 0xbf, 0x54, 0xe2, 0x7d, 0xeb, 0x0c, 0x85, 0xc8, 0x99, 0x45,
    0x50, 0x8e, 0x4e, 0x10, 0x12, 0x01, 0x17, 0x41, 0xf3, 0x21, 0x4a, 0xee,
    0xaf, 0x0f, 0x76, 0x44, 0xe2, 0x8e, 0xf8, 0x36, 0x25, 0xab, 0x0d, 0x8f,
    0xb1, 0x0a, 0xbf, 0x63, 0x0e, 0xf2, 0x0c, 0x9d, 0x39, 0xa1, 0x98, 0x98,
    0x69, 0x91, 0xd1, 0x9b, 0xe8, 0xcf, 0x16, 0x65, 0x02, 0xc9, 0x67, 0x72,
    0x71, 0x7c, 0xfb, 0x41, 0x2d, 0xe4, 0xd3, 0xfb, 0x44, 0x8a, 0x7a, 0x88,
    0x32, 0x62, 0x26, 0x63, 0xfe, 0x5b, 0x0c, 0x4f, 0x6c, 0xad, 0x2f, 0x64,
    0x6f, 0xc9, 0xda, 0x95, 0x10, 0xbe, 0xd1, 0xfa, 0x8b, 0x67, 0x64, 0x35,
    0x2d, 0xed, 0xca, 0xf3, 0x12, 0xb7, 0x06, 0xc3, 0xa9, 0x8e, 0x3f, 0x09,
    0x4d, 0x1f, 0x50, 0x3a, 0x97, 0xb7, 0xa7, 0xce, 0x4d, 0x46, 0xf1, 0x61,
    0xc1, 0x06, 0x95, 0x0d, 0x07, 0xa2, 0xbc, 0xed, 0xeb, 0x45, 0xb4, 0x69,
    0x05, 0x7a, 0x30, 0x47, 0xa3, 0xbf, 0x81, 0xa9, 0xa7, 0xf0, 0x53, 0x36,
    0x31, 0x37, 0x13, 0xe5, 0x0e, 0xd6, 0xe6, 0xc7, 0x17, 0x17, 0x21, 0x6d,
    0x36, 0xd0, 0xf6, 0x2a, 0xea, 0x2d, 0x32, 0x0e, 0x90, 0x03, 0x30, 0x4d,
    0x30, 0x31, 0xaa, 0x79, 0x2d, 0xae, 0x2e, 0xb0, 0x13, 0xad, 0x63, 0x69,
    0x67, 0xd8, 0xf3, 0x6e, 0xa4, 0x34, 0xcf, 0x02, 0x10, 0xdd, 0x76, 0xfa,
    0xa7, 0xb0, 0x92, 0xea, 0x47, 0xbd, 0xff, 0xf9, 0xac, 0x8a, 0x1f, 0x31,
    0xf8, 0x05, 0xd4, 0xce, 0x23, 0xad, 0x32, 0x8c, 0x6c, 0x92, 0x85, 0xb9,
    0x74, 0xa6, 0xab, 0x6e, 0x76, 0xfd, 0x3e, 0x8a, 0xac, 0xa3, 0xd1, 0xb7,
    0x40, 0x53, 0x87, 0x28, 0xfc, 0xbc, 0x8a, 0x52, 0x8e, 0x2e, 0x59, 0x2c,
    0x5f, 0x3f, 0xcb, 0xd8, 0xbe, 0x37, 0xfd, 0xdc, 0xc0, 0x34, 0x85, 0x67,
    0x28, 0x9f, 0x1d, 0x05, 0x05, 0x94, 0xed, 0x6f, 0x54, 0x7a, 0x51, 0x9a,
    0xaa, 0xca, 0xe1, 0x41, 0x10, 0xf0, 0x9d, 0x38, 0x9c, 0x5e, 0x95, 0xe3,
    0x7e, 0x62, 0xe2, 0x31, 0x81, 0x28, 0x4a, 0x3c, 0x5e, 0x04, 0x11, 0xe2,
    0x6a, 0x45, 0x6f, 0x68, 0x96, 0x5b, 0xbf, 0x22, 0xd8, 0x29, 0x91, 0x76,
    0xe1, 0xb2, 0x5f, 0xfc, 0x89, 0x90, 0x87, 0xf8, 0xb8, 0x3f, 0xd5, 0x11,
    0xe7, 0x36, 0x47, 0x71, 0xb9, 0x52, 0x97, 0x8e, 0x62, 0x8b, 0x05, 0x31,
    0xe5, 0xd9, 0xa2, 0xc3, 0x1a, 0xb5, 0xda, 0xc7, 0xa5, 0x37, 0x06, 0x67,
    0x41, 0x1f, 0x6e, 0xa3, 0xc2, 0xb4, 0x96, 0x64, 0xfc, 0x46, 0x85, 0x95,
    0x4e, 0xd8, 0x2a, 0x4b, 0xaa, 0x1e, 0xec, 0xd5, 0xed, 0x81, 0x23, 0x68,
    0x0f, 0x5d, 0x0b, 0x95, 0x29, 0xd4, 0x36, 0x4d, 0x8c, 0x32, 0x73, 0x6a,
    0xb7, 0xad, 0xb8, 0x9c, 0xad, 0x76, 0x09, 0xad, 0xb9, 0xea, 0x2d, 0x17,
    0x3c, 0x33, 0x87, 0x7f, 0x62, 0x74, 0x77, 0xc9, 0xd6, 0x3d, 0x17, 0xbc,
    0xff, 0x57, 0x10, 0xec, 0x7a, 0xb7, 0x89, 0x05, 0x26, 0xf1, 0xb2, 0x53,
    0xa1, 0x91, 0xc5, 0x2a, 0xfb, 0x5a, 0xce, 0x5d, 0xd1, 0x6b, 0xbc, 0xb7,
    0x39, 0x09, 0x43, 0xdf, 0x20, 0xd3, 0xc1, 0x74, 0x8d, 0xf4, 0x0b, 0x2a,
    0xc7, 0xe8, 0xa1, 0x5f, 0xb2, 0xfe, 0x1a, 0x96, 0x3a, 0x92, 0xbc, 0x8f,
    0x85, 0xe2, 0x22, 0x73, 0x3f, 0x49, 0xb3, 0x6b, 0x90, 0xbd, 0xcb, 0x3f,
    0x36, 0x6c, 0x3d, 0xe3, 0x00, 0x00, 0x00, 0x00, 0x56, 0xd1, 0xff, 0xff,
    0x04, 0x00, 0x00, 0x00, 0x90, 0x00, 0x00, 0x00, 0x1f, 0x05, 0x81, 0x3f,
    0x25, 0x68, 0xde, 0x72, 0x88, 0x26, 0x66, 0x2d, 0xe4, 0xc8, 0x81, 0xf8,
    0x5d, 0x98, 0xa2, 0xc2, 0x02, 0x62, 0x63, 0x47, 0xe6, 0x61, 0x7f, 0xee,
    0xca, 0x3f, 0x81, 0xd7, 0x1e, 0xa9, 0xbf, 0x66, 0x59, 0x7f, 0xc3, 0x35,
    0x03, 0xae, 0xe5, 0xf2, 0x4d, 0x81, 0x82, 0x78, 0x5e, 0xaf, 0xaa, 0xd1,
    0x27, 0x41, 0x19, 0x93, 0xa8, 0x9b, 0x78, 0x4e, 0x95, 0x89, 0x7f, 0xce,
    0x49, 0xd0, 0x45, 0xb5, 0x7f, 0x1d, 0xe9, 0xee, 0x7f, 0x91, 0xf4, 0x0a,
    0x67, 0x7d, 0x75, 0xff, 0x38, 0x81, 0x27, 0x90, 0x14, 0xa5, 0x99, 0x40,
    0x5b, 0xe6, 0x9a, 0x81, 0x75, 0x22, 0x5f, 0x18, 0x81, 0x34, 0xb7, 0x54,
    0x2e, 0x8d, 0x81, 0x36, 0x0e, 0x5e, 0xc0, 0x5f, 0xd4, 0xc6, 0x34, 0x81,
    0xc8, 0xb9, 0xe2, 0xa9, 0x77, 0x81, 0x44, 0xb4, 0x06, 0x24, 0x81, 0x74,
    0x1c, 0xeb, 0xfb, 0xdd, 0x25, 0x81, 0x14, 0x09, 0x2d, 0xba, 0x11, 0x4b,
    0x07, 0x13, 0xf1, 0xae, 0x81, 0xaf, 0xa3, 0x87, 0x00, 0x00, 0x00, 0x00,
    0xf6, 0xd1, 0xff, 0xff, 0x04, 0x00, 0x00, 0x00, 0x00, 0x2d, 0x00, 0x00,
    0x8a, 0x29, 0x03, 0xe6, 0x24, 0x2a, 0xd6, 0x21, 0xb6, 0xb1, 0x2d, 0x3a,
    0xff, 0xd6, 0x27, 0xd7, 0x18, 0x42, 0xc1, 0xb4, 0xf8, 0xfd, 0xdf, 0x45,
    0x09, 0x91, 0xcb, 0xfe, 0xe9, 0xb5, 0x24, 0xf1, 0xc0, 0x69, 0xd0, 0x64,
    0xa8, 0xeb, 0x12, 0x71, 0xe3, 0xb4, 0xbe, 0xb4, 0x93, 0xbf, 0x8a, 0x8b,
    0xf3, 0x4d, 0x13, 0x3b, 0x6f, 0x6f, 0x32, 0x12, 0x98, 0x95, 0xb9, 0x63,
    0xcd, 0xa5, 0x23, 0xa4, 0xb8, 0x2e, 0x74, 0x75, 0xbc, 0xe4, 0xc7, 0x46,
    0x96, 0xd4, 0x47, 0xa0, 0x65, 0xec, 0xea, 0xcf, 0xd0, 0xdc, 0xe9, 0x8b,
    0xcc, 0x1d, 0x2f, 0x0d, 0x0a, 0x9c, 0x6e, 0x99, 0x97, 0x97, 0xcc, 0x00,
    0xd2, 0x8e, 0xbc, 0x3c, 0x9a, 0xf1, 0x32, 0x0e, 0xf3, 0xd6, 0x27, 0x1c,
    0xea, 0xab, 0xca, 0x4d, 0x69, 0x32, 0x30, 0x5f, 0x18, 0xd7, 0xb7, 0x4a,
    0xcb, 0x8e, 0xb2, 0x96, 0x39, 0xa3, 0xc7, 0x42, 0xca, 0x60, 0x9b, 0xad,
    0x8e, 0xb7, 0x54, 0x32, 0xea, 0xfd, 0x58, 0xfa, 0xf8, 0x02, 0xef, 0x2f,
    0xec, 0x3c, 0x2a, 0x1a, 0x6a, 0x08, 0xa4, 0x4b, 0xec, 0x30, 0x90, 0xaf,
    0x13, 0x98, 0xcd, 0x48, 0xfd, 0x5f, 0x56, 0x68, 0x17, 0x9e, 0x87, 0xb1,
    0x2b, 0x16, 0xd3, 0x3c, 0xe0, 0xe8, 0x0e, 0xa6, 0xc4, 0x24, 0xd3, 0x05,
    0x75, 0xda, 0x22, 0x44, 0xb5, 0x41, 0xd2, 0xa5, 0x99, 0xf1, 0x5e, 0xbe,
    0x15, 0xb7, 0x33, 0x54, 0x9a, 0x97, 0x5b, 0x35, 0x77, 0x2b, 0x18, 0x46,
    0x2f, 0x92, 0xc5, 0x97, 0x2d, 0x4c, 0xa6, 0xf8, 0x9e, 0xc3, 0xe0, 0x0a,
    0x52, 0xf9, 0x97, 0xc7, 0xd6, 0x36, 0xdd, 0x38, 0xaa, 0xf3, 0x05, 0x30,
    0xc3, 0xe5, 0xaf, 0x54, 0xdc, 0xc4, 0xf2, 0x01, 0x9e, 0xe6, 0xc1, 0x89,
    0xee, 0xd8, 0x5f, 0xfe, 0xf0, 0x70, 0x3c, 0xc4, 0x40, 0xa4, 0xd4, 0xee,
    0xaf, 0x3d, 0xe6, 0xcd, 0x31, 0x16, 0x31, 0x3b, 0xa0, 0x0e, 0xc4, 0x71,
    0xbf, 0xbd, 0x39, 0x89, 0x0f, 0x36, 0xba, 0xd8, 0xa2, 0x49, 0x01, 0xab,
    0xf4, 0x07, 0x99, 0xc7, 0xb1, 0x0c, 0x33, 0x9d, 0x71, 0xf1, 0x15, 0x4b,
    0x60, 0xe0, 0xed, 0x59, 0x0a, 0x34, 0xd9, 0xa2, 0x45, 0x99, 0x4a, 0x60,
    0xd3, 0xdc, 0x37, 0x56, 0x32, 0x4c, 0xea, 0xdc, 0xcf, 0xe6, 0x22, 0x27,
    0x17, 0xea, 0x75, 0x3f, 0x69, 0xd4, 0xcf, 0x53, 0x92, 0x98, 0xf4, 0xfe,
    0x13, 0xa8, 0xe2, 0xb2, 0x48, 0x5f, 0x64, 0xab, 0x2b, 0x61, 0x97, 0xf5,
    0xc5, 0xb6, 0xef, 0x32, 0x4e, 0x47, 0x26, 0x42, 0x48, 0x9c, 0x5b, 0x24,
    0xa3, 0xcb, 0x70, 0xc7, 0x31, 0x6c, 0xc8, 0x4d, 0x5c, 0x02, 0xca, 0x71,
    0x1e, 0x56, 0xdb, 0x27, 0x66, 0x5d, 0x4f, 0x0b, 0x09, 0x57, 0xbe, 0x72,
    0x17, 0x3b, 0xce, 0xdd, 0xd2, 0x20, 0x13, 0x67, 0x32, 0x04, 0xee, 0xc4,
    0x66, 0x23, 0x0e, 0x97, 0x5e, 0x21, 0x30, 0xb2, 0xe4, 0x16, 0x06, 0x57,
    0xc3, 0x9b, 0x29, 0x5b, 0x76, 0xd0, 0x36, 0xac, 0xe6, 0xa2, 0x91, 0x57,
    0x96, 0x4e, 0x1c, 0x6f, 0x4a, 0x03, 0x50, 0x55, 0x6d, 0xaf, 0x9a, 0x29,
    0xc9, 0x61, 0x6c, 0x18, 0x4c, 0xb9, 0xd5, 0x41, 0xf8, 0x75, 0x2b, 0xc3,
    0x0e, 0x69, 0x9f, 0x45, 0x93, 0x2f, 0xa6, 0xf9, 0x30, 0x65, 0x05, 0x13,
    0xe3, 0x00, 0x54, 0x0e, 0xa4, 0xb5, 0x89, 0x6d, 0x4d, 0x11, 0x3d, 0x2a,
    0x29, 0x99, 0xd9, 0xdf, 0x75, 0xce, 0x01, 0x21, 0xbc, 0x26, 0xb3, 0x22,
    0xf9, 0xb0, 0x45, 0x5c, 0xf8, 0xea, 0xb2, 0x08, 0x1a, 0xf7, 0xa0, 0x70,
    0x65, 0xa8, 0xab, 0xe1, 0x92, 0xcc, 0xcc, 0x1f, 0x0e, 0x36, 0x60, 0xb7,
    0xea, 0xcb, 0x3d, 0xf6, 0x98, 0xbf, 0xcd, 0x00, 0xc9, 0x16, 0x1e, 0xdb,
    0x58, 0x24, 0xb1, 0xd8, 0xaf, 0x01, 0x00, 0xfa, 0x15, 0xf4, 0x37, 0x05,
    0xd7, 0x17, 0x2a, 0xd2, 0xe8, 0xe4, 0x0c, 0x50, 0xfa, 0xe8, 0xd6, 0x99,
    0xa9, 0x58, 0x61, 0x38, 0xee, 0x22, 0x3c, 0x53, 0xcf, 0x64, 0x8e, 0xad,
    0x4d, 0xd6, 0xc3, 0xc3, 0xdd, 0xb0, 0xb3, 0xf7, 0xdd, 0x37, 0xfd, 0xf3,
    0x2b, 0x6a, 0xe2, 0xd4, 0xfc, 0x0c, 0x74, 0xca, 0x37, 0x2f, 0xd2, 0xf8,
    0x5b, 0xf1, 0x8c, 0x32, 0xa0, 0xdc, 0x2c, 0xa8, 0x36, 0x2f, 0xbe, 0x45,
    0x9b, 0x42, 0x95, 0x15, 0x5e, 0x08, 0xb1, 0x61, 0xec, 0xa2, 0xdf, 0x5f,
    0xca, 0xf8, 0x62, 0x73, 0xfd, 0x66, 0xc8, 0x51, 0x2a, 0x69, 0x3c, 0x8f,
    0x75, 0xa4, 0x6f, 0xbe, 0xc1, 0x5c, 0x66, 0xe2, 0x60, 0x92, 0xd7, 0x0e,
    0xee, 0x1b, 0xc7, 0x39, 0x8b, 0x56, 0x6c, 0xc6, 0x20, 0xfa, 0xec, 0x96,
    0xa5, 0x0f, 0x74, 0x42, 0x32, 0x12, 0x11, 0xdf, 0x02, 0xfe, 0x42, 0x1c,
    0xfe, 0xf1, 0x72, 0xaf, 0x47, 0x3b, 0x62, 0xe3, 0x27, 0x29, 0xf0, 0xec,
    0x39, 0xd2, 0xdd, 0xb6, 0xe9, 0xbe, 0x5f, 0x66, 0x67, 0x6c, 0xc9, 0xa1,
    0xf0, 0x25, 0x9a, 0x1b, 0xa8, 0xa0, 0x15, 0xcb, 0x61, 0x98, 0x98, 0xfd,
    0xef, 0xba, 0x74, 0x9b, 0x54, 0xf3, 0x6d, 0xe1, 0xa4, 0xcf, 0xb5, 0xe7,
    0xba, 0x0f, 0xd1, 0x41, 0xd8, 0x63, 0x94, 0x09, 0xcd, 0x4f, 0xb1, 0x31,
    0x49, 0x5e, 0x54, 0xb1, 0x28, 0x39, 0x8e, 0x13, 0x48, 0x2e, 0x20, 0xb0,
    0xf7, 0x18, 0x9a, 0xea, 0xf2, 0x9b, 0xde, 0x8f, 0x16, 0xc8, 0x9e, 0x31,
    0xca, 0x94, 0x28, 0x26, 0x0d, 0x8c, 0x0f, 0x09, 0x69, 0xc5, 0x2a, 0x38,
    0xae, 0x6b, 0xfb, 0x4f, 0xbb, 0xf4, 0x14, 0xea, 0x8d, 0x13, 0xc0, 0x09,
    0xe2, 0xfb, 0xfb, 0x09, 0xa1, 0xfc, 0x49, 0xff, 0x0f, 0x52, 0x3e, 0xe8,
    0xda, 0xfe, 0xe1, 0x67, 0x8f, 0x21, 0xcf, 0xaf, 0xb7, 0xe2, 0xcf, 0x09,
    0x15, 0x10, 0x51, 0x72, 0x8f, 0x42, 0x09, 0x9d, 0xea, 0x27, 0x2d, 0x25,
    0x9f, 0x54, 0x50, 0xfa, 0xdf, 0x9f, 0x41, 0xe8, 0xd2, 0x66, 0xd8, 0x28,
    0xfb, 0x8b, 0xe4, 0x42, 0x03, 0x92, 0xf9, 0xcd, 0xcc, 0xb0, 0xc0, 0x52,
    0x53, 0x6d, 0xcd, 0xed, 0x16, 0xad, 0x3c, 0x3d, 0xf9, 0x3b, 0x05, 0xbb,
    0xac, 0x9e, 0xa3, 0x4b, 0x17, 0xb4, 0xc7, 0xdd, 0xd4, 0xd3, 0x0c, 0x10,
    0x0d, 0xd8, 0x9c, 0xdb, 0xa4, 0x60, 0x06, 0x89, 0x4b, 0x06, 0x4c, 0x9f,
    0xc4, 0x47, 0xc8, 0xaf, 0xab, 0x02, 0x23, 0x89, 0x6e, 0xf2, 0x9d, 0x2b,
    0x6b, 0x9a, 0xa4, 0xee, 0x16, 0x0b, 0x3c, 0x76, 0xd4, 0xf0, 0x17, 0x90,
    0xca, 0xf5, 0xc8, 0xbf, 0xcb, 0xb1, 0x02, 0x69, 0x34, 0x71, 0x59, 0x5d,
    0x0e, 0x56, 0xd8, 0x41, 0x0a, 0xa5, 0x0a, 0x16, 0xbc, 0x93, 0x63, 0xf9,
    0xd9, 0xab, 0x3e, 0x75, 0x1e, 0xd3, 0xf3, 0x56, 0xf5, 0x14, 0xee, 0x65,
    0xf3, 0x2f, 0x72, 0x03, 0xcb, 0x69, 0x90, 0x91, 0x0d, 0x31, 0x8e, 0x3e,
    0xe9, 0xb0, 0xe6, 0x2e, 0x37, 0x5d, 0xb0, 0x38, 0x52, 0xe6, 0x23, 0x24,
    0x36, 0xb2, 0xe9, 0xa5, 0xa0, 0xae, 0xed, 0xfd, 0x95, 0xa5, 0xcf, 0x4a,
    0xe3, 0xbd, 0xe7, 0x29, 0xd0, 0x57, 0x3e, 0xf1, 0xdf, 0xc8, 0xc7, 0x26,
    0xf6, 0xc7, 0x4b, 0xc8, 0x6a, 0x4a, 0xed, 0x49, 0x60, 0x2d, 0x1c, 0xe3,
    0x8b, 0x10, 0x24, 0xfc, 0xef, 0xbb, 0x1e, 0x24, 0xbb, 0x40, 0xeb, 0x99,
    0xba, 0xe1, 0x4a, 0xd4, 0x1f, 0x69, 0x47, 0xa4, 0x8f, 0x48, 0x05, 0x17,
    0xcb, 0xee, 0x55, 0xca, 0xe5, 0xe3, 0x60, 0xec, 0xfa, 0xe6, 0xd1, 0x28,
    0xc5, 0xa8, 0x04, 0xd8, 0xce, 0x13, 0x2b, 0x99, 0x2b, 0xc7, 0x94, 0x9d,
    0xda, 0xd7, 0x6f, 0x31, 0xfe, 0xee, 0x6c, 0x9b, 0xf1, 0x70, 0xd2, 0xee,
    0xc4, 0xba, 0xb7, 0xbe, 0xd3, 0x37, 0xdc, 0x43, 0x4e, 0x30, 0x4a, 0x67,
    0xf2, 0x45, 0x29, 0xe1, 0x8b, 0xb8, 0x6d, 0xca, 0xec, 0xb9, 0xd6, 0xd3,
    0xdd, 0xcb, 0xde, 0xdb, 0xa9, 0x4d, 0xdd, 0x3d, 0x41, 0xae, 0x99, 0x89,
    0xce, 0x70, 0x50, 0x61, 0x07, 0xf3, 0xca, 0x24, 0x56, 0x76, 0x3f, 0xe0,
    0x6e, 0xbe, 0xa7, 0xc6, 0xac, 0x6c, 0xf1, 0x8c, 0xa2, 0x0e, 0xc4, 0x2a,
    0x48, 0x30, 0x8b, 0xc9, 0xc0, 0x5a, 0xb2, 0x2b, 0xbd, 0xa2, 0xcc, 0xf7,
    0x25, 0x16, 0xc3, 0xde, 0x1b, 0x8d, 0x23, 0x8c, 0xb6, 0xc4, 0xaa, 0x4a,
    0x0b, 0x66, 0x25, 0x35, 0xb3, 0x9a, 0x74, 0x27, 0x63, 0xea, 0xef, 0x92,
    0x12, 0x8c, 0x58, 0xd9, 0x3a, 0x55, 0xd6, 0x61, 0x29, 0x9f, 0xbc, 0x28,
    0xbd, 0x30, 0xcd, 0x43, 0xe6, 0x36, 0x36, 0x66, 0x20, 0x8c, 0x9e, 0x23,
    0xfe, 0x6d, 0xf0, 0xbc, 0x61, 0xcd, 0x58, 0xd8, 0xe0, 0x2e, 0xe4, 0xcf,
    0x61, 0xf7, 0xd5, 0x6b, 0x54, 0x33, 0xb3, 0x2c, 0x60, 0xa8, 0x59, 0x21,
    0x5d, 0xaa, 0x65, 0x9e, 0xdc, 0xa3, 0xc9, 0xc4, 0x9d, 0x4d, 0x95, 0x29,
    0xf6, 0x2b, 0xcd, 0xc9, 0xb9, 0x9d, 0x46, 0xa0, 0x89, 0xf4, 0x4e, 0x52,
    0x55, 0xe2, 0x13, 0x98, 0xf0, 0xef, 0x27, 0xc3, 0xc9, 0xd1, 0xe1, 0xee,
    0x07, 0x1b, 0x9d, 0x8a, 0x5b, 0x9d, 0x06, 0x26, 0x61, 0x2a, 0x55, 0x6f,
    0x54, 0x22, 0xd5, 0x06, 0x20, 0xed, 0x06, 0x4d, 0xa2, 0xb3, 0xaa, 0x4f,
    0x1f, 0x3e, 0xd2, 0x0d, 0x6a, 0xab, 0x6d, 0xee, 0x8f, 0x09, 0xb2, 0xd9,
    0x39, 0x46, 0x0f, 0xe7, 0x51, 0x70, 0x51, 0xdb, 0x09, 0xf8, 0x8e, 0xbb,
    0x06, 0x98, 0x49, 0x69, 0xb7, 0x9e, 0xa0, 0xbc, 0x16, 0x5f, 0x96, 0xad,
    0xe9, 0x76, 0x9f, 0x71, 0xe2, 0x1b, 0x91, 0x73, 0xd9, 0x74, 0x6a, 0x70,
    0x48, 0x71, 0x47, 0x3b, 0x0c, 0xd5, 0x96, 0xe3, 0x6e, 0xdb, 0xbb, 0x9c,
    0x44, 0x5c, 0xe5, 0x07, 0x73, 0x31, 0xd1, 0x55, 0x07, 0xff, 0x5f, 0xb1,
    0x55, 0x9d, 0x0d, 0xbf, 0x32, 0x53, 0xf9, 0xfe, 0xcd, 0xc8, 0xe0, 0x56,
    0x18, 0x8f, 0x4b, 0x51, 0xd1, 0x23, 0x2e, 0x9f, 0xb9, 0xee, 0xf3, 0xfd,
    0x26, 0x02, 0xf6, 0x54, 0xd5, 0x3e, 0x13, 0xc1, 0xc1, 0xe4, 0xa8, 0xb4,
    0x5f, 0x5c, 0xa0, 0x9f, 0xb5, 0x19, 0xbb, 0x4e, 0xd6, 0xf8, 0x18, 0x9b,
    0xeb, 0x9e, 0x58, 0x9d, 0x00, 0x51, 0x24, 0x28, 0x70, 0x55, 0xf7, 0xb9,
    0x5a, 0x59, 0x50, 0xc5, 0x72, 0xab, 0x6b, 0x13, 0x95, 0xfb, 0xe4, 0xc2,
    0x05, 0x96, 0xf3, 0x48, 0xef, 0x02, 0x67, 0xd5, 0x8f, 0x5b, 0x8e, 0xb6,
    0xbe, 0xc1, 0x3d, 0x8e, 0x22, 0xee, 0x49, 0xc7, 0xbe, 0xfb, 0x2d, 0x51,
    0x45, 0x44, 0xca, 0x94, 0x8e, 0xce, 0xb5, 0x9a, 0x29, 0xc7, 0x52, 0xde,
    0x2c, 0xdf, 0xcc, 0x43, 0xc7, 0xd7, 0x51, 0xb7, 0x07, 0xf0, 0x9b, 0x9d,
    0x33, 0x98, 0x62, 0xfa, 0xc9, 0x13, 0x0b, 0xcd, 0xdf, 0xbd, 0xff, 0x8e,
    0x13, 0x44, 0xda, 0x62, 0xc0, 0xd1, 0x8d, 0x57, 0x0e, 0xec, 0x53, 0x8a,
    0x04, 0xcf, 0x0f, 0x5a, 0xd7, 0x3c, 0x4b, 0x17, 0xda, 0x3b, 0xf0, 0x30,
    0xbf, 0xea, 0x40, 0xa6, 0x36, 0xed, 0xda, 0xf7, 0x40, 0x6b, 0xf1, 0x1e,
    0x61, 0xa0, 0x8b, 0x5d, 0xfa, 0xa8, 0x6a, 0xca, 0xfd, 0x6a, 0x06, 0xb4,
    0xf5, 0xb6, 0xc7, 0xbe, 0xdf, 0xac, 0x17, 0x00, 0x4a, 0x91, 0x8d, 0x97,
    0x5b, 0xc8, 0xcb, 0xd4, 0xc8, 0x20, 0x0b, 0x53, 0xee, 0x2b, 0x25, 0xb8,
    0xa1, 0x24, 0xa1, 0xa0, 0x17, 0x60, 0xd9, 0xf7, 0x2d, 0x00, 0x6c, 0x70,
    0x44, 0x0d, 0x60, 0xe7, 0x95, 0x1e, 0x8a, 0x1b, 0x29, 0xcf, 0xb5, 0xc1,
    0xbe, 0xd0, 0xe5, 0xeb, 0xd8, 0x71, 0x88, 0x34, 0xcb, 0xbd, 0x32, 0x52,
    0xa7, 0xcf, 0x6d, 0x9b, 0xef, 0xf2, 0xe4, 0x68, 0x6f, 0xfe, 0xb9, 0x17,
    0x31, 0xa0, 0x3e, 0xfc, 0xae, 0xf6, 0x54, 0xe3, 0x33, 0x24, 0xd1, 0xfc,
    0xb7, 0x37, 0x8f, 0xd3, 0x4f, 0xf2, 0x59, 0x53, 0xea, 0xaf, 0x71, 0xc5,
    0xb1, 0xdb, 0xf9, 0xed, 0xc0, 0x46, 0x56, 0xfc, 0x09, 0x90, 0xf7, 0x09,
    0x5a, 0x12, 0x71, 0xad, 0xa6, 0x0f, 0xba, 0x4c, 0x2f, 0xd7, 0x61, 0xcb,
    0xf2, 0xab, 0x44, 0x67, 0x43, 0xd0, 0x41, 0xd5, 0xba, 0xff, 0x26, 0x50,
    0x5b, 0x97, 0x91, 0xc4, 0x8f, 0x2a, 0x64, 0x3c, 0x06, 0x2e, 0x26, 0x8e,
    0x5f, 0xb1, 0xba, 0x74, 0x16, 0xeb, 0xee, 0x6e, 0xe1, 0x68, 0xcc, 0x09,
    0xed, 0xa5, 0x5d, 0xf7, 0xef, 0xd6, 0xfa, 0x9f, 0x39, 0xe1, 0x5c, 0x38,
    0xbd, 0x1b, 0xe6, 0x8a, 0xfa, 0xea, 0xbc, 0x14, 0x4c, 0x31, 0xa8, 0x9d,
    0x64, 0xa6, 0xec, 0xf0, 0xf8, 0xa2, 0x0a, 0x6c, 0xb9, 0xc5, 0x3d, 0x40,
    0x48, 0x41, 0x1d, 0xf2, 0xab, 0xd4, 0xdf, 0xfb, 0x55, 0x9e, 0xa5, 0xac,
    0xe9, 0xf0, 0x46, 0x96, 0xc5, 0x4d, 0x5f, 0x5f, 0x64, 0x00, 0x69, 0x48,
    0x0e, 0xa3, 0xb5, 0x5d, 0x45, 0xce, 0x57, 0xc4, 0x45, 0xdb, 0xc6, 0x13,
    0x4b, 0xa7, 0xa0, 0xd5, 0x31, 0xb4, 0xd4, 0x0f, 0x4f, 0x29, 0x40, 0xc0,
    0xaa, 0xb7, 0x54, 0x21, 0xd5, 0x3a, 0x01, 0xbc, 0xa8, 0x58, 0xb5, 0x3f,
    0xa6, 0x1a, 0x06, 0xb5, 0x07, 0xd3, 0xb6, 0xff, 0x6e, 0x74, 0x08, 0x16,
    0x45, 0xaf, 0xd9, 0xc5, 0x4a, 0x0d, 0xd2, 0x8a, 0xd1, 0x6c, 0xba, 0x5a,
    0xd0, 0xee, 0x57, 0x10, 0xa4, 0x1a, 0xf4, 0x92, 0x97, 0xe0, 0xd7, 0xa8,
    0xff, 0x47, 0xed, 0x56, 0x6b, 0x91, 0x77, 0x5d, 0xa6, 0xcf, 0xed, 0x96,
    0xc5, 0x5a, 0xe3, 0x0b, 0x1d, 0xc0, 0xcc, 0xa1, 0x71, 0x95, 0xa8, 0xec,
    0xef, 0x33, 0x91, 0xd6, 0x53, 0x1f, 0xef, 0x43, 0xa9, 0x42, 0x2a, 0xc7,
    0xf6, 0x15, 0x60, 0xc2, 0xde, 0xeb, 0xac, 0xf8, 0x55, 0x27, 0x14, 0xf1,
    0xf8, 0x69, 0x55, 0xc8, 0x69, 0x1f, 0xf3, 0xc2, 0x71, 0xe8, 0x75, 0xa9,
    0x1a, 0x91, 0xc5, 0x1e, 0xe3, 0x52, 0x24, 0x5f, 0x60, 0xb5, 0xf1, 0xe6,
    0xdd, 0x4b, 0x1b, 0xdd, 0x3a, 0xad, 0x58, 0x36, 0x9c, 0xb3, 0x25, 0x9e,
    0x28, 0xd4, 0x3b, 0x6a, 0x64, 0xe7, 0x57, 0x54, 0xad, 0x4d, 0x44, 0xfc,
    0x54, 0xd3, 0xa3, 0x96, 0x4e, 0xee, 0xde, 0x23, 0x30, 0x30, 0x1f, 0x57,
    0x2f, 0xd6, 0xb4, 0xfa, 0x5c, 0x1b, 0x4a, 0x1b, 0x96, 0x58, 0x9a, 0xc7,
    0x25, 0xd0, 0x9c, 0xf3, 0x2b, 0x16, 0x58, 0x62, 0x0c, 0x5b, 0x45, 0x96,
    0xb0, 0xc2, 0x3e, 0xca, 0x0a, 0xb5, 0x0f, 0x06, 0xa8, 0xa3, 0xb2, 0x0a,
    0x6a, 0xc5, 0xb7, 0xf8, 0x69, 0xfa, 0xc1, 0xa8, 0xbc, 0x17, 0x6c, 0x92,
    0x06, 0x50, 0x74, 0x4b, 0x02, 0xc8, 0x4d, 0x9c, 0x3e, 0x94, 0x6f, 0xef,
    0x3e, 0xd9, 0x71, 0xa6, 0x3a, 0x70, 0x6a, 0x14, 0x0e, 0x06, 0xbe, 0x40,
    0x2b, 0xa1, 0xbb, 0x05, 0x71, 0x05, 0xbd, 0xd5, 0x2d, 0xd9, 0xe2, 0xf6,
    0xb4, 0x32, 0x33, 0xac, 0x0f, 0x9a, 0xe3, 0xaf, 0xf4, 0x44, 0x21, 0x59,
    0x91, 0x0d, 0xd0, 0xf1, 0x47, 0x9e, 0x00, 0x38, 0xa2, 0x1d, 0x61, 0x54,
    0xd2, 0x18, 0x9d, 0xe4, 0x4f, 0xf3, 0xbd, 0x04, 0xdb, 0x4d, 0x59, 0x8c,
    0xfa, 0x12, 0xdd, 0xe4, 0xb5, 0x32, 0x3b, 0xf8, 0x93, 0xae, 0x3b, 0xa9,
    0xb3, 0xe9, 0x57, 0x30, 0x49, 0x6d, 0xaa, 0x35, 0x12, 0xce, 0x16, 0x98,
    0x3c, 0xd0, 0xed, 0xe8, 0xa6, 0xbc, 0xa6, 0xe6, 0x66, 0x0f, 0xb3, 0x12,
    0x95, 0x19, 0x56, 0x23, 0xb1, 0x30, 0x5d, 0xb3, 0x4c, 0x5f, 0x0c, 0xef,
    0x24, 0x12, 0xe0, 0x97, 0xf3, 0x3e, 0x9c, 0x49, 0xff, 0xa6, 0x6f, 0xa6,
    0xd2, 0x58, 0xbe, 0x3f, 0x30, 0xdd, 0x65, 0xd0, 0x40, 0xe1, 0xaf, 0x09,
    0xf1, 0xf4, 0x0f, 0x1a, 0xe5, 0xef, 0x51, 0x50, 0x38, 0x5d, 0xb0, 0x1e,
    0xed, 0x19, 0x8d, 0x4e, 0x20, 0xa1, 0x65, 0x07, 0x5b, 0x23, 0x0c, 0x14,
    0xd3, 0x18, 0xa3, 0xda, 0x58, 0x9f, 0x10, 0x00, 0xbd, 0xb5, 0x95, 0x07,
    0x1d, 0x0f, 0xf9, 0x2a, 0xe4, 0x35, 0x3c, 0x60, 0xad, 0xb2, 0x13, 0x3b,
    0xd5, 0x9e, 0xeb, 0xc7, 0x09, 0x6e, 0x53, 0xff, 0x95, 0xf3, 0xc1, 0x9b,
    0xcd, 0x21, 0x15, 0x3b, 0x5f, 0xfe, 0x4e, 0xaf, 0x3f, 0xf8, 0xe3, 0xa8,
    0x35, 0xee, 0x44, 0x33, 0xc7, 0x8c, 0x9c, 0x1c, 0x33, 0x55, 0x3c, 0x4a,
    0xa4, 0x35, 0xf6, 0xf0, 0x32, 0x8e, 0xed, 0x6d, 0x06, 0xff, 0x8d, 0x24,
    0x05, 0x72, 0x4c, 0xa2, 0x97, 0x25, 0x93, 0x3d, 0x79, 0x18, 0x22, 0x15,
    0xec, 0x5c, 0xc4, 0x10, 0x65, 0xec, 0x90, 0x6d, 0x28, 0xba, 0x93, 0xb5,
    0x2f, 0x53, 0xe4, 0x00, 0x9c, 0x39, 0xf5, 0x4c, 0xde, 0x51, 0x39, 0xc3,
    0xd8, 0x03, 0xc3, 0x97, 0xe1, 0xa8, 0x3e, 0x06, 0x26, 0x4d, 0xd9, 0x49,
    0x75, 0xbb, 0xd5, 0x69, 0x20, 0xfb, 0x85, 0x12, 0xc9, 0xac, 0xfc, 0x05,
    0xad, 0x57, 0xa9, 0x58, 0xcd, 0xfd, 0xbe, 0x64, 0x31, 0x50, 0x4d, 0xa4,
    0x93, 0xb6, 0x23, 0x3b, 0xfd, 0xd9, 0xdb, 0x46, 0xdd, 0x1f, 0x07, 0x54,
    0xc2, 0xc2, 0xd6, 0xad, 0xf6, 0x21, 0x39, 0xa1, 0x96, 0x53, 0x12, 0x46,
    0x5a, 0xc8, 0xf3, 0xf8, 0xe2, 0xa3, 0xd0, 0x29, 0x3f, 0x30, 0xca, 0x0b,
    0x57, 0xab, 0xcf, 0x1e, 0x08, 0x59, 0x3d, 0x41, 0x6a, 0xf7, 0xb2, 0xfc,
    0xff, 0x33, 0x46, 0xd1, 0x1a, 0xa6, 0x91, 0x54, 0xca, 0x27, 0x5a, 0x94,
    0x13, 0xf4, 0xf0, 0xcf, 0x58, 0xe0, 0x96, 0x50, 0xda, 0xe6, 0x91, 0xc7,
    0x8d, 0x14, 0x5b, 0xc1, 0xeb, 0x4a, 0x96, 0xf1, 0xa5, 0x43, 0xf6, 0x29,
    0x91, 0xb9, 0xb9, 0x67, 0x3f, 0x31, 0xd7, 0x08, 0xe6, 0x2b, 0xfb, 0x43,
    0x56, 0x39, 0x4e, 0xf9, 0x02, 0x8e, 0x96, 0x1f, 0xa3, 0x3c, 0xae, 0x55,
    0x03, 0x05, 0x9a, 0x39, 0xbe, 0xf7, 0x67, 0xa1, 0x6b, 0x2f, 0x42, 0x45,
    0x9b, 0x45, 0x8f, 0x53, 0x1f, 0x96, 0x42, 0x54, 0xd2, 0x5b, 0xf0, 0x17,
    0x94, 0x41, 0xaf, 0xd4, 0xc6, 0x37, 0x5f, 0xc0, 0xbd, 0xe3, 0x44, 0x8d,
    0xc1, 0x69, 0x64, 0x2a, 0xe7, 0x08, 0xe5, 0x18, 0x92, 0x53, 0xfc, 0xed,
    0xd3, 0x69, 0x94, 0x6b, 0x10, 0x0b, 0x5e, 0x91, 0x38, 0x4b, 0xa5, 0x19,
    0x3a, 0x6a, 0x2e, 0x5a, 0xa2, 0x6f, 0x34, 0x2c, 0x7b, 0x5d, 0x53, 0x33,
    0x77, 0x46, 0xf8, 0x4a, 0xa2, 0x8d, 0x55, 0x67, 0xa8, 0xbd, 0xc6, 0x3c,
    0x5d, 0x47, 0xeb, 0x99, 0xed, 0xdc, 0xae, 0xcf, 0xec, 0xbe, 0x40, 0x60,
    0xfc, 0x36, 0x5c, 0x93, 0x95, 0x64, 0xd8, 0x47, 0x14, 0xe2, 0x1e, 0xa2,
    0xd4, 0xd4, 0xdf, 0xd9, 0x23, 0x18, 0xf2, 0x99, 0xe8, 0xe4, 0x2a, 0x3b,
    0xec, 0x2e, 0x28, 0xa8, 0x04, 0x74, 0x04, 0xa4, 0x32, 0xa6, 0x49, 0xf9,
    0x33, 0x6c, 0xa8, 0x1d, 0xb2, 0xbb, 0x57, 0xe4, 0xcf, 0xf2, 0x9e, 0x74,
    0x8d, 0xf7, 0x22, 0xaa, 0x0d, 0x8a, 0x2f, 0x34, 0x72, 0x33, 0xec, 0xdf,
    0x46, 0x57, 0x6c, 0x97, 0x94, 0xad, 0x06, 0x88, 0xeb, 0x20, 0xec, 0x79,
    0x44, 0xe1, 0xbc, 0xf8, 0xbd, 0xeb, 0x99, 0xe3, 0xaf, 0xfe, 0xc5, 0xb5,
    0xfa, 0x31, 0x75, 0x62, 0xff, 0x2a, 0x2a, 0x1b, 0xce, 0xad, 0xa8, 0xc8,
    0x3c, 0x54, 0x23, 0xf9, 0x9e, 0x2d, 0xe2, 0xa4, 0x4f, 0x5b, 0x4d, 0xb8,
    0x4f, 0xc6, 0xb3, 0xc6, 0xef, 0x66, 0x54, 0x31, 0xab, 0xd3, 0xf0, 0xb9,
    0xfa, 0xb6, 0x15, 0xe6, 0xdb, 0x4b, 0x51, 0x4d, 0x77, 0xa5, 0x3d, 0x4e,
    0xd9, 0xc9, 0xdb, 0x95, 0x31, 0x1d, 0x4d, 0x37, 0xe0, 0x34, 0xd3, 0xf3,
    0x20, 0x6b, 0xb8, 0x16, 0x0b, 0x4e, 0x55, 0x96, 0x56, 0x1e, 0xa7, 0xe8,
    0xc6, 0x3a, 0x08, 0x49, 0xa1, 0x16, 0x46, 0xc9, 0x43, 0xcb, 0x8f, 0x28,
    0x4a, 0x78, 0xaa, 0xf9, 0x6c, 0x74, 0xc8, 0x0b, 0xce, 0x13, 0x2c, 0xef,
    0xfe, 0x73, 0x42, 0xa7, 0xbc, 0x3d, 0xc9, 0xf2, 0xaf, 0x1c, 0x32, 0xdb,
    0xb2, 0x15, 0x70, 0x6b, 0x9b, 0x6e, 0x6f, 0x6e, 0xf7, 0x95, 0xea, 0x3e,
    0xd0, 0xb1, 0x2a, 0xbe, 0x8c, 0x66, 0x4e, 0xe9, 0x29, 0xe3, 0x35, 0xde,
    0xbf, 0x44, 0xbc, 0x5e, 0x56, 0x8b, 0xb3, 0xd4, 0xdf, 0xf5, 0x4e, 0x2e,
    0xeb, 0xe6, 0x8e, 0x58, 0xe2, 0xfd, 0xe7, 0x27, 0xff, 0x07, 0x49, 0x20,
    0xdd, 0xcf, 0xe4, 0xd7, 0x5c, 0x5f, 0x1f, 0xcc, 0xeb, 0x29, 0xeb, 0x34,
    0xac, 0xd6, 0xb6, 0xf8, 0xae, 0xdf, 0x11, 0x58, 0xd5, 0xea, 0xf1, 0x76,
    0xe5, 0x4d, 0x51, 0x72, 0xd4, 0x5e, 0x1e, 0x0f, 0xfd, 0x2e, 0xbe, 0x8e,
    0x07, 0x1a, 0x1f, 0x99, 0x4d, 0x73, 0x70, 0xe1, 0x41, 0xb4, 0x20, 0x10,
    0x75, 0x0f, 0xc8, 0x69, 0x5f, 0x6c, 0x20, 0x2b, 0xc8, 0xfd, 0xe9, 0x4c,
    0xf4, 0x6f, 0x6a, 0xe0, 0x1a, 0xb5, 0xec, 0x2e, 0xf5, 0x25, 0x6d, 0x56,
    0x56, 0xb9, 0x42, 0xca, 0x70, 0x72, 0xe5, 0x41, 0x07, 0x4f, 0x41, 0x25,
    0xea, 0x0a, 0x5d, 0xe1, 0x0a, 0xd5, 0x6f, 0x35, 0x50, 0xcc, 0x27, 0x53,
    0x5f, 0x31, 0x1c, 0xee, 0xae, 0x26, 0xc8, 0xc4, 0x4f, 0x9b, 0xf5, 0xf6,
    0x4d, 0x19, 0xb9, 0xc4, 0x55, 0xcd, 0xe5, 0x8a, 0xe9, 0x45, 0xec, 0xf2,
    0xf9, 0x33, 0x4d, 0xba, 0x57, 0x8f, 0xd6, 0xf5, 0xf7, 0x92, 0xb3, 0xd3,
    0x65, 0x39, 0x07, 0x04, 0x92, 0x2f, 0x70, 0x99, 0x97, 0x96, 0x60, 0xe5,
    0x92, 0x60, 0xc3, 0x72, 0x1e, 0xc7, 0xe6, 0x1d, 0xbb, 0x5b, 0xd5, 0x64,
    0x1b, 0x36, 0x45, 0xb8, 0xcb, 0x42, 0xe7, 0x26, 0x45, 0x65, 0xc8, 0x04,
    0x1c, 0x05, 0x9b, 0x48, 0xe3, 0x93, 0x8e, 0xb2, 0x1c, 0x6a, 0xab, 0x60,
    0xc2, 0xa6, 0x1a, 0x71, 0xd5, 0x2c, 0xb8, 0xe9, 0x9e, 0x66, 0x8d, 0xb6,
    0xb1, 0x99, 0x90, 0x9c, 0x1b, 0xc9, 0x44, 0x6d, 0x31, 0xbb, 0x62, 0x6e,
    0x46, 0xcc, 0xd7, 0x47, 0x3a, 0x40, 0x63, 0x33, 0x34, 0x4f, 0x50, 0x3c,
    0x94, 0x97, 0xe9, 0xe8, 0x3a, 0xf7, 0x2d, 0x2d, 0x9c, 0xb6, 0x5d, 0x52,
    0xbd, 0xa9, 0x2d, 0x42, 0xfc, 0xe8, 0x70, 0x09, 0x48, 0xd0, 0x36, 0x0b,
    0x3d, 0x2b, 0x9f, 0xe2, 0x4c, 0xdf, 0xf3, 0x57, 0x73, 0x55, 0xf7, 0x34,
    0xb8, 0x6b, 0x44, 0x6f, 0xf6, 0x6d, 0xcf, 0x93, 0x09, 0x14, 0xac, 0x8f,
    0xde, 0xce, 0x5f, 0x05, 0x04, 0x9f, 0xc7, 0x05, 0x5f, 0xdd, 0x2e, 0xfc,
    0x53, 0xec, 0x9e, 0xdb, 0xa8, 0xa2, 0xc7, 0x53, 0x5c, 0x9a, 0x4d, 0xb6,
    0x6f, 0xa5, 0xc6, 0xf3, 0xc5, 0xa4, 0x56, 0x62, 0xdc, 0x75, 0xe4, 0x0b,
    0xb0, 0xcc, 0x38, 0xde, 0x2d, 0xbb, 0xbc, 0x0b, 0xc6, 0xab, 0xac, 0xac,
    0x46, 0xce, 0x1e, 0xe6, 0x47, 0x6c, 0x6e, 0x8e, 0x00, 0x00, 0xa0, 0xae,
    0x1e, 0x1d, 0xaa, 0x22, 0xaf, 0x34, 0xc7, 0x26, 0x37, 0x01, 0x46, 0x25,
    0x9c, 0x5f, 0x92, 0xef, 0xda, 0x07, 0x64, 0x62, 0xe4, 0xf7, 0x4c, 0xa2,
    0x41, 0xf1, 0x10, 0xe0, 0xe5, 0x73, 0x72, 0xe1, 0xf8, 0x66, 0x19, 0x58,
    0xa9, 0xdf, 0xb1, 0x41, 0xcb, 0xb3, 0xc4, 0xe6, 0x21, 0xbe, 0x17, 0x26,
    0xa9, 0x68, 0x96, 0xde, 0x5d, 0xba, 0x8f, 0x1b, 0x09, 0x00, 0x39, 0x0e,
    0xc2, 0x8d, 0x31, 0x61, 0xfe, 0x9e, 0x60, 0x05, 0xf3, 0x72, 0xdf, 0x78,
    0x14, 0x5a, 0x1b, 0x74, 0xa1, 0x23, 0xa7, 0x6e, 0x93, 0x76, 0xfa, 0x4a,
    0x73, 0xa1, 0x3b, 0xda, 0x0b, 0x06, 0xdd, 0xfc, 0x2f, 0xef, 0x0a, 0x38,
    0x03, 0xbf, 0xbb, 0x12, 0x29, 0x6b, 0xec, 0x68, 0xc7, 0xa6, 0xf9, 0x72,
    0xbc, 0xdb, 0xeb, 0x4e, 0x8f, 0x5f, 0x3a, 0xa9, 0x06, 0x4e, 0x3c, 0xf4,
    0x3b, 0xe0, 0x98, 0x9b, 0x77, 0x57, 0x0f, 0x39, 0x08, 0x43, 0x3f, 0x9b,
    0x76, 0x11, 0xd3, 0x38, 0xb6, 0x1f, 0x1e, 0xfe, 0xbb, 0x16, 0x37, 0x24,
    0x15, 0xf7, 0x8e, 0x61, 0x3d, 0xf5, 0x60, 0xab, 0x46, 0x49, 0xd6, 0xb2,
    0x8e, 0x35, 0xd5, 0x66, 0x20, 0x1f, 0xad, 0xf5, 0x95, 0xc3, 0x3e, 0xaa,
    0xda, 0x12, 0x1f, 0x33, 0xf4, 0xc0, 0xd9, 0x9e, 0x09, 0x76, 0x8b, 0x2f,
    0x35, 0xe2, 0x58, 0x09, 0x36, 0xf1, 0x03, 0xbc, 0xc2, 0x54, 0x67, 0x29,
    0x00, 0x3b, 0xf0, 0x24, 0xdf, 0xa0, 0x92, 0x71, 0xc3, 0x98, 0xe8, 0x5d,
    0xbe, 0xc7, 0xe8, 0x6f, 0x2f, 0x05, 0x89, 0x9f, 0xa1, 0x63, 0x29, 0x12,
    0x94, 0xff, 0xc7, 0x4c, 0xec, 0x98, 0x0e, 0xb8, 0xeb, 0x9e, 0x6d, 0x1e,
    0x4f, 0x4a, 0x1e, 0x41, 0xb0, 0xf9, 0x40, 0x8b, 0xdd, 0xd9, 0xa6, 0x1b,
    0xd4, 0x6d, 0xaf, 0x5b, 0x14, 0x68, 0xfd, 0x96, 0x5d, 0x0d, 0xad, 0x46,
    0x03, 0xf8, 0xd7, 0x13, 0x1d, 0xf3, 0x47, 0xbe, 0x46, 0x3d, 0xc7, 0xdd,
    0xa9, 0x60, 0x05, 0x15, 0xef, 0x9d, 0xa4, 0xb8, 0xde, 0xf2, 0x41, 0xe2,
    0x07, 0x1d, 0xcb, 0xe8, 0xf3, 0x9c, 0x9c, 0x5e, 0xcd, 0xec, 0x53, 0x39,
    0xf2, 0x62, 0x3b, 0x69, 0x3a, 0x29, 0xc7, 0xb3, 0x57, 0xce, 0x58, 0xd6,
    0x55, 0xf8, 0xc2, 0xf1, 0x16, 0xf3, 0x33, 0x3f, 0xf2, 0xaa, 0x63, 0x42,
    0x27, 0x01, 0x22, 0x5a, 0x1e, 0x8d, 0xa5, 0x33, 0x34, 0x29, 0x12, 0xf6,
    0x07, 0x22, 0xfd, 0xbb, 0x72, 0x60, 0x2a, 0xf5, 0xec, 0x71, 0xfe, 0xd7,
    0xc1, 0xf5, 0xdf, 0x97, 0x3e, 0x4a, 0x9a, 0x97, 0x6f, 0x56, 0xf1, 0xd4,
    0xba, 0x29, 0x09, 0x46, 0x3f, 0x10, 0xdc, 0x2d, 0xb2, 0x04, 0x32, 0x38,
    0xa3, 0xc7, 0x75, 0x95, 0x16, 0xd6, 0x12, 0x44, 0x7a, 0xd3, 0x18, 0xb3,
    0x51, 0x72, 0x63, 0xb8, 0xae, 0x9b, 0xf1, 0xec, 0x17, 0xe4, 0x2d, 0xed,
    0x29, 0x05, 0x63, 0xd7, 0x01, 0xf4, 0xf5, 0xc1, 0x6d, 0x13, 0x5f, 0x5c,
    0x73, 0x11, 0xc9, 0x53, 0xf4, 0xda, 0x90, 0xa2, 0x1c, 0x0b, 0x1d, 0x37,
    0x28, 0xa1, 0x06, 0x65, 0xd3, 0x49, 0x5d, 0x07, 0x1f, 0x93, 0xa9, 0x98,
    0xc5, 0xa5, 0x13, 0xc5, 0xac, 0xda, 0x64, 0x25, 0x77, 0x9a, 0xd5, 0xa9,
    0xe9, 0x3a, 0x77, 0x62, 0xac, 0xf2, 0x76, 0xf4, 0x03, 0xb6, 0x03, 0x6e,
    0xef, 0x97, 0x13, 0x1c, 0xd1, 0xb9, 0x73, 0x12, 0xf7, 0x10, 0xbd, 0x1c,
    0xa1, 0xe7, 0xed, 0xd7, 0xa0, 0xd7, 0x53, 0xa1, 0x21, 0xf1, 0x5f, 0x1e,
    0xec, 0x36, 0x0d, 0x2c, 0xce, 0x74, 0x4a, 0x0c, 0x97, 0x5a, 0x76, 0x62,
    0x18, 0x9c, 0xc3, 0xc1, 0xc4, 0x5e, 0xf1, 0xfa, 0xe6, 0x4b, 0x15, 0xda,
    0xfa, 0xfd, 0xe9, 0x98, 0x09, 0xc3, 0x67, 0x63, 0x1f, 0x28, 0x37, 0xf0,
    0x59, 0x4b, 0x4b, 0xa3, 0xd1, 0x41, 0x94, 0xa6, 0x05, 0xb0, 0x93, 0xee,
    0x41, 0xa4, 0xce, 0xee, 0xea, 0xc4, 0x43, 0x6e, 0xab, 0x65, 0x70, 0xe3,
    0x4d, 0xf1, 0x02, 0xf5, 0x0f, 0xd5, 0x5e, 0xfd, 0x03, 0xcd, 0x22, 0x27,
    0x90, 0xf4, 0x98, 0xa2, 0xc0, 0xb4, 0xd5, 0x04, 0xfa, 0x75, 0x22, 0x4c,
    0xe7, 0xdd, 0xef, 0x3a, 0x1d, 0xb6, 0x00, 0x58, 0xcd, 0x5a, 0xbc, 0x12,
    0xea, 0x5a, 0xda, 0xa9, 0x18, 0x0e, 0xff, 0x51, 0xc4, 0xaf, 0xc8, 0x95,
    0xfb, 0x92, 0xdf, 0x99, 0xc9, 0x4e, 0xfe, 0xb1, 0xb0, 0xca, 0xa1, 0xba,
    0x90, 0xc8, 0x07, 0x34, 0x52, 0x6d, 0xd8, 0x05, 0x72, 0x2e, 0xee, 0x98,
    0xc0, 0x1e, 0x25, 0xb3, 0xa2, 0xb4, 0x9c, 0xa5, 0xdc, 0xd3, 0xb1, 0xdf,
    0x17, 0xd9, 0xda, 0xe9, 0x5d, 0x41, 0xca, 0xc7, 0xe4, 0x94, 0x0d, 0x67,
    0xba, 0x9c, 0xcf, 0x52, 0xf0, 0x00, 0x54, 0xe0, 0xbd, 0x3c, 0xc7, 0xb9,
    0x6a, 0x11, 0xc6, 0xd1, 0x62, 0xc3, 0xcf, 0xc2, 0x6a, 0x44, 0xeb, 0x41,
    0x43, 0x54, 0xe2, 0xf5, 0xc4, 0x11, 0xd7, 0x6a, 0xf2, 0x76, 0xa9, 0x16,
    0xae, 0xe2, 0x11, 0xfb, 0x04, 0x3d, 0xee, 0xd1, 0x98, 0x30, 0x0b, 0x6b,
    0x8a, 0x6f, 0x45, 0xb7, 0x01, 0x64, 0x46, 0x32, 0x61, 0xd5, 0x05, 0xfa,
    0xb1, 0x14, 0x54, 0x39, 0x13, 0x9b, 0xd5, 0x1d, 0x5c, 0xad, 0xd0, 0x5e,
    0x6d, 0xb3, 0xa1, 0xb3, 0xc5, 0x8d, 0xf8, 0x12, 0xd9, 0x5f, 0x94, 0x27,
    0xdf, 0x30, 0xc8, 0x0e, 0x3a, 0x46, 0x70, 0x5c, 0x4c, 0xaa, 0x24, 0xc3,
    0x50, 0x62, 0x52, 0xc8, 0x63, 0x64, 0xc9, 0x49, 0x74, 0x1c, 0xd2, 0x49,
    0x0f, 0x20, 0x69, 0x53, 0x97, 0x34, 0xc0, 0x92, 0x48, 0x28, 0x7b, 0x64,
    0xca, 0xea, 0x07, 0x6c, 0x63, 0x3e, 0xb6, 0xdb, 0xd5, 0x52, 0x9d, 0x7a,
    0x5f, 0x46, 0xc1, 0xb9, 0x3e, 0xe2, 0xe9, 0xeb, 0x04, 0x65, 0xc0, 0x74,
    0x4b, 0x07, 0x6a, 0x19, 0x4a, 0x9d, 0x05, 0xa0, 0xba, 0xae, 0x74, 0xef,
    0x62, 0x09, 0x57, 0x36, 0xe5, 0x9c, 0x54, 0x59, 0x3d, 0x04, 0xf0, 0xfb,
    0x6f, 0x89, 0x13, 0x1f, 0x1f, 0x88, 0x03, 0x6b, 0x0c, 0xeb, 0x53, 0xac,
    0x3a, 0x18, 0xa4, 0x93, 0xcc, 0x4f, 0xf5, 0x92, 0x44, 0x23, 0x9e, 0x67,
    0xf0, 0xf5, 0x2f, 0xb9, 0xc9, 0x34, 0x76, 0x97, 0x1d, 0x94, 0x75, 0x3f,
    0x47, 0x97, 0xe0, 0x30, 0xcc, 0xff, 0xd2, 0x7a, 0x3b, 0x04, 0xa7, 0xa5,
    0x62, 0x9e, 0xe4, 0x8f, 0xd8, 0x62, 0xee, 0x1d, 0x1c, 0xff, 0xad, 0x18,
    0xc9, 0x66, 0x47, 0x36, 0xfb, 0x2e, 0x74, 0x2a, 0xe7, 0x5f, 0xb2, 0x12,
    0xd2, 0x9e, 0xae, 0x2b, 0x92, 0xb8, 0x53, 0x66, 0x22, 0x5c, 0xa8, 0xaf,
    0x4f, 0x29, 0xab, 0x64, 0x50, 0x09, 0xe9, 0x2f, 0x2e, 0x62, 0x2e, 0x0e,
    0x8a, 0xd6, 0xeb, 0xa7, 0x5d, 0x3e, 0x9e, 0xe1, 0x39, 0x52, 0x13, 0x57,
    0x54, 0x5c, 0x78, 0xed, 0xb3, 0xfc, 0x5f, 0xa1, 0xf3, 0x2a, 0x77, 0x90,
    0xa9, 0x09, 0xa1, 0x05, 0x3b, 0xa9, 0x6a, 0xf5, 0xc4, 0xfa, 0x97, 0x79,
    0x64, 0x57, 0x1a, 0xf1, 0x74, 0xe5, 0x16, 0x93, 0xa9, 0xef, 0xe6, 0xdf,
    0x36, 0xd2, 0xd0, 0xe6, 0xb8, 0xdd, 0xe9, 0x13, 0x4c, 0xcd, 0x22, 0x98,
    0xc1, 0x94, 0xbb, 0x04, 0x2a, 0x4a, 0x69, 0x10, 0x5a, 0xcb, 0x1d, 0x9e,
    0xc4, 0x3d, 0x6d, 0x0e, 0xe0, 0x12, 0xb4, 0xe1, 0x6c, 0x55, 0x6f, 0xa3,
    0xf5, 0x1b, 0x0c, 0xe5, 0x1c, 0x99, 0x8b, 0x23, 0x23, 0xbc, 0x33, 0xe4,
    0xd4, 0x15, 0xfd, 0xcc, 0x90, 0x87, 0xb5, 0x0e, 0x24, 0xba, 0x20, 0x1b,
    0xcf, 0x67, 0x98, 0x1a, 0x35, 0xe7, 0xc3, 0x95, 0x29, 0xd6, 0xd2, 0x4f,
    0xe4, 0x14, 0xd5, 0xa1, 0x93, 0xff, 0x24, 0x0e, 0xfc, 0xb7, 0xd6, 0xde,
    0x05, 0xc5, 0x2f, 0xaa, 0x92, 0xd4, 0xd8, 0xac, 0x8f, 0x67, 0x45, 0xdb,
    0x36, 0x19, 0x15, 0x09, 0x9a, 0x3f, 0x2a, 0x56, 0xd5, 0xa9, 0x26, 0xb6,
    0xcb, 0x19, 0xf3, 0x6a, 0xbb, 0xba, 0xba, 0xa3, 0x68, 0x90, 0x0f, 0xb1,
    0x98, 0x14, 0x33, 0xd8, 0x12, 0xdf, 0xef, 0xe5, 0x01, 0x93, 0xab, 0xf8,
    0x93, 0x40, 0xbd, 0xa0, 0x01, 0x34, 0x54, 0xfd, 0xa0, 0xc4, 0xc3, 0xf3,
    0x6b, 0x90, 0x30, 0xc1, 0xbe, 0xd8, 0xbb, 0xab, 0x71, 0xaa, 0xe5, 0x3b,
    0x2d, 0x5d, 0x6e, 0x00, 0x34, 0xa8, 0x02, 0x34, 0xa9, 0x67, 0x95, 0xcd,
    0xed, 0xa2, 0x25, 0x55, 0xc9, 0x03, 0x1c, 0x30, 0xe7, 0xdf, 0xe6, 0xe7,
    0x2b, 0x5a, 0x9a, 0xcd, 0xa8, 0xf0, 0x4e, 0xe4, 0xd7, 0x90, 0x5f, 0x4e,
    0xbf, 0x5d, 0x68, 0x12, 0x1c, 0x4c, 0x68, 0x03, 0x9c, 0x49, 0xcb, 0xe6,
    0xc4, 0xfd, 0xad, 0xd5, 0xa8, 0xd8, 0xda, 0x2f, 0x13, 0xbc, 0x42, 0x61,
    0xa5, 0x0a, 0x1a, 0xe9, 0x5e, 0x5c, 0x01, 0x7c, 0xca, 0x73, 0x6f, 0x32,
    0xc1, 0x96, 0x24, 0x9d, 0x12, 0x20, 0x11, 0x6a, 0xf6, 0xbc, 0xff, 0x6a,
    0xc1, 0x58, 0x0d, 0xb9, 0xad, 0xc5, 0xde, 0x69, 0x37, 0xbe, 0xd9, 0x93,
    0xcc, 0x2b, 0xe9, 0x13, 0x45, 0xa0, 0x6c, 0x3f, 0x44, 0x34, 0xaf, 0x43,
    0x6d, 0xae, 0xef, 0xb2, 0x65, 0x03, 0xc1, 0xef, 0x10, 0x1e, 0xd8, 0x6e,
    0xb5, 0xb9, 0x03, 0xd8, 0x6e, 0x2f, 0x53, 0xe6, 0xc0, 0xaf, 0x44, 0xd2,
    0xd8, 0x15, 0x56, 0x15, 0x59, 0xd6, 0xd4, 0xe4, 0x1a, 0x25, 0xd5, 0xcf,
    0xe7, 0x6a, 0x55, 0xd4, 0xf8, 0x42, 0x4c, 0xcb, 0x9a, 0x48, 0x4d, 0x27,
    0x61, 0x4c, 0x36, 0x2b, 0xcb, 0x10, 0xba, 0xf7, 0xe3, 0x23, 0x27, 0xc5,
    0x6a, 0x1b, 0x94, 0x69, 0x64, 0xb1, 0x8c, 0xdb, 0xd4, 0x0d, 0x32, 0x3e,
    0x58, 0x73, 0xa8, 0x2f, 0x3d, 0x22, 0xd9, 0x0d, 0x2a, 0x52, 0xf0, 0xdd,
    0xeb, 0x21, 0x42, 0xc7, 0x59, 0x96, 0x09, 0x93, 0x5a, 0x70, 0xc3, 0x21,
    0x5f, 0xce, 0xc2, 0xdd, 0xcf, 0x61, 0xed, 0x1c, 0xfb, 0x2f, 0x57, 0xf7,
    0x31, 0xb8, 0x3e, 0x92, 0x29, 0xd4, 0x47, 0x6a, 0x19, 0x66, 0x00, 0xc2,
    0xc4, 0x6c, 0xb5, 0xc5, 0x68, 0x24, 0xa8, 0x64, 0x26, 0x72, 0x43, 0x20,
    0x9f, 0xf1, 0x3f, 0xac, 0x64, 0xb5, 0x12, 0x26, 0x13, 0x76, 0x52, 0x05,
    0xda, 0x57, 0xe3, 0x53, 0x73, 0x30, 0x21, 0x27, 0x75, 0x8d, 0x37, 0xd1,
    0x77, 0x40, 0x97, 0x2a, 0xb7, 0x0b, 0x2e, 0x9e, 0x4c, 0x36, 0x75, 0x44,
    0x15, 0xdb, 0x96, 0x70, 0xf9, 0x33, 0x9a, 0x1e, 0x6e, 0x13, 0x05, 0x38,
    0x2c, 0xbf, 0x0a, 0xdd, 0x2b, 0x2b, 0x38, 0x77, 0xa9, 0x00, 0x2d, 0x5e,
    0xee, 0x4b, 0xf3, 0x20, 0x7a, 0x90, 0x97, 0x44, 0xdf, 0x55, 0xfd, 0x50,
    0xe3, 0x24, 0x25, 0xa9, 0xd9, 0x3f, 0x6d, 0x09, 0x32, 0x67, 0xb5, 0x43,
    0xf1, 0xc7, 0xa7, 0xfb, 0x92, 0xde, 0xc3, 0xbf, 0x64, 0x6b, 0x35, 0xda,
    0x08, 0x94, 0x68, 0xb0, 0xc8, 0x3f, 0xb5, 0x9f, 0x15, 0x05, 0xff, 0x6c,
    0xbc, 0x22, 0x61, 0xf4, 0x67, 0xf8, 0x1f, 0x2e, 0x91, 0xc8, 0x12, 0xdc,
    0xcb, 0x22, 0x05, 0xb8, 0xab, 0x0d, 0x0e, 0xd7, 0x04, 0x8e, 0x32, 0x0e,
    0xfe, 0x72, 0x79, 0xc3, 0xba, 0xd8, 0x68, 0x3e, 0x5d, 0xab, 0xa0, 0xf8,
    0x26, 0x57, 0xe4, 0x20, 0x91, 0x0a, 0xde, 0x52, 0x95, 0xbc, 0xb7, 0x71,
    0x50, 0xe4, 0x3f, 0x07, 0x4c, 0xa8, 0x6a, 0xb6, 0xa0, 0x95, 0xe2, 0x31,
    0x8f, 0x5f, 0xfa, 0xdd, 0xee, 0x02, 0x23, 0x56, 0xf1, 0xdd, 0x1a, 0xa6,
    0xa0, 0x2d, 0x46, 0x36, 0x6c, 0x79, 0xe8, 0x67, 0x43, 0xdd, 0xe7, 0x2e,
    0x25, 0xda, 0x35, 0x6f, 0x63, 0xf1, 0x2c, 0x6c, 0x61, 0xaa, 0xb7, 0x51,
    0x91, 0xa1, 0x7c, 0x54, 0x9a, 0xf6, 0x3c, 0x3f, 0xa8, 0xba, 0x4d, 0xee,
    0xb6, 0xab, 0xa5, 0x05, 0xc6, 0xb6, 0xe8, 0x2f, 0x1b, 0x99, 0xb0, 0x45,
    0x3e, 0xc3, 0x50, 0x26, 0x0b, 0x10, 0x61, 0x5a, 0xc6, 0x25, 0x2d, 0x07,
    0xb6, 0x28, 0x59, 0xf3, 0xb4, 0x02, 0x61, 0xa0, 0xd0, 0x0a, 0xae, 0xd6,
    0x3c, 0xcc, 0x5f, 0xfb, 0xc0, 0xfd, 0xeb, 0x7b, 0xe2, 0x66, 0xc5, 0x98,
    0x70, 0x50, 0x31, 0x3a, 0x12, 0x45, 0xf4, 0x1c, 0xba, 0xa6, 0x92, 0x51,
    0xae, 0x68, 0xec, 0xb0, 0x1a, 0xd9, 0x45, 0x00, 0xd6, 0x9e, 0xad, 0x64,
    0xfe, 0xd9, 0xfb, 0xcc, 0x57, 0xff, 0x9e, 0xa3, 0x71, 0xe7, 0x7a, 0xaf,
    0x26, 0x31, 0x31, 0x6a, 0x41, 0xa4, 0x4d, 0x68, 0xbc, 0xcb, 0xfa, 0xb4,
    0x3a, 0x1c, 0x3a, 0x8f, 0xcd, 0xc1, 0x95, 0xb2, 0x46, 0x72, 0xf7, 0xfc,
    0x20, 0xe2, 0x2f, 0x0f, 0xbd, 0x74, 0xe1, 0x2a, 0xd5, 0xf6, 0xe9, 0xe1,
    0x45, 0x7d, 0x95, 0xb0, 0x49, 0xce, 0xe8, 0x53, 0x69, 0x46, 0x9d, 0x03,
    0x5f, 0x15, 0x2e, 0x92, 0x4c, 0xb7, 0xf1, 0x43, 0x67, 0x8a, 0x43, 0xc6,
    0x90, 0xec, 0xb5, 0x5d, 0xd5, 0x64, 0x16, 0x6e, 0xf0, 0xad, 0x4e, 0xf0,
    0x56, 0xe8, 0x77, 0xd5, 0x47, 0x47, 0x41, 0xc9, 0x98, 0x3a, 0xcb, 0xe0,
    0x01, 0x77, 0x93, 0x15, 0xe0, 0xd3, 0x93, 0xbe, 0xe1, 0x97, 0xe0, 0x21,
    0x60, 0x2b, 0xf1, 0x4a, 0x62, 0x29, 0x11, 0xe9, 0x61, 0x55, 0xc4, 0x57,
    0x04, 0xa8, 0xb3, 0xb3, 0x61, 0xd7, 0xa6, 0xce, 0x50, 0xd2, 0xc3, 0x38,
    0xda, 0xc2, 0x23, 0x67, 0x37, 0x09, 0xa7, 0xfd, 0x29, 0xdc, 0xcc, 0x52,
    0x65, 0xea, 0x3f, 0xcc, 0x67, 0x5e, 0x3b, 0xd4, 0x59, 0x59, 0x12, 0x9b,
    0xf1, 0xd2, 0x43, 0x46, 0x54, 0xcd, 0xb9, 0xbe, 0x71, 0xb6, 0x6d, 0x6a,
    0x62, 0xc5, 0x59, 0xc1, 0x21, 0xf7, 0x4c, 0x91, 0x64, 0xe0, 0xd7, 0xd9,
    0x34, 0x60, 0x0d, 0xb2, 0x93, 0xd8, 0xd3, 0x01, 0x8b, 0xf3, 0x9c, 0x6c,
    0xff, 0x63, 0xca, 0xd2, 0xf4, 0x76, 0xe3, 0x60, 0x52, 0x5c, 0x0e, 0xa3,
    0x13, 0xc8, 0xd9, 0xa7, 0x13, 0x6d, 0x1b, 0x29, 0xc0, 0xb1, 0x54, 0x31,
    0x33, 0x55, 0x44, 0x0a, 0x0a, 0x96, 0x3f, 0xf0, 0xb2, 0x64, 0x23, 0xa1,
    0xc8, 0x08, 0x01, 0x94, 0x2f, 0xc8, 0x0a, 0xfb, 0x93, 0x38, 0xe4, 0xc1,
    0xd9, 0xea, 0x46, 0x96, 0xdd, 0x5d, 0x62, 0xfc, 0xb0, 0x4d, 0x17, 0xe8,
    0xa0, 0xd4, 0x35, 0x98, 0x65, 0xb0, 0x27, 0x97, 0xbc, 0xe8, 0x48, 0x38,
    0x90, 0x9b, 0x6e, 0xf1, 0xd2, 0x17, 0x1b, 0xbf, 0x03, 0xc6, 0xa3, 0x42,
    0xaf, 0xdc, 0x44, 0x9d, 0x9e, 0x69, 0x67, 0x33, 0x61, 0xfb, 0x96, 0xfa,
    0xff, 0xf4, 0xa8, 0x3c, 0xb6, 0x42, 0xd2, 0x4c, 0xc0, 0xa8, 0x2a, 0x4b,
    0x37, 0x78, 0x41, 0x94, 0xf6, 0x04, 0xb9, 0x54, 0xe4, 0x2b, 0xfc, 0xed,
    0xf5, 0xf7, 0x62, 0x23, 0x44, 0xc4, 0xd7, 0x5a, 0xeb, 0xc2, 0x3d, 0x4c,
    0x41, 0x22, 0xa0, 0xe3, 0x22, 0xbc, 0x91, 0x69, 0x37, 0x3f, 0x94, 0xfd,
    0x07, 0xa7, 0x6e, 0x53, 0x27, 0xdc, 0xb0, 0x14, 0x8d, 0x0a, 0x08, 0x31,
    0xba, 0xf0, 0xd0, 0xda, 0xa6, 0x7a, 0xc0, 0x4c, 0x9d, 0x3b, 0x8f, 0xee,
    0x11, 0xc7, 0x9f, 0xc9, 0xcc, 0x4c, 0x26, 0x51, 0xb4, 0x10, 0xde, 0xc2,
    0xa3, 0xe0, 0xaa, 0x7c, 0x9c, 0x27, 0x8d, 0x04, 0x8e, 0xfc, 0xe4, 0x68,
    0x93, 0xf9, 0x67, 0x28, 0xa0, 0xe6, 0xca, 0xbd, 0x5a, 0x64, 0x98, 0x9f,
    0xe3, 0x7b, 0x16, 0x5d, 0x61, 0xcc, 0x4c, 0x64, 0x04, 0x1b, 0xcc, 0xa6,
    0xa2, 0x31, 0x28, 0xa2, 0xac, 0xd0, 0xce, 0x40, 0x19, 0xe7, 0xf9, 0xea,
    0xc5, 0x98, 0x50, 0x16, 0x38, 0xad, 0x58, 0x21, 0x2e, 0x10, 0x48, 0x4f,
    0xe7, 0xc0, 0xc0, 0x6c, 0xcd, 0xe2, 0xc3, 0xcd, 0xc5, 0xfc, 0x26, 0x91,
    0xea, 0xcf, 0x52, 0x97, 0x9f, 0xdc, 0x2c, 0x45, 0xd8, 0x50, 0xf8, 0x75,
    0xa2, 0x93, 0x52, 0x2b, 0x23, 0xd3, 0x30, 0x9d, 0xa7, 0xf7, 0xbb, 0xc2,
    0xd2, 0xb7, 0x9d, 0xec, 0xf9, 0x9a, 0xec, 0x3e, 0xc0, 0xce, 0x64, 0xb8,
    0xf5, 0x41, 0x4e, 0x06, 0xa1, 0x25, 0xf2, 0x40, 0xee, 0x07, 0xec, 0x6d,
    0x9a, 0xd0, 0x5c, 0xdd, 0xe9, 0xf5, 0x56, 0xf9, 0x2e, 0xf5, 0xdb, 0x69,
    0xc9, 0x3e, 0xb5, 0x0c, 0xbc, 0x29, 0xa4, 0xa9, 0x55, 0x9b, 0xf6, 0xab,
    0x1f, 0x55, 0x9d, 0x25, 0xd2, 0xde, 0x3f, 0xa0, 0xe5, 0x1c, 0xb3, 0x90,
    0x2f, 0x6c, 0xaf, 0xb5, 0x6d, 0x23, 0x15, 0xab, 0x91, 0x55, 0x5f, 0x02,
    0x20, 0x22, 0x8e, 0xc1, 0x4a, 0x63, 0xa6, 0x5e, 0x85, 0x99, 0x58, 0xdc,
    0xde, 0xb0, 0x76, 0x9f, 0x21, 0x4d, 0xe9, 0x47, 0xcc, 0x3f, 0x02, 0x91,
    0x75, 0x67, 0xe5, 0x6a, 0x2c, 0xc3, 0x69, 0x95, 0x2d, 0x74, 0x77, 0xf7,
    0x1d, 0xe1, 0x12, 0x2b, 0xcf, 0x4c, 0x7b, 0xcf, 0xbe, 0x24, 0x1d, 0x07,
    0x34, 0xd3, 0x67, 0xa8, 0xb9, 0x76, 0x2a, 0x3e, 0xfd, 0xb5, 0xcd, 0xf6,
    0x29, 0x07, 0x4e, 0x17, 0xcf, 0x28, 0xdd, 0x90, 0x4b, 0x17, 0x24, 0x55,
    0xdc, 0x78, 0xe5, 0xf4, 0x97, 0x31, 0x3d, 0xfa, 0x96, 0xe2, 0x99, 0x61,
    0xb1, 0xcb, 0xa4, 0x7b, 0x4e, 0x5d, 0x6a, 0xf8, 0xb2, 0x79, 0xfc, 0xa9,
    0xd9, 0x27, 0x46, 0xdd, 0x52, 0xdf, 0x24, 0x66, 0x1c, 0xa6, 0xbc, 0x18,
    0x13, 0x72, 0x38, 0x53, 0xac, 0x1b, 0x67, 0x1f, 0x30, 0xae, 0x5a, 0xf3,
    0x55, 0xd0, 0xe1, 0x23, 0x9a, 0x46, 0xa4, 0xbb, 0x68, 0x73, 0x30, 0xda,
    0xb7, 0x3b, 0xff, 0xd1, 0x0d, 0xe0, 0xf7, 0xda, 0x36, 0x3a, 0x7a, 0x19,
    0xf5, 0x2e, 0xf4, 0xda, 0xa4, 0x09, 0x94, 0xb8, 0x18, 0xad, 0x6b, 0xf6,
    0x64, 0xbf, 0x2a, 0x04, 0xc6, 0xde, 0x0f, 0x45, 0x27, 0x3a, 0x3d, 0x61,
    0xf5, 0xde, 0x38, 0x1d, 0x23, 0x23, 0x70, 0x00, 0xfc, 0x0c, 0x5c, 0x96,
    0xc1, 0x21, 0x78, 0x25, 0x24, 0x71, 0xd1, 0xe2, 0xe9, 0x1a, 0x2f, 0x48,
    0x4d, 0x09, 0x24, 0x27, 0xe4, 0xe7, 0x42, 0x76, 0x92, 0x93, 0x7a, 0x62,
    0x76, 0xc6, 0xd7, 0xdf, 0xe4, 0x5e, 0x0e, 0xfc, 0x4e, 0x0a, 0x65, 0x63,
    0x51, 0x90, 0xfd, 0x92, 0x5f, 0x9a, 0x49, 0xa9, 0x6c, 0xb1, 0xb6, 0xe6,
    0xab, 0xf7, 0xb9, 0x39, 0xc0, 0xed, 0x1d, 0x65, 0x9c, 0x24, 0x21, 0xc1,
    0x0d, 0xd6, 0x9a, 0xbe, 0xd4, 0x74, 0xa2, 0x70, 0xab, 0x0b, 0x45, 0xf0,
    0xc9, 0xaa, 0xf1, 0x49, 0x0b, 0x6c, 0x20, 0xdc, 0x37, 0x2b, 0x13, 0x68,
    0x48, 0x0e, 0xd8, 0xd1, 0x67, 0xd8, 0xa3, 0x7e, 0xd7, 0xb7, 0x50, 0xc8,
    0x14, 0x58, 0x6a, 0x04, 0xa5, 0x70, 0x22, 0x2d, 0x41, 0xea, 0x28, 0xb7,
    0xf0, 0xde, 0xc4, 0xe4, 0x5b, 0x4d, 0xc1, 0x33, 0x9e, 0x14, 0x32, 0xa8,
    0x9b, 0xc8, 0xd9, 0x5b, 0x95, 0x2a, 0x91, 0x9d, 0xe8, 0x15, 0x19, 0x9b,
    0x38, 0xf3, 0x35, 0x69, 0x3e, 0xd3, 0x4b, 0xcc, 0xf2, 0x94, 0x5a, 0xaf,
    0x91, 0xa4, 0xa1, 0x03, 0x48, 0x5f, 0x6d, 0x16, 0x56, 0x03, 0x5a, 0xcb,
    0x99, 0x19, 0x45, 0x9c, 0xba, 0xc9, 0xbc, 0x5b, 0x0f, 0xf5, 0xde, 0x70,
    0xa3, 0x70, 0x0d, 0x3f, 0x3e, 0x5c, 0x4d, 0x5a, 0x1a, 0x46, 0x1b, 0x44,
    0x4a, 0x73, 0xfa, 0xb1, 0xc4, 0x42, 0x7b, 0x0c, 0x15, 0x0d, 0x35, 0xc4,
    0xa3, 0xea, 0x17, 0xa0, 0x0b, 0xfb, 0x4d, 0x1b, 0x2f, 0x96, 0x1f, 0xaa,
    0xc0, 0xad, 0xdc, 0xf3, 0xb2, 0xb1, 0x44, 0x1f, 0x39, 0xc7, 0x33, 0x18,
    0xad, 0xe1, 0x50, 0x7d, 0xf9, 0x2a, 0x90, 0xf2, 0x06, 0xce, 0x07, 0xae,
    0x9f, 0xbc, 0x4d, 0xae, 0x30, 0xdd, 0x47, 0xa2, 0xd3, 0x6d, 0x0c, 0xc6,
    0xb7, 0xae, 0xf5, 0x38, 0xa3, 0x00, 0x59, 0x6a, 0x00, 0x04, 0xd2, 0x77,
    0x0a, 0x58, 0xc9, 0xaf, 0x1b, 0x59, 0x29, 0xf3, 0xdd, 0x58, 0xcf, 0xa1,
    0x6d, 0xb4, 0x66, 0x23, 0x9f, 0x9b, 0x41, 0x2a, 0xc8, 0x28, 0x34, 0x77,
    0x3a, 0x1f, 0xa5, 0xde, 0x4b, 0x3f, 0xc7, 0x19, 0xf5, 0xdb, 0x98, 0xc4,
    0x6c, 0x2f, 0x34, 0x20, 0xc9, 0x52, 0x16, 0x60, 0xbc, 0x04, 0xd5, 0xff,
    0x4b, 0x07, 0x28, 0x5a, 0x3a, 0x48, 0x5b, 0x96, 0xee, 0x1f, 0xf1, 0xb4,
    0x9b, 0xb5, 0x64, 0xde, 0x1c, 0xd5, 0x3c, 0x1b, 0x98, 0x11, 0xc7, 0x0b,
    0x97, 0x00, 0x2f, 0x8f, 0xf9, 0x24, 0x4d, 0xba, 0x75, 0x6a, 0xce, 0xd8,
    0x7a, 0xee, 0x02, 0xd5, 0x19, 0xd6, 0x26, 0x40, 0xa7, 0x78, 0x76, 0x1a,
    0x17, 0xc2, 0xe6, 0x5a, 0x6e, 0x24, 0xb1, 0x17, 0xf8, 0x9f, 0xdc, 0x64,
    0xf0, 0x59, 0xc5, 0xfc, 0x4c, 0xbb, 0x3d, 0x3f, 0x70, 0x2c, 0x0d, 0xf5,
    0x6c, 0x96, 0x46, 0x1a, 0x1e, 0x5f, 0xd1, 0x3a, 0x00, 0x9a, 0x9d, 0x63,
    0xe6, 0xd1, 0xa2, 0x5a, 0x4a, 0x50, 0xa8, 0xd5, 0x91, 0x90, 0x69, 0x58,
    0x65, 0x00, 0xc7, 0xf1, 0xa6, 0x45, 0xfd, 0x5a, 0xe6, 0x05, 0x4b, 0xb2,
    0x3a, 0xdf, 0xa9, 0xd9, 0xe5, 0xa6, 0xe5, 0xe2, 0x5b, 0x3b, 0x2f, 0x57,
    0x6c, 0xc4, 0x06, 0xe1, 0x8e, 0x15, 0x98, 0xc8, 0x5e, 0x63, 0xba, 0x37,
    0xe6, 0x91, 0x5f, 0x1c, 0x5b, 0x77, 0xb5, 0x91, 0x07, 0x3a, 0xa6, 0x67,
    0x6d, 0xdf, 0x15, 0x62, 0x6b, 0x3b, 0xed, 0xa2, 0xc7, 0x46, 0x52, 0x8f,
    0xf2, 0x9f, 0x69, 0x00, 0xb8, 0x49, 0xcf, 0xd4, 0xf0, 0x95, 0x51, 0xda,
    0x0f, 0x4e, 0x0d, 0x11, 0x2f, 0x27, 0x73, 0xe9, 0x13, 0xcb, 0xa1, 0xfc,
    0x6b, 0x45, 0xf0, 0xfd, 0xc7, 0x17, 0xaa, 0x0c, 0xac, 0x98, 0xc4, 0x6c,
    0xf0, 0x32, 0x45, 0x67, 0xfe, 0x6f, 0x2e, 0xfb, 0xec, 0x19, 0xda, 0xbd,
    0x93, 0x5f, 0x50, 0xc2, 0x22, 0x9a, 0x3a, 0x5b, 0x31, 0xf5, 0x4e, 0x91,
    0xa6, 0xea, 0x67, 0xdd, 0x69, 0xf4, 0xd7, 0xea, 0x02, 0xbe, 0x55, 0x52,
    0xb9, 0x30, 0x21, 0xe5, 0xfc, 0x9a, 0x93, 0xd6, 0x6c, 0x33, 0x06, 0xb9,
    0xe3, 0xb0, 0x6a, 0xff, 0x9e, 0xc2, 0x5e, 0x1d, 0xd6, 0xdb, 0xa1, 0x60,
    0x34, 0x5d, 0x08, 0xf9, 0xeb, 0xd6, 0x1f, 0x90, 0xf1, 0xf4, 0x07, 0x47,
    0xbf, 0xd9, 0xc9, 0xe8, 0xcf, 0xce, 0xa5, 0x1d, 0xb0, 0xd9, 0xbe, 0xc7,
    0xfb, 0xcc, 0xac, 0x3e, 0x92, 0x59, 0x0d, 0x1d, 0x65, 0x16, 0xa3, 0xdc,
    0x9b, 0x72, 0x22, 0x46, 0x04, 0xca, 0xb3, 0x5a, 0x2f, 0x3d, 0x99, 0x5c,
    0xb5, 0xb9, 0x30, 0xe3, 0xde, 0x8c, 0xba, 0xc7, 0x4c, 0xe5, 0x34, 0x6e,
    0xf4, 0x75, 0xf4, 0x38, 0x01, 0xf1, 0x61, 0xb8, 0x2b, 0xc3, 0x6f, 0xae,
    0xd1, 0x0a, 0x9d, 0x48, 0xc9, 0xe7, 0xc3, 0xe7, 0xc9, 0xe1, 0x6f, 0x96,
    0xa0, 0xc2, 0x91, 0xfd, 0xad, 0x99, 0x48, 0xde, 0xfc, 0xa3, 0x6e, 0xe3,
    0x94, 0x0e, 0xb5, 0xf6, 0x24, 0x8b, 0xce, 0x70, 0x3c, 0xdc, 0xe2, 0x66,
    0x9f, 0xe3, 0x6b, 0xc5, 0xd1, 0x97, 0x38, 0x12, 0x46, 0x37, 0xd6, 0x9a,
    0x4c, 0x6d, 0x4a, 0x2d, 0xc3, 0x28, 0x20, 0x2f, 0x55, 0x67, 0x17, 0x71,
    0xd3, 0x5c, 0xdc, 0xa3, 0x23, 0x60, 0x25, 0x2d, 0xe0, 0xc2, 0xed, 0xee,
    0x67, 0x9f, 0x26, 0xfb, 0x2f, 0x63, 0xf2, 0x6a, 0x23, 0x45, 0x26, 0x2c,
    0x33, 0x8a, 0xf2, 0xd1, 0xb2, 0x77, 0x99, 0x98, 0xd6, 0x18, 0xfe, 0xf3,
    0xff, 0xa4, 0x36, 0x03, 0xf4, 0xf5, 0xb1, 0xca, 0xa3, 0x5f, 0xe2, 0xc6,
    0xb2, 0x55, 0x2c, 0xaa, 0x64, 0xef, 0x28, 0x3a, 0x9e, 0x98, 0x01, 0x57,
    0x49, 0x98, 0x61, 0x4f, 0x42, 0x57, 0x00, 0x19, 0xb9, 0xa8, 0xec, 0xed,
    0x2b, 0x63, 0xf3, 0x0c, 0x3a, 0x1f, 0x10, 0xab, 0xe9, 0x6e, 0x61, 0x69,
    0xd1, 0x2d, 0xf3, 0x1f, 0xaa, 0x00, 0x57, 0xe2, 0xab, 0x74, 0xcd, 0xff,
    0x97, 0x2c, 0x3b, 0x67, 0xae, 0xa3, 0xfc, 0x69, 0xa9, 0x4e, 0x42, 0x07,
    0xfc, 0xbf, 0x36, 0x1a, 0xef, 0x6d, 0x6d, 0x14, 0x61, 0x30, 0x27, 0x98,
    0xfa, 0xf8, 0xc9, 0x70, 0xb4, 0xaa, 0x53, 0x48, 0x72, 0x3f, 0x58, 0x69,
    0x8d, 0x08, 0xc8, 0x09, 0x2b, 0xfc, 0x1d, 0xa1, 0x92, 0xae, 0x62, 0xa0,
    0xea, 0x05, 0x40, 0xac, 0x9c, 0xaf, 0x0e, 0xf4, 0x1e, 0x45, 0x33, 0xee,
    0x31, 0x39, 0x08, 0x4b, 0x54, 0x02, 0x2d, 0x03, 0x1c, 0xe6, 0x2d, 0x0c,
    0xd0, 0x92, 0x44, 0xd6, 0xa1, 0x57, 0x4e, 0x17, 0xde, 0xe6, 0x4f, 0x6a,
    0x07, 0x9f, 0x58, 0xe2, 0x27, 0xdb, 0xa9, 0x0c, 0x19, 0x56, 0xa3, 0xb4,
    0xc4, 0xe8, 0xa3, 0x52, 0x9f, 0x6a, 0xc9, 0xb1, 0xda, 0xe9, 0xef, 0x12,
    0xc1, 0x6d, 0x5b, 0x04, 0x20, 0x93, 0xac, 0xf4, 0x38, 0x95, 0xdb, 0x50,
    0xa6, 0x2e, 0x5c, 0x3f, 0x2d, 0x32, 0x50, 0x03, 0x73, 0x64, 0x3a, 0xd5,
    0xfd, 0x98, 0x1c, 0x57, 0xc3, 0xe7, 0xf7, 0x14, 0x13, 0x15, 0x2a, 0xa2,
    0x5f, 0xa0, 0x67, 0xdd, 0x67, 0x00, 0x09, 0xc6, 0xfe, 0xad, 0x06, 0x4c,
    0x5e, 0x9a, 0x5b, 0x55, 0x06, 0x8c, 0x9a, 0x2a, 0x51, 0x0e, 0x4f, 0x15,
    0xcc, 0xe1, 0x53, 0x9c, 0x43, 0x37, 0xc1, 0x3e, 0x02, 0x4b, 0x98, 0x6f,
    0x9b, 0x60, 0x31, 0x2c, 0x2b, 0x9d, 0xda, 0xe0, 0x1d, 0xe4, 0x49, 0x66,
    0x65, 0x18, 0xfb, 0x24, 0x97, 0xe0, 0x2d, 0xf5, 0x44, 0x23, 0x09, 0x01,
    0xf9, 0xf5, 0x29, 0xff, 0x01, 0x36, 0xb9, 0x0e, 0x9b, 0xb3, 0x23, 0x1e,
    0xe5, 0x12, 0xbb, 0x3a, 0x04, 0x14, 0xb8, 0x23, 0x43, 0x95, 0xc1, 0x9d,
    0x57, 0x45, 0x46, 0x4c, 0x8f, 0x35, 0x25, 0x5f, 0x2b, 0xd9, 0xc6, 0xdd,
    0x61, 0xb8, 0xbb, 0x4d, 0x49, 0xef, 0x6e, 0x0c, 0x50, 0x07, 0xc9, 0x9b,
    0x2e, 0xb7, 0xbe, 0x23, 0xc3, 0xcf, 0x9d, 0xeb, 0x13, 0xc8, 0xeb, 0x72,
    0x51, 0x71, 0x69, 0x35, 0xf3, 0xce, 0x35, 0x45, 0x02, 0xba, 0x44, 0x5d,
    0xaf, 0xd0, 0xe5, 0x1d, 0x9b, 0x18, 0xbb, 0x62, 0xce, 0xaf, 0x40, 0x48,
    0x40, 0x2a, 0x5d, 0xcd, 0xa7, 0x2b, 0x8f, 0xf4, 0x4a, 0x4c, 0xe1, 0x59,
    0x40, 0x63, 0x33, 0xae, 0xd8, 0x9d, 0x4d, 0x11, 0x3d, 0x2d, 0x11, 0xc6,
    0x8c, 0xa9, 0xab, 0xa2, 0x08, 0xb8, 0xbf, 0x09, 0x66, 0xbc, 0xd7, 0xab,
    0xce, 0x0d, 0xe0, 0x9e, 0x51, 0x2f, 0x5c, 0xc7, 0x21, 0xb9, 0xcf, 0xc4,
    0x8b, 0xc0, 0x4b, 0x04, 0x1b, 0xfd, 0x43, 0xcf, 0xa4, 0x72, 0x62, 0x04,
    0x0b, 0x1f, 0x9f, 0x35, 0x9d, 0xa9, 0x19, 0x71, 0x06, 0xda, 0x03, 0x0f,
    0xcc, 0x3a, 0xf4, 0x3a, 0xaf, 0x07, 0x0f, 0xf2, 0x3e, 0x4a, 0xd3, 0x41,
    0x6a, 0x90, 0x35, 0x39, 0x4c, 0x1d, 0x2f, 0x05, 0xff, 0xcf, 0xc0, 0xbe,
    0x0f, 0xaf, 0x90, 0x4e, 0x45, 0x8c, 0x78, 0x4d, 0x6b, 0xf2, 0x47, 0x26,
    0xe9, 0x0d, 0xee, 0xd3, 0x97, 0x44, 0xaf, 0x6f, 0x95, 0x30, 0x9c, 0x08,
    0xe5, 0x18, 0x9e, 0xad, 0xd2, 0x2a, 0x0c, 0x21, 0x67, 0x50, 0x28, 0x4f,
    0x31, 0x9c, 0xee, 0xb2, 0x95, 0xbd, 0xef, 0xc0, 0xd0, 0x0d, 0xd4, 0x6e,
    0xff, 0x93, 0x12, 0xc3, 0x51, 0x41, 0xe4, 0x6c, 0x19, 0x09, 0xd7, 0x0a,
    0xe0, 0xea, 0x0a, 0xe7, 0xa8, 0x4b, 0x60, 0xd6, 0x0c, 0x4d, 0xb5, 0x29,
    0x01, 0x74, 0xf9, 0x40, 0x8c, 0x6b, 0x11, 0xf6, 0xe4, 0xc9, 0x3c, 0x1a,
    0xf7, 0xce, 0x2c, 0xd8, 0xe3, 0x0e, 0xc5, 0xb9, 0x6c, 0x40, 0x44, 0xc9,
    0x04, 0xf6, 0x5c, 0xe1, 0x9f, 0xc7, 0xe0, 0x68, 0xe7, 0x6a, 0x92, 0xe7,
    0xb2, 0x12, 0x72, 0x3f, 0xfd, 0xc3, 0x06, 0xeb, 0x0a, 0xab, 0x6d, 0xad,
    0x03, 0x0b, 0x5d, 0xcc, 0x49, 0x04, 0x52, 0x19, 0xd4, 0x9d, 0x67, 0xbf,
    0xd3, 0xf4, 0x22, 0x76, 0x99, 0x52, 0xf5, 0xb5, 0x15, 0x38, 0x58, 0x57,
    0x9a, 0xa2, 0xd1, 0xbb, 0x3a, 0x07, 0xe2, 0xd6, 0x8d, 0x69, 0x9e, 0x5c,
    0xf4, 0xba, 0xda, 0x4a, 0x4d, 0x73, 0xdc, 0x32, 0xfd, 0xe1, 0x3a, 0x16,
    0xf1, 0x09, 0x26, 0x3b, 0x2a, 0xa9, 0xa7, 0x2c, 0xd3, 0xcf, 0x6b, 0xc5,
    0xb5, 0xbc, 0x71, 0xb6, 0x9e, 0xa0, 0x6a, 0x69, 0xa5, 0xeb, 0x54, 0x87,
    0xe9, 0x4f, 0x69, 0x39, 0xc5, 0x54, 0x28, 0x55, 0xb9, 0xff, 0x5d, 0x9e,
    0x17, 0x8e, 0x8c, 0xd5, 0x14, 0x5c, 0xa7, 0x33, 0x5a, 0x2f, 0x2d, 0x37,
    0x0e, 0xf2, 0x54, 0x64, 0x9d, 0xdf, 0x49, 0xab, 0xd3, 0x0f, 0xbd, 0xad,
    0x19, 0xb9, 0xcf, 0x0f, 0x40, 0x62, 0x4b, 0x93, 0xd7, 0xf4, 0x3b, 0xee,
    0x2b, 0x97, 0xe3, 0x55, 0xb3, 0x5b, 0x3f, 0x93, 0xa5, 0xf1, 0x40, 0x99,
    0xa1, 0x69, 0xbd, 0xf3, 0xf0, 0xb1, 0x6e, 0x5c, 0xba, 0x4a, 0xc4, 0x51,
    0x8e, 0xe1, 0x5c, 0xb8, 0x92, 0xb5, 0x43, 0xc4, 0x9e, 0x38, 0x0d, 0xfb,
    0x60, 0xb3, 0xe6, 0x0f, 0x55, 0x94, 0x01, 0xaf, 0xaa, 0xc3, 0x6d, 0xea,
    0xb2, 0xfc, 0xb0, 0x06, 0x29, 0x0f, 0xd3, 0x95, 0xb9, 0xf1, 0x8b, 0xce,
    0xd3, 0x5d, 0x16, 0xbf, 0x5c, 0x24, 0xc5, 0x36, 0x98, 0x8c, 0x5b, 0x43,
    0xe7, 0xfe, 0x77, 0xda, 0xc5, 0xd8, 0xf6, 0x72, 0xba, 0xcf, 0x9c, 0x18,
    0x58, 0xb8, 0xe4, 0x1d, 0xf6, 0xfb, 0x3b, 0xb4, 0x1f, 0xea, 0xa3, 0xe3,
    0xd5, 0xbe, 0x3f, 0xd5, 0xf9, 0xc4, 0x00, 0x8e, 0x17, 0x22, 0x3d, 0x96,
    0xd8, 0xb6, 0xa5, 0xf6, 0xcd, 0x55, 0x48, 0x8b, 0x1b, 0x38, 0x9c, 0xd7,
    0x6d, 0x40, 0x2a, 0x5f, 0xcf, 0xcb, 0x67, 0xa4, 0x8c, 0xf4, 0x8f, 0x70,
    0x34, 0xeb, 0x70, 0xcd, 0xee, 0x1c, 0xbd, 0xae, 0xd1, 0xc1, 0xf8, 0x62,
    0x45, 0xb5, 0x5d, 0xe6, 0x0b, 0xd4, 0x3d, 0x23, 0xf0, 0x27, 0x44, 0x56,
    0x32, 0x4d, 0xb1, 0x6c, 0x5d, 0x33, 0x94, 0x77, 0xe3, 0xac, 0x54, 0x56,
    0x24, 0x05, 0x26, 0x4a, 0xf0, 0x59, 0xfb, 0x1f, 0xa4, 0x0f, 0xbe, 0x9e,
    0xbc, 0x76, 0x9d, 0x5a, 0xed, 0x15, 0x97, 0x4e, 0x05, 0x8a, 0x8b, 0xff,
    0xc7, 0x9b, 0x67, 0x32, 0x12, 0x41, 0x04, 0xcb, 0x24, 0xae, 0x9e, 0xcc,
    0xd6, 0xc6, 0x67, 0x53, 0xfa, 0x29, 0x37, 0x73, 0xc6, 0xdf, 0xf2, 0x56,
    0x72, 0x06, 0x03, 0xaa, 0x5d, 0x07, 0xac, 0x38, 0xb9, 0x2a, 0x61, 0x02,
    0x24, 0xcf, 0x54, 0x3f, 0x98, 0xb0, 0x5c, 0xba, 0xe3, 0x15, 0x27, 0x52,
    0x63, 0x43, 0x12, 0x62, 0x33, 0x02, 0xb8, 0x69, 0x52, 0x70, 0x6c, 0xc0,
    0x23, 0x37, 0x65, 0x4b, 0xc9, 0xea, 0x98, 0x06, 0xde, 0x3d, 0x59, 0x72,
    0x94, 0x48, 0x60, 0xeb, 0xe7, 0xaa, 0x68, 0x72, 0x22, 0x15, 0x39, 0xf0,
    0x47, 0x43, 0xeb, 0x37, 0xb1, 0x3b, 0x9e, 0x05, 0x12, 0xdb, 0x74, 0x18,
    0xfe, 0x11, 0xcb, 0xae, 0xe0, 0xed, 0x1c, 0xe3, 0x19, 0x71, 0x56, 0xa6,
    0x04, 0xe6, 0x20, 0x62, 0xfd, 0xb1, 0x57, 0x44, 0xca, 0x3f, 0xdf, 0x51,
    0x23, 0x76, 0x3b, 0x70, 0x27, 0x33, 0x62, 0x74, 0x94, 0xff, 0x70, 0xcc,
    0xd4, 0xbf, 0x67, 0x12, 0x17, 0x5f, 0x71, 0xf8, 0x8f, 0x09, 0xca, 0xb5,
    0x49, 0x38, 0xcf, 0x1f, 0x94, 0x9a, 0xe6, 0x76, 0x0e, 0xa6, 0x5a, 0x2c,
    0x36, 0x61, 0x41, 0x2d, 0x14, 0x2f, 0x35, 0xa2, 0xaa, 0x2d, 0xd5, 0x54,
    0x3c, 0x4e, 0xa0, 0x63, 0xa9, 0x9e, 0xe9, 0x65, 0x62, 0xcf, 0x5a, 0x1a,
    0xb9, 0x70, 0xf7, 0xf1, 0x8a, 0xc7, 0x19, 0x6e, 0x34, 0xa0, 0xbb, 0x1b,
    0x76, 0x9b, 0x60, 0x20, 0xfd, 0xff, 0xe1, 0x40, 0x5e, 0xd7, 0x49, 0xd3,
    0x3c, 0x0f, 0x52, 0xae, 0x37, 0x38, 0x1d, 0xd5, 0xd0, 0xe7, 0xd6, 0xfc,
    0x06, 0x3b, 0x50, 0x06, 0x9c, 0xb4, 0x37, 0x9a, 0x53, 0x09, 0x56, 0xa4,
    0xa8, 0x64, 0x70, 0xa7, 0xaf, 0xb9, 0xd9, 0x19, 0xbc, 0x5b, 0x04, 0x07,
    0x68, 0xc0, 0xa4, 0xc0, 0x3d, 0x32, 0x36, 0x94, 0x24, 0xd3, 0x36, 0x1f,
    0xfc, 0xd8, 0x26, 0x49, 0x94, 0xd2, 0x1e, 0x8b, 0x0c, 0x70, 0x6e, 0xd7,
    0xd2, 0x37, 0x8f, 0x13, 0xef, 0x41, 0xdb, 0x53, 0xb5, 0xba, 0xe5, 0xe3,
    0x0c, 0xcd, 0xa3, 0xfa, 0x74, 0x16, 0xd9, 0x42, 0x10, 0xa3, 0xe6, 0x26,
    0xd6, 0x74, 0xbc, 0x17, 0x9b, 0x2e, 0x4c, 0xe2, 0x13, 0x49, 0x0f, 0xc9,
    0xc2, 0x34, 0xae, 0x5b, 0x6b, 0x46, 0xbc, 0xc4, 0x62, 0xa0, 0x4a, 0x18,
    0x62, 0x69, 0x1c, 0xc3, 0x78, 0x36, 0xfa, 0xd9, 0x8d, 0xd0, 0xf9, 0x4f,
    0x56, 0x90, 0x4b, 0xca, 0xc4, 0xdd, 0x64, 0x2c, 0xd1, 0x3c, 0xa8, 0xbe,
    0x62, 0x8f, 0x2a, 0x11, 0x93, 0x71, 0x75, 0x70, 0x43, 0xd0, 0x5f, 0xfb,
    0x36, 0x2b, 0x35, 0x26, 0xda, 0xda, 0x25, 0x3c, 0x17, 0xf2, 0xb7, 0x36,
    0xd7, 0x8d, 0xd1, 0xbc, 0x2f, 0xe7, 0xf8, 0x55, 0x42, 0x2e, 0xe1, 0xc0,
    0x4a, 0xee, 0x3d, 0x5b, 0xc9, 0x69, 0x15, 0xc5, 0x42, 0x03, 0x2c, 0x46,
    0x02, 0x94, 0x91, 0xfb, 0x0f, 0x98, 0x8d, 0x32, 0xdf, 0x0b, 0x19, 0xda,
    0x9f, 0x96, 0x6e, 0x2d, 0xc4, 0xa1, 0x92, 0xc1, 0x73, 0x2f, 0x23, 0x9f,
    0x55, 0xc5, 0xb4, 0x8c, 0xef, 0xf3, 0xa2, 0x94, 0x8f, 0x6c, 0xd8, 0xb1,
    0x9d, 0x0d, 0x17, 0x93, 0x21, 0xd7, 0xae, 0xa8, 0x41, 0xd3, 0xf1, 0x9a,
    0xe3, 0x36, 0xca, 0x5f, 0xa4, 0xd9, 0xaf, 0x34, 0xbf, 0xe6, 0x9e, 0x4c,
    0xf0, 0xd1, 0xb0, 0x8c, 0x8e, 0x76, 0x3d, 0xb3, 0xf7, 0xd9, 0xfb, 0xbf,
    0x72, 0xae, 0xa8, 0x39, 0x00, 0xe5, 0x53, 0x17, 0x6c, 0x4e, 0x06, 0x22,
    0xc0, 0x10, 0xe7, 0x4d, 0xff, 0x75, 0x03, 0x01, 0x18, 0x46, 0xfd, 0xde,
    0x1e, 0x95, 0x46, 0xb8, 0x5b, 0x36, 0xbc, 0x1d, 0x95, 0x05, 0x8f, 0x5d,
    0x38, 0x41, 0x25, 0x2c, 0x9b, 0x34, 0x75, 0x9b, 0xf0, 0x8b, 0xaf, 0x0d,
    0x2e, 0xc2, 0x1a, 0x03, 0x61, 0xbe, 0xe8, 0x49, 0xbc, 0x9b, 0x45, 0xfb,
    0x35, 0x2b, 0x6c, 0xa1, 0x96, 0xa0, 0x08, 0x0e, 0xca, 0x01, 0xc0, 0x97,
    0xfa, 0xdf, 0x11, 0x1a, 0x0d, 0xf9, 0xc2, 0x5a, 0xe1, 0x4c, 0xb5, 0x37,
    0xff, 0x91, 0xb6, 0x96, 0xbf, 0x62, 0x04, 0x59, 0x69, 0x01, 0x68, 0x66,
    0x52, 0x66, 0x4a, 0x49, 0xe9, 0xe6, 0xe4, 0x44, 0x92, 0x5e, 0xaf, 0xf5,
    0x24, 0xdb, 0x6f, 0x21, 0xf9, 0x21, 0x58, 0x5f, 0xc4, 0xf0, 0x30, 0x90,
    0x68, 0xff, 0x58, 0x5c, 0xbd, 0x6f, 0x58, 0x77, 0xe0, 0x03, 0x68, 0x2a,
    0x1a, 0xa4, 0xd6, 0x9d, 0xd0, 0x38, 0x5a, 0xbd, 0x52, 0xa8, 0xc5, 0xf0,
    0xbc, 0xf2, 0x04, 0x49, 0x0e, 0x1b, 0x1b, 0x93, 0xc0, 0x65, 0xca, 0x05,
    0x42, 0x11, 0x03, 0xd6, 0xd5, 0x2c, 0x4c, 0xcd, 0xed, 0xb4, 0x54, 0xa4,
    0x3d, 0x46, 0x64, 0x4c, 0xc4, 0x8f, 0x0a, 0x95, 0x6a, 0x4f, 0xfb, 0x2e,
    0x1d, 0x5a, 0x8a, 0xcb, 0x31, 0x94, 0x21, 0x54, 0x51, 0xf5, 0x4e, 0x3e,
    0x32, 0x00, 0x12, 0x8e, 0x4c, 0x8c, 0x17, 0x90, 0xea, 0x8d, 0xfe, 0xc3,
    0xfe, 0x69, 0x10, 0xd9, 0x1c, 0x60, 0x91, 0xb6, 0xbb, 0x11, 0xb7, 0x77,
    0x1c, 0x69, 0xec, 0xb5, 0x28, 0x1e, 0x4b, 0xc8, 0xac, 0xe2, 0xe7, 0xe4,
    0xca, 0x1c, 0x6a, 0x16, 0xb8, 0x0a, 0x1c, 0xcb, 0xbd, 0x0e, 0x61, 0xf6,
    0x30, 0xa0, 0xb0, 0x11, 0x57, 0xd0, 0xa0, 0xe5, 0x63, 0xb4, 0x5e, 0x65,
    0x54, 0xbd, 0x2b, 0xcf, 0x92, 0xb3, 0xe2, 0xad, 0xba, 0x6b, 0xd8, 0x8b,
    0xd4, 0xc9, 0x49, 0x6b, 0xe9, 0x6f, 0x30, 0x9a, 0x8d, 0x1a, 0xd2, 0x73,
    0xed, 0x01, 0x20, 0x76, 0x59, 0x3b, 0x63, 0x15, 0xf7, 0x4a, 0x93, 0xf5,
    0xe8, 0xaa, 0x77, 0xf7, 0xee, 0x16, 0x26, 0x6d, 0x6d, 0x1e, 0xb3, 0x04,
    0xd1, 0x36, 0x6d, 0xdb, 0xe1, 0xee, 0xdf, 0x69, 0x0e, 0x28, 0x3b, 0x5a,
    0x37, 0x51, 0x61, 0x10, 0x58, 0xd0, 0x58, 0x75, 0x63, 0x5b, 0x76, 0x3e,
    0x55, 0x0a, 0x07, 0x3e, 0xfe, 0xb9, 0x6e, 0x4c, 0xfc, 0x1b, 0x8a, 0xa5,
    0x03, 0x1a, 0xb9, 0x04, 0x22, 0x60, 0x33, 0x66, 0xda, 0xb7, 0x1c, 0x3a,
    0xb6, 0x92, 0x45, 0x01, 0xc2, 0x73, 0x49, 0x6a, 0x9a, 0x54, 0x10, 0xe2,
    0x36, 0x45, 0xbd, 0x1d, 0x33, 0x2a, 0xd2, 0xc9, 0x70, 0x63, 0x39, 0xcf,
    0xf7, 0x76, 0x70, 0x37, 0xde, 0x23, 0x4c, 0xd2, 0xa1, 0x37, 0x2c, 0x52,
    0xae, 0xa3, 0xfb, 0x45, 0xd0, 0xb9, 0x46, 0x3e, 0x2a, 0xe8, 0xe9, 0x64,
    0xe1, 0x16, 0x30, 0x08, 0x36, 0xcd, 0x9e, 0x15, 0x44, 0xdd, 0x27, 0xa9,
    0x1c, 0x29, 0xf1, 0xa7, 0x20, 0x21, 0x59, 0x61, 0x4c, 0xbe, 0x5e, 0x20,
    0x36, 0xca, 0xb8, 0x6d, 0xb5, 0x0c, 0x29, 0x41, 0xa1, 0xd3, 0x8a, 0x2b,
    0x34, 0xd2, 0x5b, 0x92, 0x12, 0x1f, 0x36, 0x9f, 0x5d, 0x02, 0x2a, 0xca,
    0xac, 0x5b, 0x29, 0x8b, 0x51, 0x3a, 0x65, 0xf5, 0xdf, 0x60, 0x6c, 0x0c,
    0xa7, 0x95, 0x3d, 0x52, 0x13, 0xb4, 0xbd, 0x8c, 0xf1, 0xac, 0xba, 0x3c,
    0x24, 0x6c, 0xc0, 0xdb, 0xa8, 0x5b, 0xd4, 0xdb, 0xf5, 0xcd, 0xaf, 0xdf,
    0x2f, 0xe2, 0x71, 0xcc, 0x00, 0x3a, 0x87, 0xdc, 0x23, 0xdf, 0xa7, 0xb0,
    0xb6, 0xcb, 0xff, 0x1c, 0xe7, 0xfe, 0xa8, 0xa8, 0xea, 0xad, 0x37, 0x58,
    0xfd, 0x58, 0x01, 0xa5, 0xe4, 0x5d, 0xdf, 0x4a, 0x10, 0x0b, 0xc3, 0x5e,
    0xd1, 0x0d, 0x4c, 0x21, 0x0e, 0x51, 0x95, 0x99, 0x58, 0xdf, 0x6d, 0xa8,
    0x8e, 0xf7, 0x51, 0xa6, 0x53, 0x44, 0x6b, 0xb3, 0x00, 0x64, 0xe1, 0x6f,
    0x3d, 0x19, 0x40, 0x30, 0x46, 0x95, 0x9b, 0x39, 0xa5, 0x0d, 0x77, 0xaa,
    0xb1, 0x57, 0x57, 0x08, 0xe0, 0xab, 0xd1, 0xd5, 0x25, 0x59, 0x11, 0x2f,
    0x62, 0xbf, 0x50, 0x95, 0x02, 0x18, 0xdb, 0x2d, 0xbc, 0xdb, 0xfa, 0x3d,
    0x45, 0xab, 0xb5, 0x2e, 0x8e, 0x9b, 0x49, 0xe5, 0x50, 0xbd, 0x1f, 0x1c,
    0x64, 0xd8, 0x9d, 0x0c, 0x0c, 0xe8, 0xf3, 0x54, 0x49, 0x95, 0x3d, 0x71,
    0xa1, 0x16, 0x98, 0x08, 0x16, 0x37, 0x6a, 0x95, 0xa3, 0xaa, 0xb6, 0xf7,
    0x0e, 0x99, 0x2a, 0x0b, 0x68, 0x49, 0xd1, 0xa4, 0x33, 0x3e, 0x57, 0xfc,
    0xc3, 0x5a, 0xa9, 0x1e, 0xbf, 0xf1, 0x19, 0x2d, 0xee, 0xfa, 0x01, 0xa8,
    0x64, 0x0d, 0x74, 0x54, 0xed, 0x4d, 0xab, 0xad, 0x23, 0x25, 0xde, 0xef,
    0xb4, 0x54, 0xfe, 0x3f, 0xba, 0xe0, 0x0e, 0x76, 0x1b, 0x1a, 0xa9, 0xe3,
    0x53, 0xbd, 0xde, 0x65, 0x6b, 0x08, 0x6d, 0x71, 0x45, 0xb4, 0xf8, 0x9a,
    0x06, 0x3d, 0xae, 0x87, 0x25, 0x51, 0x9d, 0x46, 0x33, 0xf3, 0x77, 0x6d,
    0xb6, 0x5d, 0xbe, 0x08, 0xfc, 0xf5, 0x31, 0xa1, 0xd5, 0x22, 0x19, 0xcd,
    0x66, 0x82, 0x19, 0xf5, 0xf5, 0x29, 0x28, 0x83, 0xa5, 0xa3, 0x30, 0x50,
    0xa1, 0xfb, 0xf6, 0x36, 0x31, 0xbf, 0xb5, 0xc4, 0xe7, 0x99, 0xd5, 0x4f,
    0xf5, 0xb0, 0xf5, 0x9a, 0x12, 0x4e, 0x1b, 0xdb, 0x4d, 0x21, 0x6d, 0xda,
    0xeb, 0x6a, 0x11, 0x55, 0xa2, 0xe2, 0x6a, 0xe9, 0xe8, 0x01, 0xa1, 0x97,
    0x68, 0xc2, 0x30, 0xd2, 0xfa, 0x60, 0xec, 0x4d, 0x54, 0x5b, 0x9e, 0x2d,
    0x97, 0xca, 0x1b, 0xc2, 0xb2, 0x14, 0x3f, 0xaf, 0x23, 0x54, 0xe8, 0x0c,
    0x3c, 0xed, 0x50, 0x32, 0xff, 0x3a, 0x8c, 0xe6, 0xdc, 0x17, 0xad, 0x65,
    0x05, 0x35, 0x28, 0xc9, 0x77, 0x21, 0xb1, 0x9a, 0xec, 0xf1, 0xd6, 0x53,
    0xb9, 0xb3, 0xe0, 0x41, 0x11, 0x85, 0x2e, 0x1a, 0xb5, 0xad, 0xab, 0x9b,
    0xae, 0x69, 0xa0, 0xb1, 0xa0, 0x07, 0x72, 0x8f, 0x4a, 0xd9, 0x5e, 0x1f,
    0x29, 0x9e, 0x4d, 0x0b, 0x9a, 0x82, 0xfe, 0x26, 0xc5, 0x17, 0x5b, 0x51,
    0x46, 0xf2, 0xf7, 0x27, 0xba, 0x06, 0x91, 0x0e, 0xc2, 0x07, 0xb3, 0x1b,
    0x54, 0xad, 0xb5, 0xf5, 0x02, 0xc1, 0x39, 0x6a, 0x2a, 0xd7, 0x46, 0xbf,
    0x3d, 0x39, 0x4e, 0x8e, 0xb1, 0x58, 0xf4, 0x90, 0xa7, 0x08, 0x0e, 0x99,
    0x64, 0x33, 0x3e, 0x1e, 0x09, 0xb7, 0x88, 0xa0, 0x29, 0xb2, 0x0b, 0x5c,
    0x15, 0xd4, 0x36, 0x55, 0x42, 0x48, 0xe7, 0x47, 0xf9, 0xb5, 0x05, 0xcd,
    0x40, 0xde, 0x92, 0x27, 0x11, 0x3b, 0xad, 0x3e, 0x9b, 0x95, 0x38, 0xad,
    0x11, 0xd5, 0x9d, 0x1d, 0x38, 0x60, 0xde, 0x31, 0xe3, 0x40, 0xb2, 0xf2,
    0x8e, 0xb4, 0x03, 0xaa, 0x51, 0x15, 0xe4, 0x36, 0x4d, 0x43, 0x05, 0xbc,
    0x36, 0x82, 0xdf, 0xfc, 0xfd, 0x23, 0x4d, 0xad, 0x9f, 0xf4, 0xce, 0xfb,
    0xaf, 0x46, 0xb3, 0x59, 0x98, 0x91, 0x85, 0x4a, 0xa7, 0x67, 0x70, 0xbd,
    0xca, 0x12, 0x9b, 0x6b, 0x00, 0xe5, 0x82, 0x3c, 0x37, 0x99, 0x8d, 0x6b,
    0x32, 0xaf, 0x08, 0x05, 0x36, 0xd6, 0xd7, 0xfb, 0x65, 0xce, 0x4e, 0x9f,
    0xd5, 0xd1, 0x3a, 0x42, 0xb0, 0x31, 0x62, 0xd0, 0xe2, 0xe5, 0x37, 0xc1,
    0x6d, 0x8a, 0x24, 0xa4, 0x19, 0xc2, 0x59, 0x3c, 0x44, 0xef, 0x96, 0xf6,
    0x35, 0x00, 0xe7, 0xe6, 0x2e, 0x82, 0xa5, 0x4a, 0x2f, 0xa2, 0xfe, 0x1f,
    0x53, 0x52, 0x31, 0x97, 0x47, 0x37, 0x15, 0x26, 0xa7, 0x8d, 0xd3, 0x21,
    0x6a, 0x98, 0x6d, 0xf1, 0xe6, 0x29, 0xf8, 0x9d, 0xaf, 0x5f, 0x3e, 0x3a,
    0xbc, 0x65, 0xb2, 0xd8, 0x41, 0xbc, 0xd6, 0x39, 0x3c, 0xc7, 0x2f, 0x2e,
    0xa3, 0x08, 0x9a, 0x21, 0x05, 0xe0, 0x4c, 0x06, 0x4d, 0x82, 0x68, 0x5d,
    0x4a, 0x9e, 0xca, 0xee, 0x3d, 0x28, 0x45, 0x0e, 0xff, 0xdd, 0xe6, 0x46,
    0xbc, 0xf8, 0x19, 0x5b, 0xda, 0xf4, 0x14, 0xd1, 0x4f, 0x02, 0x6e, 0xf6,
    0x01, 0x2d, 0xd6, 0xb6, 0x8b, 0xf5, 0x9c, 0x4e, 0xee, 0xe7, 0xc8, 0x10,
    0x05, 0xb6, 0x6d, 0x8d, 0x49, 0xe2, 0x04, 0xec, 0x4d, 0x61, 0x67, 0xc2,
    0x19, 0x27, 0xab, 0xe1, 0x0d, 0x29, 0xab, 0xf2, 0xa0, 0xf9, 0x69, 0x0d,
    0x81, 0x29, 0x4d, 0x40, 0x6d, 0xd7, 0xda, 0xb7, 0x9e, 0x0b, 0x90, 0x9c,
    0x9b, 0xeb, 0x59, 0x2c, 0xc9, 0xa4, 0x85, 0x95, 0xe2, 0xda, 0x2d, 0xe4,
    0x60, 0x9a, 0x64, 0x21, 0xbf, 0x1d, 0x57, 0x4d, 0x3e, 0xa0, 0x35, 0x0f,
    0xce, 0xd7, 0xe1, 0x44, 0x63, 0x9e, 0xe8, 0x8e, 0xbd, 0xc8, 0xc1, 0x65,
    0xe1, 0xd2, 0x09, 0x45, 0xd3, 0xbd, 0x13, 0xb2, 0x1f, 0x46, 0x32, 0xa6,
    0xcd, 0xa3, 0x44, 0x4c, 0x52, 0xa7, 0xe7, 0x54, 0xea, 0xe6, 0xa0, 0xce,
    0x02, 0x8b, 0x69, 0xdb, 0xde, 0xef, 0x5f, 0xcb, 0x6f, 0x6e, 0x0f, 0xf5,
    0x68, 0x42, 0xf4, 0x37, 0x08, 0x1f, 0x87, 0x55, 0xb4, 0xbc, 0x8a, 0x84,
    0x84, 0x10, 0xc6, 0x36, 0x3e, 0x8a, 0x6b, 0x4e, 0xd5, 0xc8, 0x64, 0xcb,
    0xb5, 0xc0, 0xfe, 0x99, 0x66, 0xaa, 0xb1, 0x50, 0xa7, 0x70, 0xd9, 0xa6,
    0x17, 0x2d, 0xd4, 0xad, 0xdf, 0xf2, 0x2f, 0xac, 0xae, 0xae, 0x12, 0xcf,
    0x5b, 0x09, 0xf2, 0x2d, 0xb4, 0x21, 0xc9, 0xd1, 0x58, 0xdb, 0x4e, 0x9b,
    0xe0, 0x32, 0x08, 0xe4, 0x4a, 0xe6, 0x9c, 0x61, 0x25, 0x90, 0x08, 0xf2,
    0xb1, 0xc1, 0x3c, 0x25, 0x0b, 0x5a, 0x03, 0x40, 0xdb, 0x06, 0x5f, 0xd2,
    0x60, 0x8e, 0x0a, 0x5b, 0xc8, 0xa2, 0xcd, 0xac, 0xb3, 0x54, 0x0b, 0xb6,
    0x05, 0x45, 0xd7, 0xa8, 0x8a, 0xfa, 0x8a, 0xba, 0x09, 0x53, 0x81, 0xd7,
    0xf5, 0x40, 0x61, 0x46, 0xf2, 0x22, 0xe4, 0x21, 0xb4, 0x26, 0x41, 0x10,
    0x25, 0x4d, 0x93, 0xc2, 0xa2, 0xae, 0xc3, 0xaa, 0xbe, 0x71, 0xa6, 0xaa,
    0xf7, 0xb1, 0xbf, 0x02, 0x22, 0xe9, 0xd7, 0xfb, 0xaa, 0x1d, 0x5d, 0xf5,
    0xe7, 0x5b, 0x63, 0xf2, 0xe6, 0x5c, 0xd6, 0x24, 0x6d, 0xb5, 0xca, 0xa3,
    0xe7, 0x57, 0x1a, 0xa5, 0xf7, 0x95, 0xc5, 0x92, 0x51, 0x65, 0x68, 0xc5,
    0xe6, 0x27, 0xa9, 0x94, 0x8a, 0xb6, 0xec, 0x0d, 0x9c, 0x51, 0xdf, 0x22,
    0xca, 0xdf, 0x5a, 0xf5, 0xe4, 0xad, 0xf4, 0xfc, 0x1f, 0x68, 0x9f, 0xdb,
    0x40, 0x4e, 0x6a, 0x1e, 0x5a, 0xd8, 0x6c, 0xd6, 0xef, 0xad, 0x64, 0xe7,
    0xcb, 0xfc, 0x44, 0xae, 0xa5, 0x62, 0x65, 0xad, 0x2e, 0x6a, 0x46, 0xcf,
    0x0d, 0xd0, 0x46, 0x5e, 0x87, 0x37, 0xb6, 0xab, 0x70, 0x52, 0xee, 0x5a,
    0xa7, 0x13, 0xa3, 0xc3, 0x4b, 0x62, 0xe7, 0x31, 0x10, 0xed, 0x39, 0x1c,
    0x4a, 0xe3, 0xc1, 0x57, 0xcb, 0x45, 0xe4, 0x89, 0xee, 0x0e, 0x24, 0xc1,
    0xa6, 0xac, 0xd4, 0x0e, 0x9b, 0xe0, 0x26, 0x28, 0x08, 0x2b, 0xe1, 0xc9,
    0x42, 0x37, 0xa3, 0x46, 0xcc, 0x5d, 0x89, 0x10, 0x1f, 0x23, 0xcb, 0x1c,
    0x67, 0xe2, 0x6d, 0xaa, 0x66, 0xa5, 0xf5, 0xea, 0x94, 0x2b, 0x8c, 0xf6,
    0xf4, 0xd3, 0xfb, 0x9c, 0x96, 0x0a, 0x87, 0xaf, 0x5c, 0x19, 0xb4, 0x3b,
    0x26, 0xb2, 0x48, 0x55, 0x97, 0xfd, 0x3a, 0xec, 0x06, 0xe4, 0x58, 0x99,
    0x9a, 0x26, 0x4f, 0xe0, 0x9c, 0x67, 0x09, 0x05, 0x5b, 0x72, 0x8e, 0xd6,
    0xe4, 0x4e, 0xe2, 0x63, 0xb0, 0x9c, 0xf6, 0x92, 0xd3, 0x05, 0x3f, 0xb0,
    0x04, 0x5f, 0x02, 0x97, 0xf4, 0x42, 0x1d, 0x3b, 0x5c, 0x44, 0x00, 0x95,
    0x8b, 0xf5, 0x06, 0x40, 0xbd, 0xb8, 0xf7, 0x4b, 0x4a, 0xfa, 0xf0, 0x04,
    0x04, 0xd0, 0xa5, 0xb9, 0x3a, 0xa0, 0x2d, 0x0c, 0x1b, 0xec, 0x5a, 0x14,
    0xc8, 0x1d, 0x93, 0x86, 0xfd, 0x16, 0x68, 0xf8, 0x16, 0x9b, 0xb4, 0x88,
    0x99, 0x63, 0x0e, 0xd5, 0x20, 0x07, 0x43, 0x28, 0x26, 0xba, 0xf9, 0x97,
    0xed, 0x6b, 0x40, 0xb8, 0x07, 0x73, 0x59, 0xd5, 0x55, 0xa8, 0x64, 0x14,
    0x1c, 0xc5, 0xc0, 0x1f, 0x8d, 0x09, 0xae, 0x9c, 0x66, 0xa1, 0x94, 0xca,
    0x14, 0x46, 0xed, 0x46, 0x46, 0x25, 0x63, 0x5b, 0x2b, 0x95, 0x85, 0x05,
    0xc2, 0xb7, 0xeb, 0x06, 0x30, 0x5a, 0xf6, 0x22, 0x4e, 0x47, 0x1e, 0x0e,
    0x0c, 0xad, 0xd5, 0x11, 0xa8, 0x6a, 0x89, 0xd5, 0x49, 0xd4, 0xfa, 0x43,
    0xb0, 0x32, 0xb0, 0xb9, 0xb3, 0xda, 0x3f, 0x4f, 0xac, 0x4c, 0xc1, 0xa7,
    0x9f, 0xc2, 0xc2, 0x04, 0x70, 0xa2, 0x08, 0x01, 0xeb, 0x10, 0xa4, 0xa5,
    0x4c, 0xcd, 0xb3, 0x81, 0x4e, 0xbe, 0x6c, 0x51, 0x44, 0xf8, 0x82, 0xbd,
    0x42, 0x34, 0xfb, 0xdb, 0xb4, 0x32, 0xd2, 0x93, 0x63, 0x5e, 0xf6, 0x07,
    0x6e, 0x2c, 0xc2, 0xcf, 0xf4, 0x5d, 0x84, 0xe9, 0x5e, 0x5c, 0xa8, 0x39,
    0x28, 0x4a, 0xed, 0x15, 0x1b, 0xea, 0xe6, 0xde, 0x85, 0x92, 0x86, 0xe7,
    0x83, 0x4b, 0x87, 0xf7, 0x23, 0x60, 0xe2, 0x22, 0xd3, 0x32, 0x16, 0x4e,
    0x2f, 0xde, 0x01, 0x8b, 0x48, 0xea, 0xcd, 0x8a, 0x8b, 0xbc, 0xc6, 0x64,
    0xb2, 0x67, 0x47, 0xf5, 0x98, 0xf8, 0xca, 0xf1, 0x83, 0x66, 0xd7, 0x9a,
    0xef, 0xca, 0x20, 0xc2, 0xec, 0x8c, 0x38, 0xb1, 0x37, 0x13, 0x93, 0x92,
    0xba, 0xa1, 0xee, 0x6a, 0x57, 0x43, 0xaa, 0xdc, 0xdf, 0xa4, 0x3f, 0xc6,
    0xb6, 0xd6, 0x68, 0x54, 0xab, 0x36, 0xe9, 0x0f, 0x6f, 0xd5, 0xa1, 0x1b,
    0xa1, 0x02, 0xc9, 0x41, 0xef, 0x4f, 0x86, 0xcc, 0x1a, 0xfa, 0xd2, 0xdd,
    0x87, 0x04, 0xe0, 0x27, 0x38, 0xcf, 0x91, 0x95, 0xb4, 0x02, 0x10, 0x1d,
    0xc3, 0xcc, 0x6f, 0xaf, 0xbc, 0x94, 0x64, 0x47, 0xbc, 0x37, 0xde, 0xe3,
    0x2e, 0x89, 0x03, 0xb6, 0xd3, 0x28, 0x4a, 0x5e, 0x6d, 0x1e, 0xc5, 0x1a,
    0xa5, 0x0c, 0x92, 0xf7, 0xe2, 0x19, 0xe7, 0x39, 0xf0, 0xf2, 0x49, 0x8b,
    0xe6, 0x99, 0xd8, 0x4b, 0x0d, 0x6e, 0x3f, 0x57, 0x89, 0x9e, 0x0d, 0x34,
    0x4b, 0x52, 0xcd, 0x18, 0x57, 0xc7, 0x8e, 0x48, 0x03, 0x65, 0xd4, 0xdd,
    0xdf, 0x04, 0xf5, 0x39, 0x5e, 0x97, 0xbc, 0xc0, 0xc5, 0x91, 0xe7, 0x9d,
    0xbe, 0x28, 0x4c, 0xe7, 0xf4, 0xa0, 0x34, 0xee, 0xba, 0xa7, 0x8d, 0x52,
    0xc4, 0x07, 0x14, 0xd2, 0x93, 0xb0, 0x1d, 0x61, 0x53, 0x23, 0xc3, 0xe1,
    0xd2, 0xbf, 0xe1, 0xd6, 0x1f, 0x27, 0xcc, 0x8c, 0xe7, 0x0b, 0x09, 0x4f,
    0xe6, 0xa2, 0x41, 0xf4, 0x31, 0xbe, 0x95, 0x17, 0xfb, 0x50, 0xa4, 0xa4,
    0x51, 0x3c, 0x6f, 0xf8, 0x6a, 0xba, 0xac, 0xe4, 0x1e, 0x38, 0x78, 0x18,
    0x58, 0x31, 0x69, 0xc9, 0x52, 0xb0, 0xfc, 0x71, 0x54, 0xad, 0xe2, 0x8e,
    0xa2, 0xf2, 0x8e, 0x58, 0x11, 0x1d, 0xcc, 0x30, 0x74, 0x55, 0x41, 0x02,
    0x9b, 0x2a, 0x2f, 0x17, 0x97, 0xe4, 0x1a, 0xd0, 0xd5, 0x8f, 0x60, 0x10,
    0xdb, 0xc2, 0x69, 0x94, 0x0d, 0xaf, 0x44, 0xd0, 0x95, 0x3d, 0x50, 0xf4,
    0x27, 0x5e, 0xdc, 0x56, 0x5f, 0xa7, 0x4c, 0x41, 0xe5, 0x9e, 0xc8, 0x31,
    0xb0, 0x8e, 0x3f, 0xde, 0xdc, 0x42, 0x24, 0x93, 0x98, 0xce, 0x69, 0x90,
    0x98, 0x73, 0x06, 0xb9, 0x8e, 0xa4, 0x8d, 0x97, 0xb1, 0x41, 0x33, 0x64,
    0x5a, 0xae, 0xe8, 0x2f, 0x5f, 0x99, 0x64, 0x3e, 0xea, 0xd4, 0xbe, 0xa2,
    0x52, 0x2d, 0xc7, 0x56, 0x46, 0xfb, 0x33, 0xd8, 0xde, 0xe6, 0x74, 0xf6,
    0x2e, 0x2a, 0x26, 0xa1, 0x07, 0xcd, 0x3c, 0xca, 0x39, 0x74, 0x61, 0x4a,
    0x53, 0xf7, 0x8c, 0xd7, 0x3c, 0x4f, 0x4f, 0xd9, 0x14, 0x74, 0x56, 0xa8,
    0x3b, 0x3b, 0xe4, 0xe5, 0x70, 0x2e, 0xda, 0xde, 0xcd, 0x65, 0x4f, 0x2e,
    0xb6, 0x76, 0x17, 0x59, 0x6a, 0xaf, 0x0a, 0x24, 0x8c, 0x99, 0x0b, 0x2a,
    0xac, 0x46, 0x74, 0x2c, 0x3b, 0x40, 0x20, 0xad, 0x30, 0xab, 0x63, 0x34,
    0x8f, 0x30, 0x22, 0x50, 0x5c, 0xf8, 0x73, 0x21, 0x3e, 0xeb, 0x16, 0x44,
    0x30, 0xb9, 0x59, 0x0f, 0xf0, 0xe5, 0xb6, 0x6a, 0xde, 0x32, 0x03, 0x28,
    0x3c, 0xc8, 0xc2, 0x8d, 0x6b, 0x72, 0x2f, 0x3e, 0x2b, 0x99, 0xc1, 0xa6,
    0xdf, 0x5a, 0x91, 0x2d, 0x40, 0x39, 0xb2, 0x24, 0x27, 0x25, 0x26, 0x51,
    0xbb, 0xb5, 0x6a, 0x47, 0x38, 0x94, 0x2c, 0x3e, 0xa0, 0x96, 0x19, 0xf7,
    0x99, 0x0c, 0x34, 0x41, 0xb9, 0x0d, 0xad, 0x37, 0xa6, 0x0c, 0x38, 0x9c,
    0xee, 0x03, 0x68, 0x62, 0x76, 0x64, 0x18, 0x63, 0x62, 0x10, 0xd6, 0x2a,
    0xca, 0xdb, 0x73, 0x9b, 0x93, 0x35, 0x29, 0xb0, 0xec, 0x6c, 0xa8, 0x1f,
    0xa6, 0xac, 0xf8, 0xd8, 0xfa, 0x98, 0xc3, 0x02, 0xf0, 0xf5, 0x66, 0x2c,
    0xfc, 0x75, 0xc7, 0xb0, 0x76, 0xfe, 0x0f, 0x92, 0x9b, 0xce, 0xc5, 0xe8,
    0x9a, 0x5e, 0x8f, 0x16, 0x26, 0x8c, 0x97, 0x20, 0x97, 0x36, 0xca, 0x56,
    0xed, 0xf2, 0x05, 0x53, 0xf7, 0x9f, 0x23, 0xbb, 0x1e, 0xdc, 0x5a, 0x94,
    0x0b, 0x1d, 0x0e, 0x55, 0xc7, 0x34, 0xff, 0xd9, 0xa3, 0x37, 0x69, 0x63,
    0x9f, 0x00, 0x0f, 0xa1, 0x5c, 0x1f, 0x50, 0x56, 0x25, 0xf0, 0xb8, 0x0e,
    0x92, 0x70, 0xcd, 0xa0, 0xca, 0x2a, 0xce, 0xa5, 0x21, 0xe7, 0x5b, 0x10,
    0x13, 0xd5, 0x9b, 0x9f, 0x60, 0x1b, 0x3f, 0x21, 0xa9, 0x27, 0xd9, 0xeb,
    0xdc, 0xe8, 0x05, 0x8e, 0x09, 0x27, 0x4b, 0x8b, 0xb1, 0x3b, 0x07, 0xb1,
    0xe9, 0x55, 0xc4, 0xab, 0x5d, 0x74, 0x11, 0xcf, 0x98, 0x5d, 0x47, 0x58,
    0x9d, 0x08, 0xec, 0x0b, 0x31, 0x69, 0x98, 0xad, 0xd0, 0x93, 0x09, 0xc7,
    0xcc, 0xe3, 0x64, 0x67, 0xef, 0xce, 0x98, 0xf3, 0xc2, 0x69, 0xd4, 0x47,
    0x4d, 0xf7, 0x1a, 0x10, 0xa9, 0x18, 0x35, 0x94, 0xc8, 0xe1, 0xd2, 0xf5,
    0xb5, 0xb4, 0x0b, 0xd7, 0x28, 0xa8, 0x97, 0x9b, 0xbf, 0x90, 0xe5, 0xc6,
    0xde, 0xf7, 0x4f, 0x33, 0xaf, 0x36, 0xe2, 0xa8, 0x65, 0x56, 0xdd, 0xe8,
    0x79, 0xae, 0x68, 0xc1, 0xf3, 0x5b, 0x26, 0x59, 0x53, 0x00, 0x43, 0x4c,
    0x3e, 0xf9, 0x24, 0xc4, 0x8d, 0x73, 0x00, 0x6c, 0xb2, 0x97, 0x56, 0x90,
    0x42, 0xde, 0xba, 0xd6, 0x3a, 0x6d, 0x39, 0x9d, 0xbe, 0x1c, 0xca, 0x24,
    0xbb, 0xba, 0x06, 0xf0, 0x59, 0x74, 0x32, 0x99, 0x1b, 0x02, 0xad, 0xc1,
    0x8b, 0xd4, 0x0b, 0xd8, 0xb7, 0xe7, 0xbd, 0xbd, 0x68, 0x56, 0xc1, 0x1e,
    0xda, 0xa4, 0xfe, 0x6b, 0x94, 0xf3, 0xda, 0x9a, 0x33, 0x01, 0x97, 0xb6,
    0x39, 0xc4, 0xe7, 0x57, 0xee, 0xcf, 0x0e, 0xce, 0x40, 0x7a, 0xd4, 0x4d,
    0x30, 0x6a, 0x57, 0x8f, 0x97, 0x92, 0x59, 0xeb, 0xf2, 0x18, 0x8c, 0x77,
    0xd9, 0x8f, 0x72, 0xff, 0xd5, 0xb2, 0x1f, 0x2e, 0xba, 0xb6, 0x46, 0x1a,
    0x33, 0xe0, 0x74, 0x2a, 0xd7, 0xdb, 0xc7, 0x07, 0x37, 0x2f, 0x55, 0xe2,
    0x70, 0x43, 0xc2, 0xbc, 0x33, 0x03, 0xc9, 0xd4, 0x4e, 0x6e, 0x3e, 0xc9,
    0x67, 0x55, 0xf8, 0x6d, 0x63, 0x9f, 0x6b, 0x3f, 0x5b, 0xc7, 0xe9, 0xb8,
    0x31, 0x04, 0x0b, 0x71, 0x15, 0xcd, 0x34, 0xe4, 0xaf, 0x74, 0x73, 0xea,
    0xbf, 0x20, 0x00, 0x75, 0xd7, 0xa7, 0xf7, 0x9c, 0xf5, 0xa1, 0x28, 0xc7,
    0xfe, 0x6b, 0xa2, 0x36, 0xdc, 0xd4, 0xf0, 0xd7, 0x42, 0x4e, 0xe4, 0x3f,
    0x00, 0x09, 0x3c, 0x5e, 0x1f, 0xc8, 0xfd, 0xb9, 0xd8, 0x90, 0xdb, 0xf4,
    0x41, 0x0b, 0xda, 0x68, 0xe1, 0xe4, 0xb9, 0xfb, 0x36, 0x37, 0xa9, 0x5f,
    0xc9, 0xb6, 0xb8, 0xa4, 0xda, 0x41, 0xaa, 0xab, 0xa8, 0xc8, 0xd3, 0xc6,
    0x6a, 0xbe, 0x03, 0x77, 0xcc, 0x1a, 0x8d, 0x0d, 0xe8, 0xcc, 0x58, 0x46,
    0x71, 0x33, 0x19, 0x62, 0xe5, 0xc4, 0xe3, 0x4a, 0x1d, 0xf7, 0x96, 0xd4,
    0x08, 0xe5, 0xa8, 0x18, 0x40, 0x2d, 0xc5, 0xd7, 0xa7, 0x31, 0xa2, 0x5f,
    0x60, 0xde, 0x21, 0xe5, 0xaa, 0x65, 0x93, 0x0d, 0xdb, 0x55, 0x54, 0x88,
    0xbd, 0x53, 0x8e, 0xe0, 0xa6, 0x23, 0xcd, 0x1d, 0xb7, 0xbd, 0x2a, 0x8c,
    0x0e, 0x67, 0x65, 0xab, 0xda, 0xe9, 0x3b, 0x12, 0xf6, 0x97, 0x4b, 0xe8,
    0x16, 0xf7, 0x09, 0xb6, 0x45, 0x97, 0x16, 0xec, 0xd9, 0xdc, 0x8d, 0x01,
    0xba, 0xb0, 0xb6, 0xdd, 0x59, 0x60, 0xbf, 0x92, 0x92, 0xc3, 0x21, 0x41,
    0x46, 0xcb, 0x5e, 0x6e, 0x99, 0x10, 0x41, 0x45, 0x9a, 0xb9, 0xe0, 0x6d,
    0x22, 0x68, 0xd3, 0x5a, 0xaa, 0x6e, 0xb4, 0xc6, 0x42, 0xa2, 0xad, 0xf1,
    0xf7, 0x0b, 0x3d, 0x29, 0x38, 0xa2, 0x11, 0xf8, 0x57, 0x25, 0xb8, 0x8f,
    0xbc, 0x65, 0xac, 0x0d, 0xf0, 0xb7, 0x5c, 0x95, 0xfb, 0x5d, 0xdb, 0x54,
    0x3d, 0x3e, 0xd6, 0x4f, 0x2a, 0xfe, 0x43, 0xfc, 0x1c, 0xca, 0xb9, 0xb3,
    0x95, 0x06, 0x90, 0xd9, 0x5d, 0x43, 0xc4, 0xe9, 0xbb, 0x17, 0xd6, 0xaf,
    0xf2, 0xb0, 0x24, 0x9d, 0x27, 0xdf, 0xaf, 0xf7, 0x6f, 0xd1, 0x4c, 0xbe,
    0xd0, 0x1d, 0x16, 0x3f, 0xf5, 0x23, 0xdb, 0x52, 0xc4, 0x3b, 0x99, 0x3d,
    0xd5, 0xdc, 0x0b, 0x54, 0x3b, 0xfd, 0x9d, 0x36, 0xf6, 0xd9, 0x63, 0xd4,
    0xc0, 0x8f, 0x9d, 0x00, 0xa6, 0x1e, 0x41, 0x72, 0x18, 0xa6, 0xc5, 0xd0,
    0xb6, 0xdd, 0x10, 0x61, 0x45, 0xe0, 0xdc, 0xcc, 0x92, 0xd3, 0x05, 0x54,
    0x26, 0x2c, 0xcf, 0x94, 0x67, 0xa5, 0xae, 0x62, 0x97, 0x4e, 0x10, 0x2b,
    0xf4, 0x65, 0x89, 0x21, 0x98, 0xad, 0x25, 0x6a, 0x01, 0xa9, 0x4f, 0x57,
    0x2b, 0xbe, 0x3b, 0xcc, 0x34, 0x89, 0xc3, 0xd2, 0xa0, 0xc5, 0x72, 0xd9,
    0x39, 0x3f, 0x45, 0x62, 0x73, 0xda, 0xf3, 0xe7, 0xbf, 0xfd, 0xfe, 0x5b,
    0xe0, 0xc5, 0x9f, 0xf9, 0xbe, 0x2b, 0x9a, 0xf7, 0xc2, 0xe9, 0x59, 0x73,
    0xc4, 0x0a, 0xfe, 0x73, 0x5b, 0x34, 0xb9, 0xfc, 0x45, 0xb7, 0x4d, 0x39,
    0xc2, 0xcd, 0x5f, 0x33, 0x91, 0xab, 0x48, 0x57, 0x0a, 0x27, 0xf3, 0xd4,
    0xf3, 0xb4, 0x57, 0x04, 0xeb, 0x8a, 0xb2, 0xd4, 0x06, 0x60, 0x09, 0x48,
    0x58, 0xf8, 0x1f, 0x06, 0x8c, 0x2d, 0x55, 0x2b, 0x8d, 0xbb, 0x37, 0xbb,
    0xc5, 0xa3, 0x05, 0x38, 0xf7, 0x47, 0x0a, 0xd9, 0xa8, 0x5a, 0x5b, 0x75,
    0x58, 0xa3, 0x35, 0x01, 0x1a, 0x5c, 0xe3, 0x97, 0xef, 0x04, 0xd9, 0x28,
    0x93, 0xc9, 0x59, 0xfc, 0xc1, 0x9b, 0x25, 0xe8, 0x44, 0x05, 0x17, 0xdc,
    0xe1, 0xb2, 0x06, 0xd6, 0x08, 0xe0, 0x00, 0xe0, 0x06, 0xaf, 0xb6, 0xf8,
    0x63, 0x6c, 0x54, 0x29, 0x7a, 0x25, 0x0c, 0xc4, 0xe7, 0x6c, 0x2b, 0xe8,
    0xe9, 0x06, 0xa4, 0x9e, 0xb0, 0x38, 0xd4, 0xf1, 0x46, 0xb3, 0x93, 0x54,
    0xa7, 0xa1, 0xcd, 0x65, 0x43, 0xe8, 0xc3, 0x03, 0x60, 0x9c, 0x39, 0x02,
    0xea, 0xc5, 0x0c, 0x96, 0xd2, 0x05, 0x0d, 0x1f, 0xc7, 0x04, 0xc4, 0xa3,
    0xc4, 0xc0, 0xa9, 0x0b, 0xc7, 0xa1, 0x3f, 0xdc, 0x35, 0x51, 0x4d, 0xc8,
    0xc2, 0x87, 0x99, 0x3c, 0x46, 0xb3, 0x4e, 0xc9, 0xbf, 0xb3, 0x34, 0x8b,
    0xb7, 0x6f, 0xe5, 0x95, 0x9b, 0x17, 0x20, 0x56, 0xa6, 0x64, 0x4c, 0x77,
    0xdc, 0x0e, 0x28, 0xc3, 0xef, 0xf4, 0x28, 0x47, 0xd4, 0x0c, 0x6a, 0xe1,
    0x75, 0x63, 0xc9, 0xae, 0xe9, 0x36, 0x57, 0xfd, 0x08, 0x2f, 0xb2, 0x0b,
    0x48, 0xd4, 0x04, 0x24, 0x2f, 0x17, 0x03, 0x9e, 0xfe, 0xfd, 0x67, 0x0e,
    0xbe, 0x66, 0xcf, 0x2c, 0xaa, 0x4f, 0x1c, 0x32, 0x2e, 0xa0, 0xfb, 0x55,
    0x40, 0x15, 0x5d, 0x51, 0xca, 0xbe, 0xff, 0xb2, 0xb2, 0x2b, 0x47, 0xee,
    0x37, 0xc8, 0x65, 0xad, 0xda, 0xb9, 0x3a, 0x75, 0x3a, 0x98, 0x1f, 0xcf,
    0xd7, 0x48, 0x56, 0xa2, 0xed, 0xb4, 0x46, 0x60, 0x30, 0x6a, 0x19, 0x5b,
    0x38, 0xc8, 0x0d, 0x3a, 0xc3, 0xe1, 0x34, 0x6e, 0x39, 0x5f, 0xf2, 0x4d,
